{"version":"1.0","truncation":null,"padding":null,"added_tokens":[{"id":65529,"content":"<s>","single_word":false,"lstrip":false,"rstrip":false,"normalized":false,"special":true},{"id":65530,"content":"</s>","single_word":false,"lstrip":false,"rstrip":false,"normalized":false,"special":true},{"id":65531,"content":"<pad>","single_word":false,"lstrip":false,"rstrip":false,"normalized":false,"special":true},{"id":65532,"content":"<unk>","single_word":false,"lstrip":false,"rstrip":false,"normalized":false,"special":true},{"id":65533,"content":"<cls>","single_word":false,"lstrip":false,"rstrip":false,"normalized":false,"special":true},{"id":65534,"content":"<sep>","single_word":false,"lstrip":false,"rstrip":false,"normalized":false,"special":true},{"id":65535,"content":"<mask>","single_word":false,"lstrip":false,"rstrip":false,"normalized":false,"special":true}],"normalizer":null,"pre_tokenizer":null,"post_processor":null,"decoder":null,"model":{"type":"BPE","dropout":null,"unk_token":null,"continuing_subword_prefix":null,"end_of_word_suffix":null,"fuse_unk":false,"byte_fallback":false,"ignore_merges":false,"vocab":{"\u0000":0,"\u0001":1,"\u0002":2,"\u0003":3,"\u0004":4,"\u0005":5,"\u0006":6,"\u0007":7,"\b":8,"\t":9,"\n":10,"\u000b":11,"\f":12,"\r":13,"\u000e":14,"\u000f":15,"\u0010":16,"\u0011":17,"\u0012":18,"\u0013":19,"\u0014":20,"\u0015":21,"\u0016":22,"\u0017":23,"\u0018":24,"\u0019":25,"\u001a":26,"\u001b":27,"\u001c":28,"\u001d":29,"\u001e":30,"\u001f":31," ":32,"!":33,"\"":34,"#":35,"$":36,"%":37,"&":38,"'":39,"(":40,")":41,"*":42,"+":43,",":44,"-":45,".":46,"/":47,"0":48,"1":49,"2":50,"3":51,"4":52,"5":53,"6":54,"7":55,"8":56,"9":57,":":58,";":59,"<":60,"=":61,">":62,"?":63,"@":64,"A":65,"B":66,"C":67,"D":68,"E":69,"F":70,"G":71,"H":72,"I":73,"J":74,"K":75,"L":76,"M":77,"N":78,"O":79,"P":80,"Q":81,"R":82,"S":83,"T":84,"U":85,"V":86,"W":87,"X":88,"Y":89,"Z":90,"[":91,"\\":92,"]":93,"^":94,"_":95,"`":96,"a":97,"b":98,"c":99,"d":100,"e":101,"f":102,"g":103,"h":104,"i":105,"j":106,"k":107,"l":108,"m":109,"n":110,"o":111,"p":112,"q":113,"r":114,"s":115,"t":116,"u":117,"v":118,"w":119,"x":120,"y":121,"z":122,"{":123,"|":124,"}":125,"~":126,"":127,"":128,"":129,"":130,"":131,"":132,"":133,"":134,"":135,"":136,"":137,"":138,"":139,"":140,"":141,"":142,"":143,"":144,"":145,"":146,"":147,"":148,"":149,"":150,"":151,"":152,"":153,"":154,"":155,"":156,"":157,"":158,"":159," ":160,"¡":161,"¢":162,"£":163,"¤":164,"¥":165,"¦":166,"§":167,"¨":168,"©":169,"ª":170,"«":171,"¬":172,"­":173,"®":174,"¯":175,"°":176,"±":177,"²":178,"³":179,"´":180,"µ":181,"¶":182,"·":183,"¸":184,"¹":185,"º":186,"»":187,"¼":188,"½":189,"¾":190,"¿":191,"À":192,"Á":193,"Â":194,"Ã":195,"Ä":196,"Å":197,"Æ":198,"Ç":199,"È":200,"É":201,"Ê":202,"Ë":203,"Ì":204,"Í":205,"Î":206,"Ï":207,"Ð":208,"Ñ":209,"Ò":210,"Ó":211,"Ô":212,"Õ":213,"Ö":214,"×":215,"Ø":216,"Ù":217,"Ú":218,"Û":219,"Ü":220,"Ý":221,"Þ":222,"ß":223,"à":224,"á":225,"â":226,"ã":227,"ä":228,"å":229,"æ":230,"ç":231,"è":232,"é":233,"ê":234,"ë":235,"ì":236,"í":237,"î":238,"ï":239,"ð":240,"ñ":241,"ò":242,"ó":243,"ô":244,"õ":245,"ö":246,"÷":247,"ø":248,"ù":249,"ú":250,"û":251,"ü":252,"ý":253,"þ":254,"ÿ":255,"\u0000\u0000":256,"\u0000\u0000\u0000\u0000":257,"\u0000\u0000\u0000\u0000\u0000\u0000\u0000\u0000":258,"\u0000\u0000\u0000":259,"ÿÿ":260,"ÌÌ":261,"H":262,"\u0000\u0000\u0000\u0000\u0000\u0000\u0000\u0000\u0000\u0000\u0000\u0000\u0000\u0000\u0000\u0000":263,"\u0003\u0000":264,"\u0001\u0000":265,"@ù":266,"H":267,"H":268,"ÌÌÌÌ":269,"\u0002\u0000":270,"\u0004\u0000":271,"R":272,"\u0000\u0000\u0000\u0000\u0000":273,"à\u0003":274,"H":275,"\u0001\u0000\u0000\u0000":276,"ÿÿ\u0017":277,"ÿ":278,"\u0001\u0000\u0000":279,"@¹":280,"D$":281,"\u0006\u0000":282,"Ò":283,"\u0000ù":284,"\u0003Õ":285,"\u0000\u0000\u0000\u0000\u0000\u0000":286,"ÿ\u0015":287,"\u0005\u0000":288,"ý{":289,"\b\u0000":290,"À":291,"ÿÿÿÿ":292," \u0000":293,"\u0007\u0000":294,"I":295,"\u0000R":296,"\u0000\u0000\u0000\u0000\u0000\u0000\u0000":297,"L":298,"\u0003\u0000ª":299,"\u0001\u0000\u0000\u0000":300,"á\u0003":301,"e\u0000":302,"þÿ":303,"\u0000":304,"L":305,"  ":306,"ÌÌÌÌÌÌÌÌ":307,"\n\u0000":308,"L$":309,"\u0000q":310,"\\$":311,"L":312,"óS":313,"\u0013ª":314,"\u000f\u001f":315,"\u0002\u0000\u0000":316,"\u000e\u0000":317,"À\u0003":318,"\t\u0000":319,"\u0000\u0000T":320,"t\u0000":321,"ÿÿÿ":322,"\u000f":323,"_Ö":324,"\u0000¹":325,"in":326,"À\u0003_Ö":327,"@9":328,"H":329,"#\u0003Õ":330,"D\u0000\u0000":331,"er":332,"\u000f\u001fD\u0000\u0000":333,"ÿT":334,"Hì":335,"\u0000T":336,"\u0000e\u0000":337,"HÄ":338,"þ":339,"Hÿ\u0015":340,"re":341,"t$":342,"\u001f ":343,"\u0000\u0001":344,"\u0014ª":345,"":346,"\u001f \u0003Õ":347,"â\u0003":348,"ý":349,"on":350,"õ[":351,"a\u0000":352,"\u000b\u0000":353,"\u0003\u0000":354,"\u0000\u0000\u0000\u0000\u0000\u0000\u0000\u0000\u0000\u0000\u0000":355,"D":356,"s\u0000":357,"à\u0003\u0013ª":358,"\f\u0000":359,"o\u0000":360,"i\u0000":361,"T$":362,"ýÿ":363,"HD$":364,"ý\u0003\u0000":365,"\u0000":366,"\u0004\u0000\u0000":367,"\u0015ª":368,"at":369,"|$":370,"\u0003\u0000\u0000":371,"\u0003\u0001":372,"r\u0000":373," %":374,"\u0001\u0000T":375,"n\u0000":376,"3À":377,"\u0003\u0000*":378,"ÿÿÿÿÿÿÿÿ":379,"st":380,"A©":381,"\u000f":382,"\u0010\u0000":383,"or":384,"\u0001\u0000\u0000\u0000\u0000\u0000":385,"\r\u0000":386,"Fù":387,"A":388,"le":389,"Àt":390,"H\u0005":391,"c\u0000":392,"÷c":393,"ÌÌÌÌÌÌ":394,"H\u0015":395,"d\u0000":396,"D":397,"\u0016ª":398,"\u0001©":399,"ÃÌÌÌÌÌÌÌÌ":400,"A\u000e":401,"Gù":402,"üÿ":403,"\u0002\u0000\u0000\u0000":404,"¿#\u0003Õ":405,"\u0000":406,"al":407,"!\u0000":408,"H\\$":409,"et":410,"\u0000ð":411,"HË":412,"?#\u0003Õ":413,"ÞÝ":414,"\u001f\u0000":415,"en":416,"\u0000\u0004\u0000":417,"A\u000f":418,"\u0001":419,"à\u0003\u0014ª":420,"    ":421,"$":422,"I":423,"3Ò":424,"óSA©":425,"\u0000\u0000\u0000H":426,"\u0003\u0002":427,"H;":428,"þÿÿ":429,"@\u0000":430,"an":431,"H\\$":432,"HÉ":433,"ti":434,"ar":435,"ûÿ":436,"\u0001\u0000Ò":437,"\"\u0000":438,"\u000f\u0000":439,"s ":440,"e ":441,"B©":442,"d ":443,"¨À\u0003_Ö":444,"HÄ ":445,"l$":446,"\u001c\u0000":447,"l\u0000":448,"M":449,"\u0002\u0002":450,"Hì ":451,"\u000f\u0010":452,"©ý\u0003\u0000":453,"\u0001\u0001":454,"L\u0005":455,"t ":456,"ùù":457,"\u0017ª":458,"H\u0001":459,"ü":460,"HM":461,"ro":462,"\u0002@ù":463,"\u0014\u0000":464,"HL$":465,"\u000f·":466,"\u0002\u0000T":467,"\u001f \u0003Õ\u001f \u0003Õ":468,"\u0005\u0000\u0000":469,"ùk":470,"ó\u0003\u0000ª":471,"\u0000\u0004":472,"\u0002©":473,"¨¿#\u0003Õ":474,"\u0001q":475,"\u000f¶":476,"ÿÿ":477,"\u0000\u0000R":478,"00":479,"A\u000b":480,"p\u0000":481,"HÏ":482,"\u0006\u0000\u0000":483,"\u000f\u0011":484,"H@":485,"\u001f\u0004\u0000":486,"H":487,"\u001f\u0000\u0000":488,"H\r":489,"ð\u0000":490,"E":491,"Ø":492,"\u0003\u0001ª":493,"AV":494,"H\r":495,"Àu":496,"óS\u0001©":497,"\bH":498,"3É":499,"\u0004\u0000\u0000\u0000":500,"úÿ":501,"ÓÔ":502,"\u0018ª":503,"HÉt":504,"øÿ":505,"û":506,"lo":507,"?#\u0003Õý{":508,"te":509,"à\u0003\u0015ª":510,"un":511,"\u0000 ":512,"\u0000\u0000\u0000è":513,"\u0004\u0000":514,"\u0003\u0004":515,"\u0000a\u0000":516,"":517,"\u0018\u0000":518,"\u0000\u0000":519,"de":520,"ÇD$":521,"0\u0000":522,"@":523,"\u0000\u0000´":524,"\u0012\u0000":525,"ÿÿT":526,"ùÿ":527,"E":528,"\u0000Ò":529,"\u0001\u0000@ù":530,"A^":531,"\u0000\u00004":532,"ã\u0003":533,"HM":534,"HE":535,"\u0000\u0001ë":536,"C©":537,"ÌÌÌÌÌÌÌ":538,"1À":539,"se":540,"ch":541,"d$":542,"\u0011\u0000":543,"D$":544,"H\u0005":545,"\u0003\u0003":546,"ó\u000f":547,"\b\u0000\u0000":548,"þÿ\u0017":549,"@Ñ":550,"\u0000ðFù":551,"AT":552,"\u0003\u0000\u0000\u0000":553,"u\u0000":554,"\u0000\u0000\u0000":555,"$":556,"\u001aª":557,"ý{Á":558,"am":559,"\u0000(":560,"@@":561,"si":562,"HL$":563,"f\u000f":564,"\u0001R":565,"ing":566,"\u0000\u0001\u0000\u0000\u0000":567,"\u0000\u0002":568,"Hÿ":569,"ø":570,"H3":571,"\u0000@":572,"õ[B©":573,"Ht$":574,"ÿÿÿÿÿÿÿÿÿÿÿÿÿÿÿÿ":575,"it":576,"\u0007\u0000\u0000":577,"\u0000\u0010":578,"\u0019ª":579,"\u0000 \u0000":580,"\u0003\u0000T":581,"ÿ÷":582,"ÇE":583,"\u000e\u0000A\u000b":584,"ûs":585,"C\u0000":586,"ce":587,"\u0000i\u0000":588,"no":589,"HÀt":590,"\u0010H":591,"\u001a":592,"ad":593,"\u0003©":594,"A¸":595,"E\u0000":596,"\u0013@Ñ":597," \u0000R":598,"\u0007":599,"Iº":600,"þÿT":601,"\u0006@ù":602,"to":603,"%s":604,"à\u0003\u0016ª":605,"HÈ":606,"Iºp":607,"ýÿÿ":608,"\u000b@ù":609,"?\u0000\u0000":610,"HI":611,"\b\u0000\u0000\u0000":612,"\u0002":613,"\u0002\u0000Ò":614,"E3À":615,"B\u0000":616,"H=":617,"\u0000\u0000\u0000é":618,"co":619,"\u000f(":620,"\u0007@ù":621,"A\u0000":622,"fi":623,"¨¿#\u0003ÕÀ\u0003_Ö":624,"A_":625,"I":626,"\u0013*":627,"À":628,"\u0000\u0000\u0014":629,"\nÞÝ":630,"ô\u0003\u0000ª":631,"ck":632,"ÿu":633,"\u0000":634,"\u0000\u0000\u0000\u0000\u0000\u0000\u0000\u0000\u0000":635,"\u0000\u0000\u0000\u0000A\u000e":636,"\u0000\u0000\u0001":637,"A\\":638,"Ð\u0000":639,"ÕÖ":640,"\u0001t":641,"Îè":642,"A¹":643,"xD":644,"\u0013\u0000":645,"\u0002@¹":646,"_^":647,"HÙ":648,"HËè":649,"ff":650,"þÿ":651,"D©":652,"á\u0003\u0013ª":653,"]Ã":654,"\u0002\u0001":655,"ab":656,"\u0000\u0000":657,"li":658,"\u001bª":659,"AW":660,"°\u0000":661,"ap":662,"À\u000f":663,"þO":664,"\u001c\u0000\u0012":665," Ò":666," è":667,"@\u0000R":668," F":669,"HT$":670,"÷ÿ":671,"m\u0000":672,"HÁ":673,"y\u0000":674,"\u0000Q":675,"tr":676,"as":677,"_\u0000":678,"E":679,"I":680,"õ[\u0002©":681,"\u0000\u0000Ò":682,"ò":683,"\u0016\u0000":684,"ct":685,"öÿ":686,"\u0001":687,"õÿ":688,"th":689,"A":690,"ex":691,"{D":692,"$\u0003Õ":693,"S\u0000":694,"ðFù":695,"H\u0003":696,"Ã":697,";Õ":698,"3Û":699,"á\u0003\u0014ª":700,"HU":701,"M":702,"\u0002":703,"HE":704,"\u0013@ù":705,"ag":706,"\u0000\u0000\u000f\u001fD\u0000\u0000":707,"VW":708,"\t\u0000\u0000":709,"À\u000f":710,"P\u0000":711,"©ý\u0003\u0000óS\u0001©":712,"\u0000\u0000\u0000\u0000\u0000\u0000\u0000\u0000\u0000\u0000\u0000\u0000\u0000\u0000\u0000":713,"\u0010\u0000\u0000\u0000":714,"\u0004©":715,"\u0001":716,"|@":717,"8\u0000":718,"tion":719,"@y":720,"D\u000f":721,"\u0001\u0000R":722,"\n\u0000\u0000":723,"Ð;Õ":724,")":725,".\u0000":726,"\u0000\u0000\u0000\u0000\u0000\u0000\u0000\u0000\u0000\u0000\u0000\u0000\u0000":727,"\u0000\u00005":728,"M":729,"ÿ":730,"HÄ _":731,"I\u0000":732,"Hc":733,"di":734,"`\u0000":735,"\u0014*":736,"à\u0003\u0017ª":737,"\u0004\u0000T":738,"\bH":739,"$":740,"\u0001\u0001\u0000\u0000\u0000":741,"H\\$0":742,"\u0006\u0000":743,": ":744,"D\u0000":745,"\u000b\u0000ù":746,"ý{Â":747,"\n@ù":748,"@8":749,"$\u0003Õ":750,"Ày":751,"lu":752,"ùùùù":753,"WHì ":754,"ÿÃ":755,"\u0007\u0000ù":756,"AU":757,"Ìè":758,"%\u0000":759,"\u001f\u0000\u0000q":760,"\u0000":761,"ðÿ":762,"HÏè":763,"\u0003\u0002ª":764,"á\u0003\u0000ª":765,"!\u0000R":766,"f":767,"A":768,"\u0000\u0000\u0000\u0000\u0000\u0000\u0000\u0000\u0000\u0000":769,"em":770,"j\u0000":771,"Pè":772,"=":773,"\b\u0000\u0000\u0000\u0000\u0000\u0000\u0000":774,"HÛ":775,"H9":776,"\u0005\u0000\u0000\u0000":777," \u0000\u0000\u0000":778,"ut":779,", ":780,"H5":781,"ÿà":782,"x\u0000":783,"H\u000f":784,"ÿÿH":785,"\u0002\u0000ù":786,"h\u0000":787,"":788,"1\u0000":789,"\u0001\u0004":790,"\u0000\u0000\u0000":791,"\u0000\u0001ë\u0001\u0000Ò":792,"\u0001\u00004":793,"H+":794,"f\u0000":795,"\u0001\u0000@ùB":796,"\u0002@9":797,"\u0001\u0000@ùB\u0000\u0001ë\u0001\u0000Ò":798,"up":799,"]A\\":800,"¿©":801,"ri":802,"\b":803,"ÕÖÓÔ":804,"ÿC":805,"\u0000\u0003":806,"I;":807,"\u0002\u0000¹":808,"ÿP":809,"ÿt":810,"\u0004\u0000\u0011":811,"A_A^":812,"á\u0003\u0015ª":813,"÷cC©":814,"E3É":815,"\u0015\u0000":816,"\u0001\u0000´":817,"AVAW":818,"@©":819,"@\u0000\u0000\u0000":820,"\u0007\u0000\u0000\u0000":821,"ur":822,"\u0010\u0000\u0000":823,"ä\u0003":824,"\u0002ë":825,"!":826,"4\u0000":827,"2\u0000":828,"\u0004\u0004":829,"Àx":830,"\u0017\u0000\u0000\u0000":831,"\u001f\u0004\u0000q":832,"ss":833,"j\u0001":834,"@S":835,"\u0015*":836,"mp":837,"B":838,"Ä":839,"\u0003\u0000ù":840,"ÿ`":841,"yD":842,"(\u0000":843,"\u0000\u0000H":844,"ôÿ":845,"--":846,"ø":847,"\u0003":848,":\u0000":849,"üÿÿ":850,"\u0000ðFùâ":851,"E©":852,"Hù":853,"F\u0000":854,"×Ø":855,"pe":856,"Hì":857,"ý{Ã":858,"\u0017\u0000":859,"\u001cª":860,"y ":861,"Aù":862,"\u0000\u0000µ":863,"E\u000f":864," \u0000\u0000":865,"\u0005©":866,"\u0012":867,"\u000f@ù":868,"Û":869," \u0013@Ñ":870,"sh":871,"\u0013ò":872,"\u0000\u0000\u0000`":873,"\u0001u":874,"\u0000\u0000\u0000":875,"ýÿT":876,"à\u0003\u0013*":877,"ll":878,"op":879,"H\\$\bH":880,"UU":881,"\u000b\u0000\u0000":882,"ó\u0003\u0000*":883,"¼$":884,"\u0001\u0000\u000f\u001fD\u0000\u0000":885,"3ÿ":886,"ð!":887,"\r\n":888,"\u0000\b":889,"ßø":890,"Ð!":891,"\u0005\u0000T":892,"E":893,"\u0018H":894,"à\u0003\u0018ª":895,"ú":896,"ÄH":897,"0000":898,"-\u0000":899,"\u0002":900,"um":901,"\f\u0000\u0000":902,"\u0010\u0010":903,"<\u0000":904,"\u0010è":905,"HD$":906,"vi":907,"H\u0000":908,"g\u0000":909,"ba":910,"H|$":911,"\u0002\u0001\u0000\u0000\u0000":912,"\u001a\u0000":913," \u0000\u0000\u0000":914,"ø7":915,"À\u000f":916,"of":917,"\u0019\u0000":918,"sy":919,"ai":920,"ty":921,"\bè":922,"!":923,"\u001b@ù":924,"\u0006\u0000ù":925,"D$":926,"A":927,"HÒ":928,"õ\u0003\u0000ª":929,"?\u0000":930,"ë\u0003":931,"bu":932,"\r\u0000\u0000":933,"ôW":934,"\"\u0000@ù":935,"D":936,"ýÿ":937,"X\u0000\u0000\u0000\u0000\u0000":938,"\u0002":939,"°!":940,"$\u0000":941,"\u0002\u0004":942,"#\u0000":943,"D9":944,"\u0002\u0001":945,"b\u0000":946,"do":947,"]ù":948,"H":949,"HD$":950,"\u0003@ù":951,"öö":952,"\u0001\u00005":953,"(F":954,"ø\u0000":955,"\u0000\u0004\u0000":956,"\u0004":957,"W\u0000":958,"óSA©õ[B©":959," %s":960,"üü":961,"à\u0017":962,"\u0000\u0000\u0000":963,"\u0002\u0000R":964,"C\u0000":965,"\u000f":966,"\u0010ÿ\u0015":967,"\u0002\u0000\u0000\u0000\u0000\u0000":968,"\u0013\u0000ù":969,"ÃÌÌÌÌÌÌÌÌÌ":970,"ati":971,"HD$ ":972,"îî":973,"\u0000\u0000\u0012":974,"HL$":975,"\u0000\u0000":976,"E":977,"ne":978,"öt":979,"á\u0003\u0016ª":980,"Re":981,"M":982,"Hl$":983,"HÄ0":984,"R\u0000":985,"HÁ":986,"\u0003\u0004\u0000\u0000\u0000\u0000\u0000\u0000":987,"        ":988,"\u0000\u0000\n":989,"\u0004@ù":990,"èÿ":991,"\u0002\u0000\u0002\u0000":992," ":993,"HÇ":994,"Hì0":995,"ûÿÿ":996,"\u0010\u0002\u0001":997,"(\u0000\u0000\u0000":998,"à\u0003\u001aª":999,"mo":1000,"\u0001\u0000\u0000H":1001,"\u0005":1002,"LE":1003,"H3Ìè":1004,"ÃÌÌÌÌÌÌÌÌÌÌ":1005,"A9":1006,"L\u0000":1007,"¿#\u0003ÕÀ\u0003_Ö":1008,"ul":1009,"\u0000e\u0000r\u0000":1010,"[Ã":1011,"\u0006\u0000\u0000\u0000":1012,"__":1013,"id":1014,"O\u0000":1015,"t\u0000e\u0000":1016,"÷c\u0003©":1017,"\u0004@":1018,"LD$":1019,"Aÿ":1020,"ter":1021,"U":1022,"t\u0000i\u0000":1023,"o\u0000n\u0000":1024,"`\u0006":1025,"'\u0000":1026,"HD$(":1027,"\u0000":1028,"\u0001\u0000\u0000\u0000\u0000\u0000\u0000":1029,"HÀu":1030,"3ö":1031,"óÿ":1032,"con":1033,"ÿÿ\u0017$\u0003Õ":1034,"1Àè":1035,"\u0010H":1036,"@":1037,"\u000f\u0000\u0000\u0000\u0000\u0000":1038,"\u0004":1039,"\\\u0000":1040,"A\u001c":1041,"Y\u0000\u0000\u0000\u0000\u0000":1042,"\u0001\u0010":1043,"à\u0003\u0019ª":1044,"H\\$\b":1045,"In":1046,"Èè":1047,"A\b":1048,"\u0005R":1049,"ent":1050,"$":1051,"ÙÚ":1052,"°\u0000\u0000\u0000":1053,"ÿ\u0000":1054,"\u0005\u0000":1055,"ol":1056,"\b\u0000q":1057,"us":1058,"\u0002R":1059,"\u0004F":1060,"3\u0000":1061,"#\u0000":1062,"\u0000\u0000\u0000":1063,"B\u000e":1064,"HT$":1065,"À\u000f":1066,"ë\u0005":1067,"6\u0000":1068,"y":1069,"\u0006\u0000\u0011":1070,"Uì":1071,"US":1072,"HE":1073,"k\u0000":1074,"ve":1075,"\u0000\u0000@ù":1076,"ate":1077,"ma":1078,"ë\u0002":1079,"Hd$":1080,"gn":1081,"M\u0000":1082,"`8":1083,"A\u0000R":1084,"\u0003\u0001*":1085,"C\b":1086,"for":1087,"HÎ":1088,"\u0000\u0000è":1089," \u0000 \u0000":1090,"me":1091,"Ïè":1092,"_\u0000\u0000":1093,"\u0005":1094,"RE":1095,"\u0010":1096,"ue":1097,"\u000fW":1098,"FF":1099,"â\u0003\u0000ª":1100,"ic":1101,"x ":1102,"\u0006\u0000T":1103,"\u0002\u0000":1104,"IN":1105,"\u0000\u0000\u0000\u0000\u0000\u0003\u0004\u0000\u0000\u0000\u0000\u0000\u0000":1106,"0è":1107,"\u0002\u0003":1108,"HÄ":1109,"ÿÿ\u0017à":1110,"HÄ(":1111,"\u000e\u0000\u0000\u0000\u0000":1112,"\u001f\u0004\u00001":1113,"ò.":1114,"ing ":1115,"w\u0000":1116,"ÝÞ":1117,"\u0001\u0000\u0000è":1118,"\u0001\u0000@ùá":1119,"\u001c\u0000\u0000\u0000":1120,"\u0016*":1121,"´$":1122,"\u0005\u0005":1123,"Hß":1124,"ver":1125,"\u0001ª":1126,"\u000e\u0000\u0000":1127,"\u000f\u0000ù":1128,"\n\u0000\u0000\u0000":1129,"îÿ":1130,"\u0001 ":1131,"lin":1132,"\u0003":1133,"B)":1134,"½è":1135,"\u000f)":1136,"ÿÿ\u0017ý{":1137,"\u0002":1138,"Hì(":1139,"\u001b\u0000":1140,"ø\u0003":1141,"H\u0001Iºp":1142,"\u0002":1143,"ñÿ":1144,"H@\u0010ÿ\u0015":1145,"9\u0000":1146,"ac":1147,"\u0004":1148,"\u000f\u0000\u0000":1149,"Áè":1150,"\u0001\u0000\u0001\u0000":1151,"\u0004$":1152,"ÿÿ\u0017?#\u0003Õý{":1153,"Hê":1154,"L\r":1155,"\"\u0000":1156,"à\u0007":1157,"ýÿ\u0017":1158,"òÿ":1159,"yy":1160,"h ":1161,"\u0000\u0012":1162,"ÿ\u0000\u0000\u0000":1163,"ÇD$ ":1164,"þÿÿÿ":1165,"É":1166,"\u001f \u0003Õý{":1167,"HÛt":1168,"@9\u001f":1169,"@\u0001\u0000\u0000\u0000":1170,"\u0004\u0000Q":1171,"ïè":1172,"il":1173,"@¹\u001f":1174,"\u0000\u0000À":1175,"ation":1176,"\f\u0000\u0000\u0000":1177,"\u0007\u0000T":1178,"\u0005":1179,"HÈè":1180,"\u0000¿":1181,"\u0004\u0000":1182,")\u0000":1183,"0F":1184,"¿©ý\u0003\u0000":1185,"üÿT":1186,"ïÿ":1187,"À\u0000\u0000\u0000":1188," \u0002":1189,"@ù\u0001\u0000@ùB\u0000\u0001ë\u0001\u0000Ò":1190,"ð\u000f":1191,"= ":1192,"@SHì ":1193,"\u000e@ù":1194,"\u001e\u0000":1195,"\u0003\u0001\u0000\u0000\u0000":1196,"\u0000T\u0000":1197,"¨\u0000\u0000\u0000":1198,"?Ö":1199,"\u0001\b":1200,"\u0002\u0000\u000f\u001fD\u0000\u0000":1201,"@\u0000":1202,"ha":1203,"ïîî":1204,"â\u0003\u0014ª":1205,"ÿÿ":1206,"\u001b\u0000ù":1207,"à":1208,"sp":1209,"á\u0003\u0017ª":1210,"ïîîïîî":1211,"ý{Á¨À\u0003_Ö":1212,"`ø":1213,"$\u0000\u0000\u0000":1214,"sc":1215,"\u0002ë\u0002\u0000Ò":1216,"üÿ":1217,"@è":1218,"fo":1219,"r\u0000e\u0000":1220,",\u0000":1221,"ùkD©":1222,"U\u0000":1223,"/\u0000":1224,"\u001fÖ":1225,"\u0017*":1226,"HÃ":1227,"ÄA":1228,"B\b":1229,"©ùk":1230,"$\u0000q":1231,"H\u0003":1232,"Àt":1233,"\u0006":1234,"ø\u0004":1235,"\u0000\u0000\b":1236,"â\u0003\u0013ª":1237,"ÕÖÓÔ\u000e\u0000A\u000b":1238,"\u0000\u0000\u0002":1239,"l\u0000e\u0000":1240,"ww":1241,"pp":1242,"å\u0003":1243,"\u0007\u0000":1244,"HK":1245,"\u0003\u0000Ò":1246,"HxD":1247,"\u0000\u0000\u0000\u0000A\u000e\u0010\u0002\u0001":1248,"\u0006\u0000":1249,"À\u0000Q":1250,"file":1251,"N\u0000":1252,"HÀ\u000f":1253,"©ûs":1254,"ó\u000b@ù":1255,"ÿÿ":1256,"\u0000\u0000\u0000\u0001\u0000\u0000\u0000":1257,"\u0000":1258,"@ùà":1259,"à\u0003\u0014*":1260,"ub":1261,"ÃÌ":1262,"ü\u0003":1263,"c\u0000\u0002ë\u0002\u0000Ò":1264,"\u000f\u000f":1265,"ÿè":1266,"mm":1267,"\b\b":1268,"not ":1269,"::":1270,"\u0001":1271,"%0":1272,") ":1273,"ó\u000f":1274,"HÎè":1275,"ô\u0003\u0000*":1276,"\u0001":1277,"is ":1278,"\u0002\u0000´":1279,"zD":1280,"r\u0000o\u0000":1281,"xt":1282,"ý{Ä":1283,"èè":1284,"he":1285,"ÌÌÌÌÌÌÌÌÌÌÌÌÌÌÌÌ":1286,"\u0002\u0000ë":1287,"A;":1288,"5\u0000":1289,"bo":1290,"\u0004\u0000Ð":1291,"pro":1292,"\u001f\u0000ù":1293,"ÛÜ":1294,"æÿ":1295,"ó\u0003":1296,"â\u0003\u0015ª":1297,"EE":1298,"\u0004\u0000\u0000\u0000\u0000\u0000\u0000":1299,"\u0000©":1300,"\u0001Ñ":1301,"\u001f\u0000\u0001ë":1302,"*\u0000":1303,"set":1304,"=\"":1305,"\u0012\u0000\u0000\u0000":1306,"\u0007\u0007":1307,"\u0002\u0014":1308,"\u0000\u0000\u0000\u0000\u0000\u0000\u0000\u0000\u0000\u0000\u0000\u0000\u0000\u0000":1309,"=\u0000":1310,"get":1311,"Èÿ":1312,"hb":1313,"H\u0001":1314,"Bù":1315,"po":1316,"so":1317,"\u0005\u0000°":1318,"ay":1319,"ÿ\u0003\u0002":1320,"ö_":1321,"\u0001\u0000\u0000":1322,"©÷c":1323,"\u0003\u0000\u0000\u0000\u0000\u0000":1324,"\"\u0000@ùc\u0000\u0002ë\u0002\u0000Ò":1325,"HÄH":1326,"\t":1327,"\u0005è":1328,"@\u0000\u0000":1329,"ùùùùùùùù":1330,"\u0003\u0003ª":1331,"õ\u0013@ù":1332,"\u001bh":1333,"öA\u001c":1334,"\b":1335,"\u00024":1336,"©ý":1337,"\u0001\u0001\u0001\u0001":1338,"ÞÝ\u000e\u0000\u0000\u0000\u0000":1339,"ata":1340,"HÓ":1341,"\u0000\u0000 Ò":1342,"M":1343,"can":1344,"ö\u0003\u0000ª":1345,"ø\u0001":1346,"@\u0000\u0000T":1347,"T\u0000":1348,"\u0000\u0004\u0000\u0011":1349,"H×":1350,"\u0007":1351,"L;":1352,"&\u0000":1353,"ed":1354,"ìÿ":1355,"c ":1356,"\u0004\u0000°":1357,"à":1358,"\u0002\u00004":1359,"St":1360,"@\b":1361,"\u0005\u0019":1362,"\u0000\u0001k":1363,"\u001f@ù":1364,"Ç":1365,"#@ù":1366," \u0000":1367,"@¹\u0000":1368,"íÿ":1369,"ÿ":1370,"Ø×":1371,"ÿÿ\u0017`":1372,"ø6":1373,"A_A^A":1374,"HØ":1375,"ÿÿÿ\u0000":1376,"°\u0001":1377,"ÃÌÌÌÌÌÌÌ":1378,"Hÿt":1379,"\u0003\u0000":1380,"+@ù":1381,"H\b":1382,"\u000f":1383,"bj":1384,"]Â":1385,"\u0005F":1386,"v\u0000":1387,"\u0001\u0000":1388,"ò\u000f":1389,"to ":1390,"if":1391,"\u0004":1392,"\u0011\u0000\u0000":1393,"X\u0000":1394,"\u0005\u0000Ð":1395,"K¹":1396,"by":1397,"AUAVAW":1398,"Ò":1399,"\b\u0000T":1400,"Eù":1401,"7\u0000":1402,"á\u0003\u0018ª":1403,"ÄÁ":1404,"\u0004\u0000\u0000\u0000\u0000\u0000":1405,"H\u0000":1406,"H÷":1407,"dl":1408,"ÌÌÌÌÌ":1409,"H":1410,"H;È":1411,"ó\u0003\u0001ª":1412,"þ÷":1413,"Ð\u0000\u0000\u0000":1414,"\u0002\u0002\u0002\u0002":1415,"H\\$\bWHì ":1416,"D":1417,"Ó":1418,"!\u0000\u0000":1419,"à\u0003\u001bª":1420,"þþ":1421,"\u0001\u0000µ":1422,"\n":1423,"\bÿ\u0015":1424,"wn":1425,"G\u0000":1426,"\u0002":1427,"\u0001\u0000\u0000\u0000\u0000\u0000\u0000\u0000":1428,"":1429,"\u0012\u0000\u0000":1430,"\u001d\u0000":1431,"©õ[":1432,"\"\u0005\u0019":1433,"\u0003":1434,"H$":1435,"éÿ":1436,"\u0002\u0013":1437,"HÐ":1438,"0\u0000\u0000\u0000":1439,"ho":1440,"\u0001\u0000\u0000\u0000":1441,"nam":1442,"ð\u0000\u0000\u0000":1443," (":1444,"ali":1445,"À\u0000":1446,"¬$":1447,"\u0001\u0003":1448,"C_":1449,"DÈ":1450,"H\u0005":1451,"ge":1452,"\u0013\u0000\u0000":1453,"ke":1454,"\n\u0000ù":1455,"ð}":1456,"\u0006":1457,"**":1458,"\f":1459,"H\\$\bHt$":1460,"¾©":1461," \u0003":1462,"¸\u0000\u0000\u0000":1463,"ñ\u0000":1464,"\u0000\u0000":1465,"\u0004\u0001\u0000\u0000\u0000":1466,"HÄHX":1467,"str":1468,"úÿÿ":1469,"L9":1470,"\u0002\b":1471,"\u0007\u0000ð":1472,"\n\n":1473,"\u0000\u0000 Ò\u0000":1474,"H$":1475,"Hé":1476,"11":1477,"È\u0000\u0000\u0000":1478,"@z":1479,"br":1480,"hd":1481,"@\u0004":1482,"D8":1483,"\u0010\u0000\u0000\u0000\u0000\u0000":1484,"pt":1485,"\u0005":1486,"÷÷":1487,"ó\u000b\u0000ù":1488,"çè":1489,"cr":1490,"Hñ":1491,"A_A^A]A\\":1492,"Iã":1493,"\u0006\u0000°":1494,"ý{Á¨¿#\u0003Õ":1495,"\u0002t":1496,"\u000e\u0000\u0000\u0000\u0000\u0000":1497,"ÿ\u0003":1498,"\u0004\u0000q":1499,"ÀZ":1500,"HÀ":1501,"\u0004\u0000ð":1502,"`¸":1503,": %":1504,"D_":1505,"H|$":1506,"\u0000":1507,"\u001f \u0003Õ\u001f \u0003Õ\u001f \u0003Õ\u001f \u0003Õ":1508,"\u0005":1509,"A":1510,"F\b":1511,"\u0010Ht$":1512,"\u0004\u0000Ñ":1513,"I[":1514,"loc":1515,"LO":1516,"ATAUAVAW":1517,"\u0014\u0000\u0000":1518,"HT$":1519,"\u0001\u0000@9":1520,"¨¿#\u0003ÕÀ\u0003_Ö?#\u0003Õý{":1521,"\u0003\u0000\u0000\u0000\u0000\u0000\u0000":1522,"ù":1523,"\t\u0000\u0000\u0000":1524,"fD":1525,"¹":1526,"\u0001ù":1527,"10":1528,"\u0000\u0000\u0000\u0000\u0000":1529,"\u000fWÀ":1530,"\u0000\u0000\u0000\u0000\u0000\u0000\u0000\u0001\u0000\u0000\u0000":1531,"\u0007\u0000°":1532,"ip":1533,"ò.ò.":1534,"C\u0010":1535,"D;":1536,"\u0007\u0000Ð":1537,"ER":1538,"\u0005\u0000ð":1539,"\u0006":1540,"º\u0001\u0000\u0000\u0000":1541,"HD$0":1542,"¿\u0000\u0000":1543,"ÌÌÌ":1544,"\"":1545,"ÖÕ":1546,"üÿ\u0017":1547,"\u000f\u001f\u0000\u0000\u0000\u0000\u0000":1548,"ô\u0003\u0001ª":1549,"A\u0010":1550,"ëÿ":1551,"ÆE":1552,"ùk\u0004©":1553,"ûÿ":1554,"ig":1555,"ô\u0003":1556,"ð":1557,"K{D":1558,"U":1559,"o\u0000r\u0000":1560,"\u001a":1561,"\u0000":1562,"\\$":1563,"A\u000f¶":1564,"@¹à":1565,"\u0002ª":1566,"[]A\\":1567,"P\u0000\u0000":1568,"qu":1569,"E1":1570,"M":1571,"He":1572,"\u0014\u0000\u0000\u0000":1573,"HI\u0010":1574,"12":1575,"ûÿT":1576,"\t\t":1577,"åÿ":1578,"\u0000\u0000T":1579,"able":1580,"\u0006\u0005":1581,"\u0001\u0000\u0000\u0000\u0000":1582,"ðFùã":1583,"UVW":1584,"K\u0000":1585,"@ù`":1586,"E3":1587,"óSA©ý{Â":1588,"cl":1589,"sion":1590,"\u0018\u0000\u0000\u0000":1591,"\u0000\u0001\u0000\u0000":1592,"HÖ":1593,"!\u0001":1594,"HÄ [":1595,"óSA©õ[B©÷cC©":1596,"\u0003\u0000\u000f\u001fD\u0000\u0000":1597,"\u0004":1598,"\u000e\u0000\u0007":1599,"Get":1600,"ò\u000f\u0010":1601,"\u0003\u0002*":1602,"is":1603,"I\u0003":1604,"\u0006\u0003":1605,"cx":1606,"\u0004":1607,"res":1608," \u0000\u0000T":1609,"\f":1610,"\u0015\u0000\u0000":1611,"à\u0000\u0000\u0000":1612,"\u0000¹à":1613,";\u0000":1614,"\u0003ª":1615,"wr":1616,"ì":1617,"\u0001\u0000\u0000\u0000\u0000\u0000\u0000\u0000\u0000\u0000\u0000\u0000":1618,">\u0000":1619,"`\u0002":1620,"ØÀy":1621,"u ":1622,"\u0002\u00005":1623,"H\\$0HÄ _":1624,"ÿÿÿÿ\u0000\u0000\u0000\u0000":1625,"\" ":1626,"ÿ":1627,"-é":1628,"\u0000":1629,"\u0019*":1630,"ction":1631,"ýý":1632,"õ\u0003":1633,"Hú":1634,"H3Ä":1635,"Iÿ":1636,"\u0004\u0003":1637,"Ht$":1638,"7@ù":1639,"xp":1640,"Con":1641,"H$":1642,"\u0003\u0000´":1643,"\u000f\u0000\u0000\u0000":1644,"øø":1645,"H¸":1646,"úú":1647,"8è":1648,"ªª":1649,"u\u0007":1650,"!F":1651,"\nÝÞ":1652,"\u0000\u0000 Ò\u0000\u0013ò":1653,"â\u0003\u0016ª":1654,"\u0002":1655,"\u0018":1656,"H$":1657,"ÓÔ\u000e\u0000A\u000b":1658,"\t\u0000T":1659,"à\u0003\u0001ª":1660,"M":1661,"HÒt":1662,"\u0000\u0000\u0000\u0000":1663,"G\b":1664,"1Ò":1665,"A\u0003":1666,"W\u0000\u0007":1667,"\u0003":1668,"'%s":1669,"ý{Ã¨À\u0003_Ö":1670,"\u0016\u0000\u0000":1671,"":1672,"ht":1673,"\u0001\u0014":1674,"\f":1675,"\r\u0000\u0000\u0000\u0000\u0000":1676,"\u0005\u0001\u0000\u0000\u0000":1677,"\f\u000b":1678,"\b\u0000°":1679,"ó\u000b@ùý{Â":1680,"A":1681,"¸\u0001\u0000\u0000\u0000":1682,"@\u0000R!":1683,"\u0006\u0005":1684,"sw":1685,"pr":1686,"gi":1687,"Hì@":1688,"\u0018*":1689,"nt":1690,"\u0002\u0010":1691,"ÿÿÿ\u0000ÿÿÿ\u0000":1692,"ÚÙ":1693,"Ëÿ":1694,"\u0002{":1695,"\b\u0007":1696,"\u0000":1697,"!\u0000\u0000\u0000":1698,"HK":1699,"\b\u0000Ð":1700,"Oð\u0000":1701,"]\u0000":1702,"\u0004\u0003":1703,"?\u0000\u0000ë":1704,"\u0002\u0000q":1705,"÷\u0003\u0000ª":1706,"Co":1707,"à\u0003\u0015*":1708,"\u0001\u0002":1709,"f":1710,"y¹":1711,"A]":1712,"32":1713,"\u0000\u0000\u0000\u0000\u0000\u0000\u0000\u0000\u0000\u0000\u0000\u0000":1714,"\u0007\u0000":1715,"\u0017@ù":1716,"\u0002\u0000":1717,"H\\$@":1718,"\u0000\u001c\u0000\u0012":1719,"LÃ":1720,"ú\u0003":1721,"IÎ":1722,"sk":1723,"HÚ":1724,"\u0004":1725,"_^[":1726,"\u0005\u0000\u0000\u0000\u0000\u0000":1727,"\u0000\u0000\u0004":1728,"cp":1729,"Ch":1730,"\u001f \u0003Õ\u001f \u0003Õý{":1731,"\u0000ÿ":1732,"HU":1733,"IÁ":1734,"H@\bÿ\u0015":1735,"HÄ@":1736,"\u0003\u0000R":1737,"á\u0003\u0000*":1738,"LM":1739,"\b":1740,"çÿ":1741,"\u0004\u0000ù":1742,"ë\u0007":1743,"B\u0004":1744,"HÇ":1745,"\u000f":1746,"LL$":1747,"\u0003\u0000ð":1748," h":1749,"\u000f":1750,"\u0000\u0000T":1751,"\u0004\u0000Ò":1752,"½èð":1753,"ûû":1754,"3@ù":1755,"\u0001\f":1756,"ax":1757,"!\u0004\u0000":1758,"E":1759,"à":1760,"\u0003\u0000°":1761,"\u0000ù\u0001\u0000Ò":1762,"8F":1763,"er ":1764,"\u0004\u0003":1765,"De":1766,"Æ":1767,"~@":1768,"ôWA©":1769,"ö\u0003":1770,"E":1771,"ö":1772,"HÿÀ":1773,"\u0000i\u0000n\u0000":1774,"\u0010Ht$\u0018":1775,"av":1776,"\u0003\u0000¹":1777,"Hò":1778,"dr":1779,"e\u0000\u0000\u0000":1780,"\u000b\u0000\u0000\u0000":1781,"ó\u000f\u0010":1782,"gr":1783,"AÐ;Õ":1784,"Ë":1785,"\u0002\u0015":1786,"\u0001*":1787,"\u0006\u0006":1788,"õ\u0013\u0000ù":1789,"À":1790,"`\u001e":1791,"!¸":1792,"@\u0010":1793,"LÇ":1794,"HÇE":1795,"Ã\u0000":1796,"Íè":1797,"aj":1798,"cy":1799,"A\u000f·":1800,"ms":1801,",\u0000\u0000\u0000":1802,"\u0006\u0001\u0000\u0000\u0000":1803,"\\ù":1804,"@ò":1805,"\u0001\u0000\u0000\u0000\u0000\u0000\u0000\u0000\u0000\u0000\u0000\u0000":1806,"*":1807,"\u0006\u0000Ð":1808,"Pro":1809,"IÎè":1810,"\u00019":1811,"00000000":1812,"\u0002\u0005":1813,"in ":1814,"\f\f":1815,"o ":1816,"\u0000\u0000°":1817,"u\n":1818,"'t ":1819,"\u0000\u0000":1820,"ci":1821,"@ð":1822,"ST":1823,"@U":1824,"?\u0000\u0000k":1825,"\u0006©":1826,"bb":1827,"\u0001\u0006":1828,"_8":1829,"\u0001":1830,"\u0000e\u0000n\u0000":1831,"ý\u0003\u0000óS\u0001©":1832,"å\u0000":1833,"ÿ ":1834,"\u0018è":1835,"`\u0012":1836,"":1837,"\u0001\u0000\u0000Ô":1838,"à\u0003\u001cª":1839,"PE":1840,"\u0006":1841,"ôW\u0001©":1842,"3\u0000ù":1843,"data":1844,"@ø":1845,"ÆD$":1846,"\u0000":1847,"xx":1848,"à\u0000":1849,"@q":1850,"H\u0007":1851,"Ô\u0001\u0000\u0000\u0000\u0000\u0000":1852,"ror":1853,"\u0000e\u0000 \u0000":1854,"#\u0000ù":1855,"ÿÿé":1856,"qq":1857,"\u000e\u0000A\u000e":1858,"el":1859,"!\b":1860,"ÿÿ\u0017":1861,"\n\u0000T":1862,"ot":1863,"\u0001F":1864,"å":1865,"+\u0000":1866,"\u0000\u0004\u0000Q":1867,"\u000f\u0000\u0000\u0000\u0000\u0000\b\u0000\u0000\u0000\u0000\u0000\u0000\u0000":1868,"\u0007R":1869,"(è":1870,"(Gù":1871,"H\\$\bHl$":1872,"\u0002\u0000\n":1873,"\u00020":1874,"a ":1875,"\u0002\u0000\u0000\u0000\u0000\u0000\u0000":1876,"@¹`":1877,"\b":1878,"\u000e\u0000\u0000\u0000":1879," \n":1880,"\u0005ª":1881,"\u0000qa":1882,"\u0000#":1883,"ctor":1884,"\u0003\b":1885,"Õ\u0001\u0000\u0000\u0000\u0000\u0000":1886,"\u0001\u000f":1887,"\u0010ÿ":1888,"õ\u0003\u0001ª":1889,"\u0001Í":1890,"dd":1891,"L\u0003":1892,"\u0003\u0004ª":1893,"\u0014":1894,"B`":1895,"C ":1896,"\u0001\n":1897,"\b\u0000":1898,"64":1899,"\u0001\u0000\u0004":1900,"\u001f\u0000\u0000ñ":1901,"H\u0001ÿP":1902,"½©ý\u0003\u0000óS\u0001©":1903,"2":1904,"¿#\u0003ÕÀ\u0003_Ö?#\u0003Õý{":1905,"+\u0000ù":1906,"\u0006\u0000q":1907,"ux":1908,"Dù":1909,"\r\u0000\u0017\u0000\u0000\u0000":1910,"\u0001Q":1911,"\bt":1912,"\u0011\u0000\u0000\u0000\u0000\u0000\u0003\u0004\u0000\u0000\u0000\u0000\u0000\u0000":1913,"úÿ":1914,"!":1915,"ec":1916,"àÿ":1917,"\"\u0000R":1918,"è":1919,"\b\u0007":1920,"C\u0018":1921,"H\u0010":1922,"\u0000\u0000\u0010":1923,"A":1924,"A":1925,"H\\$\bHt$\u0010":1926,"par":1927,"ak":1928,".":1929,"õ\u0003\u0000*":1930,"ùÿÿ":1931,"\u0013\u0000Ò":1932,"øg":1933,"Hßè":1934,"L$":1935,"ë\u0004":1936,"H\u0001":1937,"\u001f¬":1938,"\u0000À":1939,"à;":1940,"\u0000\u0000ù":1941,"\u0002u":1942,"|\u0000":1943,"A\u0004":1944,"LÆ":1945,")F":1946,"cs":1947,"\u0001\u0000\u0000\u0000A\u000e":1948,"á\u0003\u0019ª":1949,"":1950,"¡\u0000\u0000T":1951,"es":1952,"1ö":1953,"@\u0018":1954,"\u0002\u0004\u0000\u0000":1955,"'@ù":1956,"\u000fº":1957,"\u0001L":1958,"lock":1959,"\n  ":1960,"Íé":1961,"`\u0003":1962,"jv":1963,"?$":1964,"é":1965,"t$ ":1966,"mb":1967,"`\u0006\u0000":1968,"\u0004\u0000\u000f\u001fD\u0000\u0000":1969,"êÿ":1970,"ze":1971,"È":1972,"ý{Á¨":1973,"\u0000q`":1974,"tl":1975,"%":1976,"ó\u000f\u001e":1977,"}":1978,"ûsE©":1979,"Oô":1980,"ð\u000fÁ":1981,"HÄHX\bH":1982,"F©":1983,"Hì Hê":1984,"V\u0000":1985,"óA\u000f":1986,"Ø\u0000\u0000\u0000":1987,"":1988,"ëë":1989,"¡\u0013@Ñ":1990,"%u":1991,"\u001f\u0010":1992,"hi":1993,"ôô":1994,"xb":1995,"\u0005\u0001":1996,"@\u0001":1997,"\u0003\u0000Ð":1998,"du":1999,"H$":2000,"_è":2001,"\u0002\u0001":2002,"dy":2003,"ÔÓ":2004,"t\n":2005,"\u0006*":2006,"øÿÿ":2007,"ws":2008,"L+":2009,"BF":2010,"ã\u0003\u0000ª":2011,"\u0013":2012,"\u0006\u0005":2013,"\u0000\u0000ð":2014,"\nÞÝ\u000e\u0000A\u000b":2015,"H":2016,"D\u000f·":2017,"EN":2018,"are":2019,"ÿ":2020,"8\u0000\u0000\u0000":2021,"\u000e\u000e":2022,"T_":2023,"\u0002 ":2024,"6\u0010":2025,"9¹":2026,"Ht$8":2027,"t\u0000 \u0000":2028,"I\u0000\u0000\u0000\u0000\u0000":2029,"\u00024\u00024":2030,"V":2031,"\u0004\u0018":2032,"D\u000e":2033,"û\u0003":2034,"HO":2035,"ÙÚ×Ø":2036,"Hì":2037,"ack":2038,"u\f":2039,"\u0001\u000f":2040,"D\u0000\u0000\u0000":2041,"\n\t":2042,"f9":2043,"s\u0006\u0000":2044," r":2045,"DË":2046,"H\u0003":2047,"16":2048,"ðð":2049,"HÇD$":2050,"u\b":2051,"\u0002":2052,"fr":2053,"Ñý{":2054,"ùÿ":2055,"\u0000\f":2056,"â":2057,"\u0007":2058,"i\u0000n\u0000":2059,"jj":2060,"pl":2061,"`è":2062,"\u0000e\u0000s\u0000":2063,"C\u0004":2064,"AR":2065,"éé":2066,"Æ":2067,"Is":2068,"\u0007\u0000\u0011":2069,"\u0000\u0000Ð":2070,"Éÿ":2071,"P":2072,"gg":2073,"\u0006\u0000\u0000\u0000\u0000\u0000":2074,"ù\u0003":2075,"\u001fS":2076,"\u0010Hp":2077,"ò\u000f\u0011":2078,"\u0004":2079,"t\u0000i\u0000o\u0000n\u0000":2080,"im":2081,"}":2082,"\u0003":2083,"\u000b\u0000T":2084,"ÿÿ\u0017\u001f":2085,"\t\u0000Ð":2086,"can't ":2087,"æ\u0003":2088,"ÿÿµ":2089,"ë\b":2090,"Ò":2091,"`\u0002@ù":2092,"\u0012":2093," \u0002\u001fÖ":2094,"ÌÌÌÌÌÌH":2095,"@¹":2096,"\u0002\u0000Ð":2097,"á\u0003\u001aª":2098,"\u0002\u0000\u0000\u0000\u0000\u0000\u0000\u0000":2099,"àC":2100,"ÿÿ5":2101,"ÿ\u0000\u0000\u0000ÿ\u0000\u0000\u0000":2102,"kk":2103,"\b\u0000ð":2104,"0\u0006\u0005":2105,"`\u0002@¹":2106,"\u000f":2107,"ÿ%":2108,"Ic":2109,"u\u0005":2110,"the ":2111,"\u0006\u0000ð":2112,"x":2113,"\u000f¯":2114," \u0004\u0003":2115,"÷\u0003":2116,"fa":2117,"d$":2118,"a\u0000\u0000\u0000":2119,"\u0001\u0000\u0000\u0000\u0001\u0000\u0000\u0000":2120,"F\u0004":2121,"ý÷":2122,"Ã":2123,"\u0001\u0000 Ò":2124,"@":2125,"=":2126,"lib":2127,"SI":2128,"\t\u0000":2129,"±^":2130,"ÿ5":2131,"¤$":2132,"\u0004t":2133,"LD$":2134,"êê":2135,"fl":2136,"\u0000\u0000 Ò\u0000\u0013òAÐ;Õ":2137,"Hè":2138,"\u0003":2139,"Ç":2140,"Z\u0000":2141,"z\u0000":2142," \u0000":2143,"B\u0010":2144,"Êâ":2145,"Oð":2146,"\u0002\u0000°":2147,"¾©ý\u0003\u0000":2148,"\u0010\u0010\u0010\u0010":2149,"H3ÄH":2150,"ÌÌÌÌÌÌÌÌÌ":2151,"ú":2152,"\u0000\u0000ë":2153,"\u0010U":2154,"ÿÿ\u0017á":2155,"A]A^":2156,"Höt":2157,"":2158,"hh":2159,"}Ó":2160,"ít":2161,"Á":2162,"@":2163,"Hïè":2164,"\u0007\u0001\u0000\u0000\u0000":2165,"ðFùý{":2166,"\u0017\u001a":2167,"Aè":2168,"all":2169,"ÿ\u0017":2170,"AA":2171,"Æâ":2172,"\u0003\u00004":2173,"ïï":2174,"à\u0007@ù":2175,"á\u0003\u001bª":2176,"j\u0002":2177,"\u000e":2178,"read":2179,"be":2180,"DD":2181,"t\u0000a\u0000":2182,"yp":2183,"|$":2184,"à#":2185,"\bp":2186,"ud":2187,"nn":2188,"vv":2189,"\u000f":2190,"@\u0001R":2191,"ç\u0003":2192,"A ":2193,"sr":2194,"e":2195,"Ç\u0000":2196,"@F":2197,"\u0010":2198,"AÁ":2199,"\u0004\u0003":2200,"ó\u000f\u001eú":2201,"\u0001¹":2202,"A\u0018":2203,"ÿÀ":2204,"\u0000$":2205,"\u0000\u0000\u0000":2206,"@¹!":2207,"@ùá":2208,"÷\u001b@ù":2209,"qr":2210,"\u0000q\u0000":2211,"\n\u0000\u0000\u0000\u0000\u0000":2212,"-éð":2213,"Hø":2214,"\bé":2215,"\u0002":2216,"½©":2217,"Hc":2218,"RO":2219,"ÜÛ":2220,"/":2221,"óó":2222,"\u0001\u0000è":2223,"\u001b":2224,"\t\u0000°":2225,"@¹ ":2226,"\u001f¬º":2227,"\u0010\u0001\u0000\u0000":2228,"±^6\u0010":2229,"\u0001\u0000°":2230,"±^6\u0010\u001f¬º":2231,"ÐÐ":2232,"D\u000f(":2233,"ûÿ\u0017":2234,"\u0007©":2235,"\u0001\u0005":2236,"sd":2237,"\u0003\u0000\u0000\u0000\u0000\u0000\u0000\u0000":2238,"cc":2239,"\u0002\u0000ð":2240,"\u001a*":2241,"\u0000\u0000":2242,"HÂ":2243,"ok":2244,"HÃ":2245,"tp":2246," \b":2247,"\u0003":2248,"úÿT":2249,"\u0001\u0000ð":2250,"IÖ":2251,"\u0004":2252,"L|$":2253,"\u00010":2254,"H":2255,"]":2256,"Ht$@":2257,"":2258,"HD$8":2259,"H":2260,"\u0006\u0000Q":2261,"ûs\u0005©":2262,"0":2263,"BÐ;Õ":2264,"Un":2265,"\r":2266,"\u0006F":2267,"sb":2268,"\u0006ª":2269,"\u0004R":2270,"\u0002\u00009":2271,"aw":2272,"f\u000f":2273,"int":2274,"t\t":2275,"HÄ0_":2276," %s ":2277,"\u001f\b\u0000q":2278,"ÿ\u0000\u0000":2279,"H\f":2280,"UUUU":2281,":%":2282,"\u001f\u0004\u0000±":2283,"kl":2284,"@ù":2285,"\u0002ù":2286," \u0001\u0000\u0000":2287,"d_":2288,"t\u001e":2289,"per":2290,"\u0006\u0000Ñ":2291,"÷ÿÿ":2292,"\u0001è":2293,"\u0001\u0000\u0000\u0000\u0000":2294,"7\u0000ù":2295,"Gù\u0000\u0000":2296,"d\u0000 \u0000":2297,"age":2298,"\u0002\u0000\u0006":2299,"\u0001!":2300,"\u0003\u00005":2301,"ïîîïîîïîîïîî":2302,"Ç\u0005":2303,"`\n":2304,"H\\$\bHl$\u0010Ht$\u0018":2305,"f\u000fo":2306,"1-":2307,"\u001a":2308,"ý{Ä¨À\u0003_Ö":2309,"\u0002*":2310,"B\u0000\u0000":2311,"\u000fY":2312," \u0003":2313,"20":2314,"k ":2315,"ññ":2316,":":2317,"fy":2318,"ð}":2319,"\br":2320,"`\u0000\u0000":2321,"t\u0007":2322,"\u0004\u0003":2323,"?\u0000\u0002":2324,"íí":2325,"\u0001\u0000Ð":2326,"":2327,"\b\u0010":2328,"\u001f8":2329,"\u0002\u0018":2330,"\f":2331,"ÿá":2332,"1F":2333,"\u001f":2334,"\b":2335,"G©":2336,"Î":2337,"ü\u0000":2338,"\u0003\u0001":2339,"hy":2340,"cv":2341,"":2342,"@\u0004\u0000":2343,"ON":2344,"H\u0001H@\u0010ÿ\u0015":2345,"I+":2346,"ææ":2347,"ý{Æ":2348,"c\u0000":2349,"]ÃÌÌÌÌÌÌÌ":2350,"IC":2351,"@ ":2352,"\u0006":2353,"->":2354,"ey":2355,"\u0002(":2356,"{ ":2357,"y\u0019":2358,"\u000f":2359,"ÿÀ":2360,"ser":2361,"+":2362,"ñ\u0000\u000f":2363,"WHì0":2364,"ca":2365,"Ex":2366,"ng":2367,"\u0010é":2368,"\u000f":2369," \u0004":2370,"f;":2371,"ùkD©ûsE©":2372,"U":2373,"â#":2374,"h ¸":2375,"mi":2376,"ý{Å":2377,"!\u0010":2378,"\u001c*":2379,"ë\t":2380,"(.":2381,"Oðÿ":2382,"A\u000b\u0000":2383,"_ø":2384,"??":2385,"4":2386,"ó\u000f\u0011":2387,"\u000fD":2388,"T$":2389,"À\u0005":2390,"Ld$":2391,"L$":2392,"ää":2393,"S_":2394,"Á\u0000\u0000T":2395,"¾©ý\u0003\u0000óS\u0001©":2396,"\u001f\u0004@":2397,"A\u0001":2398,"\u0014\u0012":2399,"u\u0004":2400,"\u0000\u001c\u0000\u0012\u001f":2401,"\u0005\u0000\u000f\u001fD\u0000\u0000":2402,"! ":2403,"@\u0001\u0000\u0000":2404,"@ù\u0000":2405,"xy":2406,"ç\u0000":2407,"áá":2408,"\u0013\u0000R":2409,"\u0001#":2410,"error":2411,"":2412,"s_":2413," \u0010":2414,"u\t":2415,"\u0000\u0000¹":2416,"HD$@":2417,"HËÿ\u0015":2418,"\b\u0001\u0000\u0000\u0000":2419,"\u0000qá":2420,"Ò\u0001\u0000\u0000Ô":2421,"\u0004\u0000\u0000\u0000\u0000\u0000\u0000\u0000":2422,"hc":2423,"¼å\u0000":2424,"0\u0000\u0000":2425,"\u0002\u0000k":2426,"Pÿ":2427,"\u0005":2428,"vo":2429,"af":2430,"19":2431,"":2432,"pu":2433,"A":2434,"¿#\u0003ÕÀ\u0003_Ö?#\u0003Õ":2435,"u":2436,"`\u0000\u0000T":2437,"T$":2438,"1ÿ":2439,"0.":2440,"E":2441,"\u0001\u0000\u0000\u0000":2442,"*Gù":2443,"D\u0003":2444,"ql":2445,"jÿ":2446,"_Z":2447,"\u0000\u0000\u0000\u0001":2448,"\u001b*":2449,"`\u0000R":2450,"\u0004ª":2451,"Á":2452,"ë\n":2453,"\u0000qA":2454,"Vè":2455,"HG":2456,"6à":2457,"°½èð":2458,"£\u0000":2459,"hw":2460,"¼å\u0000Æâ":2461,"\u0011\u0011":2462,"s\u0000 \u0000":2463,"HC":2464,"\u0016@ù":2465,"\u000e\u0000ù":2466,"}\u0000":2467,"]ÃÌÌÌÌÌÌÌÌ":2468,"":2469,"1":2470,"\u0006\u0003U":2471,"' ":2472,"@ú":2473,"¹\u0000":2474,"HËHÿ\u0015":2475,"dw":2476,"\u0014\u0000Ò":2477,"por":2478,"Fi":2479,"^è":2480,"\u0002r":2481,"qj":2482,"L$":2483,"\u001dù":2484,"C":2485," \u0004\u0000":2486,"qm":2487,"ø\u0000\u0000\u0000":2488,"\u0004\u0010":2489,"AL":2490,"HM":2491,"\u0002\u0000\u0000è":2492,"of ":2493,"\u0000\u0000@":2494,"ì|":2495,"Xè":2496,"\u0001@":2497,"ë\u0006":2498,"öÃ":2499,"\u0004\b":2500,"ug":2501,"4\u0000\u0000\u0000":2502,"qy":2503,"à\u0017\u001a":2504,"der":2505,"En":2506," \u0000 \u0000 \u0000 \u0000":2507,"ØÀ\u000f":2508,"HC":2509,"\t\u0000ð":2510,"0x":2511,"pi":2512,"D":2513,"ÿÿ\u0017?#\u0003Õ":2514,"\n    ":2515,"E_":2516,"\u0013":2517,"¢\u0000R":2518,"\u0000\u0000@9":2519,"HD$ è":2520,"`\u001a":2521,"ðè":2522,"\u0017":2523,"kj":2524,"\u001d":2525,"p ":2526,"Hÿ%":2527,"F\u0000\u0000\u0000\u0000\u0000":2528,"HÁ":2529,"H\\$P":2530,"ö\u0005":2531,"\u0013ë":2532,"D$ ":2533,"\u0000\u0000\u0000\u0000\u0000\u0000\u0000\u0000\u0000\u0000\u0012\u0000\u0000\u0000":2534,"ÿÿ\u0017þO":2535,"'\u0000ù":2536,"stem":2537,"hx":2538,"$":2539,"\u0000\u0000":2540,"!8":2541,"and":2542,"\u0002\n":2543,"ÿ":2544," 8":2545,"\u0002\u0016":2546,"HI\u0010è":2547,"cm":2548,"<$":2549,">\r\n":2550,"J\u0000":2551,"~Ó":2552,"ÿ\u0003\u0002ù":2553," ":2554,"H\u0004":2555,"øÿ":2556,"fg":2557,"&":2558,"¥\u0000":2559,"B\u000b":2560,"0\u0001\u0000\u0000":2561,"HÄ [Ã":2562,"kb":2563,"B\u0000":2564," %s\u0000":2565,"FFFF":2566,"\b©":2567,"@¹á":2568,"p\u0004":2569,"hj":2570,"\u000b\u0000":2571,"\u0018\u0000\u0000":2572,"\u0014ë":2573,"q\u0000":2574,"¾©ý\u0003\u0000ó\u000b\u0000ù":2575,"EL":2576,"\u0018\u0000Aè":2577,"HO":2578,"öÿÿ":2579,"u\u0006":2580,"-":2581,"/":2582,"2À":2583,"\f\u0000T":2584,"":2585,"]]":2586,"H\\$\bHt$\u0010WHì ":2587,"\u0001\u000b":2588,"Ðè":2589,"[]A\\A]A^":2590,"\f":2591,"\n":2592,"ÿ´":2593,"(":2594,"sv":2595,"H©":2596,"\u0002\u0000\u0002\u0000\u0002\u0000\u0002\u0000":2597,"\u0001©ý":2598,"\u0002@":2599,"\u0001©ýC\u0000":2600,"F\u0010":2601,"G":2602,"7":2603,"qx":2604,"HL$0è":2605,"hg":2606," H":2607,"\u0017\u0000\u0000":2608,"\u0007":2609,"ßß":2610,"Lo":2611,"\r\u0000T":2612,"@x":2613,"M;":2614,"ë\f":2615,"ky":2616,"\b\u0001\u0000\u0000":2617,"C":2618,"\n©":2619,"À\u000f":2620,"cj":2621,"Hï":2622,"]ÃÌ":2623,"ùÿT":2624,"H#":2625,"Â":2626,"hr":2627,"ÚV":2628,"Set":2629,"è\u0000\u0000\u0000":2630,"÷è":2631,"uv":2632,"hp":2633,"\u000f":2634,"LL$":2635,"qw":2636,"ôÿ":2637,"I\u0000n\u0000":2638,"`\n@ù":2639,"?ô":2640,"@\u0003":2641,"ø\u0003\u0000ª":2642,"\u0000qÀ":2643,"ÿÿ\u0017à\u0003\u0013ª":2644,"qv":2645,"ââ":2646,"IÏ":2647,"A+":2648,"\u0019\u0000\u0000":2649,"H;Èt":2650,"c/":2651,"\u0005\u0000ð\u0000":2652,"ØÀx":2653,"!\u0001\u0000":2654,"@9?":2655,"\u0004ñ":2656," \u0001":2657,"\b\u0000\u0000\u0000\u0000\u0000":2658,"\u0014\u0000R":2659,"D\u000f¶":2660,"ml":2661,"\u0000\u0000\u0000\u0000A\u000e \u0004\u0003":2662,"â\u0003\u0017ª":2663,"HÄHX\bHh":2664,"v5":2665,"ka":2666,"\u0003\u0000":2667,"¿\u0000":2668,"f":2669,"\u0011":2670,"ùùùùùùùùùùùùùùùù":2671,"\u0012@ù":2672,"!ø":2673,"%d":2674," t":2675,"hv":2676,"`\u0006@ù":2677,"\u0002\u0000ñ":2678,"\u0000q ":2679,"\u000f":2680,"\u0019":2681,"\u0018Hx ":2682,"Y\u0000":2683,"l\u0000i\u0000":2684,"\u0001\u0000 Ò\u0001":2685,"çç":2686,"\u0010t":2687,"MÆ":2688,"@¹À":2689,"\u0000\u0000\u0000H\u0005":2690,"Hö":2691,"dg":2692,"al ":2693,"Lt$":2694,"sl":2695,"þÿ5":2696,"H]":2697,"LÀ":2698,"\u0000e\u0000t\u0000":2699,"\u0015\u0000R":2700,"IL":2701," \u0001":2702,"\r\u0000\u0000\u0000":2703,"â\u0003\u0018ª":2704,"\u0002\u001b":2705,"$\u0000\u0000\u0000\u0000\u0000\u0000":2706,"\u0007\u001a":2707,"33":2708,"\u0007ª":2709,"ü÷":2710,"hn":2711,"à\u0000\u0000T":2712,"?@ù":2713,"u\u000b":2714,"\u0003\u0000K":2715,"B\f":2716,"\u000fE":2717,"fj":2718,"AUAT":2719,"x\u0010":2720,"H3ÄHE":2721,"\n\u000e":2722,"\u0016\u0000\u0000\u0000\u0000\u0000\u0000\u0000":2723,"\u0000\u0000`":2724,"%02":2725,"\u0001\u0000\b":2726,"B ":2727,"dn":2728,"à\u0003\u0002ª":2729,"ki":2730,"fw":2731,"LOC_":2732,"uj":2733,"ë\u0001":2734,"Ó":2735,"N\u0000a\u0000":2736,"à\u0003\u0013ªóSA©":2737,"`\u0002@9":2738,"\u0004r":2739,"\u001cÓ":2740,"öööö":2741,"\u0006@¹":2742,"H":2743,"fai":2744,"\r\r":2745,"":2746,"``":2747,"H\u0000ÿ\u0015":2748,"\u0012\u0000\u0000\u0000\u0000\u0000":2749,"":2750,"Iø":2751,"HÈHÿ\u0015":2752,"fx":2753,"hl":2754,"\u0002\u0017":2755,"HÑ":2756,"ft":2757,"\b@ù":2758,"ÿÿ\u0017 ":2759,"H\u0000\u0000\u0000":2760,"{\u0010":2761,"HT$\u0010U":2762,"mn":2763,"kg":2764,"e\u0001":2765,"\u0002P":2766,"Eü":2767,"\b":2768,"\u0004*":2769,"û":2770,"A\u0000\u0000\u0000\u0000\u0000":2771,"rel":2772,".*":2773,"R":2774,"HF":2775,"}":2776,"\u0000Ñ":2777,"Åø":2778,"ìì":2779,"bl":2780,"..":2781,"fe":2782,"B\u0004\u0000":2783,"ô":2784,"\n":2785,"ow":2786,"¿\u0000\u0000":2787,"3Éè":2788,"\u0017\u0000ù":2789,"for ":2790,"bx":2791,"ted ":2792,"LÜ":2793,"dp":2794,"H":2795,"`x":2796,"uw":2797,"\u001e":2798,"|$":2799,"\t":2800,"fn":2801,"ù":2802,"\t":2803,"qg":2804,"\u0001\u0000 Ò\u0001\u0013ò":2805,"\u0002\u0000µ":2806,"qn":2807,"@¹\u001f\u0000":2808,"d\u0000\u0000\u0000":2809,"ö_B©":2810,"\u0010p":2811,"\u0000\u0000p":2812,"ui":2813,"vali":2814,"\u001bÀ":2815,"D\u000fY":2816,"dv":2817,"#":2818,"!":2819,"ã\u0000":2820,"Ét":2821,"è\u0000":2822,"H\u0018":2823,"H\u000b":2824,"D3":2825,"\u0013\u0000¹":2826,"H":2827,"ÌÌÌÌÌÌÌq":2828,"9":2829,"?":2830,"\u0000\u0000 ":2831,"B\u0000R":2832,"ýà":2833,"x\u0011":2834,"\u0000q ":2835,"ÿÿÿ":2836,"\u0002Ñ":2837,"\u0001\u0018":2838,"0 ":2839,"¿\u0000\u0000¿\u0000\u0000":2840,"\u0001\u0000\u0000é":2841,"B\u0001R":2842,"ÿÿë":2843,"\u0000q":2844,"\u00013":2845,"<\u0000\u0012":2846,"kv":2847,"[\u0000":2848,"\"\u0000Ò":2849,"HX":2850,"I©":2851,"¸\u0000":2852,"r\u0000i\u0000":2853,"\u0005\u0000´":2854,"\u0010r":2855,".?":2856,"H\t":2857,";@ù":2858,"ÿÿ\u0017\u0000":2859,"cn":2860,"st ":2861,"!\u0000Ò":2862,"\u0004\n":2863,"à\u0002":2864,"valid ":2865,"C\u0001":2866,"HÏHÿ\u0015":2867,"\u0003ë":2868,"uy":2869,"\u0001\t":2870,"\u001fü":2871,"\u001a":2872,"\u0014":2873,"HL$ è":2874,"'":2875,"fp":2876,"Ð":2877,"\u0010Hp\u0018Hx ":2878,"A8":2879,"dj":2880,"Hø":2881,"ö_\u0002©":2882,"H\u0006":2883,"fv":2884,"r\u0000a\u0000":2885,"oo":2886,"ÞÞ":2887,"tt":2888,"/@ù":2889,"\u001e\u0000\u0000":2890,"A_A^A]A\\_^":2891,"\u0010":2892,"ds":2893,"\b\u0000":2894," %u":2895,"kw":2896,"H":2897,"à\u000f":2898,"\u0010P":2899,"A":2900,"÷\u001b\u0000ù":2901,"é":2902,"\u0001\u0004\u0000":2903,"Hl$":2904,"\rñ":2905,"Ïÿ":2906,"\u0003\u0000ë":2907,"\u0001\u000f":2908,"Lçè":2909,"\u0007\u0000\u0000\u0000\u0000\u0000":2910,"Aø":2911,"ÿÿ\u0017 ":2912,"a\u0002@ù":2913,"ý`":2914,"\u000b¹":2915,"IÏè":2916,"\t\u0001\u0000\u0000\u0000":2917,"\u0001\u0000\n":2918,"\u000e\u0000T":2919,"mem":2920,"\u0004\u0000R":2921,"\u0004\u0006":2922,"\"\u0000@ùâ":2923,"D$ ":2924,"!\u001c\u0000\u0012":2925,"dx":2926,"ÿ\u000f":2927,"Ö\u0001\u0000\u0000\u0000\u0000\u0000":2928,"\u001a\u0000\u0000":2929,"\u0006\u0005\u0004\u0003":2930,"\u0004%":2931,"G@ù":2932,"qp":2933,"ä\u0003\u0000ª":2934,"\u001c":2935,"ö\u0003\u0000*":2936,"\u0006P":2937,"\n\u0000\u0000\u0000\u0000\u0000\u0000":2938,"ö\u0003\u0001ª":2939,"õõ":2940,"â\u0003\u0000*":2941,"\u0001\"":2942,"\u0000":2943,"óSB©":2944,"úo":2945,"!\u0000\u0000\u0000\u0000\u0000\u0000":2946,"@\f":2947,"\bë":2948,"AN":2949,"kx":2950,"cw":2951,"t\u0000h":2952,"ä\u000f":2953,"¼©ý\u0003\u0000óS\u0001©":2954,"\u0000\u0000t":2955,"\u0006\u0000\u000f\u001fD\u0000\u0000":2956,"aø":2957,"\u0002":2958,"C":2959,"?\u0000\u0000q":2960,"HìP":2961,"áÿ":2962,"fin":2963,"\u0000q\u0001":2964,"@":2965,"Àu":2966,"\u0004\u0004\u0004\u0004":2967,"þà":2968,"3":2969,"\u0004\u0000´":2970,"D$0":2971,"<\u0000":2972,"Èè":2973,"÷ÿ":2974,"1.":2975,"\u0000(Gù":2976,"pè":2977,"\u001f\u0000\u0000\u0000":2978,"rr":2979,"ÿ?":2980,"ext":2981,"":2982,"\u0004\u0002":2983,"\u0015":2984,"*(.":2985,"@¹ ":2986,"\u001c":2987,"fD9":2988,"\u001f\u0004@±":2989,"P\u0001\u0000\u0000":2990,"HI\u0010L\u0005":2991,"@\u0000\u0000´":2992,"\u001cù":2993,"@\u0000":2994,"uö":2995,"ý{Ã¨¿#\u0003ÕÀ\u0003_Ö":2996,"\u000b\u000b":2997,"÷Ø":2998,"E3ö":2999,"dt":3000,"=":3001,"\u00077":3002,"\u0000\u0000é":3003,"Ú":3004,"ÿUì":3005,"à\u0003@ù":3006,"Àè":3007,"j\u0003":3008,"\u0005@\u0000":3009,"AP":3010,"le\u0000":3011,"bad ":3012,"\u0016":3013,"D_RE":3014,"Aö":3015,">":3016,"Lc":3017,"ØØ":3018,"\u0018\u0001\u0000\u0000":3019,"àà":3020,"qi":3021,"s/":3022,"F":3023,"ÑÑ":3024,"\u0005*":3025,"add":3026,"c\u0000\u0000":3027,"\u0002\u0000è":3028,"\n\t":3029,",":3030,"ÿÂ":3031,"I×":3032,"inter":3033,"text":3034,"dm":3035,"8":3036,"\b":3037,"\u0006p":3038,"ãã":3039,"\u001e\u0000\u0000\u0000\u0000\u0000\u0000":3040,"ý{¿©":3041,"win":3042,"ÓX":3043,"\t\u0000\u0000\u0000\u0000\u0000":3044,"ó\u000fY":3045,"ID":3046,"\"h ¸":3047,"BFD_RE":3048,"ï\u0003":3049,"Ýé":3050,"BFD_RELOC_":3051,"\u0003Ñ":3052,"UH":3053,"H)":3054,"]":3055," ÿ\u0015":3056,"à\f":3057,"\u0002\u0002\u0002\u0002\u0002\u0002\u0002\u0002":3058,"sx":3059,"õÿÿ":3060,"P\u0000\u0000\u0000":3061,"\u0001ð":3062,"\"\u0000\u0000":3063,"@¹?":3064,"\u0000\u0000\u0000\u0000\u0000\u0001\u0000":3065,";":3066,"D":3067,"t\u0005":3068,"db":3069,"@¸":3070,")\u0000\u0000\u0000\u0000\u0000\u0000\u0000\u0000\u0000\u0000\u0000":3071,"HÁ":3072,"ÿó\u0003\u0000ª":3073,"$\u0000\u0000":3074,"\u0001\u0001\u0001\u0001\u0001\u0001\u0001\u0001":3075,"\u0002F":3076,"CH":3077,"IF":3078,"\u0000@ù":3079,"Ll$":3080,"\u0003\u0003*":3081,"ø\b":3082,"\n\u0000¹":3083,"ÿ4":3084,"á\u0003\u001cª":3085,"÷ÿT":3086,"\u000f\u000f\u000f\u000f":3087,"Ø\u0000":3088,"sg":3089,"J©":3090,"\u0005\u0000Ð\u0000":3091,"\n\t\b\u0007":3092,"\u0000e\u0000c\u0000":3093,"ame":3094,"\u0000q!":3095,"HÁè":3096,"WW":3097,"ÞÝÓÔ":3098,"û\u0003\u0000ª":3099,"\u0006@9":3100,"\u000e\u0010":3101,"\u0006\u000b":3102,"kr":3103,"\u0004\u0000\u0000\u0014":3104,"ou":3105,"I9":3106,"M9":3107,"ë\u0000":3108,"B9":3109,"t\f":3110,"o\u0000w\u0000":3111,"Hl$8":3112,"@\b\u0007":3113,"t\u0000o\u0000":3114,"IS":3115,"Hî":3116,"(\u0001\u0000\u0000":3117,"PF":3118,"mat":3119,"þ`":3120,"H]":3121,"ÿÿ\u0017a":3122,"åå":3123,"\u0001":3124,"\u0000\u0000":3125,"km":3126,"A¾":3127,"ÿÐ":3128,"15":3129,"ÿÿ\u0017À":3130,"icro":3131,"×":3132,"d":3133,"sof":3134,"LE":3135,"H$":3136,"Çè":3137,"A\u0000\u0000":3138,"\u001c\u0000\u0000":3139,"name":3140,"à\u0003\u0016*":3141,"\u0004\u0001":3142,"E;":3143,"MÀt":3144,"jx":3145,"\u0003ð":3146,"\u0018":3147,"Th":3148,"!|":3149,"\u001a0":3150,"S ":3151,"cg":3152,"ÿ\u0000":3153,"HÉ\u000f":3154,"\u0000a\u0000t\u0000":3155,"L}":3156,"s:":3157,"\u001fø":3158,"bi":3159,"\u00144":3160,"\u000f\u0000T":3161,"p\u0001\u0000\u0000":3162,"`\u0001\u0000\u0000":3163,"@SHì HÙ":3164,"À=":3165,"sn":3166,"\b\u0007":3167,"\u0000\u0000\u0000ë":3168,"kp":3169,"\u001d\u0012":3170,"Str":3171,"Áé":3172,"@":3173,"out":3174,"@¹\u0000\u0004\u0000\u0011":3175,"\u0001\u0000 Ò\u0001\u0013òBÐ;Õ":3176,"Win":3177,"qt":3178,"!\u0004":3179,"fA\u000f":3180,"\u0016\u0004":3181,"Lñ":3182,"à\u0004":3183,"ee":3184,"t\u0006":3185,"\u0000\u0000\u0000\u0000A\u000e0\u0006\u0005":3186,"x\u001b":3187,"B\u0001":3188,"Æ\u0005":3189,"ÜÜ":3190,"\f\u0000\u0000\u0000\u0000\u0000\u0000":3191,"\u000b\u0000¹":3192,"ý{Á¨¿#\u0003ÕÀ\u0003_Ö":3193,"Sy":3194,"ÀÚ":3195,"H":3196,"\u0003*":3197,"\u001f¸":3198,"E3ÉE3À":3199,"Ö":3200,"rt":3201,"%\u0000\u0000":3202,"Lò":3203,"@²":3204,"`\"":3205,"å]Â":3206,"HÂ":3207,"kn":3208,"t$":3209,"\u0006\b":3210,"ôÿÿ":3211,"sm":3212,"\u0000\u0000B`":3213,"B\u0000\u0001":3214,"\u0011\u0000\u0000\u0000":3215,"\u0000\u0010\u0000\u0000":3216,"Ôø":3217,"L\\$":3218,"ÿµ":3219,"óS\u0002©":3220,"\u001f\u001f":3221,"D\u000f\u0010":3222,"M\u0003":3223,"\u0000":3224,"ù\u0003\u0000ª":3225,"HÄ8":3226,"\u0001\u0007":3227,"Le":3228,"H!":3229,"H\u0007":3230,"\u0006\u0005":3231,", %":3232,"hm":3233,"D$0":3234,"\u0004A":3235,"þÿ":3236,"\u000b\u0000\u0000\u0000\u0000\u0000\u0000":3237,"ate ":3238,"`\u0002\u0000¹":3239,".c":3240,"á":3241,"@¹@":3242,"\u0000":3243,"ÿ\u0003\u0003":3244,"\u0001q\u0001q":3245,"ÿÿ\u0000\u0000":3246,"A\f":3247,"au":3248,"Àò":3249,"e\u0001e\u0001":3250,"\u001d\u0000\u0000\u0000":3251,"W\u0000\u0000":3252,"\tø":3253,"2\u0000\u0000\u0000":3254,"UVWATAUAVAW":3255,"â\u0003\u001bª":3256,"cb":3257,"\t©":3258,"\u001b\u0000\u0000":3259,"9F":3260,"t_":3261,"\u000f\u001f@\u0000":3262,"\u000b":3263,"[]A\\A]A^A_":3264,"D$(":3265,"\u00076":3266,"YY":3267,"\u0007à":3268,"\n\u0001\u0000\u0000\u0000":3269,"u\r":3270,"\u0013@¹":3271,"À\u001a":3272,"su":3273,"ßè":3274,"@ù!":3275,"ent ":3276,"E\b":3277,"P\u0001":3278,"\u0016\u0000R":3279,"tition":3280,"\u0000Í":3281,"\u000f\u001f\u0000":3282,"SVW":3283,"AÆ":3284,"á\u0003\u0013*":3285,"ÿÿ\u0017":3286,"u.":3287,"\u0000q":3288,"ly":3289,"l_":3290,"F ":3291,"Ht$P":3292,"Sè":3293,"\u0000ùà":3294,"fb":3295,"`*":3296,"SE":3297,"$\u0018":3298,"ÝÝ":3299,"ôWA©ö_B©":3300,"ÖÖ":3301," á":3302,"or ":3303,"ä\u000f\u0000":3304,"\u0000\u0018":3305,"\bI":3306,"d\u0000\u0000":3307,"\u0000\u0000\u0000\u0000\u0000\u0000\u0000\u0001\u0000\u0000\u0000\"\u0005\u0019":3308,"\u0000\u0014":3309,"<\u0000\u0000\u0000":3310,"E\u000fY":3311,"char":3312,"vice":3313,"\u0001\u0000\u0000":3314,"H\u0012":3315,"DE":3316,"óSA©õ\u0013@ù":3317,",\"":3318,"\u0006K":3319,"Ã\u0001":3320,"K\u0018\u0000Aè":3321,"\u0001T":3322,"13":3323,"pG":3324,"K\u0000\u0000\u0000`":3325,"c8":3326,"HÞ":3327,"----":3328,"âÿ":3329,"val":3330,"u÷":3331,"\u001f(":3332,"Á":3333,"+\u0000¹":3334,"rp":3335,"\u0004\u0003":3336,"\u0002\u0019":3337,"H@\u0018":3338,"A-":3339,"AX":3340,"jy":3341,"\f\u0000\u0000\u0000\u0000\u0000":3342,"Ï":3343,"|\u0001":3344,"c\u0000a\u0000":3345,"\u0018¿":3346,"\u0000\u0000\u0000":3347,"\u0000q@":3348,"\fè":3349,"R_":3350,"Ht$8HÄ _":3351,"qb":3352,"ÖÕA":3353,"jw":3354,"\u0003\u0010":3355,"\u0012\u0000":3356,"\u0000\u0000\u0000\u0000\u0000\u0000\u0000\u0000\u0000\u0000\u0000\u0000\u0000\u0000\u0000`":3357,"Ò":3358,"ïÿÿ\u0017":3359,"\u0000L":3360,"ÇC":3361,"\u0011\u0000T":3362,"5à":3363,"ang":3364,"":3365,"E3ÿ":3366,"A\u000f(":3367,"t.":3368,"ÿÿ\u0000":3369,"l\u0000l\u0000":3370,"ý\u0000":3371,"<":3372,"c":3373,"t\u000b":3374,"\u0014\u00008":3375,"A÷":3376,"\u0002\f":3377,"ç\u0000¿":3378,"\u0001(":3379,"\u0002@ù":3380,"ã\u0003\u0014ª":3381," ":3382,"ñÿ":3383,"H":3384,"\u0007`\u0006":3385,"àÞ":3386,"D+":3387,"\u0002©ý\u0000":3388,"PP":3389,"\u0001\u0004R":3390,"\u001f\u0000\u00009":3391,"@":3392,"== ":3393,"lp":3394,"f\u000f\u001fD\u0000\u0000":3395,"H}":3396,"\u0015\u0000Ò":3397,"\u0001":3398,"C\u0000o\u0000":3399,"\u001f\u0003":3400,"Mä":3401,"HÄP":3402,"ú\u0003\u0000ª":3403,"\u0004è":3404,"C\u000e":3405,"\u001f\u0000\u0001k":3406,"   ":3407,"ë\u000e":3408,"`B":3409,"\u0006\n":3410,"ÿo":3411,")\u0000\u0000\u0000\u0000\u0000\u0000\u0000\u0000\u0000\u0000\u0000(\u0000\u0000\u0000":3412,"sup":3413,"Ið":3414,"P\u0010":3415,"\u0013\u0000\u0000\u0000":3416,"\u0000ðFùý{":3417,"lx":3418,"rom":3419,"qo":3420,"\u0001\u0004\u0000":3421,"Hk":3422,"\u0007\u0000\u000f\u001fD\u0000\u0000":3423,"D\u000b":3424,"H":3425,"¹\u0004\u0000":3426,"jo":3427,"\b\u0000¹":3428,"\u000bp":3429,"hè":3430,"er\u0000":3431,"\u000b©":3432,"%s: ":3433,"u\u000e":3434,"@­":3435,"Di":3436,"\u0002\u0000\b":3437,"ÿÈ":3438,")\u0000\u0000":3439,"Ä\f":3440,";\u0000ù":3441,"\u0005\u0000\u0000":3442,"òò":3443,"NO":3444,"HL$@è":3445,"øè":3446,"ÿ":3447,"õ[B©÷cC©":3448,"</":3449,"ÔÔ":3450,"HN":3451,"ø":3452,"Ø×A":3453,"\u0004\u0000\u0000\u0000\u0000":3454,"\u0001":3455,"óSC©":3456,"@@@":3457,"s\u0000\u0000":3458,"\u0003\u0000q":3459,"jt":3460,"\u000e\u0000Ð":3461,"\u0000":3462,"`":3463,"ÿÿÿÿ\u0000\u0000\u0000\u0000@\u0000\u0000\u0000":3464,"AÓ":3465,"\u0004\u00004":3466,"à\u000b@ù":3467,"\u0001\u0000\u0001\u0000\u0001\u0000\u0001\u0000":3468,"gy":3469,"\u0000qÁ":3470,"\u0004":3471,"ë\u000b":3472,"Hì8":3473,"\u0000ÿÌ":3474,"HÇD$ ":3475," \f":3476,"icrosof":3477,"E9":3478,"\u001b2":3479,"ÿÿÿ\u0000ÿÿÿ\u0000ÿÿÿ\u0000ÿÿÿ\u0000":3480,"5":3481,"ÿ":3482,"8\u0001\u0000\u0000":3483,"HG":3484,"`2":3485,"HT$0":3486,"\u001ah":3487,"E3ä":3488,"\u000b\u0000ð":3489,"fm":3490,"t\u000e":3491,"DÃ":3492,"\u001d\u0000\u0000":3493,"u\u0012":3494,"comp":3495,"AÿÿT":3496,"\u0017\b":3497,"HÄ":3498,"àè":3499,"kt":3500,"Æ\u0000":3501,"jb":3502,"|$":3503,"}":3504,"\u0001":3505,"B\u0004\u0003":3506,"íÿÿ\u0017":3507,"z`ø":3508,"\b\u0002":3509,"Pÿ\u0015":3510,"s\u0000i\u0000":3511,"\u001f \u0003Õ\u001f \u0003Õ\u001f \u0003Õý{":3512,"lem":3513,"#\u0000\u0000":3514,"\u0006\u0000":3515,"ÇD$(":3516,"\u000f\u0011E":3517,"\u0001\u0000\u0000\u0000":3518,"BC":3519,"'\u0000\u0000":3520,"üüü":3521,"s\n":3522,"ÌÌÌÌÌÌÌHé":3523,"à\u001b":3524,"end":3525,"DÀ":3526,"alloc":3527,"File":3528,"\u0015":3529,"n\u0000a\u0000":3530,"@\u0002":3531,"AF":3532,"H3ÄH$":3533,"R":3534,"õ[\u0002©÷c\u0003©":3535,"rd":3536,"\u000e\u0000":3537,"\u0000":3538,"\u0000":3539,"Èÿ":3540,"ý{A©":3541,"\u0002\u0000@ù":3542,"\u0001À":3543,"@UHì Hê":3544,"_P":3545,"Lu":3546,"0000000000000000":3547,"`\u0000\u0000\u0000":3548,"\u000f\u001f\u0000\u0000\u0000\u0000":3549,"c_":3550,"6":3551,"\u0010\u0001":3552,"vn":3553,"C\u0001":3554,"LD$":3555,"std":3556,"á\u0003\u0015*":3557,"***":3558,"Hð":3559,"\u0002":3560,"`Ó":3561,"\u0000q¡":3562,"j\n":3563,"{":3564,"wi":3565,"R":3566,"öt":3567,"Hû":3568,"\u0013k":3569,"x\u0018":3570,"\u001f\f":3571,"c\u0000e\u0000":3572,"\u0002@ù":3573,"\u0013\u0000":3574,"h\"":3575,"øÿT":3576,"\u0000qà":3577,"wx":3578,"HD$H":3579,"â\u0003\u0019ª":3580,"\bp\u0007`\u0006":3581,"\u0005\u0000\u0000\u0000\u0000\u0000\u0000":3582,"\n\u0000":3583,"HÇ":3584,"a8":3585,"Læ":3586," \u0003\u0000":3587,"HD$P":3588,"\u0003":3589,"and ":3590,"\u0004\u0000\n":3591,"á":3592,"a\u0000\u0000T":3593,"Àé":3594,"\u0000|@":3595,"\u0000ÿÌ\u0000ÿÌ":3596,"\u0005\u0000Ò":3597,"u\u0011":3598,"22":3599,"  ":3600,"ÚÚ":3601,"\u000f":3602,"ace":3603,"\n  .":3604,"_p":3605,"A_A^A\\":3606,"8\u0000\u0000":3607,"E\b":3608,"à\u0003\u0003ª":3609,"\u0000\u0000\u0000\u0000\u0000\u0016\u0000\u0000\u0000\u0000\u0000\u0000\u0000":3610,"@9\u0000":3611,"\u0004ë":3612,"\u0001\u0001\u0000":3613,"gm":3614,"t\u0011":3615,"!\u0004\u0000\u0011":3616,"c`":3617,"H\\$ ":3618,"3í":3619,"8x":3620,"G":3621,"no ":3622,"bug":3623,"":3624,"\u0014":3625,"\u0000\u0000\u0000":3626,"hu":3627,"ÿc":3628,"HI\u0018":3629,"\u0001\u0000\u0000\u0000è":3630,"\u0007F":3631,"4$":3632,"ATAVAW":3633,"\u0000\u0000\u0000\u0000\u0000\u0000":3634,"þÿ4":3635,"_ZN":3636,"à\u0001":3637,"H(":3638,"option":3639,"â\u000f":3640,"qe":3641,"N\u0000a\u0000m\u0000":3642,"Aý":3643,"ÌÌÌÌÌÌÌÌÌÌÌÌÌÌÌq":3644,"t\u0012":3645,"Ac":3646,"!x":3647,"õ[C©":3648,"DÈL\u0005":3649,"××":3650,"\n@¹":3651,"ÌÌÌÌÌÌÌÌÌÌÌÌ":3652,"Eü":3653,"\u0000\u0000\u0000\u0001\u0000\u0000\u0000 \u0000\u0000\u0000":3654,"\u0005":3655,"H\\$`":3656,"õ":3657,"?\u0000\u0000\u0000":3658,".?AV":3659,"\u0002\u0000Ë":3660,"s.":3661,"ffff":3662,"I\u0006":3663,"ý{¿©ý\u0003\u0000":3664,"ÇEü":3665,"min":3666,"wit":3667,"÷\u0003\u0000*":3668,"ure":3669,"@":3670,"\u0000\u0000\u0000\u0000":3671,"\u0003\u0004*":3672,"ÛÜÙÚ×Ø":3673,"\u0017Y":3674,"18":3675,"vx":3676,"HL$0":3677,"[]A\\A]A^A_Ã":3678,"ÌÌÌÌÌÌÌÌÌÌ":3679,"log":3680,"H$":3681,"W\u0000i\u0000n\u0000":3682,"d\u0000e\u0000":3683,"file ":3684,"\u0007":3685,"tex":3686,"öÿ":3687,"mu":3688,"ÿÿ\u0017?":3689,"||":3690,"H}":3691,"\u0019\n":3692,"'%s'\u0000":3693,"m\u0000e\u0000":3694,"gx":3695,"\u0000\u0000\u0000\u0000\u0000\u0000":3696,"õ\u0003\u0002ª":3697,"\u0011\u0004":3698,"H ":3699,"\u0005\u00004":3700,"\u0000\u0004\u0000Ñ":3701,"\nÞÝÓÔ\u000e\u0000A\u000b":3702,"))":3703,"\u0000\u0000P":3704,"\u0015ë":3705,":+":3706,"vy":3707,":\u0000 \u0000":3708,"@":3709,"à\u0007\u0000ù":3710,"`\u0004":3711,"\u0015k":3712,"ÌÌÌÌÌÌÌÌÌÌÌ":3713,"ÿ\u0000\u0000\u0000\u0000\u0000\u0000":3714,"s\u0000\u0000\u0000":3715,"\u0007\b":3716,"£\u0001":3717,"A\u000f\u0010":3718,"s %":3719,"â\u0003\u001aª":3720,"©ý\u0003\u0000õ[\u0002©":3721,"ko":3722,"Wè":3723,"óÿÿ":3724,"ý":3725,"ÿÿ\u0017@":3726,"block":3727,"A¿":3728,"\u0017\u0000R":3729,"|\u0010":3730,"\r©":3731,"\u0002\u0006":3732,"ú":3733,"core":3734,"ë¡":3735,"á\u0003\u0014*":3736,"dire":3737,"\u00029":3738,"\u000b@¹":3739,"wy":3740,"H\u0002":3741,"û÷":3742,"we":3743,"ÃÌÌÌÌÌÌ":3744,"%s ":3745,"time":3746,"HÕ":3747,"unk":3748,"D\u0001":3749,"a.":3750,"\u001a0":3751,"\u0000\u0000\u0000\u0000\u0000\u0000\u0002\u0000":3752,"ïÿ":3753,"\u0000\u0004@ù":3754,"â\u0003\u0001ª":3755,"HÊ":3756,"\u0003\u0000è":3757,"@©\u001f\u0000\u0001ë":3758,"û\u0003\u0000*":3759,"F@ù":3760,"þ":3761,"!":3762,"H}":3763,"HB":3764,"\u0001\u0011":3765,"AÇ":3766,"v\u0000i\u0000":3767,"H\u000f":3768,"ju":3769,"À\u0002":3770,"\"\"":3771,"02":3772,"t\r":3773,"urre":3774,"LË":3775,"é\u0003":3776,"\u0000`":3777,"o\u0000n":3778,"A@":3779,"t\u0018":3780,"\u0006\u0000¹":3781,"\u0001$":3782,"Øÿ":3783,"\bª":3784,"_¸":3785,"#\u0001":3786,"tn":3787,"\bÿ":3788,"`Â":3789,"qa":3790,"\u0002ð":3791,"N":3792,"|\u0011":3793,"Êÿ":3794,"F":3795,"?\u0000ù":3796,"\u000b\u0000\u0000\u0000\u0000\u0000":3797,"HÏÿ\u0015":3798,"`\u0010":3799,"ê":3800,"reate":3801,"gro":3802,"\u0000x":3803,"net":3804,"äÿ":3805,"ý ":3806,"ýÃ\u0000":3807,"HS":3808,"j\u0004":3809,"!À":3810,"ó\u0003\u0002ª":3811,"\u0004Ñ":3812,"c\u0004\u0000":3813,"ú":3814,"~\u0000":3815,"²\u0001":3816,"Lç":3817,"(\u0000\u0000":3818,"4\u0006\u0000":3819,"wp":3820,"38":3821,"\u000b\u0001\u0000\u0000\u0000":3822,"\t*":3823,"\u0001\u0012":3824,"\u0005ù":3825," \u0000\u0000\u0000\u0000\u0000\u0000":3826,"\u0003\u0003\u0003\u0003":3827,"che":3828,"arg":3829,"H\u0011":3830,"I\u000f":3831,"ü\u0003\u0000ª":3832,"\u0003©ýÃ\u0000":3833,"\u0002\u001a":3834,"\u0000\u0000\u0007":3835,"comm":3836,"þOÂ":3837,"H":3838,"jn":3839,"\u0010ð":3840,"ô\u0003\u0002ª":3841,"t\u0000e\u0000r\u0000":3842,"\u0001\u0000\u00009":3843,"!\u001c\u0000\u0012?":3844,"HL$8":3845,"\u0014$":3846,"3Òè":3847,"*F":3848,",\u0000\u0000":3849,"O@ù":3850,"ÿÿÿÿÿ":3851,"À\u0004\u0000":3852,"ÞÝ\u000e\u0000\u0000\u0000\u0000\u001c\u0000\u0000\u0000":3853,"HÄ A^":3854,"kh":3855,"==":3856,"L5":3857,"îÿÿ\u0017":3858,"ô\u0000":3859,"14":3860,"à\b":3861,"XX":3862,"þ":3863,"dev":3864,"\u0004\u00001":3865," \n\u0005":3866,"óS\u0003©":3867,"\u0004\u000b":3868,"B\u0006\u0005":3869,"DB":3870,"\u00014":3871,"\u0004\u0001\u0000\u0000":3872,"Øè":3873,"K\b":3874,"HÉt\u0006":3875,"Windo":3876,"invalid ":3877,"ý\u0017":3878,"u\u0010":3879,"ðÿÿ\u0017":3880,"1É":3881,"\u0001\u0000\u0000¹":3882,"XF":3883,"!\u0000@ù":3884,"d\u0000o\u0000w\u0000":3885,"size":3886,"1\u0000\u0000\u0000":3887,"\u0004\u0000è":3888,"õÿ":3889,"vm":3890,"õÿT":3891,"öÿT":3892,"@)":3893,"j\u0000j\u0000":3894,"\u0000\u0002\u0000\u0000":3895,"K©":3896,"\u0006ÿÿÿ":3897,"\u001f\u0014":3898,"T\u000e":3899,"Par":3900,"l\u0000a\u0000":3901,"\u0001ë":3902,"ò.ò.ò.ò.":3903,"\u0005\u00005":3904,"put":3905,"%lu":3906,"ó\u000fX":3907,"òÿ":3908,"\u0018I":3909,"\u0006R":3910,"\u0000":3911,"fE":3912,"\u0001\u0000\u0000":3913,"þÿÿÿHX":3914,"A3":3915,"HÉt\r":3916,"±^6\u0010\u001f¬ºH@\u0010ÿ\u0015":3917,"\u0001ñ":3918,"u\u000f":3919,"t\b":3920,"2F":3921,"\u0004\u0000ñ":3922,"þ\u0017":3923,"À\u0000\u0000T":3924,"\u0005\u0000°\u0000":3925,"óÿ":3926,"cont":3927,"Q\u0000":3928,"\f\u0000°":3929,"à\u0003\u0017*":3930," re":3931,"vr":3932,"|$ ":3933,"t\u000f":3934,"d\n\u0000":3935,"G\u0000ù":3936,"@X":3937,"óÿÿ\u0017":3938,"\f$":3939,"%%":3940,"\u0001\u0000\u0000\u0000\u0000\u0000\u0000\u0000\u0000\u0000\u0000":3941,"\nÀ":3942,"ption":3943,"K ":3944,"AC":3945,"Oê":3946,"¡":3947,"ET":3948,"\u0000":3949,"1\u0000\u0000":3950,"û":3951,"B8":3952,"ÿÿ4":3953,"Á\u001a":3954,"H\\$8":3955,"siz":3956,"á\u001f":3957,"H\u0004":3958,"\u0012\u0000T":3959,"\u0001\u0000\u0000\u0000\u0000\u0000\u0000\u0000\u0000":3960,"m\u0000a\u0000":3961," x":3962,"\u00000":3963,"api":3964,"-l":3965,"\u001c\u0012":3966,"L%":3967,"\u0003":3968,"HÍ":3969,"ase":3970,"\t\u0005":3971,"ã\u0003\u0015ª":3972,"99":3973,"X\u0000\u0000\u0000":3974,"\u0007\u0000è":3975,"ý{Æ¨À\u0003_Ö":3976,"go":3977,"UN":3978,"HGù":3979,"à\u0007\u001a":3980,"@h":3981,"ë ":3982,"øÿ":3983,"umb":3984,"á\u0007@ù":3985,"()":3986,"\u0005":3987,"üà":3988,"//":3989,"\u001a":3990,"Hl$":3991,"\r":3992,"À\u0004":3993,"h\u0000\u0000\u0000":3994,"\u0006\u0000´":3995,"AVHì ":3996,"öÿÿ\u0017":3997,"E\u000f(":3998,"IÌ":3999,"o\u0000u\u0000":4000,"R\u0000e\u0000":4001," 0":4002,"\u0014k":4003,"\u0000\u0000º":4004,"\u0002\u0000\u000b":4005,"\r\u0000\u0000\u0000\u0000\u0000\u0000":4006,"Hì`":4007,"LÏ":4008,"I\u0010":4009,"_\u0000\u0000q":4010,"\u0002\u0001":4011,"Ch!¸":4012,"t\"":4013,"\t\u0000\u0000\u0000\u0000\u0000\u0000":4014,"õ[D©":4015,"\u0000\u0000 ":4016,"\u00130":4017,"HL$@":4018,"\u0010\u0000":4019,"LÂ":4020,"\u0000\u0000\u0000":4021,"\u0013\u0000T":4022,"H\u001d":4023,"ao":4024,"`\u0016":4025," %s\n\u0000":4026,"\n\u0000ð":4027,"òÿÿ\u0017":4028,"\u0001\u0000":4029,"HÄ [ÃÌÌÌÌÌÌÌÌ":4030,"j ":4031,"t\u001a":4032,"line":4033,"H;Á":4034,"\u0016\u0000Ò":4035,"\u000e\u0000A\u000b\u0000":4036,"\u0000\u00006":4037,"A\u0001R":4038,"`6":4039,"IP":4040,"!@":4041,"àc":4042,"t\u001b":4043,"\u001b@¹":4044,"Hu":4045,"\u001f2":4046,"ÏÏ":4047,"pre":4048,"jr":4049,"OR":4050,"è\u0003":4051,"\n\u0000Ð":4052,"ail":4053,"\u0001Ì":4054,"\f©":4055,"þÿµ":4056,"\u0003@\u0000":4057,"uo":4058,"ñÿÿ\u0017":4059,"ë":4060,"%1":4061,"@\u0014":4062,"\u0000y":4063,"IÔ":4064,"B@":4065,"\u0006o":4066,"\u0001":4067,"\u0001":4068,"A¼":4069,"\n\t\b\u0007\u0006\u0005\u0004\u0003":4070,"HÑ":4071,"+\u0000\u0000":4072," -":4073,"t\u0015":4074,"Mo":4075,"`.":4076,"ø":4077,"ÿt":4078,"ë\r":4079,"\u0002q":4080,"AD":4081,"A¸\u0001\u0000\u0000\u0000":4082,"\u0002\u0001":4083,"Õ":4084,"N":4085,"IØ":4086,"NU":4087,"@\u001c":4088,"py":4089,"\b\u0000\u000f\u001fD\u0000\u0000":4090,"faile":4091,"À":4092,"éÿÿ\u0017":4093,"type":4094,"Lïè":4095,"AVAUAT":4096,"Lm":4097,"\u0000i\u0000l\u0000e\u0000":4098,"sf":4099,"\u0014ð":4100,"A)":4101,"c\b":4102,"be ":4103,"A\u0000\u0000\u0000":4104,"my":4105,"L$0":4106,"A0":4107,"\"\u0001":4108,"\u0001":4109,"Îè":4110,"\u0001\u0000":4111,"H\u000fE":4112,"cd":4113," \t":4114,"à\u001f":4115,"ý{B©":4116,"\u0002\u000b":4117,"©ýC":4118,"CÓ":4119,"u\u0014":4120,"ait":4121,"\u0000h":4122,"s\u0002":4123,"\u0005":4124,"\u000eà\f":4125,"P\u0000r\u0000o\u0000":4126,"X\u0001\u0000\u0000":4127,"\u0000\u0000\u0016":4128,"À\u0001":4129,"#\u0000R":4130,"?\u0003":4131,"¢\u0013@Ñ":4132,"HL$ ":4133,"\u0000":4134,"\u0001À\u0003_Ö":4135,"\u0015\u0000\u0000\u0000":4136,"}":4137,"partition":4138,"ð}Ó":4139,"@ùã":4140,"":4141,"\u0005\u0004":4142,"D\u0000a\u0000t\u0000":4143,"ÿÿð":4144,"\u0000 ":4145,"\u0002":4146,"AÀ":4147,"cess":4148,"\u0000\u0000\u0003":4149,"\u0000\u0000(":4150,"\u0001+":4151,"f_":4152,"I[":4153,"`":4154,"stat":4155,"Ñ\u0000":4156,"õ[\u0003©":4157,"ê\u0003":4158,"t\u0013":4159,"H\f":4160,"J":4161,"â":4162,"GG":4163,"Ôé":4164,"+@¹":4165,"D$@":4166,"HT$ ":4167,"{":4168,"ted":4169,"H\u0001\u0000\u0000":4170,"H":4171,"ºÿ":4172,"\f\u0014\u0012":4173,"Se":4174,"t\u0014":4175,"h\u0000\u0000T":4176,"ù#@ù":4177,"mt":4178,"je":4179,"que":4180,"ý{Å¨À\u0003_Ö":4181,"\f\u0000":4182,"get_":4183,"@¹_":4184,"\u0000\u0000h":4185,"\u0000\u0000\u0001\u0000\u0000\u0000":4186,"s¶":4187,"bn":4188,"F":4189,"Ç":4190,"cf":4191,"J":4192,"\"\u0010":4193,"t\u0010":4194,"ëÿ":4195,"H\u0014":4196,"":4197,"DI":4198,"Þÿ":4199,"LI":4200,"ix":4201,"bñ":4202,"ae":4203,"\u0000|":4204,"ë\u000f":4205,"PE":4206,"p\u000b":4207,"ù":4208,"\u001f\u0012":4209,"ø\u00000":4210,"\u0011\u0000\u0000\u0000\u0000\u0000":4211,"\u0014\u0000\u0014\u0000":4212,"Microsof":4213,"ÿÿè":4214,"P\b":4215,"þ ":4216,"\n ":4217,"\u0016\u0000\u0000\u0000":4218,".\u000f\u001f\u0000\u0000\u0000\u0000\u0000":4219,"H\u0001ÿP\u0010":4220,"jg":4221,"en ":4222,"ìÿÿ\u0017":4223,"H\u0000\u0000\u0000`":4224,"R":4225,"wv":4226,"\u0006ÿÿÿ\u0006ÿÿÿ":4227,"Si":4228,"\u00184":4229,"hf":4230,"Hl$8Ht$@":4231,"\f\u0000Ð":4232,"\u0000\u0000ÿÿÿÿ":4233,"@ùa":4234,"\u0003 ":4235,"\u0018\u0000R":4236,"\f\u0000\u0000\u0000\u0000\u0000\u0000\u0000":4237,"I{":4238,"@2":4239,"DÏ":4240,"yyyy":4241,"K¹":4242,"&&":4243,"\u0006@ù":4244,"øgC©":4245,"K\u0010":4246,"\u0000è":4247,"\u0001\u0000@9?":4248,"@\u0002\u0000\u0000":4249,"ëÿÿ\u0017":4250,"\u0000\u0000\u0000\u0000A\u000e \u0004\u0003B":4251,"\u0006ë":4252,"-éðO":4253,"":4254,"\"":4255,"L=":4256,"L$":4257,"\u001f":4258,"\u000f¾":4259,"\"\u0001\u0000":4260,"H":4261,"@ö":4262,"ad ":4263,"HL$0":4264,"F\u0018":4265,"jp":4266,"Q\b":4267,"Hùè":4268,"@ù ":4269,"a\u0000R":4270,"Mö":4271,"B":4272,"üüüü":4273,"!ü":4274,"HÀ":4275,"y_":4276,"ÿÿÿ%":4277,"\u001a0\u001a0":4278,"øg\u0003©":4279," \u0001\u0000\u0000":4280,"Key":4281,"Cù":4282,"HL$Pè":4283,"\u0004ù":4284,"\u0000\u0000\u0000H":4285,"ðÿ":4286,"õ\u0000":4287,"\u0000i\u0000c\u0000":4288,"Eä":4289,"Â\u001a":4290,"HÇD$ þÿÿÿ":4291,"HU":4292,"\u0006":4293,"ÿÿÌ":4294,"\u0010\u0010\u0010\u0010\u0010\u0010\u0010\u0010":4295,"\n\t":4296,"++":4297,"¡\u0000":4298,"\u0007*":4299,"H":4300,"\n\u0000è":4301,"~":4302,"\u0005\u0000è":4303,"E\u0003":4304,"\u0001©ýC\u0000óS\u0002©":4305,"ß\u0000\u0000":4306,"H\\$0Ht$8HÄ _":4307,"dll":4308,"io":4309,"Ó\u000e\u0000A\u000b":4310,"H\u0003HË":4311,";\u0000\u0000":4312,"\u0005\u0000R":4313,"\u0001\u001c":4314,"; ":4315,"\u001e\u0012":4316,"à'":4317,"HÉt\f":4318,"`:":4319,"ÇD$0":4320,"B\u0004\u0000\u0011":4321,"\u0010\u0000\u0000\u0000\u0000\u0000a\u0000":4322,"\u0001\b\u0000":4323,"\\\\":4324,"äÿ":4325,"à\u000e":4326,"W\u0000i\u0000n\u0000d\u0000o\u0000w\u0000":4327,"G\u0000\u0000\u0000":4328,"jl":4329,"o\u0000f\u0000":4330,"LL":4331,"\u0000p":4332,"\u000fX":4333,"\tø \u0003":4334,"ðÿÿ":4335," \u0000\u0011":4336,"ÿ\u0007\u0007":4337,"à\u0003\u0004ª":4338,"_Ã":4339,"ry":4340,"\u0002\r":4341,"//":4342,"Ëè":4343,"MÇ":4344,"öÃ\u0001t":4345,"Bu":4346,"H=":4347,"öA\u001c\u0001t":4348,"º\u0005\u0000\u0000\u0000":4349,"3\u0000\u0000\u0000\u0000\u0000\u0000":4350,"48":4351,"ÿ×":4352,"×ØÕÖÓÔ\u000e\u0000A\u000b":4353,"ãÿÿ\u0017":4354,".\u0000\u0000":4355,"B\u000e\u0010":4356,"\u000f©":4357,"ie":4358,"ÚÙA":4359,"%s\u0000":4360,"vg":4361,"vl":4362,"ýÿ5":4363,"à\u0003\u0001*":4364,"=\u0000\u0000":4365,"\u0005\u0010":4366,"\u0000\u0000":4367,"o\u0000o\u0000":4368,"ãÿ":4369,"W\u0000\u0000\u0000":4370,"ÇG":4371,"Lî":4372,"ó\u000fE":4373,"Al":4374," \u0002":4375,"2\u0000\u0000":4376,"õÿÿ\u0017":4377,"tw":4378,"WAVAW":4379,"\u0007\u0000¹":4380,"run":4381,"Hé":4382,"version":4383,"?#\u0003Õý{¿©ý\u0003\u0000":4384,"78":4385,"mx":4386,"`&":4387,"\u0002\u0000Ð\u0000":4388,"t\u0004":4389,"H|$":4390,"To":4391,"ïÿÿ":4392,"D\u0000a\u0000t\u0000a\u0000\u0000\u0000":4393,"¨\u0001t":4394,"a¸":4395,"\u0001\u0000ÿÿÿÿ":4396,"\u0016@8":4397,"IÉ":4398,"ty\u001e":4399,"þÿ´":4400,"\u0003\u0000\u0000è":4401,"map":4402,"È":4403,"ty\u001eàÞ":4404,"H@\u0018ÿ\u0015":4405,"Õty\u001eàÞ":4406,"HD$`":4407,"\b¿":4408,"à":4409,"%\u0000\u0000\u0000":4410,"ib":4411,"\u001b\u0000¹":4412,"*\u0000\u0000":4413,"\u0010\u0000\u0000\u0000\u0000\u0000\u0000\u0000":4414,"Hÿu":4415,"Eö":4416,";Á":4417,"\u0000\u0000\u0000":4418,"\u0000":4419,"\u000b\u0000Ð":4420,"h`8":4421,"}\n  .":4422,"\u0005\u0000\u0000\u0000\u0000\u0000\u0000\u0000":4423,"\b\u0001":4424,"star":4425,"§\u0000\u0000\u0000\u0000\u0000\u0000":4426,"ÂÂ":4427,"åÿÿ":4428,"óSB©õ[C©":4429,"H\\$\u0010":4430,"º\u0002\u0000\u0000\u0000":4431,"\u001f\u0000\u0002ë":4432,"sø":4433,"\u0003\u0000\u0000\u0014":4434,"coun":4435,"TE":4436,"\r\n\u0000\u0000\u0000\u0000":4437,"Áá":4438,"1ÿè":4439,"\",\"":4440,"\u0007ù":4441,"òÿÿ":4442,"ý\u0003\u0000ý{Á¨":4443,"<\u0000<\u0000":4444,"\b@":4445,"Ðÿ":4446,"SS":4447,"TI":4448,"ce ":4449,"ÒÒ":4450,"\u0017 \u0013@Ñ":4451,"B|@":4452,"\u0000\u0000":4453,"\u001f\u0000\u0000\u0000\u0000\u0000\u0000":4454,"<@":4455,"L\u0001":4456,"ÀÀ":4457,"String":4458,"\u0016\u0004]ù":4459,"\u0017\b]ù":4460,"\u0000":4461,"õ[\u0004©":4462,"25":4463,"h\u0001\u0000\u0000":4464,"x7":4465,"tim":4466,"MP":4467,"íÿ":4468,"\fF":4469,"\u0002\u0000ë":4470,"HN":4471,"s\u0000t\u0000":4472,"Áë":4473,"E\u000fX":4474,"\u0018ë":4475,"HÉt\u0005è":4476,"¾\u0001\u0000\u0000\u0000":4477,"\b\u0000è":4478,"\u0005Ñ":4479,"HT$\u0010UHì Hê":4480,"\u000e\u0000\u0000\u0000\u0000\u0000\u0000":4481,"\u000e@¹":4482,"`\u0001\u0000T":4483,"debug":4484,"HL$(":4485,"t\u0000\u0000\u0000":4486,"Îÿ":4487,"ü\u0003\u0000*":4488,"ùk\u0004©ûs\u0005©":4489,"\u0002è":4490,"H":4491,",\u0000 \u0000":4492,"p½":4493,"ác":4494,"SU":4495,"Mð":4496,"ýÿ":4497,"\u0002!":4498,"HÄ(ÃÌÌÌÌÌÌÌÌ":4499,"Möt":4500,"á\u0000\u0000T":4501," \u0000\u0000\u0000\u0000\u0000":4502,"xc":4503,"µ\u0000":4504,"\u0005\u0000\u0000\u0014":4505,"+Á":4506,"x\u0001\u0000\u0000":4507,"\u0000\u0000\u0000\u0012":4508,"\f\u0001\u0000\u0000\u0000":4509,"t\u0017":4510,"C\u0000o\u0000n\u0000":4511,"DÆ":4512,"ß":4513,"s\u0000.\u0000":4514,"MÄ":4515,"`\u0001":4516,"\u0006Ø":4517,"\u0000\u0000\u0001":4518,"\u0005k":4519,"D\u000f\u0011":4520,"wl":4521,"\u0000@\u0001\u0000\u0000\u0000":4522,"ÞÝ\u000e\u0000\u0000\u0000\u0000$\u0000\u0000\u0000":4523,"\u001f¼":4524,"":4525,"ø\u0010":4526,"î\u0001\u0000\u0000\u0000\u0000\u0000":4527," %d":4528,"ree":4529,"\u0002\u0000\u0000\u0000A\u000e":4530,"ÿ\u0001":4531,"y)":4532,"ß\u0000":4533,"\u000e\u0000ð":4534,"\u000fÆ":4535,"\u0018ð":4536,"\u0000e\u0000n\u0000t\u0000":4537,"`\u0006@¹":4538,"ý{Ä¨¿#\u0003ÕÀ\u0003_Ö":4539,"`\f\u000b":4540,"úúúú":4541,"\u0012À":4542,"Dz":4543,"±\u0000":4544,"Cð":4545,"one":4546,"Gù\u0000\u0000@¹\u001f":4547,"HT$@":4548,"øÿÿ\u0017":4549,"ø":4550,"\u0005\"":4551,"õá":4552,"¤\u0000\u0000\u0000":4553,"óSD©":4554,"A\n":4555,"À~":4556,"\n":4557,"\\\u0000\u0000\u0000":4558,"C\u000b":4559,"u":4560,"HÿÂ":4561,"&\u0000\u0000":4562,"                ":4563,"CO":4564,"\b\u0000ù":4565,"\u0004\u0011":4566,"34":4567,"£\u0013@Ñ":4568,"K{D\u001bh":4569,"À\u000f":4570,"_ÃÌÌÌÌÌÌÌÌ":4571,"t\u0016":4572,"\b\u0000\b\u0000":4573,"c\u0000\u0000T":4574,"w ":4575," \u0000Ò":4576,"\f@ù":4577,"`\u0002\u0000ù":4578,"\u0005\u0006":4579,"îÿ":4580,"\"\u0000\u0000\u0000":4581,"\r\u0006":4582,"k\u0001":4583,"K\u0000\u0000":4584,"xe":4585,"\rF":4586,"\u0001Q":4587,"\u0006":4588,"Â":4589,"***ÿ":4590,"bp":4591,"4\u0000\u0000":4592,"\u0000ü":4593,"Z\u0000\u0000":4594,"¼¥":4595,"ÿ\b\b":4596,"÷cD©":4597,"?\u0000\u0002ë":4598,"þT":4599," \u0000\u0000\u0000\u0000\u0000\u0000\u0000":4600,"vp":4601,"Hd$ \u0000":4602,"ìÿ":4603,"\f\u0000\u0000\u0000%1":4604,"{{":4605,"ÿ\u0000\u0000\u0000ÿ\u0000\u0000\u0000ÿ\u0000\u0000\u0000ÿ\u0000\u0000\u0000":4606,"¨\u0000\u0000T":4607,"$$":4608,"\f\u0000\u0000\u0000%1\r\n\u0000\u0000\u0000\u0000":4609,"\"":4610,"xè":4611,"ØÚV":4612,"\b\u0000\u0000\u0000\u0000":4613,"Æ\u0004":4614,"Dð":4615,"ÆEü":4616,"ÿÿ\u0017":4617,"\u0004@9":4618,"ØÚVs¶":4619,"ØÚVs¶Aý":4620,"vt":4621,"\u001f$\u0000q":4622,"\u0004\u0000":4623,"\b\u0000´":4624,"_in":4625,"-win":4626,"ø\u0002":4627,"No":4628,"typ":4629,"u\u0016":4630,"ÿt$":4631,"ï\u0003\u001aª":4632,"ÿÃ\u0001Ñ":4633,"S":4634,"ld":4635,"A#":4636,"\b\u0003":4637,"u\u0003":4638,"\u0010ë":4639,"%c":4640,"wo":4641,"\u001b\u0000\u0000\u0000":4642,"C@ù":4643,"é\u0000":4644,".r":4645,"\u0006\u00001":4646,"B\u0003":4647,"&\u0000\u0000\u0000":4648," \u0000q":4649,"8":4650,"ype":4651,"D\u000fX":4652,"3ÒHÈHÿ\u0015":4653,"\u0002\u0004\u0000":4654," \u0002@ù":4655,"":4656,"LÎ":4657,"HÍè":4658,"ve ":4659,"\t\u0000\u000f\u001fD\u0000\u0000":4660,"óSA©ý{Ã¨À\u0003_Ö":4661,"HÓ":4662,"ôÿÿ\u0017":4663,"N\u0000a\u0000m\u0000e\u0000\u0000\u0000":4664,"le ":4665,"p\u0000a\u0000":4666,"D\u000f)":4667,"°½èð":4668,"H;Ê":4669,"$":4670,"@":4671,"\u00009":4672,"ÆC":4673,"c\u0001":4674,"fun":4675,"Dd$":4676,"`\u0000":4677,"\nÞÝÕ":4678,"\u001f\u0000\u0001":4679,"ÛÛ":4680,"ist":4681,"BB":4682,"í":4683,"Dt$":4684,"\bS":4685,"A\u000f\u0011":4686,"Hl$H":4687,"x":4688,"H\u000e":4689,"AM":4690,"H|$":4691,"H\\$H":4692,"!\u0000R\u0000\u0000R":4693,"DÇ":4694,"\u001e@ù":4695,"\u0006\u0000°\u0000":4696,"3l":4697,"ý\u0003\u0000ý{Á¨¿#\u0003Õ":4698,"1Û":4699,"base":4700,"úÿ\u0017":4701,"H":4702,"HÆ":4703,"\t\u0004":4704,"yo":4705,"à\u0014":4706,"\u0007\u0000´":4707,"®è":4708,"\u0017ë":4709,"H\u0015":4710,"¢":4711,"ange":4712,"K":4713,"E3À3Ò":4714,"\u0003\u0000":4715,"\u0005\u0003":4716,"H¹":4717,"\tª":4718,"êÿÿ\u0017":4719,"c@":4720,"ÍÍ":4721,"\b\u0000Q":4722,"ó\u000b@ùý{Â¨À\u0003_Ö":4723,"H\u000b":4724,"þ\u0000":4725,"lic":4726,"\u0012à":4727,"ø\u0001u":4728,"\u000f¶À":4729,"HD$X":4730,"ÿÿL":4731,"\u000f":4732,"×è":4733,"uu":4734,"`\b":4735,"ë\u00023À":4736,"\u0002\u0011":4737,"\r\u0001\u0000\u0000\u0000":4738,"h\u001a":4739,"èÿÿ\u0017":4740,"?\u0004\u0000q":4741,"CR":4742,"s\"\u0000":4743,"à":4744,"K¹":4745,"wg":4746," ò":4747,"Ht$`":4748,"ÿÿ\u0000":4749,"\u001dÑ":4750,"\u0001é":4751,"director":4752,"\u0012":4753,"\u000e\u0000°":4754,"I÷":4755,"\u0016\u00008":4756,"x":4757,"\u000f\u0010\u0005":4758,"\u0001\u0000À":4759,"\u0016ë":4760,"\u0017\u0000Ò":4761,"{\u0018":4762,"\u0000q\u0004\u0018":4763,"\u0000\u00000":4764,"\u0000\u0000\u0000":4765,"\u0001|":4766,"ces":4767,"G\u000e":4768,"ÌÌÌÌÌÌH":4769,"link":4770,"\u001cë":4771,"/pro":4772,"ú":4773,"â\u001f":4774,"J\u0010":4775,"0\u00000\u0000":4776,"µ\u0006\u0000":4777,"var":4778,"L-":4779,"ream":4780,"\n\u0000q":4781,"a\u0002":4782,"-ms":4783,"qk":4784,"{ *(.":4785,"EP":4786,"clas":4787,"\u0002\u0000ð\u0000":4788,"áÿÿ\u0017":4789,"HÈÿ":4790,"IÌè":4791,"Ä\u0004":4792,"\u0007\u0000":4793,"H":4794,"ong":4795,"Bü":4796,"â":4797,"a\u0006@ù":4798,"à/":4799,"£":4800,"óS\u0004©":4801,"ì|":4802,"º©ý\u0003\u0000óS\u0001©":4803,"ã\u0003\u0019ª":4804,"HÎHÿ\u0015":4805,"â\u000f\u0000":4806,"jm":4807,"E3í":4808,"H\f":4809,"o\u0001":4810,"\u0004\u0007":4811,"_S":4812,"p\u0000\u0000\u0000":4813,"\u0002@¹":4814,"U":4815,"t!":4816,"÷Ð":4817,"17":4818,"qh":4819,"\u001fh":4820,"\u0000\u0000\u0000\u0000\u0000\b\u0000\u0000\u0000\u0000\u0000\u0000\u0000":4821,"\u0014@8":4822,"r ":4823,"\u0000\u001c\u0000\u0012\u001f$\u0000q":4824,"from":4825,"\u0000à":4826,"H":4827,"êÿ":4828,"UW":4829,"t-":4830,"HL$H":4831,"form":4832," \u0004\u0000":4833,"Lt$":4834,"\u0000\u0002":4835,"~D":4836,"\u0010½":4837,"Æ\b":4838,"@À":4839,"\u0003F":4840,"ý{C©":4841,"á\u0003\u0002ª":4842,"\u0000\u0000H":4843,"ä\u0000":4844,"ost":4845,"\u000fÀ":4846,"ÿÖ":4847,"bg":4848,"%-":4849,"\u0000\u0004k":4850,"ø·":4851,"":4852,"\u001c\u0000\u0011":4853,"?#\u0003Õý{¿©":4854,"c":4855,"ô\u000b@ù":4856,"þ\u0000\u0000\u0000\u0000\u0000\u0000":4857,"â\u0003\u0015*":4858,"HL$ ":4859,"ñÿÿ":4860,"System":4861,"\fR":4862,";È":4863,"\u00040":4864,"ã\u0003\u0000*":4865,"æÿ":4866,"E":4867,"\u0000q\u0000\u0000T":4868,"nown":4869,"L\u0000\u0000\u0000":4870,"ã\u0003\u0013ª":4871,"IÕ":4872,"öÂ":4873,"s@":4874,"à\u000f@ù":4875,"\u0003\u001b":4876,"\u0005ë":4877,"\u0002\u000f":4878,"\u0018\u0018":4879,",\u0000\u0000\u0000\u0000\u0000\u0000":4880,"too ":4881,"ÁþÿT":4882,">â#":4883,"÷\u0003\u0001ª":4884,"HÛ\u000f":4885,"$":4886,"wt":4887,"\u0001\u0000\u0001\u0000\u0000\u0000":4888,"G\u0010":4889,"-ms-win":4890,"\u0002\u0000\u0000\u0000\u0000":4891,"\u0000":4892,"Create":4893,"-ms-win-":4894,"Val":4895,"on ":4896,"B\u0018":4897,"_re":4898,"Â":4899,"p\b":4900,"+\u0006":4901,"S@ù":4902,"ÌÌÌÌÌÌÿ%":4903,".\u0000\u0000\u0000":4904,"\u0002#":4905,"t\u0019":4906,"øÀy":4907,"g\u0000e\u0000":4908,"ed ":4909,"ator":4910,"\f\u0000ð":4911,"#\u0000¹":4912,"\u0000\u0000´":4913,"LÅ":4914,"fu":4915,"ÿÿÿÿÿÿÿ":4916,"óSC©õ[D©":4917,"#h":4918,"E¹":4919,"f\u000f\u001f\u0000\u0000\u0000\u0000\u0000":4920,"_r":4921,"à\u000b\u0000ù":4922,"\u0001\u0000\u0000\u0000\u0000\u0000\u0000\u0000\u0000\u0000\u0000\u0000\u0000\u0000\u0000\u0000":4923,"F\u0001":4924,"bò":4925,"CP":4926,"ÕÖÓÔ\u000e\u0000A\u000e":4927,"Oð\u0000\u0003":4928,"_$\u0003Õ":4929,"]ÃÌÌÌÌÌÌÌÌÌ":4930,"a\n":4931,"D)":4932," \u0002\u001fÖ":4933,"ã\u0003\u0017ª":4934,"qd":4935,"-\u0000\u0000":4936,"ir":4937,"óSA©ý{Â¨À\u0003_Ö":4938,"¥¥":4939,"­\u0000":4940,"HÄ _ÃÌÌÌÌÌÌÌÌ":4941,"HÿÃ":4942,"86":4943,"C\f":4944,"H\b":4945,"ñè":4946,"H\u001b":4947,"\u0003\u00009":4948,"þ\u0007":4949,"ýýýý":4950,"H\u001d":4951,"\u0000":4952,"H\\$\u0010H":4953,"2.":4954,"H\u0001H@\bÿ\u0015":4955,"A\u0001\u0000T":4956,"\u0001\u0000\t":4957,"suppor":4958,"\u0001\u0000º":4959,"ø\f":4960,"E ":4961,"Er":4962,"o\u0004\u0000":4963,"\u0002L":4964,"<\u0000\u0000":4965,"Qè":4966,"¤\u0000":4967,"ÿ":4968,"Ç$":4969,"à\u0003\u0019*":4970," p":4971,"ò\u000fX":4972,"fd":4973,"ÌÌÌÌÌÌÌÌÌÌÌÌÌ":4974,"\u0010\u0000\u0000\u0000\u0000":4975,"ÌÌÌÌÌÌÌÌÌÌÌÌÌÌ":4976,"LL$":4977,"\nÞÝÕÖÓÔ\u000e\u0000A\u000b":4978,"yn":4979,"Äé":4980,"â":4981,"È\u0000":4982,"\u0018\u0000\u0000\u0000\u0000\u0000\u0000\u0000":4983,"!à":4984,"_\u0000\u0001ë":4985,"Ç\u0006":4986,"á":4987,"H÷Ø":4988,"ë\u0013":4989,"xn":4990,"ªªªª":4991,"v5v5":4992,"":4993,"ë\u0012":4994,"Mü":4995,"C0":4996,"ÿÿÿè":4997,"O":4998,"an ":4999,"\u0010µ":5000,"@@@@":5001,"\u0001\u0000":5002,"Ï\u0000":5003,"t(":5004,"¦\u0003":5005,"\u0013K":5006,"byte":5007,"\u0001\u001b":5008,"(\n":5009,")\u0000\u0000\u0000":5010,"s\n\u0000":5011,"\u001f \u0003Õ\u001f \u0003Õ\u001f \u0003Õ":5012," \u0000N":5013,":F":5014,"\u0005\u0000ð!":5015,"!\u0001\u0000T":5016,"s\u0000e\u0000":5017,"A(":5018,"P":5019,"ÆÆ":5020," \u0001\u0000":5021,"\u0002\u0005õá":5022,"\u000b\u0000°":5023,"z":5024,"÷cE©":5025,"l\u0000\u0000\u0000":5026,"f\u0000f\u0000":5027,"@¹\u001f\u0000\u0000q":5028,"¼©":5029,"\u0002\u0001\u0000":5030,"\u000f4":5031,"`\u0000\u0000´":5032,"\u001b\u0000R":5033,"\u0000":5034,"à\u001f\u0000ù":5035,"à\u0006":5036,"ÃÃ":5037,"":5038,"8":5039,"size ":5040,"ã\u0001":5041,"cor":5042,"á\u000b@ù":5043,"\u0002¹":5044,"_T":5045,"\u0002\u0005õá\u0000@":5046,"\u0006":5047,"fA":5048,"":5049,"cÀ":5050,"Áê":5051,"á\u000f":5052,"ú÷":5053,"ã\u0003\u0016ª":5054,"B|":5055,"\u0001\u0000\u0016":5056,"A½":5057,"\u0003":5058,"` ":5059,"}D":5060,"ÿ\u0010":5061,"system":5062,"Me":5063,"ult":5064,"3\u0000\u0000":5065,"\u0007\u0000Ñ":5066,"E\u000e":5067,"P":5068,"@¹\u0000\f\u0014\u0012":5069,"4":5070,"WHì@":5071,"IÊ":5072,"-l1-":5073,"arch":5074,"ÿÿ´":5075,"\u0001":5076,"0\u0002":5077,"Z@":5078,"á\u0003\u0014ªà\u0003\u0013ª":5079,"¼\u0000\u0000\u0000":5080,"07":5081,"\u0018h":5082,"AÁ":5083,"@¹":5084,"t\u001f":5085,"/\u0000\u0000\u0000":5086,"HÿÁ":5087,"mr":5088,"u\u0017":5089,"\u0005":5090,"Ik":5091,"arn":5092,"ale":5093,"ÿÇ":5094,"ô\u0003\u0001*":5095,"qH":5096,"FFFFFFFF":5097,"\u000e©":5098,"H`":5099,"\"F":5100,"ø#":5101,"Hÿ\u000f":5102,"ôWA©ö_B©øgC©":5103,"\u0002\u001f\u0004\u0000q":5104,"HL$P":5105,"\u0013\u0000\u0012":5106,"~":5107,"\u0012\u0000ù":5108,"cre":5109,"D$P":5110,"\u0002":5111,"Ht$H":5112,"Ë":5113,"\u0001q ":5114,"ô~Ó":5115,"\u0000\u0000ø":5116,"p\u0000p\u0000":5117,"OP":5118,"%.":5119,"bt":5120,"\u0007":5121,"\u0000\u00009":5122,"((":5123,"\u0002\u0001ë":5124,"\u000f¿":5125,"`\f":5126,"Ev":5127,"] ":5128,"à\u0017@ù":5129,"HÒ\u000f":5130,"°\u0001\u0000\u0000":5131,"u\u0013":5132,"\u0003\u0000µ":5133,"\bñ":5134,"T\u0000\u0000\u0000":5135,"|D":5136,"Æ\u0000\u0000":5137,"L¹":5138,"cal":5139,"ôÿT":5140,"H;Î":5141,"C\u0000¹":5142,"\u0019\u0000R":5143,"y":5144,"\u0003R":5145,"LE":5146,"\u0003\u000b":5147,"Ph":5148,"A\u0002":5149,"@\u0000?Ö":5150,"mg":5151,"2 ":5152,"AÖ":5153,"BÀ":5154,"çÿÿ\u0017":5155,"IÍ":5156,"\u0002\u0000°\u0000":5157,"\u000e\u000e\u000e\u000e":5158,"88":5159,"KzD":5160,"º\u0000":5161,"HÉt\fHÿ\u0015":5162,":\u0000\u0000":5163,"\u0014\u0000T":5164,"Ïè":5165,"a\u001a":5166,"5\u0000\u0000":5167,"À\u000f":5168,"ø÷":5169,"ation ":5170,"\u0010\u0000\u0001":5171,"USVW":5172,"¢¢":5173,"H\\$0HÇ":5174,"\u0002\u0001":5175,"¨*":5176,"ÿq":5177,"\u0006A":5178,"H-":5179,"api-ms-win-":5180,"@\u0000\u0000\u0000\u0000\u0000":5181,"`J":5182,"\t\u0000´":5183,"ýÿ4":5184,"B\u001c":5185,"ôôôô":5186,"cu":5187,"æÿÿ\u0017":5188,"`\u0004\u0000":5189,"1í":5190,"LD$0":5191,"P\u0002\u0000\u0000":5192,"\u001a\u0012":5193,"ã":5194,"_M":5195,"E\f":5196,"H\u0001H@":5197,"\b\u0000\u0011":5198,"\u0004\u0000\u0004\u0000":5199,"jd":5200,"à\u0003\u0000ù":5201,"hk":5202,"\u0003":5203,"F\u0002":5204,"\u0004\u0005":5205,"àK":5206," è":5207,"pµ":5208,"B¹":5209,"Tr":5210,"\u0005\u0000Ð!":5211,"[]Ã":5212,"\u0000qa\u0000\u0000T":5213,"ööö":5214,"\u0015\u0000T":5215,"@9!":5216,"H\\$\u0018":5217,"¾©ý\u0003\u0000ó\u000b\u0000ùó\u0003\u0000ª":5218,"/\u0000\u0000":5219,"åÿÿ\u0017":5220,"óSA©ý{Â¨¿#\u0003ÕÀ\u0003_Ö":5221,"é\u0001t":5222,"!h":5223,"nal":5224,"\u0016\u0004]ù\u0017\b]ù":5225,"\u0002\u0013ë":5226,"\u0006H":5227,"à£":5228,"66":5229,"aÿÿT":5230,": \u0000":5231,"@ùb":5232,"õ[E©":5233,"0\u0001":5234,"`j":5235,"p\u0003":5236,"":5237,"_I":5238,"\u0000\u0000\u0001\u0000":5239,"\u0000\u0000¹":5240,"L":5241,"C¹":5242,"ë\u0010":5243,"\u0000":5244,"\u0006\u0000R":5245,"@V":5246,"<":5247,"±\u0001":5248,"]ÃÌÌÌÌÌÌÌÌÌÌ":5249,"\u0006\u0000è":5250,"8µ":5251," \u0005":5252,"ë\u001c":5253,"\u0007@ù\u0001\u0000@ùB\u0000\u0001ë\u0001\u0000Ò":5254,"\u0010©":5255,"\u00024\u00024\u00024\u00024":5256,"\u0010\u0000\u0000\u0000\u0000\u0000\u0000":5257,"u\u0015":5258,"\u0012\u0012":5259,"Îÿ\u0015":5260,"ýó\u0003\u0000ª":5261,"a\u0002@¹":5262,"t\u0003":5263,"á\u0003\u0015ªà\u0003\u0013ª":5264,"\bA":5265,"9\u0000\u0000":5266,"\u0019\u0000\u0000\u0000":5267,"þOÂ¨À\u0003_Ö":5268,"ii":5269,"n\u0000d\u0000":5270,"þÀ":5271,"\u0017YÞ":5272,"\n\u0004":5273,"\u001c4":5274,"\u00187":5275,"\u000e\u0000\u0016":5276,"K\u0000\u0000\u0000":5277,"øD":5278,"¡\u0003":5279,"HÄ ]ÃÌÌÌÌÌÌÌ":5280,"@ ":5281,"À\u0000\u0000":5282,"À\u0001\u0000\u0000":5283,"\u0004\u0000":5284,") }\n  .":5285,"\u0006\u0000\u0000\u0000\u0000\u0000\u0000":5286,"\n\u0000°":5287,"\u000fÀ":5288,"À\u0000Q\u0000\u001c\u0000\u0012\u001f$\u0000q":5289,"\b":5290,"44":5291,"spe":5292,"\u0001\u0001\u0000T":5293,"DO":5294,"***ÿ***ÿ":5295,"\u001fè":5296,"gnu.":5297,"\u0018Ht$ ":5298,"\u001fx":5299,"à\u0017\u0000ù":5300,"öÁ":5301,"@\u0005":5302,"a\n@ù":5303,"! ":5304,"\u0017":5305,"\u0000a\u0000i\u0000":5306,"\u0000\u0000\u0000":5307,"\u0006(":5308,"Ò\u0001\u0000\u0000Ô\u001f\u0004@±":5309,"H;Ï":5310,"g\u0000 \u0000":5311,"s\u0006\u0000\u0011":5312,"\u0015\u0012":5313,":\u0000:\u0000":5314,"\u001f4":5315,"l ":5316,"ýÿ´":5317,"xd":5318,"\u0002\u0000\u0000":5319,"\u0006\u0000\u0000":5320,"÷ÿÿ\u0017":5321,"vb":5322,"Úÿ":5323,"\u001f\u0018":5324,"LÈ":5325,"H\\$0Hl$8Ht$@":5326,"\u0018é":5327,"ÿC@Ñ":5328,"\u0006à":5329,"3\u0000R":5330,"¬\u0000\u0000\u0000":5331,"Ûy":5332,"ffer":5333,"P\u0004":5334,"\u0003":5335,"%4":5336,"@ù":5337,"ô\u000b\u0000ù":5338,"»\u000e\u0000\u0007":5339,"sj":5340,"\u0007@¹":5341,"qf":5342,"xg":5343,"HC\b":5344,"Ê":5345,"ù":5346,"+È":5347,"\u0004\u0000\u0000è":5348,"t%":5349,"IÍè":5350,"\\$ ":5351,"qui":5352,"ø\u0000\u0000":5353,"E\u0010":5354,"ßÿ":5355,"D|$":5356,"p\u0010":5357,"back":5358,"3Àë":5359,"\u0001Ò":5360,"T\u000eT\u000e":5361,": %s":5362,"R":5363,"0ÿ\u0015":5364,"1 ":5365,"@H":5366,"":5367,"}":5368,"\u0019\n\u0002\u0000\n":5369,"´\u0000\u0000\u0000":5370,"\n\u0000\u000f\u001fD\u0000\u0000":5371,"ÿu\f":5372,"r\u0000o\u0000s\u0000":5373,"da":5374,"â\u0003\u0014*":5375,"\u0006\u00005":5376,"xr":5377,"\u0018\u0003":5378,"@ø":5379,"à\u0001":5380,"ð\n":5381,"/proc/":5382,"rite":5383,"Ä\u0010":5384,"îÿÿ":5385,"£\u0000":5386,"»\u0001\u0000\u0000\u0000":5387,"Ti":5388,"\u0001\u0000\u0000":5389,"\u0010ñ":5390," \u0018":5391,"3@¹":5392,"\u0002p":5393,"IÀ":5394,"äÿÿ\u0017":5395,"ÔÓA":5396,"t\u001c":5397,"Ëÿ\u0003\u0000ù":5398,"Oô":5399,"Lð":5400,"÷c\u0005©":5401,"ù#\u0000ù":5402,"HÄH":5403,"\u0007\u0007\u0007\u0007":5404,"\u0004\f":5405,"\u0017YÞ\u0017YÞ":5406,"HM":5407,"Ìÿ":5408,"\u0000\u0000":5409,"\u0013Ë":5410,"`\u000e@ù":5411,"ÿ\u0001Ñ":5412,"+\u0000\u0000\u0000":5413,"¼p":5414,"\nÞÝÓ\u000e\u0000A\u000b":5415,"EAA":5416,"":5417,"Ñÿ":5418,"\u0000\u001c":5419,"¸W\u0000\u0007":5420,"ð\u0010":5421,"Ser":5422,"\bu":5423," ":5424,".rel":5425,"Ûx":5426,"\u0010\u0006\u0000\u0000":5427,"û+@ù":5428,"ª\u0000":5429,"\u0007\u00005":5430,"\u0000i\u0000c\u0000r\u0000o\u0000s\u0000":5431,"Æ@":5432,"ø\u0003\u0000*":5433,"H3ÄH":5434,"ÿÿT":5435,"":5436,"Comp":5437,"¸\u0001\u0000\u0000":5438,"\u0005r":5439,"\u0000i\u0000c\u0000r\u0000o\u0000s\u0000o\u0000f\u0000":5440,"\\ø":5441,"`R":5442,"3\u0000\u0000\u0000":5443,"":5444,"om":5445,"\u0001P":5446,"\u0004":5447,"Î\u0000":5448,"\u0017\u0017":5449,"S\u0000\u0000\u0000\u0000\u0000":5450,"\u000bR":5451,"MÅ":5452,"H":5453,"ÿÁ":5454,"\u001e\u0000\u0000\u0000":5455,"õ[\u0005©":5456,"\u0000\u0004\u0000O":5457,"QF":5458,"!\f":5459,"\b6":5460,"H":5461,"ln":5462,"\u0000\u0000\u0018":5463,"\u0003\u0004":5464,"Bz":5465,": { *(.":5466,"\u0002\u0000":5467,"b¡":5468,"¨\u0000":5469,"A,":5470,"^\u0000":5471,"Hìp":5472,"L÷è":5473,"HL$`è":5474,"Ã}":5475,"\u0006\u0000ù":5476,"\u0001\u0019":5477,"\u0003\u0000\u0003\u0000":5478,"ÿ":5479,"t\u001d":5480,"Au":5481,"lf":5482,"ÞÝÓ":5483,"¿\u0000\u0000¿\u0000\u0000¿\u0000\u0000¿\u0000\u0000":5484,"!`":5485,"à\u0013":5486,"çÿ":5487,"d\u0000q":5488,"I;Î":5489,"56":5490,"\u0007":5491,"ÿo7":5492,"ÉÂ":5493,"":5494,"L$\b":5495,"j\u0010":5496,"\u0002\u000f":5497,"old":5498," \u0000\u0000":5499,"E1ä":5500," R":5501,"Ô\u0000":5502,"y\u0000 \u0000":5503,"scri":5504,"print":5505,"ßÿÿ\u0017":5506,"]\u0000]\u0000":5507,"A~":5508,"\u0006K\u0004\u0000":5509,"ç&":5510,"\u0013\u0013":5511,"\u0002Ë":5512,"ë\u0014":5513,"A\u000fY":5514,"\t\u0000ð!":5515,"E\u0000\u0000":5516,"% ":5517,"C(":5518,"* ":5519,"Cont":5520,"à\u0004\u0000":5521,"\u0006K\u0004\u0000N\u0000a\u0000m\u0000e\u0000\u0000\u0000":5522,"H\u0002":5523,"\u0001`":5524,"IyD":5525,"vw":5526,"24":5527,"!ÿÿT":5528,"gp":5529,"Hº":5530,"ÐGù":5531,"t:":5532,"_\u0003":5533,"_\u0000\u0000ë":5534,"`b":5535,"ý":5536,"\u0018S":5537,"p\u0004`\u0003":5538,"ò\u000fY":5539,"3l\u0000\u0000\u0000\u0000":5540,"\u0003\u0000k":5541,"_t":5542,"\u0001\u0000é":5543,"Ht$":5544,"ü\u0003q":5545,"\u0007\u0001":5546,"µ\u0006\u0000\u0011":5547,"urn":5548,"\u0001\u0000H":5549,"\u0004 ":5550,"@ý":5551,"mk":5552,"u\u001a":5553,"]Â\u0004\u0000":5554,"h\u0001":5555,"ë\u0015":5556,"\u0006\u0000ð\u0000":5557,"öööööööö":5558,"able ":5559,"\u0002\u0000\u0000\u0000@\u0000\u0000\u0000":5560,"HS":5561,"\u0006\u0010":5562,"Ñè":5563,";\u0000¹":5564," 8":5565,"à\u0003\u0000":5566,"D$":5567,"gt":5568,"@A":5569,"":5570,"º©":5571,"`\u0006\u0000¹":5572,"¨¨":5573,"LL$ ":5574,"à\u0000\u0000":5575,"^\u0000\u0000\u0000\u0000\u0000":5576,"\u0001\u0000T":5577,"\u0019t":5578,"\u0015ð":5579,"ect":5580,"- ":5581,"llu":5582,"\u0014\u0010":5583,"\u0000\u0000\u0000H\r":5584,"øøøø":5585,"Z":5586,"\u0001\u0000\u0000\u0012":5587,"Lú":5588,"H\u000e":5589,"\u001f|":5590,"cannot ":5591,"\"\f":5592,"E":5593,"\u0000\u0001":5594,"Fy":5595,"»W\u0000\u0007":5596,"Lù":5597,"\u001c$":5598,"OC":5599,"name\u0000":5600,"\u0006\u00004":5601,"PA":5602,"`\n\u0000ù":5603,"\u0003Ë":5604,"\u0006":5605,"\u0002À":5606,"|$\u0018":5607,"ah":5608,"Cl":5609,"\u0001y":5610,"@":5611,"âÿÿ\u0017":5612,"\bÀ":5613,"u\u0018":5614,"\u0019":5615,"]\u0000\u0000\u0000\u0000\u0000":5616,"Az":5617,"Û":5618,">\u0000\u0000":5619,"\u0018F":5620,"à?":5621,"urrent":5622,"þó\u0003\u0000ª":5623,"H\u000fD":5624,"P\n\t":5625,"man":5626,"Lö":5627,"Po":5628,"b\u0000\u0000":5629,"\u0002\u0000ÿÿÿÿ":5630,"For":5631,"ji":5632," \u0000?Ö":5633,"WATAUAVAW":5634,"y\u0018":5635,"\u000fd":5636,"\u0014Ë":5637,"Q\u0010":5638,"\u000e\u0004":5639,"\u001c\u001c":5640,"\u0007\u0000Q":5641,"Hi":5642,"ÿÿH":5643,"o\u0004\u0000D\u0000a\u0000t\u0000a\u0000\u0000\u0000":5644,"Lï":5645,"\u0003":5646,"\u0012\u0000\r\u0000":5647,"user":5648,"\u0001":5649,"+Â":5650,"÷c\u0004©":5651,"¢\u0000":5652,"¿\u0001\u0000\u0000\u0000":5653,"'%s' ":5654,"B\u0014":5655,"#r":5656,"bf":5657,"µ\u0002":5658,"à\u000f\u0000ù":5659,"à\u0003\u0014ªóSA©":5660,"#@¹":5661,"à\t":5662,"c\u0001":5663,"t$":5664,"EX":5665,"\u0000\u0000\u0012Ch!¸":5666,"´\u0000":5667,"@0":5668,"\u0002©ý\u0000óS\u0003©":5669,"with ":5670,">":5671,"\u0001ü":5672,"HL$8è":5673,"\u0004\u0000":5674,"bá":5675,"P\u0005\u0005":5676,"\u0016\u0016":5677,"B\u001c\u0000\u0012":5678,"\u0003":5679,"Eð":5680,"LÜI[":5681,"ception":5682,"HW":5683,"Windows":5684,"\u000e\u0001\u0000\u0000\u0000":5685,"\u0001\u0000\u0000":5686," \u0001\u00005":5687,"ñ":5688,"lay":5689,"J\b":5690,"à\u0005":5691,"\u0005\u0006":5692,"0":5693,"`\u0007":5694,"0":5695,"4g":5696,"\u0000\u0000\u0000\u0000\u0000\u0000Û":5697,"`z":5698," h":5699,"\nª":5700,"6\u0000\u0000":5701,"d\u0000i\u0000":5702," \u0001\u0000T":5703,"ø ":5704,"ÿè¼¥":5705,"m\u0000p\u0000":5706,"{\u0000":5707,")\n":5708,"H{":5709,"\u0012\u0000\u0000\u0000\u0000\u0000\u0002\u0004\u0000\u0000":5710,"<":5711,"c\u0000o\u0000":5712,"@\u0001\u0000":5713,"ress":5714,"s\u0018":5715,"":5716,"ë\u0011":5717,"\u000f·Ø":5718,"\u001f \u0003Õý{¿©":5719,"HD$p":5720,"\u001a\u0000R":5721,"fø":5722,"ÙÙ":5723,"\u0002":5724,"ame\u0000":5725,"H|$H":5726,"HL$@":5727,"\u0001\u0000q":5728,"HD$0":5729,"`¢":5730,"Hít":5731,"H+Á":5732,"Ëè":5733,"PQ":5734,"writ":5735,"/et":5736,"\u0000\u0000\u0000\u0000\u0000\u0000Û\u0000\u0000\u0000\u0000\u0000\u0000Û":5737,"Inter":5738,"é\u0000\u0000":5739,"Dl$":5740,"Mc":5741,"Ð!ðFùã":5742,"3ÒHÿ\u0015":5743,"È\u0000\u0000T":5744,"=%":5745,"\u000f@ù\u0001\u0000@ùB\u0000\u0001ë\u0001\u0000Ò":5746,"!|@":5747,"S\u0000\u0000\u0000":5748,"\u000e\u0000¹":5749,"HA\b":5750,"wh":5751,"á\u000f@ù":5752,"\u0002Ð":5753,"ìÿÿ":5754,"â\u0003\u0013*":5755,"\b\u0000\u0014":5756,"HL$(":5757,"`\u0002\u0000\u0000":5758,"ý\u0003\u0000ó\u000b\u0000ù":5759,"à[":5760,"3\u0000¹":5761,"LÉ":5762,"à\u0013@ù":5763,"ý\u0000":5764,"c\u0000\u0000Tc\u0000\u0000T":5765,"HìH":5766,"G\u0018":5767,"\u0007è":5768,"file\u0000":5769,"C\u0000\u0000":5770,"det":5771,"óÿóÿ":5772,"ÿ\u0003\u0004":5773,"ity":5774,"\u0000\u0000T":5775,"\u0010\u0002":5776,"Type":5777,"l\u0000o\u0000":5778,"Name":5779,"\b":5780,":¹":5781,".L":5782,"Hl$X":5783,"E\u000f·":5784,"\u0000\u0000\u0000\u0000\u0001\u0000":5785,"\u0004\u0000":5786,"t\u0000o\u0000 \u0000":5787,"\u0001H":5788,"ÑÑÒ":5789,"@\u0001\u0000T":5790," \u0013@Ñ¡\u0013@Ñ":5791,"ÿÆ":5792,"und":5793,"ûûûû":5794,"\b\u00004":5795,"\u0000 \u0000":5796,"ÿ\u0003\u0001":5797,"HÛu":5798,"\u0005\u000b":5799,"HH":5800,"_tr":5801,"ÿá\u0003\u0000ª":5802,"\u0004%(\u0000\u0000\u0000":5803,"O\u0000\u0000\u0000\u0000\u0000":5804,"H¬$":5805,"h\u000f":5806,"M©":5807,"\u0001Ð":5808,"ÿè¼¥ÿè¼¥":5809,"ð\u0003":5810,"wor":5811,"Åü":5812,"L\u0000\u0000":5813,"\u001f \u0003Õ\u001f \u0003Õý{¿©":5814,"\u0001<":5815,"tb":5816,"\u0010\u0002\u0000\u0000":5817,"\u0007":5818,"xl":5819,"÷":5820,"ÙÊâ":5821,"IN":5822,"P\u0000a\u0000":5823,"I":5824,"`h":5825," ã":5826,"3ÉHÿ\u0015":5827,"B\u000e\b":5828,"Ay":5829,"¹\u0001\u0000\u0000\u0000":5830,"\u0005\u0000!":5831,"\n*":5832,"\u0001":5833,"DL$":5834,"x\u001fS":5835,"D\u0000e\u0000":5836,"õ[B©à\u0003\u0013ªóSA©":5837,"use":5838,"T\u0000\u0000":5839,"\u0001r":5840,"iti":5841,"×A":5842,"ÿC\u0001Ñ":5843,"HL$X":5844,"à\u0001\u0000\u0000":5845,"Zø":5846,"CON":5847,"@9`":5848,"/etc/":5849,"UI":5850,"?\u0010":5851,"@¹a":5852,"ã\u0003\u0018ª":5853,"Bÿ":5854,"\u0016k":5855,"è":5856,"ãÿ":5857,"Ver":5858,"ï\u0003\u001aª\u0016\u0004]ù\u0017\b]ù":5859,"BÓ":5860,"0\u0002\u0000\u0000":5861,"gl":5862,"8_":5863,"(¿":5864,"\u0006\u0000\u0000\u0014":5865,"E3Ò":5866,"ò":5867,"kd":5868,"x\u0000\u0000\u0000":5869,"V\n":5870,"pC":5871,"is not ":5872,"j":5873,"e\u0000\u0000":5874,"E8":5875,"":5876,"î\u0010":5877,"Qu":5878,"\u0016":5879,"\u0002$":5880,"ask":5881,"\u001a\u001a":5882,"\u000bÈ":5883," ð":5884,"ing\u0000":5885,"r\u0000\u0000\u0000":5886,";Ã":5887,"G ":5888,"-l1-1-":5889,"\u0003Ð":5890,"\u0001\u0000\u0000\u0000\u0000\u0000\u0000\u0000\u0000\u0000":5891,"áÿ":5892,"Ê\u0000":5893,"'%s'":5894,"ES":5895,"7\u0000\u0000":5896,"at ":5897,"à\u000b":5898,"þþþ":5899,"Hd$0\u0000":5900,"!\u0004\u0000Q":5901,"1_":5902,"À\u0002@ù":5903,"a\u0002\u0000":5904,"ash":5905,"@°":5906,"B ":5907,"Þÿÿ\u0017":5908,"\f¹":5909,"ÿ0":5910,"ÿ?7":5911,"L\u000f":5912,"\u0004":5913,"\u001ch":5914,"ë\u0018":5915,"\u0005\n":5916,"á\u0005R":5917,"\u0001\u0000\u0012":5918,"M\u0000i\u0000c\u0000r\u0000o\u0000s\u0000o\u0000f\u0000":5919,"bject":5920,"\u0005\u0000°!":5921,"ent\u0000":5922,"\f":5923,"»©ý\u0003\u0000óS\u0001©":5924,"\b ":5925,"AQ":5926,"D$ è":5927,"oð":5928,"AB":5929,"HÁá":5930,"77":5931,"\u0000\u0000\u0001*":5932,"\u0002\u0000\u0004":5933,"\u0004\u0000\u0000\u0000\u0004\u0000\u0000\u0000":5934,"\u0015":5935,"\u0002°":5936,"òÿT":5937,"\b":5938,"=\u0000\u0000\u0000":5939,"\u0003\u0002":5940,"bq":5941,"Rà":5942,"À\f":5943," C":5944,"@¹\u001f\u0004\u0000q":5945,"`":5946,"\u0002\u0000ë":5947,"\b":5948,"Áâ":5949,"Äâ":5950,"<":5951,"memor":5952,"íÿÿ":5953,"B0":5954,"â\u0003\u001cª":5955,"!F\u0000\u0000\u0000\u0000\u0000":5956,"}\u0000\u0000":5957,"\u000f\u0000\u0000\u0000\u0000\u0000\u0000":5958,"\u0005\u0005\u0005\u0005":5959,"\u0001":5960,"á\u0003\u0003ª":5961,"\u0002\u0000\u00062":5962,"exp":5963,"÷A":5964,"5\u0000R":5965,"H$":5966,"xm":5967,"H":5968,"\u0019\u0019":5969,"I;Ï":5970,"ÛÜÙÚ×ØÕÖÓÔ\u000e\u0000A\u000b":5971,"\u0018d":5972,"Øø":5973,"¥":5974,"d to ":5975,"A¹\u0001\u0000\u0000\u0000":5976,"¬\u0000":5977," \u0002\u0000\u0000":5978,"Ç":5979,"\u0004¹":5980,"\n2":5981,"\u000f\u0000\u0000\u0000\u0000\u0000\u0007\u0000\u0000\u0000":5982,"I\u0000\u0000\u0000\u0000\u0000xp":5983,"Ü!F\u0000\u0000\u0000\u0000\u0000":5984,"@\u0002\u0000T":5985,"nown ":5986,"\u00194":5987,"\u0003\u0000!":5988,"I":5989,"la":5990,"\u0001;":5991,"\bI":5992,"Hí":5993,"t)":5994,"Û\u000f":5995,"Bø":5996,"pn":5997,"Context":5998,"s\u0010":5999,"addr":6000,"\u000f\u0001\u0000\u0000\u0000":6001,"_G":6002,"$\u0010":6003,"\u00174":6004,"\u0000\u0000\u0000H":6005,"MÉ":6006," \u0004@ù":6007,"à\u0001\u0000T":6008,"HT$P":6009,"\"/":6010,"Ãè":6011,"H\\$X":6012,"ÿþ":6013,"H\u0000\u0000":6014,"t#":6015,"fc":6016,". ":6017,"\u0001\u0000\u0001":6018,"HúHÙ":6019,"\u00192":6020,"Bð":6021,"HÀu\u0007":6022,"|\u0000\u0000":6023,"\u0013ð":6024,"zz":6025,"\u0000R":6026,"á\u0013@ù":6027,"!ð}":6028,"Iù":6029,"\u000bª":6030,"HD$h":6031,"_o":6032,"ÿÿ\u0000ÿÿ\u0000":6033,"\u0007":6034,"$":6035,"IÈ":6036,"á\u0003\u0016*":6037,"\u0007\u0000Ò":6038,"D¹":6039,"\bL":6040,"à\u0003\u001a*":6041,"N":6042,"\b\u0002\u0000\u0000":6043,"std@@":6044,"«\u0000":6045,"F\f":6046,"A^_^":6047,"\bð":6048,"DÈº":6049,"§ÿ":6050,"ï":6051,"s\u0002@ù":6052,"\u0002\u0000\u0005":6053,"H":6054,"\u0001":6055,"\u0006\u0004":6056,"\u000b\u0000è":6057,"ÿ\u000f":6058,"\b\u0000":6059,"DD$":6060,"°è":6061,"\u0002\u0007":6062,"f":6063,"4":6064,"\u0014\u0001":6065,"3":6066,"\u0003k":6067,"ÿv":6068,"\u0000":6069,"E\u000fÆ":6070,"\u0001\u0000 ":6071,"\f\u0000\u0012":6072,"\u0000":6073,"\u001a\u0000\u0000\u0000":6074,"\u0006\u0000\u0011":6075,"ó\u000f\u001eúh":6076,"@\u000f":6077,"\u0002":6078,"D":6079,"n\u0000e\u0000":6080,"\u0003\u0000":6081,"¥À":6082,"\u0011©":6083,"\u0001\u0000\u0000\u0000\u0000\u0000\u0002\u0004\u0000\u0000":6084,"f\u000fn":6085,"\u0002<":6086,"àk":6087,"\u0007\u00004":6088,"\u001b\u0000Ò":6089,"\u0002\u001c":6090,"\u0002\u0000K":6091,"*\u0000\u0000\u0000":6092,"\t,":6093,"L©":6094,"\t\u0000è":6095,">\u0000\u0000\u0000":6096,"(é":6097,"I\u0001":6098,"B":6099,"\r\u0000\u0000\u0000\u0000":6100,"à\u0003\u0013*óSA©":6101,"àO":6102,"~\u0001":6103,"\u001b\u001b":6104,"AS":6105,"Hl$HHt$P":6106,"å":6107,"aa":6108,"Op":6109,"!0":6110,"23":6111,"\u001f\u0004\u0000ñ":6112,"\b7":6113,"8":6114,"\u0002|":6115,"\"\u0003":6116,"Is":6117,"!ë":6118,"ËË":6119,"\u0000\u0000\u0000H":6120,"c\u0000\u0000\u0000":6121,"\u0006r":6122," \u0000\u0000¹":6123,"\nÞÝÕÓÔ\u000e\u0000A\u000b":6124,"td":6125,"06":6126,"B\u000e\u0018":6127,"~\b":6128,"\u0000\u0000@¹":6129,"":6130,"08":6131,"fs":6132,"ö\u0003\u0002ª":6133,"E":6134,"Hú":6135,"HA":6136,"\u0001q\u0001q\u0001q\u0001q":6137,"IãA_A^A]A\\":6138,"st\u0000":6139,"ÿà":6140,"\u0000":6141,"Óø":6142,"p\u0000\u0000":6143,"Ð\u0001\u0000\u0000":6144,"p\f":6145,"e\u0001e\u0001e\u0001e\u0001":6146,"wb":6147,"à\u001f@ù":6148,"y\u0000\u0000":6149,"/\u0000ù":6150,"4\u0000R":6151,"À\u0000\u00004":6152,"¿\u0001":6153,"[[":6154,"L\\$":6155,"3Å":6156,"Rtl":6157,"ü":6158,"ÃÌÌÌÌÌÌÌÌÌÌÌ":6159,"@\u0003\u0000":6160,"à7@ù":6161,"HÈÿ\u0015":6162,"óÿT":6163,"f\u0000\u0000":6164," À":6165,"á\u0003\u0000":6166,"\u0000\u0000\u0000`\u0000\u0000B`":6167,"u\u001d":6168,"h¡":6169,"HB\b":6170,"s\u0002\u0000":6171,"MM":6172,"L)":6173,"AÆ":6174,"2\u0006P":6175,"bin":6176,"\u001f,":6177,"uø":6178,"\u0007\u0005":6179,"55":6180,"\u000f/":6181,"Per":6182,"!\u0014":6183,"þÿÿè":6184,"\u0002\u0000q":6185,"À":6186,"\u0006Ñ":6187,";@¹":6188,"°!ðFùã":6189,"\u0002\"":6190,"fD\u000f":6191,"F\u0000i\u0000l\u0000e\u0000":6192,"\u0001\u0000`":6193," J":6194,"û+\u0000ù":6195,"tx":6196,"T$\u0010":6197,"!":6198,"G":6199,"ÿ\u0003\u0001":6200,"e\u0000\u0000\u0000\u0000\u0000":6201,"Ht$X":6202,"\u000b\u0000\u000f\u001fD\u0000\u0000":6203,"!\u0000!\u0000":6204,"Hè":6205,"":6206,"ERRO":6207,"ÿÿ\u0017":6208,"\u0007@ù\"\u0000@ùc\u0000\u0002ë\u0002\u0000Ò":6209,"Ýø":6210,"rg":6211,"\"8":6212,"h#":6213,"Zè":6214,"LD$@":6215,"\u0014\u0014":6216,"ë\u0016":6217,"01":6218,"E3Û":6219,"\u0000\u0000\u0000\u0000A\u000e\u0010\u0002\u0001D":6220,"à\u0003\u0018*":6221,"\u001c2":6222,"D":6223,"üÿ4":6224,"ì|Ó":6225,"\u0003q":6226,"\u0000\u0001\u0000\u0000\u0000\u0000\u0000\u0000\u0000\u0000\u0000\u0000\u0000":6227,"MÉt":6228,"\u0002\u0000\u0012":6229,"j\b":6230,"ING":6231,"hbx":6232,"Id":6233,"àÃ":6234,"9`":6235,"\u0000\u0000\u0000":6236,"À\u0000\u0000´":6237,"\u0013\u0010":6238,"HL$`":6239,"sour":6240,"uc":6241,"fer":6242,"Aø":6243,"HÀ\u000f":6244,"\u0000\u0000\u001fÖ":6245,": %s\u0000":6246,"L$":6247,"\u0002\u0000\u0000":6248,"\u000eª":6249,"áÿÿ":6250," \u0000\u0000´":6251,"`\u000e":6252," ü":6253,"@\b\u0007B\u0006\u0005":6254,"\u0016\u0000T":6255,"\u000f\u000f\u000f\u000f\u000f\u000f\u000f\u000f":6256,"\u000f\u0010\u0000":6257,"\u0001¿#\u0003ÕÀ\u0003_Ö?#\u0003Õý{":6258,"\u001fÀ":6259,"> ":6260," Fÿ÷":6261,"\u0002\u0000\u0000\u0000\u0002\u0000\u0000\u0000":6262,"t&":6263,";Ç":6264,"P ":6265,"ÓX\u001ah":6266,"rn":6267,"ò}Ó":6268,"à\u0003\u0002*":6269,"n\u0000t\u0000":6270,"L$":6271,"øÿÿÿ":6272,"\u0017Ë":6273,"ÚÙAÜÛ":6274,"vj":6275,"`\u0000?Ö":6276,"-10":6277,"Q©":6278,"C@":6279,"J\u0000\u0000":6280,"\b@¹":6281,"\u0007\u0000ù\u0001\u0000Ò":6282,"¨\u0001\u0000\u0000":6283,"\"\u0000":6284,"HX":6285,"68":6286,"è":6287,"\u0010\u0000T":6288,"ðððð":6289,"group":6290,"\"\u0000 ":6291,"\f\u0001":6292,"og":6293,"\u0004":6294,"PC":6295,"ó\u000b@ùý{Â¨¿#\u0003ÕÀ\u0003_Ö":6296,"ATUS":6297,"\u0002Í":6298," \u0000\u00004":6299,"\u0000¹`":6300,"\u0005©ý":6301,"Á\u0001\u0000T":6302,"Ô\u0000\u0000\u0000":6303,"ÁÁ":6304,"\u001c\u0000R":6305,"êç":6306,"kf":6307,"d¡":6308,"s\u0000t\u0000e\u0000":6309,"\u0005©ýC\u0001":6310,"yx":6311,"u:":6312,"Mÿt":6313,"º\u0005\u0000\u0000\u0000H5":6314,"HÄ`":6315,"F0":6316,"bâ":6317,"TT":6318,"api-ms-win-core":6319,"R\u0000\u0000":6320,"\u0007\u0000ð\u0000":6321,"ð\u0001\u0000\u0000":6322,"¸\u0001":6323,"á\u0003@ù":6324,"ÿÓ":6325,":\u0000\u0000\u0000":6326,"óóóó":6327,"numb":6328,"\u000e\u0000h":6329,"ñÿT":6330,"ster":6331,"à\u001b@ù":6332,"Ãé":6333,"¿\u0003\u0000":6334,"@9@":6335,"ÿ{":6336,"\u000f\u000f":6337,"ïïïï":6338,"\n\u0000\u0000\u0000\u0000\u0000\u0000\u0000":6339,"\u0002\u0001":6340,"Äø":6341,"\u0007\u0000\u0000\u0014":6342,"\u0003\u001c":6343,"\u001a":6344,"ÿÉ":6345," |":6346,"\u0002\u000e":6347,"\u000f":6348,"QQ":6349,"=ã":6350,"à\n":6351,"ret":6352,"ÌÌÌÌq":6353,"kÀ":6354,"ã\u0003\u001aª":6355,"\u0000\u0000\u0000è":6356,"M+":6357,"`\u0003\u0000":6358,"\n":6359,"u%":6360,"\u0005\u0000":6361,"ÕÕ":6362,"ð\u0001":6363,"ction ":6364," %u ":6365,"ë£":6366,"\u0000\u0000\u0000`\u0000\u0000\u0000\u0000\u0000\u0000\u0000\u0000\u0000\u0000\u0000":6367,"Eø":6368,"3Ò3Éè":6369,"\u0017@ù\u0001\u0000@ùB\u0000\u0001ë\u0001\u0000Ò":6370,"Ä\u0000\u0000\u0000":6371,"HD$@":6372,"max":6373,"\b*":6374,"\u0004;":6375,"H":6376,"ÞÝÓÔ\u000e\u0000A\u000e":6377,"\u0007\u0000\u0000\u0000\u0000\u0000\u0000\u0000":6378,"\u0001\u00000":6379,"Èÿð\u000fÁ":6380,"\u0011\u0010":6381,"¸ÿ":6382,"ÃÌÌ":6383,"ûÿÿ\u0017":6384,"H\\$\bWHì Ú":6385,"÷\u001b@ùý{Ä¨À\u0003_Ö":6386,"a\"":6387,"W":6388,"\u0001R":6389,"×\u001a":6390,"\b\u00003l\u0000\u0000\u0000\u0000":6391,"â\u0003\u0016*":6392,"à_":6393,"ÿR":6394,"¾©ý\u0003\u0000óS\u0001©ó\u0003\u0000ª":6395,"H\\$\u0010Hl$":6396,"ü\u0000\u0000\u0000":6397,"@9":6398,"3Àé":6399,"ÿô\u0003\u0000ª":6400,"üÿ":6401,"Ä\u0000":6402,"\u0019\u0000Ò":6403,"act":6404,"@(":6405,"\u0007\u00001":6406,"A\u0000\u0000T":6407,"Ì\u0000\u0000\u0000":6408,"\b\u00005":6409,"L´$":6410,"ó«":6411,"|$":6412,"ë+":6413,"p\u0002\u0000\u0000":6414,"I\u0000\u0000":6415,"\u0012":6416,"md":6417,"$\u0000R":6418,"ëÁ":6419,"\u0017\u0000T":6420," h`¸":6421,"j`8":6422,"\u0014\u0000\u000e":6423,"r9":6424,"E\u000f¶":6425,"argum":6426,"HL$p":6427,"\u001e@8":6428,"ath":6429,"Ð\u0001":6430,"u!":6431,"Åú":6432,"|x":6433,"òé":6434,"`\u000b":6435,"ç\u0001":6436,"\u001e2":6437,"list":6438,"\u001f\u0001":6439,"¬¬":6440,"á\u0003\u0013ª\u0000":6441,"9\u0001":6442,"úo\u0004©":6443,"@ùä":6444,"\u001c\u0001":6445,"t\u0000\u0000":6446,"HÎÿ\u0015":6447,"\nÝÞ\u000e\u0000A\u000b":6448,"\u0011\u0014":6449,"\u0000":6450,"2":6451,"Òÿ":6452,"\b\u0000\u0000\u0000\u0000\u0000\u0000":6453,"\u0002C":6454,"\u00100":6455,"de ":6456,"HÄ\u0018":6457,"wj":6458,"\u0006\u0007":6459,"\u001f´":6460,"v\u0000e\u0000":6461,"Lâ":6462,"ýS":6463,"*":6464,"Üÿ":6465,"\u000f2":6466,"p\u0001":6467,"H0":6468,"\u0007\u0000q":6469,"mar":6470,"\u000e\u0000A-":6471,"M\u0000\u0000":6472,"p(":6473,"\u0002óS":6474,"\u0007\u0000\u0000\u0000\u0000\u0000\u0000":6475,"\u0002\u0000º":6476,"ÔÔÕ":6477,"\u001f\u0000\u0013ë":6478,"N\u0000\u0000":6479,"H":6480,"##":6481,"\u001a":6482,"ku":6483,"ÿÿÿÿÿÿ":6484,"bs":6485,"LÁ":6486,"À\u000fN":6487,"yDxD":6488,",,":6489,"Ûÿÿ\u0017":6490,"xj":6491,"\u0006\u0000\u0000\u0000\u0000\u0000\u0000\u0000":6492,"è'":6493,"\u0002@9":6494,"F":6495,"è¦":6496,"S":6497,"\u0019d":6498,"dc":6499,"É\u0000\u0000T":6500,"?\u0000\u0003":6501,"ÑÑÒÑÑÒ":6502,"6\u0000\u0000\u0000":6503,"H#\u0000":6504,"fD$":6505,"ÿ ":6506,"remo":6507,"t0":6508,"\u0006\u0013":6509,"\u0010ÿÖ":6510,"\u0002\u000f":6511,"C\u0000ù":6512,"qc":6513,"ûà":6514,"\u0004\u0004\u0004\u0004\u0004\u0004\u0004\u0004":6515,"H\u000fC":6516,"À\b":6517,"ð\u000b":6518,"\u0000\u0010\u0000":6519,"B\u0000\u0000T":6520,"b\u0000l\u0000e\u0000":6521,"!\u0004\u0000":6522,"":6523,"\"\u0005\u0019\u0001\u0000\u0000\u0000":6524,"\u0002h":6525,"\u0006":6526,"D":6527,"\r\u0000":6528,"sub":6529,"\u0001\u0000 ":6530,"¨è":6531,"ÚV>":6532,"VV":6533,"ÚV>ñ":6534,"å]Ã":6535,"\b0":6536,"óSB©õ[C©÷cD©":6537,"àS":6538,"H\u000f¯":6539,"\u0005\u0000":6540,"!$":6541,"EB":6542,"Üÿÿ\u0017":6543,"\u000e\u0000":6544,"8ÿ\u0015":6545,"Info":6546,"a\u0000\u0000":6547,"LM":6548,"@¹?\u0000\u0000k":6549,"RI":6550,"\u0001v":6551,"3ø":6552,"@ë":6553,"fig":6554,"\u0002\u0000*":6555,"àÿÿ":6556,"`F":6557,"\u0014\u0000\u0012":6558,"disk":6559,"§\u0000":6560,"\n\u0000\u0000\u0000\u0000":6561,"ra":6562,"\u0005K":6563,"êÿÿ":6564,"u(":6565,"Øÿÿ\u0017":6566,"ÑÐÐ":6567,"ÔÔÕÔÔÕ":6568,"H;È\u000f":6569,"t+":6570,"B\b\u0007":6571,"\u0001\u0000P":6572,"Á\u0000":6573,"Sø":6574,"No ":6575,"< ":6576,"H\\$\u0010Ht$\u0018":6577,"c\u0000h":6578,"K":6579,"\u0000a\u0000l\u0000":6580,"Ã\u0010":6581,"ñ\b":6582,"wm":6583,"\u0002\u0000\u0000\u0014":6584,"By":6585,"\u001f\u0000\u0014ë":6586,"c.":6587,"%02x":6588,"\u0002\t":6589,"\u0002\u0002\u0002\u0002\u0002\u0002\u0002\u0002\u0002\u0002\u0002\u0002\u0002\u0002\u0002\u0002":6590,"s\u0012":6591,"\u0000":6592,"ep":6593,"Hó":6594,"\u0000 Á":6595,"ÿÿ\u0017?#\u0003Õý{¿©":6596,"\u001c":6597,"O\b":6598,"ö÷":6599,"JzD":6600,"V\u0000\u0000":6601,"B\u0004\u0003":6602,"\nÀ\bp\u0007`\u0006":6603,"X ":6604,"ë@":6605,"-l1-1-0.":6606,"":6607,"arning":6608,"m\u0000\u0000\u0000":6609,"t\u0000i\u0000n\u0000":6610,"\u0010h":6611,"|Ó":6612,"ÿ\u0003\u0002":6613,"\u0002\u0000H":6614,"ý{Ã¨":6615,"\u0000":6616,"¦\u0000":6617,"úoD©":6618,"C8":6619,"þ@":6620,"é\u0012":6621,"\u0002\u000f":6622,"\u0010\u0000\u0010\u0000":6623,"98":6624,"F8":6625,"\u0000\u0010\u0000\u0000r":6626,"age ":6627,"\u0014©":6628,"addres":6629,"©ý":6630,"ÌÌÌÌÌq":6631,"\u0016\u0000\u0000\u0000\u0001":6632,"\u0014è":6633,"\u0011\u0002":6634,"á#\u0000":6635,"x\b":6636,"D\u0010":6637,"ëÿÿ":6638,"Ã":6639,"À\u0012":6640,"UT":6641,"Iñ":6642,"\u0002H":6643,"¥@":6644,"o\u0001o\u0001":6645,"vf":6646,"O\u0010":6647,"ÊÊ":6648,"þ\u0000":6649,"?|":6650,"api-ms-win-core-":6651,"\u0013\u0000\u0000\u0000\u0000\u0000":6652,"ù÷":6653,"Ç":6654,"lement":6655,"ð":6656,"riv":6657,"LT$":6658,"ó\u000f\\":6659,"Ù":6660,"B(":6661,"xK":6662,"\u0002\u0000T":6663,"]]]]":6664,"I[0":6665,"":6666,"\u000b":6667,"ÿ@":6668,"að":6669,"\u0012©":6670,"\u0010@":6671,"X\u0000\u0000":6672,"ÿ":6673,"t\u0000i\u0000o\u0000n":6674,"LÑ":6675,"t*":6676,"":6677,"C\u0000\u0000\u0000":6678,"\u0011Ñ":6679,"\u00186":6680,"às":6681,",0":6682,"\u0004\t":6683,"O©":6684,"SH":6685,"!\u0005":6686,"¸è":6687,"¼å\u0000ÆâÙÊâ":6688,"óSC©õ[D©÷cE©":6689,"_\b":6690,"Aº":6691,"3ÒA¸":6692,"\u0001\u0000\u0014":6693,"SP":6694,"ååæ":6695,"DÎ":6696,"\u0003¹":6697,"CC":6698,"t2":6699,".h":6700,"HL$Hè":6701,"\u0001\u0000\u0018":6702,"óSD©õ[E©":6703,"HH":6704,"\b ":6705,"Iz":6706," 6":6707,"Ä\b":6708,"\n\u0000´":6709,"\u0007\u0003":6710,"ó\u0003\u0014ª":6711,"\u0001\u0000p":6712,"Æ":6713,"â\u000f@ù":6714,"àò":6715,"àÿÿ\u0017":6716,"÷\u0003\u0002ª":6717,"\u0001|@":6718,"Mô":6719,"¿ÿ":6720," \u0002@¹":6721,"¸ñ\u0000\u000f":6722,"A×":6723,"å\u0003\u0000ª":6724,"L|$":6725,"\r\u0000ð":6726,"à\u0003\u0013ª!":6727,"øÀx":6728,"ÃH\\$0HÄ _":6729,"I;Ì":6730,"À9":6731,"\u0002\u0012":6732,"å":6733,"b<":6734,"ÑÐÐÑÐÐ":6735,"Lÿè":6736,"0x%":6737,"\u0000\u0000\u0000\u0000ä\u000f":6738,"Æè":6739,"c ":6740,"\u0016à\u0014":6741,"match":6742,"ÓÓÔ":6743,"tri":6744,"\u000bð":6745,"]é":6746," @":6747,"G\u0000\u0000":6748,"c\u0010":6749,"as ":6750,"\bF":6751,"hq":6752,"\n\t":6753,"E1í":6754,"\u001f":6755,"×ÿÿ\u0017":6756,"ener":6757,"@Y":6758,"pd":6759,"\u0006\u0000Ò":6760," d":6761,"\u0002+":6762,"xo":6763,"øÿá":6764,"B\u0004\u0000Q":6765,"@¹":6766,"\u0000\u0000\u0000\u0000\u0000\u0000\u0007\u0000\u0000\u0000":6767,"Id\u0000":6768,"\u0002x":6769,"IÙ":6770,"D\n":6771,"Hö\u000f":6772,"\u000f\u0000ù\u0001\u0000Ò":6773,"s8":6774,"\t":6775,"\u0010¢":6776,"MÈ":6777,"ññññ":6778,"V\b":6779,"t'":6780,"C\u001c":6781,"á\u0003\u0017*":6782,"ÿÿÿé":6783,"Å\u0000":6784,"able\u0000":6785,"03":6786," é":6787,"ý{Ã¨¿#\u0003Õ":6788,"n\u0000o\u0000":6789,"\u0000\u0000":6790,"à\u0001\u0000":6791,"\n@ù":6792,"s\"":6793,"\u0000\u0003":6794,"]\u0000\u0000":6795,"û\u0000":6796,"à":6797,"PO":6798,"\b\u000f":6799,"\u0000\u0000\u0000":6800,"\u0003\b|":6801,"\n\u0000":6802,"_F":6803,"c\u0001c\u0001":6804,"á\u0003\u0015ªà\u0003\u0014ª":6805,"R":6806,"\u0000\u0000":6807,"\u0001\u0000@":6808,"I\u0007":6809,"`\u0006\u0000ù":6810,"Hu":6811,"\u0017\u0001":6812,"»©":6813,"MÎ":6814,"\\$0":6815,"p\u0000e\u0000r\u0000":6816,"óSA©õ[B©÷cC©ùkD©":6817,"\u000eà\fÐ":6818,"\u0005Ò":6819,"!@":6820,"\u0000\u0000\u0000":6821,"úÿÿ\u0017":6822,"B)":6823,"bv":6824,"0\u0000\u0000\u0000\u0000\u0000\u0000":6825,"Ç\u0003":6826,"\u001b":6827,"\u0018T":6828,"\u000bñ":6829,"\u0010\u0001\u0000\u0000\u0000":6830,"\u0005\u0002":6831,"\u0001\u0000T":6832,"Ýÿÿ\u0017":6833,"Â\u0000\u0000":6834,"çÿÿ":6835,"\u0001\u0000\u0010":6836,"7\u0000R":6837,"Lin":6838,"I[ ":6839,"Að":6840,"(ÿ\u0015":6841,"\u0003\u0000\u0000\u0000\u0003\u0000\u0000\u0000":6842,"!\u001c":6843,"U\u0000\u0000":6844,"HÁâ":6845,"ÿ":6846,"TM":6847," #":6848,"\u0000\u0001\u0000\u0000\u0000\u0000":6849,"\u0010I":6850,"Íø":6851,"C\u0000\u0000T":6852,"Ü\u0000\u0000\u0000":6853,"H;\u0005":6854,"!à":6855,"c$":6856,"ÿÅ":6857,"\u0012\u0001":6858,"4gold":6859,"_ÃÌ":6860,"pack":6861,"HÄ [é":6862,"á":6863,"2f":6864,"8½":6865,"ó\u0003\u0001*":6866,"\u0003\n":6867,"\u001aë":6868," À":6869,"Lþ":6870,"ýÿµ":6871,"v\u0000e\u0000r\u0000":6872,"ë¡ÿÿT":6873,"sa":6874,"b\"":6875,"A":6876,"?\u0000\u0000ñ":6877,"h6":6878,".\u0001":6879,"£h":6880,"@D":6881,"¯\u0000":6882,"ye":6883,"\u0000\u001f\u0004\u0000q":6884,"H":6885,"A]Ã":6886,"Microsoft ":6887,"\u0001\u0000ë":6888,"H\"\u0000":6889,"\u0011\u0005":6890,"ð\u000f±":6891,"@SHì0":6892,"t,":6893,"ä\u0003\u0000*":6894,"Hg":6895,"u\u001c":6896,"H=":6897,"\u0013\u0001":6898,"\n¹":6899,"5\u0000\u0000\u0000":6900,"ì\u0000":6901,"      ":6902,"\u0004@­":6903,"0;":6904,"data ":6905,"ë\u0005¸":6906,"\u0000\u0000@9\u001f":6907,"tg":6908,"öå":6909,"! ":6910,"A":6911,"?\b\u0000q":6912,"\u0018\u0001":6913,"\u0002`":6914,"A\u000f¯":6915,"Óè":6916,"L÷":6917,"\u001f\u001c":6918,"df":6919,"¦\u0000\u0000\u0000\u0000\u0000\u0000":6920,"A:":6921,"õ÷":6922,"\u0006":6923,"ùÿÿ\u0017":6924,"\u0001\u001f\u0004\u0000q":6925,"\u00154":6926,"dll\u0000":6927,"\u0003\u0000ñ":6928,"CS":6929,"éÿÿ":6930,"éééé":6931,"!= ":6932,"\u001d2":6933,"\u0000\u0000\u0000\u0000\u0000\u0000\u0000\u0000\u0000\u0003\u0000\u0000\u0000":6934,"O\u0001":6935,"A\u000fX":6936,"\u0000ÿÌ\u0000ÿÌ\u0000ÿÌ\u0000ÿÌ":6937,"/dev":6938,"E\u0000\u0000\u0000":6939,"I\b":6940,"itiali":6941,"u\u0019":6942,"Uìì":6943,"\u0000\u0000¸":6944,"\u000f¶È":6945,"\u0005ñ":6946,"SHû":6947,"@È":6948,"\u00124":6949,"C9":6950,"è":6951,"\u0005\u0000\u0011":6952,"\u000f·À":6953,"Lÿ":6954,"0\u0000\u0000\u0000é":6955,"\f\u0000\u000f\u001fD\u0000\u0000":6956,"©\u0000":6957," ¨":6958,"\u0002\u0000\u0000\u0012":6959,"'\u0000\u0000\u0000":6960,"assw":6961,"~":6962,",\n":6963,"xv":6964,"Ë\u0000\u0000\u0007":6965," \u0000 \u0000 \u0000 \u0000 \u0000 \u0000 \u0000 \u0000":6966,"\t\u0010":6967,"K@ù":6968,"üÿ5":6969,"û`":6970,"\b¾":6971,"à3\u0000ù":6972,"f ":6973,"D$":6974,"òE\u000f":6975,"ßÿ":6976,"[ÃÌÌÌÌÌÌÌÌ":6977,"Ld$":6978,"Ò":6979,"â\u0003\u0017*":6980,"\u0001":6981,"  ":6982,"¿\u0002\u0000q":6983,"HMð":6984,"Ì\u0000":6985,"xi":6986,"AÔ":6987,"Ôÿÿ\u0017":6988,"\u0007\u0000R":6989,"\u001bÉ":6990,"óE\u000f":6991,"-\u0000\u0000\u0000":6992,"Äã":6993,"ÓÓÔÓÓÔ":6994,"þOÁ":6995,"°°":6996,"Íÿ":6997,"þO¾©":6998,"G\u0004":6999,"H;Í":7000," ":7001,"\r":7002," \u0000\u0000\u0000H":7003,"\u0014\u0000\u0000\u0000\u0000\u0000\u0000\u0000":7004,"ÿ\u0003\u0001Ñ":7005,"+\u0000ð":7006,"nc":7007,"over":7008,"H¸\u0000\u0000\u0000\u0000\u0000\u0000\u0000\u0000":7009,"\u0005)":7010,"F(":7011,"þOÃ":7012,"hd8":7013,"Eø":7014,";Ð":7015,"\u0010":7016,"in\u0000":7017,"":7018,"üè":7019,"uf":7020,"Äb":7021,"À\u000f":7022,"\u0006\u0005\u0004\u0003":7023,"G\u0000\u0000\u0000\u0001\u0000\u0000\u0000 \u0000\u0000\u0000":7024,"N\u0000\u0000\u0000":7025,"\u0005\b":7026,"H\\$\bWHì ÚHùè":7027,"kq":7028,"\u001d\u001d":7029,"7\u0000\u0000\u0000":7030,"_f":7031,"\u0015\u0015":7032,"t\u0000h\u0000e\u0000 \u0000":7033,"{Ó":7034,"Â\u0000":7035,"ä\u0000\u0000\u0000":7036,"\b":7037,"@\\":7038,"@USVW":7039,"ery":7040,"É":7041,"ãÿÿ":7042,"S\u0000\u0000":7043,"chang":7044,"xw":7045,"¦\u0002\b":7046,"þÿé":7047,"r/":7048,"âÿ":7049,"allo":7050," ":7051,"\u0001\u0001\u0001\u0001\u0001\u0001\u0001\u0001\u0001\u0001\u0001\u0001\u0001\u0001\u0001\u0001":7052,"ÿë":7053," *":7054,"\u0001\u00006":7055,"\u0002\u0001\f\u000b":7056,"\u0004o":7057,"J¹":7058,"ùÿ\u0017":7059,"à3@ù":7060,"i\u0000\u0000T":7061,"HD$`":7062,"úÿ4":7063,"load":7064,"K\u0018":7065,"tiv":7066,"ù\u0003\u0000*":7067,"s(":7068,"z":7069,"HL$pè":7070,"û ":7071,"s\b":7072,"Ñ":7073,"B\u0000\u0000\u0000":7074,"HI\b":7075,"\u00018":7076,"andl":7077,"HÁ\b":7078,"\u0003x":7079,"ÿÂÿÂ":7080,"\u0005":7081,"ta":7082,"u\u001b":7083,"NS":7084,"Mð":7085,"áþÿT":7086,"\r\u0010":7087,"/dev/":7088,"\r\u0000\n\u0000":7089,"Error":7090,"\u0007\u0010":7091,"HL$h":7092,"t\"":7093,"\u0006\u0000Ð\u0000":7094,"HD$P":7095,"DËè":7096,"y\u0019\u0002r":7097,"\u0002f":7098,"!ðFùã":7099,"\u0002Ò":7100,"\u000eà\fÐ\nÀ\bp\u0007`\u0006":7101,"s\u0006":7102,"\u0001)":7103,"`\u0002\u0000T":7104,"í\u0000":7105,"ÌÌÌÌÌÌH\u0005":7106,"á\u0017@ù":7107,"ë!":7108,"_\u0010":7109,"à":7110,"u\u001e":7111,"Ýÿ":7112,"øÀ\u000f":7113,"×\u0001\u0000\u0000\u0000\u0000\u0000":7114,"#ð":7115,"ì":7116,"ë\u00023Û":7117,"lr":7118,"\"\u0004":7119,"8\u0000R":7120," \u0002\u0000\u0000":7121,"HI":7122,"è§":7123,"\u0003Á":7124,"sq":7125,"tm":7126,"\u0002\u0000¹":7127,"Ic":7128,"n\u0000\u0000\u0000":7129,"B\b\u0007":7130,"_\u0000\u0001k":7131,"ä\u0003\u0016ª":7132,"new":7133,"\u0004\u00005":7134,"6@ù":7135,"H\u0003Iºp":7136,"¿\u0012":7137,"¾\u0000":7138,"@¹A":7139,"\u0006Ð":7140,"26":7141,"\u0002\u0002\u0000":7142,"\u0011\u0001\u0000\u0000\u0000":7143,"ýÿé":7144,"\u0000":7145,"÷\u0000":7146,"ùkE©":7147,"X)":7148,"0é":7149,"ø":7150,"29":7151,"\u0000\u0000\u0000":7152,"M\u0000\u0000\u0000\u0000\u0000":7153,"cà":7154,"¸¿":7155,"Hú":7156,"I ":7157,"lab":7158,"\u0006\f":7159,"\u0001\u0000\u0001\u0000\u0001\u0000\u0001\u0000\u0001\u0000\u0001\u0000\u0001\u0000\u0001\u0000":7160,"\u00104":7161,"ççè":7162,"5ø":7163,"ÿó":7164,"Y_":7165,"\u0004ð":7166,"Z\u0000\u0000\u0000":7167,"\u0004\u0000¹":7168,"\u0007ë":7169,"CL":7170,"\u0010\"":7171,"a\u0003":7172,"call":7173,"\u0000a\u0000i\u0000l\u0000e\u0000":7174,"äÿÿ":7175,"G\u0000¹":7176,"set ":7177,"9\u0000\u0000\u0000":7178,"#\u0010":7179,"":7180,"\u0001\u0000¹":7181,"@9 ":7182,"ç\u0005":7183,"kc":7184,"ÿÿ\u0017ý{A©":7185,"w":7186,"x\n":7187,"'\u0000\u0000\u0000\u0000\u0000\u0000":7188,"\u0001\u0000 Ò\u0001\u0013òBÐ;Õã":7189,"I\u0000\u0000\u0000\u0000\u0000xpI\u0000\u0000\u0000\u0000\u0000xp":7190,"Ü!F\u0000\u0000\u0000\u0000\u0000Ü!F\u0000\u0000\u0000\u0000\u0000":7191,"þþþþ":7192,"YF":7193,"ÕÖÓÔ\u000e\u0000A\u000b\u0000":7194,"Ò\u0000":7195,"I\u0005":7196,"ªb":7197,"@$":7198,"\u000fF":7199,"@\u0000\u0000\u0000é":7200,"Å\b":7201,"@ÿ":7202,"[]A\\Ã":7203,"az":7204,"Q\u0000\u0000":7205,"@":7206,"haø":7207,"Jz":7208,"\u0018\u0000T":7209,"\u0006\u0000\u000fd":7210," \b\u0000":7211,"~":7212,"\u00039":7213,"««":7214,"H@ ÿ\u0015":7215,"\u0000\u0001\u0000\u0000\u0000ð":7216,"s\u0000e\u0000r\u0000":7217,"sign":7218,"OT":7219,"Mí":7220,"ÝÜÜ":7221,"Åû":7222,"v\u0000\u0000":7223,"S\u0000y\u0000":7224,"\u0004q":7225,"4ø":7226,"ted\u0000":7227,"B$":7228,"lg":7229,"à{":7230,"V":7231,"Ha":7232,"\u0002\u0000":7233,"E\u0002\u0000\u0000\u0000":7234,"\u001e\u001e":7235,"\u0002k":7236,"\u0000\u0000\u0000HÏè":7237,"\u0004\u001b":7238,"ø\u0003\u0001ª":7239,"\u0000":7240,"A\u0007R":7241,"@¹\u0001":7242,"è":7243,"?\f":7244,"âÿÿ":7245,"ëA":7246,"\u000eF":7247,"%\u0000R":7248,"E)":7249,"B\n\t":7250,"Öÿÿ\u0017":7251,":@ù":7252,"VWAV":7253,"O\u0000\u0000":7254,"0ð":7255,"b8":7256,"\u0000\u0000\u0000HM":7257,"\u001f\u0000\u0000ù":7258," \u0001\u0000T":7259,"ly ":7260,"\u0000i\u0000s\u0000":7261,"clo":7262,"Õ":7263,"local":7264,"Ä¡":7265,"":7266,"":7267,"EÆ":7268,"\u0004\u0002\u0000":7269,"æÿÿ":7270,"ÐÏÏ":7271,"Ùÿ":7272,"\u000b\u0001":7273,"\u0011F":7274,"a\u001e":7275,"mw":7276,"\u0001\u0004@ù":7277,"\nÞÝ×":7278,"H\\$@HÄ0_":7279,"BCL":7280,"H£":7281,"óD\u000f":7282,"Ç":7283,"\u0001":7284,"w\b":7285,"\u0004":7286,"ü`":7287,"I\u000e":7288,"\u0006,":7289,"\u0003\u0000ÿÿÿÿ":7290,"HÈÿHÿÀ":7291,"T$@":7292,"¼$ñ":7293,"V\u0000\u0000\u0000":7294,"v.":7295,"\u0000\u0000\u0000":7296,"à\u0011":7297,"\r\u001d":7298,"ô\u0000\u0000\u0000":7299,"ë#":7300,"H\u0013":7301,"ÿÿÿ":7302,"G":7303,"b ":7304,"l$":7305,"type ":7306,"Òÿÿ\u0017":7307,"tc":7308,"\u0000\u0000\u0000":7309,"4 ":7310,"ÛÛÜ":7311,"\u001a":7312,"Sh":7313,"\u0001\u0014@8":7314,"M\u0000a\u0000":7315,"Á\u0005R":7316,"ççèççè":7317,"\bÐ":7318,"t\u0000t\u0000":7319,"bh":7320,"\u000e":7321,"\u0006 ":7322,"\u0004N":7323,"\u0000q¡\u0000\u0000T":7324,"c|":7325,"\n":7326,"yg":7327,"\u0016\u0000ù":7328,"\u0002\u0000\u0001\u0000\u0000\u0000":7329,"\u001d\u0000\u0000\u0000\u001f\u0000\u0000\u0000":7330,"Bà":7331,"yr":7332,"Dø":7333,"\n\n\n\n":7334,"Time":7335,"\u0000":7336,"\u0005ð":7337,"Úÿÿ\u0017":7338,"host":7339,"a":7340,"\u001f\u0000\u0010ñ":7341,"\u0001\u0000à":7342,".s":7343,"üüüÏ":7344,"4\u0000\u0014\u0000\u000e":7345,"ÿ\b":7346,"Event":7347,"\u0000\u0000T":7348,"\u0014@ù":7349,"ÔÓB":7350,"ance":7351,"\b\u0000\u0000\u0014":7352,"t\u0000y\u0000":7353,"#,":7354,"Add":7355,"H\n":7356,"),":7357,"KzDÓX\u001ah":7358,"\u00060":7359,"üüüÏüüüÏ":7360,"uk":7361,"+\u0010":7362,"M\u0000\u0000\u0000":7363,"ào":7364,"x\u0000\u0000":7365,"ú\u0003\u0000*":7366,"}H\u0018":7367,"\u0001\u0000@ùá\u0007\u0000ù\u0001\u0000Ò":7368,"B\u000e ":7369,"ð½":7370,"\u0015\u0000\u0000\u0000\u0000\u0000":7371,"d.":7372,"\u0002":7373,"S\u0000t\u0000a\u0000":7374,"Ïÿÿ\u0017":7375,"\u0018©":7376,"LÊ":7377,"ÒÒÓ":7378,"LE":7379,"â\u0007@ù":7380,"àã":7381,"\u0002\u0002":7382,"\u001cd":7383,"\u0001\u0000@ùá\u000f\u0000ù\u0001\u0000Ò":7384,"ev":7385,"H{":7386,"ä\u0017":7387,"\u001a@ù":7388,"ÿc ":7389,"P©":7390,"u-":7391,"c\u001c\u0000\u0012":7392,"¼":7393,"ÿ\u0005":7394,")\u0000\u0000\u0000\u0000":7395,"\u0003È":7396,"pw":7397,"Ht$h":7398,"\u0001":7399,"AÂ":7400,"h¬":7401,"ME":7402,"F\u0000\u0000\u0000":7403,"#\u0000\u0000\u0000":7404,"\u0000ðFùóS":7405,"\u0013\u0004":7406,"Ñÿÿ\u0017":7407,"\\$P":7408,"HL$0":7409,"Óà":7410,"AG":7411,"_D":7412,"B\u0002":7413,"h\b":7414,"@¨":7415,"@é":7416,"na":7417,"6\u0000R":7418,"HMàè":7419,"L\u0000":7420,"f\u0000i\u0000":7421,"\rª":7422,"àg":7423,"¼ÿ":7424,"\u0000\u0000\u0000\u0000Ç":7425,"ÀÒ":7426,");":7427,"ýá":7428,"ûÿ":7429,"L<":7430,"A\u0014":7431,"Mø":7432,"Áè\b":7433,"\u0000\u0000\u0000\u0000A\u000e0\u0006\u0005B\u0004\u0003":7434,"á#":7435,"\u0017k":7436,"\u0001\u0002":7437,"u8":7438,"\u0000\u0001\u0000\u0000\u0000Ð":7439,"\r\u0000Ð":7440,"HA\u0010":7441,"a\u0012":7442,"!\u0004\u0000Ñ":7443,"Ûÿ":7444,"\u0000\u0000":7445,"SV":7446,"\u0000\u0000\u0000":7447,"p\u0001q":7448,"IÆ":7449,"üÿ´":7450,"\nº":7451,"8":7452,"ÿÄ":7453," \u0000R":7454,"ýÀ":7455,"ç\u0004":7456,"\u0003\u0000\u0000\u0000A\u000e":7457," $":7458,"××Ø":7459,"N\b":7460,"»":7461,"\u000e8":7462,"mv":7463,"\u0000\u0001\u0000\u0000\u0000":7464,"HÂ":7465,"On":7466,"!":7467,"sector":7468,"|H":7469,"ø\u00030":7470,"½©ý\u0003\u0000óS\u0001©ó\u0003\u0000ª":7471,"@\u0000Ñ":7472,"¡\u0000\u0000":7473,"\u0002\u0000\u0002\u0000\u0002\u0000\u0002\u0000\u0002\u0000\u0002\u0000\u0002\u0000\u0002\u0000":7474,"D$`":7475,"\u0015\u0010":7476,"HT$8":7477,"open":7478,"\u0002\u0000@9":7479,"BU":7480,"ßÿÿ":7481,"^ø":7482,"\u0000":7483,"ó÷":7484,"lÿ":7485,"|H(":7486,"HÉt\u000e":7487,"ÙÙÚ":7488,"[\u0000\u0000":7489,"MÀu":7490,"\u0001@\u0001\u0000\u0000\u0000":7491,"õ[\u0002©÷c\u0003©ùk\u0004©ûs\u0005©":7492,"¡ë":7493,"HW":7494,"ååæååæ":7495," %d ":7496,"ps":7497,"S\u0010":7498,"¬":7499,"$\u0001\u0000\u0000":7500,"":7501,"\u0000 ":7502,"c\u0000e\u0000s\u0000":7503,"stap":7504,"»»":7505,"(x":7506,"/@¹":7507,"s\u0003":7508," \u0004":7509,"!!":7510,"\u0014\u000b":7511,"\u0019ë":7512,"C@¹":7513,"÷Ñ":7514,"å":7515,"H\u0010":7516,"eg":7517,"\u000f\\":7518,"û":7519,"mode":7520,"ð!ðFùã":7521,"\u0001\u0000 Ò\u0001\u0013òBÐ;Õã\u0003\u0000K":7522,"?\u0000\u0000\u0000\u0000\u0000":7523,"ÕÕÖ":7524,"\u001c@8":7525,"ù\u0000":7526,"?(":7527,"\u0001\u0006R":7528,"gister":7529,"H\\$h":7530,"\u0005$":7531,"\b\u0000\u0012":7532,"îÿT":7533,"%*":7534,"b1":7535,"\t©ýC":7536,"s¸":7537,"T©":7538,"ÒÒÓÒÒÓ":7539,"X\u0010":7540,"\u001cø":7541,"bz":7542,"HÓè":7543,"DE":7544,"\u0000\u0000\u0000":7545,"unknown ":7546,"ê\u0000":7547,"ity\u0000":7548,"\u0000¹":7549,"Àÿ":7550,"HL$(è":7551,"read ":7552,"ØGù":7553,"are ":7554,"Q,":7555,"\bP":7556,"c\u0004\u0000\u0011":7557,"HÿÇ":7558,"Version":7559,"Åx\u0011":7560,"xû":7561,"\u0002\u0001":7562,"stapsd":7563,"u\u001f":7564,"÷":7565,"\u0003":7566,"\u0002\u0014":7567,"°0":7568,"re ":7569,"ÛÛÜÛÛÜ":7570,"H=":7571,"t8":7572,"~\u0018":7573,"\u00015":7574,"|\u0003":7575,"dll\u0000\u0000":7576,"\u0004":7577,"\u0013\u0007":7578,"\u0018\u0000Ò":7579,"ô\u0003\u0003ª":7580,"\fª":7581,"\u0001h":7582,"¸\u0002\u0000\u0000\u0000":7583,"}\n":7584,"Y\u0000\u0000":7585,"××Ø××Ø":7586,"Á\u0002\u0000":7587,"\u0006\u0002":7588,"Xé":7589,"HC\b":7590,"[]A\\A]Ã":7591,"ÙÙÚÙÙÚ":7592,"?":7593,"\u001f\u0010@q":7594,"W\u0000i\u0000n\u0000d\u0000o\u0000w\u0000s\u0000.\u0000":7595,"ò÷":7596,"æ\u0000":7597,"bw":7598,"\u0018ð\u0016à\u0014":7599,"äãã":7600,"Ëÿÿ\u0017":7601,"\u0000\u0000\u0000":7602,"LÒ":7603,"ÿp":7604,"HT$ ":7605,"H":7606,"ÝÜÜÝÜÜ":7607,"ÙÚÛÜ":7608,"ÐÏÏÐÏÏ":7609,"ûÿ5":7610,"\u0016@¹":7611,"qHÚV>ñ":7612,";Æ":7613,"\u0007\u0000":7614,"Eð":7615,"ôWA©ö_B©øgC©úoD©":7616,"\u0000R":7617,"ÿà\u0003\u0013ª":7618,"\u0000qá\u0000\u0000T":7619,"pec":7620,"a*":7621,"Ã":7622,"\u0004(":7623,"H<$":7624,"êÿT":7625,"\u0012`":7626,"ls":7627,"\u0001\u0000¸":7628,"ý\u0000":7629,"At":7630,"set\u0000":7631,".gnu.":7632," \u0012":7633,"u\u0000n\u0000":7634,"xÿÿÿ":7635,"EÉ":7636,"à\u001dù":7637,"\u0007º":7638,"\u0003\u0000\n":7639,"j\u0005":7640,"let":7641,"JF":7642,"à#@ù":7643,"px":7644,"êêêê":7645,"õ\u0003\u0001*":7646,"\u0003\u0000°!":7647,"H@\b":7648,"ÙØØ":7649,"Yø":7650,"Ð\u0007":7651,"#\u0006":7652,"@\u000f¶":7653,"á\u0000":7654,"HT$`":7655,"AWAVAUAT":7656,"\n\u0005":7657,"ø":7658,"àW":7659,"40":7660,"_h":7661,"HÄ [ÃÌÌÌÌÌÌÌÌÌ":7662,"ÕÕÖÕÕÖ":7663,"c\u0000t\u0000":7664,"\u0016Ë":7665,"´ø":7666,"ë\"":7667,"À\u0000\u0000\u0000\u0000":7668,"¿\u0002\u0000ë":7669,"d:":7670,"ror\u0000":7671," \u0006":7672,",$":7673," \u0000\u0000\u0000 \u0000\u0000\u0000":7674,"\u0000\u0000\u0000\u0000\u0000\u0000":7675,"\u0014":7676,"ì\u0000\u0000\u0000":7677,"A_A^_^":7678," ø":7679,"_trait":7680,"A°\u0001":7681,"\u0001\u00009":7682,"ÿÃ\u0000Ñ":7683,"ÿÊ":7684,"age\u0000":7685,"X\b":7686,"\u0001\u0002\u0000":7687,"H\\$p":7688,"@E":7689,"\u001b":7690,"\u0000\u0001\u0000\u0000\u0000P":7691,"HÉt\u0011":7692,"Q\u0000\u0000\u0000":7693,"\"\u0000@9":7694,"\u0015K":7695,"Q\u0000\u0000\u0000\u0000\u0000":7696,"ÖÕB":7697,"õ\u0003\u0002*":7698,"B\u000e\u0010B\u000e\b":7699,"\u0005":7700,"õ[\u0002©õ\u0003\u0001ª":7701,"ë\u001a":7702,"HL$\b":7703,"0\t":7704,"\u0000\u0000":7705,"\u0000\u0000\u0000":7706,"\u00011":7707,"\u0002\u0000\u0000":7708,"Ðé":7709,"ÿu\bè":7710,"HD$\b":7711,"ã\u0003\u001bª":7712,"H|$X":7713,"÷÷÷÷":7714,"î\u0000":7715,"\u001d\u0000T":7716,"\u0013\u0005":7717,"\u001cè":7718,"enti":7719,"\u0003":7720,"-%":7721,"H\u001b":7722,"\rº":7723,"Tø":7724,"HÇÁ":7725,"®\u0000":7726,"Z\u0000\u0000\u0000\u0000\u0000\u0000\u0000\u0000\u0000\u0000\u0000\u0000\u0000":7727,"@\u0000\u0000\u0000\u0000\u0000\u0000\u0000":7728,">b":7729,"\u001f\b\u0000":7730,"â\u0003\u0003ª":7731,"":7732,"H$":7733,"\u0001,":7734,"I\u0018":7735,"u\fè":7736,"fA9":7737,"HÚHù":7738,"@\u0000\u0000\u0000\u0000":7739,"¸":7740,"":7741,"Ö\u0006\u0000":7742,"H\u0006":7743,"@C":7744,"fD;":7745,"\r\n\u0000":7746,"iy":7747,"HÚ":7748,"Bë":7749,"HR":7750,"\u00049":7751,"!\u0003":7752,"\u0001\r":7753,"d\r\u0000\u0000\u0000\u0000":7754,"\\\u0000\u0000":7755,"\u0006\u0011":7756,"u/":7757,"ÕÖ×Ø":7758,"Hÿ":7759,"H\\$@Hl$HHt$P":7760,"Ht$p":7761,"ë\u001b":7762,"fq":7763,"S\u0000e\u0000t\u0000":7764,"_ÃÌÌÌÌÌÌÌ":7765,"\u0012":7766,"AH":7767,"Â":7768,"üÿÿÿ":7769,"È\u0001\u0000\u0000":7770,"äããäãã":7771,"\u001f@":7772,"~\u0000\u0000":7773,"¼±":7774,"F\u0000\u0000":7775,"HÄ(é":7776,"d\u0000a\u0000":7777,"\u0003©ýÃ\u0000óS\u0004©":7778,"¼\u0000":7779,"\u00012":7780,"HÆ":7781," \u0002@9":7782,"z¹":7783,"\u001e\u0000\u0012":7784,"@P":7785,"\tÑ":7786,"SM":7787,"\u0000\u0004Ò":7788,"I\u0000\u0000T":7789,")}":7790,"»":7791,".":7792,"\u0001\u0015":7793,"\u0013©":7794,"\u0003\u0000\u0000\u0000stapsd":7795,"[ø":7796,"\u0000\u0000\u0000\u0000\u0000\u0000 ":7797,"bk":7798,"\u0000\u0001Ë":7799,"\u001e":7800,"\u0002\u0000\u0012":7801,"libc\u0000":7802,"\u0012":7803,"þ":7804,"g":7805,"ø":7806,"sÂ":7807,"Â":7808,"_\u0004\u0000q":7809,"ýá\u0003\u0000ª":7810,"tø":7811,"(\"":7812,"ü+\u0000ù":7813,"jh":7814,"\b\n":7815,"\u0000\u0001\u0000\u0000\u0000°":7816,"\t%":7817,"\u0000\u0000\u0000":7818,"?±":7819,"\u000f®è":7820,"óÃ":7821,"f.\u000f\u001f\u0000\u0000\u0000\u0000\u0000":7822,"eh":7823,"Õ\u0000":7824,"t/":7825,"\u0001\u0000(":7826,"éÿ":7827,"off":7828,"\bHÏè":7829,"ÃÌÌÌ":7830,"l\u0000\u0000":7831,"@#":7832,"À\u0000\u00005":7833,"º\u0000\u0000\u0000":7834,"\u0002\u0000\u0000\u0000è":7835,"dat":7836,"¯¯":7837,"À\u0001\u0000T":7838,"E2":7839,"\u0002\u0000 Ò":7840,"ñ":7841," \u0000@ù":7842,"\tR":7843,"\u0000\u0001\u0000\u0000\u0000\u0010":7844,"lete":7845,"ëX":7846,"ÿu\u0010":7847,"\u0007\u0000":7848,"×ÿ":7849,"\b\u0000\u0000\u0000\b\u0000\u0000\u0000":7850,"0_":7851,"û":7852,"E\u000b":7853,"H\\$0":7854,"à§":7855,"\u0006\u0000ñ":7856,"f\u0000o\u0000r\u0000":7857,"_\u0000\u0000k":7858,"AÇ":7859,"3.":7860,"Uø":7861,"\r\r\r\r":7862,"Áà":7863,"\u00030":7864,"3F":7865,"_(":7866,"Ñø":7867,"\u0000(\u0000":7868,"ý@":7869,"Mñ":7870,"è¢":7871,"string":7872,"I#":7873,"\tñ":7874,"A,":7875,"fÇ":7876,"Ã}Z\u0000\u0000\u0000\u0000\u0000\u0000\u0000\u0000\u0000\u0000\u0000\u0000\u0000":7877,"«\u0000\u0000":7878,"\u0000\u0000q":7879,"_\u0000\u0000ñ":7880,"ë\u0019":7881,"\u0002\u0001Ë":7882,"éç":7883,"":7884,"\u0017\u0010":7885,"Ö\u0002":7886,"À\n":7887,"u\u0000r\u0000":7888,"þ ":7889," ¸":7890,"3Èè":7891,"\u0001\u00008":7892,"P\u0018":7893,"F":7894,"\u0002\u0015Ë":7895,"ÿ\u0003\u0003":7896,"\u0001x":7897,"IÁ":7898,"Ã\u001a":7899,"\u001b[":7900,"à7":7901,"\u001cF":7902,"Reg":7903,"H5":7904,"\f\u0006":7905,"(":7906,"\u0000\u0004ÀZ":7907,"L$":7908,"`â":7909,"Îÿÿ\u0017":7910,"H×è":7911,"code":7912,"HD$0":7913,"H\\$@":7914,"aq":7915,"á\u000b":7916,"\u0001\u0000\u0000\u0000\u0000\u0000\u0000\u0000\u0000\u0000\u0000\u0000\u0000\u0000":7917,"tv":7918," \u0000\u0000TÿC@Ñ":7919,"H|$ ":7920,"c¸":7921,"\u0006\u0005\u0004\u0003":7922,"\u0002J":7923,"\u0001\u0000h":7924,"ïÿT":7925,"í\u0003":7926,"\u0005\u0000µ":7927,"r\u0000e\u0000a\u0000":7928,"sys":7929,"À\"":7930,"à\u001b\u0000ù":7931,"\u0000\u0000\u0000":7932," 0":7933,"\u0002\u0000\u0000é":7934,"boost":7935,"Ñÿ\u0003\u0002ù":7936,"\u0000\u0000\u0000":7937," \u0006@ù":7938,"÷÷÷":7939,"¢":7940,"`0":7941,"Ðÿÿ\u0017":7942,"uð":7943,"k\u0000\u0000":7944,"ÿ\u0003\u0002ùÿ":7945,"ÈÈ":7946,"\u0004\u000f":7947,"Name\u0000":7948,"¨ ":7949,"IT":7950,"\u0018\u0012":7951,"Úø":7952,"IÿÀ":7953,"\u001f @q":7954,"\f\f\f\f":7955,"ýô\u0003\u0000ª":7956,"Öÿ":7957,"t4":7958,"CD":7959,"MÒ":7960,"â\u001f@ù":7961,"ce\u0000":7962,"app":7963,"\u001a":7964,"tj":7965,"­ø":7966,"Ôÿ":7967,"\u0011\u0011\u0011\u0011":7968,"B":7969,"\u0003À":7970,"þ\u000f\u001f":7971,"H;Ë":7972,"np":7973,"ÙØØÙØØ":7974,"V":7975,"I[\u0010":7976,"ý{E©":7977,"Lø":7978,"H\u0005":7979,"\u0002@\u0000":7980,"Â\u0004\u0000":7981,"O ":7982,"\u0002\u0000é":7983,"E%":7984,"Rè":7985,"\f\u0000ñ":7986,"\u0006@ù":7987,"H;ß":7988,"uq":7989,"by ":7990,"\u0007 ":7991,"\u0001\u000e":7992," `":7993,"\u0012\u0001\u0000\u0000\u0000":7994,"hb8":7995,"8Iã":7996,"+Gù":7997,"ú\u0000":7998,"@@":7999,"ë\u001e":8000,"@[":8001,"\bÑ":8002,"$¸":8003,";Â":8004,"ó\u000f\u001eúòÿ":8005,"w\u0000\u0000":8006,"^_":8007,";ø":8008,"He":8009,"":8010,"G\u0001":8011,"­à":8012,"\u0000\u0000\u0000":8013,"\u0016\u0002":8014,"@¹¡":8015,"·\u0000":8016,"Q":8017,"App":8018,"\u0000\u0000\u0000":8019,"á\u0004\u0000":8020,"b\n":8021,"\u0000\u0000\u0000":8022,"Þ":8023," \u0000\u0000\u001fÖ":8024,"Value":8025,"â\u0003\u0001*":8026,"0":8027,"âáá":8028,"D$8":8029,"bm":8030,"\u0001\u0000Ì":8031,"f\u0000\u0000\u0000":8032,"¡\u0001\u0000T":8033,"\u0000\u0001\u0000\u0000\u0000p":8034,"H\u0003È":8035,"Eí":8036,"ùkD©ûsE©ý{":8037,"t6":8038,"\u0000\u0000":8039,"ö\u0013@ù":8040,"sig":8041,"ain":8042,"¿\u000e\u0000\u0007":8043,"D$@":8044,"head":8045," N":8046,"\u0001\u0000Ø":8047,"h\u0000\u0000":8048,"a2":8049,"\r\u0000\u000f\u001fD\u0000\u0000":8050,"\u0007":8051,"ÿ¸":8052,"HD$x":8053,"\u0003\u0000\u0000\u0000stapsdt\u0000":8054,"\u001a\u0000Ò":8055,"F":8056,"H\\$0HÇHÄ _":8057,"\u001f":8058,"åÿ":8059,"óA\u000fY":8060,"Ã\u0000":8061,"ÛA":8062,"Áú":8063,"\u0001":8064,"!4":8065,"\u0007Ò":8066,"Y¸":8067,"\u0000\u0000\u0000":8068,"g\u0000\u0000\u0000":8069,"H\n":8070,".cpp":8071,"\u0003\u0000\u0000\u0000\u0000":8072,"Ð\u0000\u0000":8073,"\r\u0000\u0000À":8074,"\u0006k":8075,"IÄ":8076,"\u0006":8077,"\u0014K":8078,"CF":8079,"ÿÿ\u0017?#\u0003Õý{¿©ý\u0003\u0000":8080," ":8081,"Ð\u0012À":8082,"`Z":8083,"\u0000\u0000\u0000":8084,"`N":8085,"sor":8086,"\u0001\u0000\u0000À\u0000":8087,"\u0006ÿÿÿ\u0006ÿÿÿ\u0006ÿÿÿ\u0006ÿÿÿ":8088," \u0000\u0000TÿC@Ñÿ\u0003\u0002ùÿ":8089,"+F":8090,"­`":8091,"IÎHÿ\u0015":8092,"HÉt\u0018":8093,"Is@":8094,"\u001fR":8095,"\t":8096,"à\"":8097,"ÿÃ\u0000":8098,"¡ÿÿT":8099,"O\u0000ù":8100,"cq":8101,"C\u0000a\u0000":8102,"\u0011":8103,"¹\u0000\u0000\u0000":8104,"bd":8105,"\u0015F":8106,"LD$\u0018":8107,"\u0005":8108,"\u0002A":8109,"ë[":8110,"Ày":8111,"\u0005\u0000\u0000\u0000\u0000":8112,"INS":8113,"\u0019\u0010":8114,"!\u001c\u0000\u0011":8115,"\u0004\u0000±":8116,"\u000bÐ":8117,"\u0019\u0000T":8118,"w\u0010":8119,"@\u0000 Á":8120,"@B":8121,"uh":8122,"H\u000f*":8123,"á\u001f\u0000ù":8124,"Data":8125,"@ÿ\u0015":8126,"þô\u0003\u0000ª":8127,"\u0000\u0003\u0000":8128,"m\u0000\u0000":8129,"?,":8130,"\u0003\u0004":8131,"aB":8132,"DÂ":8133,"K0":8134,"¤":8135,"H\\$\bHt$\u0010H":8136,"\u0003\u0003\u0003\u0003\u0003\u0003\u0003\u0003":8137,"\u0002":8138,"â\u0017":8139,"info":8140,"\u0002\u0000À":8141,"¦¦":8142,"s\u0000t\u0000a\u0000":8143,"R":8144,"LIB":8145,"Äÿ":8146,"áàà":8147,"debug_":8148,"entr":8149,"\u0005\u0000°@\u0000R!":8150,"\u000f@ù\"\u0000@ùc\u0000\u0002ë\u0002\u0000Ò":8151,"ÐGù\u0000\u0000@¹\u001f":8152,"|\u000b":8153,"\u0000qÁ\u0000\u0000T":8154,"Eô":8155,"=å":8156,"à\u0003\u0000K":8157," ÿ":8158,"HÄX":8159,"Ö÷":8160,"ý{Â¨¿#\u0003Õ":8161,"\f":8162,"ass":8163," \f\u0000":8164,"DL$":8165,"R©":8166,"\u0000(6":8167,"jf":8168,"y\u0000\u0000\u0000":8169,"\u001f\u001f\u001f\u001f":8170,"i\u0000\u0000\u0000":8171,"yl":8172,"_\u0000\u0003ë":8173,"H\u0002":8174,"\u0001q\u0000":8175,"K\u0000¹":8176,"è\u000f\u0000":8177,"ÿ\u0007\u0000ù":8178,"\tð":8179,"s\f":8180,"ÄÂ":8181,"à4":8182,"[ÃÌ":8183,"\u0005":8184,"\u0000\u0000\u0000\u0000\u0000!\u0001":8185,"\t\u0006":8186,"HÉt\u0017":8187,"Ø×B":8188,"k@ù":8189,"^\u0000\u0000":8190,"Â":8191,"HìX":8192,"3Éÿ\u0015":8193,"\u0001­":8194,"ëëëë":8195,"g\u0000\u0000":8196,"M":8197,"bQ":8198,"èÿ":8199,"ed\u0000":8200,"û\u0000\u0000\u0000\u0000\u0000\u0000":8201,"\n\u0000\u0000\u0014":8202,"HK\b":8203,"øµ":8204,"I":8205,"CT":8206,"\u0001Ë":8207,"H\\$(":8208,"\u0011A~":8209,"\u0000q\u0004\u0018@z":8210,"ÉÃ":8211,"\u0001":8212,"u#":8213," ":8214,"õ[\u0002©ö\u0003\u0001ª":8215,"D$8":8216,"\u00142":8217,"f\u000f/":8218,"`\u0001\u0000":8219,"GP":8220,"\u0000\u0000\u0000":8221,"E1À":8222,"49":8223,"\u0010Hp\u0018Hx AVHì ":8224,"<\t":8225,"\u0004+":8226,"¥\u0000\u0000":8227,"©\u0000\u0000T":8228,"u$":8229,"0":8230,"?ü":8231,"5":8232,"\u0010\u0000Ñ":8233,"\u0010B":8234,"ë(":8235,"`¹":8236,"Ìÿÿ\u0017":8237,"UR":8238,"¸\u0003@\u0000":8239,"ü+@ù":8240,"HòHù":8241,"Óÿÿ\u0017":8242,"\u0017\u0000\u0000\u0000\u0000\u0000\u0000":8243,"á\u0007\u0000ù":8244,"\u000e":8245,"\u0014\u0000\u0000\u0000\u0000\u0000":8246,"\u0010":8247,"úÿ5":8248,"%\u0000s\u0000":8249,"H!\u0000":8250,"_ÃÌÌÌÌÌÌÌÌÌ":8251,"¿\u0000\u0000\u0000":8252,"\u0002K":8253,"0Hÿ\u0015":8254,"_^[å]Â":8255,"ó¤":8256,"úD":8257,"\u000fB":8258,"\u0001\u0000\u0006":8259,"HÄ [ÃÌÌÌÌÌÌÌ":8260,"úù":8261,"\u0000\u0002\u001fÖ":8262,"ÿu":8263,"1:":8264,"\u0001":8265,"ä\u0003\u0017ª":8266,"\rk":8267,"Iè":8268,"ùkD©ûsE©ý{Æ¨À\u0003_Ö":8269,"xf":8270,"????":8271,"pg":8272,"¦\u0002\b|":8273,"\u0014\u0000q":8274,"\t\t\t\t":8275,"s%":8276,"à\u0013\u0000ù":8277,"\u0000\u0000\u0000H\u0001":8278,"À\u0002@¹":8279,"à7\u0000ù":8280,"\u0018k":8281,"ff.\u000f\u001f\u0000\u0000\u0000\u0000\u0000":8282,"\u0019F":8283,"58":8284,"\f\u001f\u0000":8285,"\"\b":8286,"p\u0000e\u0000":8287,"b±":8288,"HÉt\u0012":8289,"@\u0000 Á!\u001c\u0000\u0011":8290,"\u0003\u0000ð!":8291,"quest":8292,"Ò":8293,"\u0003\u0000º":8294,"3Òÿ\u0015":8295,"pÿÿÿ":8296,"\u000e":8297,"char_trait":8298,"Åx\u0010":8299,"\u0004ÿ":8300,"p\u0010H":8301,"\f\u0010":8302,"\b\u0001\u0000T":8303,"áààáàà":8304,"Out":8305,",\u0001\u0000\u0000":8306,"KE":8307,"yyyyyyyy":8308,"3È":8309,"HH\b":8310,"Xÿ":8311,"reg":8312,"óª":8313,"\u0000\u0004ë":8314,"Hd$8\u0000":8315,"G@":8316,"å\u0000\u0000":8317,"Åè":8318," î":8319,"PW":8320,"\u0003":8321,"Ùø":8322,"(\u0002\u0000\u0000":8323,"F":8324,"E":8325,"õõõõ":8326,"it ":8327,"\u0000<\u0000\u0012":8328,"o\u0000\u0000\u0000":8329,"D$(":8330,"¸ñ":8331," \u0002\u001fÖ\b\u0000Ð":8332,"0":8333,"U":8334,"LD$ ":8335,"lease":8336,"\f\b":8337,"\u0002\u0001\u0000\u0000":8338,"has ":8339,"b\u0016@8":8340,"X\u0002\u0000\u0000":8341,"SG":8342,"\u0005Ð":8343,"`²":8344,"\u001f0":8345,"\u000f·ØË\u0000\u0000\u0007":8346,"è¡":8347,"\u0000":8348,"\u0002\u0000q":8349,"íííí":8350,"¥\u0010":8351,"\r)":8352,"\u0012\u0000\u0000\u0000\u0000\u0000\u0000":8353,"\u0002\u0000k":8354,"aR":8355,"\u000b\u0000":8356,"þOÃ¨À\u0003_Ö":8357,"50":8358,"a\u0001\u0000T":8359,"bÁ":8360,"tf":8361,"end ":8362,"36":8363,"d$ \u0000":8364,"á\u0003\u0013ªà\u0003\u0014ª":8365,"u\u0000\u0000\u0000":8366,"\u0000\u0002":8367,"\bµ":8368,"ary":8369,"ÿÿ\u0017Á":8370,"ã\u0003\u0001ª":8371,"\"":8372,"M\b":8373,"\u0001M":8374,"ØÀt":8375,"\u0017\u0012":8376,"@@\u0000":8377,"\u0003\u0000\u0010":8378,")9":8379,"á\u0007":8380,"H÷":8381,"¦\u0003}":8382,"Wr":8383,"#x":8384,"com":8385,"H|$HHÄ A^":8386,"H÷\r":8387,"à@y":8388,"ø\u0003":8389,"ny":8390,"\b\u0000\u0015":8391,"ew":8392,"ëêê":8393,"\u0005\u0000\u0005\u0000":8394,"HL$ ":8395,"¡\u0000\u0000\u0000":8396,"D\u0018":8397,"Àÿÿ":8398," j":8399,"ùk\u0005©":8400,"U©":8401,"\u0018\u0002\u0000\u0000":8402,"\u0000\u0000\u0000\u0000A\u000e\u0010\u0002\u0001C":8403,"\u0000¹ ":8404,"[\u0000ù":8405,"D ":8406,"I\u0000":8407,"\u0013\u000b":8408,"\u0010":8409,".\u0000 \u0000":8410,"\f\u0004":8411,"BðFù":8412,"HÄ(ÃÌÌÌÌÌÌÌ":8413,"\u0019k":8414,"óS\u0001©ó\u0003\u0000ª":8415,"T$X":8416,"$\u0001":8417,"\u0005Ë":8418,"            ":8419,"@\u0018@\u0000 Á!\u001c\u0000\u0011":8420,"ªbÿ?7":8421,"arning: ":8422,"\u0013\u0002":8423,"ë\u0017":8424,"_X":8425,"\u0000À":8426,"E1ö":8427,"\u0002\u0000j":8428,"ha8":8429,"\u0000\u0000Àé":8430,"dh":8431,"\f\u0000\u0011":8432,"a\u0000\u0000\u0000`":8433,"D\t":8434,"|\u0000|\u0000":8435,"{\n":8436,"\u0000\u0001\u0000\u0000\u0000 ":8437,"inst":8438,"RF":8439,"HÄh":8440,"@¹\u0000\u0004\u0000Q":8441,"HH":8442,"\u0001\u0000\t\u0004\u0000\u0000":8443,"\u0002\u0000\u0000":8444,"ï\u0000":8445,"jk":8446,"ÛÚÚ":8447,"Õÿ":8448,"H":8449,"WHì":8450,"\fÿ":8451,"D}":8452,"ç£":8453,"\n\u0006":8454,"L}":8455,"]¸":8456,"@Æ":8457,"\u0000\u0001\u0000\u0000\u00000":8458,"\u000fè":8459,"\u0000\u0004":8460,"°\u0000\u0000":8461,"B\u0000\u0001Ë":8462,"(6":8463,"mess":8464,"v\b":8465,"\u0014ð\u0012à":8466,"nu":8467,"Mess":8468,"ph":8469,"\u0014\u0000\u0014\u0000\u0014\u0000\u0014\u0000":8470,"\u0019\n\u0002\u0000\n2\u0006P":8471,"\u001f\u0000¹":8472,"<<":8473,"\u0000\u0004\u0000\u0000\u0000":8474,"\u0001\u00007":8475,"t1":8476,"íþ":8477,"èèèè":8478,"c:":8479,"àÓ":8480,"h\u0000a\u0000":8481,"\u0019ð":8482,"(7":8483,"\u0000\u0001\u0000\u0000\u0000À":8484,"°\u0002\u0000\u0000":8485,"N\u0010":8486,"ìè":8487,"¼p":8488,"\u0004Ð":8489,"\u0000T\u0001\u0004\u0000":8490,"\u0000\u0000\u0000\u0000\u0000\u0001\u0000\u0000":8491,"\u001f\u0000\u0015ë":8492,"Ç\u0007":8493,"J":8494,";Ñ":8495,"\b\u0007":8496,"\r\r\n":8497,"\u0001\u0010\u0000":8498,"\u0010\u0010\u0010\u0010\u0010\u0010\u0010\u0010\u0010\u0010\u0010\u0010\u0010\u0010\u0010\u0010":8499,"=ä":8500,"PS":8501,"H":8502,"HÙH\u0001":8503,"j\u0000\u0000":8504,"@\u0000\u0000\u0000\u0000\u0000\u0000\u0000\u0000\u0000\u0000\u0000":8505,"\f\u0003":8506,"\u0007":8507,"Hê":8508,"\u0018º":8509,"andle":8510,"r\u0000\u0000":8511,"\u0002\u0001Ò":8512,"\u0000\u0000\u0000\u0000\u0000\u0000\u0000":8513,"I\u0000\u0000\u0000":8514,"þÿÌ":8515,"i\u0000n\u0000g\u0000":8516,"÷":8517,"<@ÿc ":8518,"ø¶":8519,"u\u0000\u0000":8520,"åää":8521," ":8522,"èèé":8523,"scale":8524,"D":8525,"H\u0007HÏ":8526,"ú\u0002":8527,"CM":8528,"@@Q":8529,"s\u0000i\u0000o\u0000n\u0000":8530,"Ëÿ\u0003\u0000ù\u001f\u0000\u0010ñ":8531,"Eð":8532,"\u0000qA\u0000\u0000T":8533,"Q\u0018":8534,"<@ÿc Ëÿ\u0003\u0000ù\u001f\u0000\u0010ñ":8535,"\u0001":8536,"°ÿ":8537,"t>":8538,"»\u0000":8539,"Ýÿÿ":8540,"%(":8541,">\r\n<":8542,"þ\u000f":8543,"CÐ;Õ":8544,"H":8545,"u*":8546,"HMÐè":8547,"HL$Xè":8548,"it\u0000":8549,"ø\u0003\u0002ª":8550,"¢\u0000\u0000\u0000":8551,"ó\u0000":8552,"Object":8553,"9\u0000R":8554,"@\u0006":8555,"check":8556,"vk":8557,"error ":8558,"O":8559,"B":8560," \u0014":8561,"\u0016Ñ":8562,"\u0007\b":8563,"pc":8564,"\u0005":8565,"\u0000 Gù":8566,"\u0010":8567,":":8568,"Ø\u0001\u0000\u0000":8569,"àßß":8570,"½©ý\u0003\u0000":8571,"3Í":8572," \u0002\u0000T":8573,"\u0001\u0000¨":8574,"Xø":8575,"ö\u0013\u0000ù":8576,"\u0000\u0000\u0000\u0000\u0000\u0000\u0000\u0000\u0000\u0001\u0000\u0000\u0000":8577,"\u0011\u0012":8578,"\u0000\u0000\u0000\u0000\u0000\u0000ð":8579,"\u0014\u0003":8580,"¥ ":8581,"UVWAVAW":8582,"ker":8583,"r\u0000r\u0000o\u0000":8584,"\u0001\u0000@¹":8585,"=ç":8586,"Â":8587,",\u0000,\u0000":8588,"\u0007\u0002":8589,"":8590,"http":8591,"I[8":8592,"\u0000\u00106":8593,"\u0000\u0000\u0001Ë":8594,"óSA©õ\u0013@ùý{Ã¨À\u0003_Ö":8595,"HÄ ]ÃÌ":8596,"\u0000\u0000":8597,"\u0000\u0000\u0000\u0000P":8598,"À\u0006":8599,"x\u0001":8600,"à+":8601,"\u0007\u0004":8602,"Aú":8603,"\u000eð":8604,"]Â\b\u0000":8605,"(Iã":8606,"u\"":8607,"=æ":8608,"ÿ":8609,")":8610,"":8611,"¯\u0000\u0000\u0000":8612,"òE":8613,"Ö\u0006\u0000\u0011":8614,"\u001c\u0000r":8615,"":8616,"ü\u0000ü\u0000":8617,"û\u0017":8618,"DÓ":8619,"\u001b4":8620,"8X":8621,"Hê":8622,"Vñ":8623,"Æ":8624,"\u0000¹":8625,"º\u0004\u0000\u0000\u0000":8626,"BS":8627,"\u0010 ":8628,"B\u0004\u0000Ñ":8629,"Ev\u0000":8630,"":8631,"|":8632,"ì\u0003":8633,"HÃ\b":8634,"ÓÔ\u000e\u0000A\u000b\u0000":8635,"ÿÿ\u000f\u001fD\u0000\u0000":8636,"\u0014T":8637,"iter":8638,"A\u0002\u0000T":8639,"À<":8640,"u,":8641,"\u0000\u0000\u0000è":8642,"Ã":8643,"s\u0000\u0000\u0000\u0000\u0000":8644,"H6":8645,"\u0003K":8646,"nd":8647,"$0":8648,"ä\u0001":8649,"\b\u0007":8650,"IC":8651,"\u0001qà":8652,"init":8653,"\u001ck":8654,"C\u0000\u0000Tÿ\u0003\u0002ù":8655,"\u0003ñ":8656,"À":8657,"B\u0000B\u0000":8658,"D$\b":8659,"\u0000\u0000\u0000\u0000\u0000\u0000\u0000\u0000\u0000\u0000\u0000\u0014\u0000\u0000\u0000":8660,"Process":8661,"#ø":8662,"":8663,"ÖÖ×":8664,"37":8665,"\u0004\u00009":8666,"i\u0000\u0000":8667,"expec":8668,"se ":8669,"ÞÝÝ":8670,"fic":8671,"j\u0001X":8672,"Ùÿÿ\u0017":8673,"ß\u0002\u0000ë":8674,"\u0004":8675,"è\u0000\u0000T":8676,"^[":8677,"è«":8678,"wc":8679,"\u00008":8680,"ë\u001f":8681,"À*":8682,"\u0006\u0000!":8683,"\u001er":8684,"oy":8685,"\u0013\n":8686,"\u0019h":8687,"\f¿":8688,"HJ":8689,"¨":8690,"speci":8691,"nr":8692,"@\b\u0000":8693,"h\u000fh\u000f":8694,"!(":8695,"\u0017@ù\"\u0000@ùc\u0000\u0002ë\u0002\u0000Ò":8696,"\u0001\u001e":8697,"\nÞÝ\u000e\u0000A\u000bG":8698,"''":8699,"\f\u0001\u0000\u0000":8700,"l\u0000u\u0000":8701,"\u0007Ñ":8702,"\u0001X":8703,"I;Í":8704,"\u0006\u0006\u0006\u0006":8705,"Æÿ":8706,"\u0000\u0000\u0000\u0000\u0000":8707,"P!":8708,"":8709,"28":8710,"whi":8711,"\u001b\u0001\u0000\u0000":8712,"L\u0015":8713,"\u0003\u0006":8714,"Dire":8715,"EÇ":8716,"w\n":8717,"+Ê":8718,"dep":8719,"\u0018ð\u0016à\u0014Ð\u0012À":8720,"{\u0011":8721,"@¹\u001f\u0000\u0001k":8722,"3h":8723,"Ù\u0000":8724,";ð":8725,"b\u0002":8726,"\u0000":8727,"this ":8728,"Ð!ðFù":8729,"\t":8730,"DW":8731," \u0002\u001fÖ\b\u0000Ð\u0011":8732,"\u0000\u0001\u0000\u0000\u0000 ":8733,"\u0004":8734,"p0":8735,"èèéèèé":8736,"×\u0000":8737,"HúHñ":8738,"\t\n":8739,"Ð\u000f":8740,"Á\u0004\u0000":8741,"\u0000\u0002Ò":8742,"À\u0001\u0000":8743,"k@":8744,"\u0000(\u0000ð":8745,"\u001f\u0000T":8746,"\u0012h":8747,"ÿÿó\u0003\u0000*":8748,"ëÿT":8749,"\u0001\u0001\u0000\u0000":8750,"\\$":8751,"H":8752,"âááâáá":8753,"àßßàßß":8754,"\t\u0000\u0000\u0014":8755,"åääåää":8756,"HÀ\u0002":8757,"+h":8758,"\u0000\u0000\u0000è":8759,"â\u0003\u0015ªá\u0003\u0014ª":8760,"?¸":8761,"À³":8762,"¿¿":8763,"ton":8764,"":8765,"ëç":8766," \u0003\u0000\u0000":8767,";Ø":8768,"S\u0000¹":8769,"À\r":8770,"write":8771,"C\u0004\u0003":8772,"9\u0005":8773,"0\u0004\u0003":8774,"I\u0004":8775,"ã\u0000":8776,"ð\u0000\u0000":8777,"Â":8778,"ë":8779,"}\u0019":8780,"ÖÖ×ÖÖ×":8781,"J{D":8782,"Z@Oð\u0000\u0003":8783,"b0":8784,"\u0000\u0000ð":8785,"þ\u000f\u001fø":8786,"ÙA":8787,"ó\u000f\u001eúòÿ%":8788,"L¼$":8789,"H\\$\bHt$\u0010H|$\u0018":8790,";\u0000R":8791,"¸\u0000\u0000":8792,"\u0002":8793,"fh":8794,"¦\u0003\b|":8795,"øÿÿÿ\u0000\u0000\u0000\u0000\u0000\u0000\u0000\u0000":8796,"H;Ð":8797,"OO":8798,"d\u0000e\u0000r\u0000":8799,"ÛÚÚÛÚÚ":8800,"Í)":8801,"BX":8802,"\u0000\u0000":8803,"pri":8804,"ach":8805,"Â\u0002R":8806,"B":8807,"":8808,"Ò":8809,"Eô":8810,")Ð":8811,"ãââ":8812,"":8813,"Eø":8814,"À\u0001\u0000\u0000\u0000":8815,"S\u0000t\u0000":8816,"~\u0005":8817,"\b":8818,"~\u0010":8819,"up\u0000":8820,"à\r":8821,"2_":8822,"ÞÝÝÞÝÝ":8823,"\u0003$":8824,"non":8825,"21":8826,"Ñ\u0000\u0000":8827,"UHì":8828,"\u001c\u0000Ò":8829,"¼ÿÿ\u0017":8830," \u0000\u0000µ":8831,"c0":8832,"ææææ":8833,"ô÷":8834,"óSA©ý{Â¨¿#\u0003Õ":8835,"\n2\u0006p":8836,"value":8837,"Âÿ":8838,"\"\u001cÓ":8839,"B":8840,"ll ":8841,"dk":8842,"lt":8843,"ox":8844,"\u0001\u0000x":8845,"\u0004#":8846,"":8847,"\u0015\u0000\u0012":8848,"L\u0000o\u0000":8849,"hÿÿÿ":8850,"\u0014F":8851,"N©":8852,"2\u0000\u0000\u0000\u0000\u0000\u0000":8853,"\u0000\u0000":8854,"~":8855,"6\u0001":8856,"½\u0000":8857,"System.":8858," <":8859,"Ì\u0007\u0000\u0000":8860,"á\u0017\u001a":8861,"\u0001\u0000\u0001":8862," \"":8863,"Ôÿÿ":8864,"ýà\u0003\u0013ª":8865,"Hø\u001f":8866,"ERROR_":8867,"üÿÿ\u0017":8868,"Ü\u0000":8869,"^\u0001":8870,"\u0001\u001c\u0000\u0012":8871,"AÕ":8872,"ûÿ´":8873,"\u001f\b":8874,"@ù\"\u0000@ùc\u0000\u0002ë\u0002\u0000Ò":8875,"%ÿ":8876,"AÈ":8877,"\u0000q`\u0000\u0000T":8878,"²\u0000":8879,"\u0000\b@ù":8880,"6¸":8881,"\u0004":8882,"Íÿÿ\u0017":8883,"mbol":8884,"Áÿ":8885,"fk":8886,"ç&ç&":8887,"à;\u0000ù":8888,"HEà":8889,"L_":8890,"ëêêëêê":8891,"\u0000\u0000\u0000":8892,"\u001b\u0000T":8893,"n:":8894,"\u0010 ":8895,";":8896,"name ":8897,"~\u0004":8898,"\u0002\u0015ë":8899,"p\u0018":8900,"ÙÚ×ØÕÖÓÔ\u000e\u0000A\u000b":8901,"`B)":8902,"¸©":8903,"ë\u001d":8904,"ùkD©ûsE©ý{Æ":8905,"¡\u0006@ù":8906,"\u001c\u0000\u0000\u0000\u0000\u0000":8907,"§\u0000":8908,"Y\u0000\u0000\u0000":8909,"p@":8910,"RP":8911,"b\u0000R":8912,"ÓÓ":8913,"asswor":8914,"\u0007\u0000Ð\u0000":8915,"ting":8916,"¾":8917,"@9à":8918,"\u00041":8919,"HD$8":8920,"u0":8921,"\u0006è":8922,"30":8923,"!\u0004@ù":8924,"HÖè":8925,"eb":8926,"u\u0000l\u0000":8927,"\u001a\u0001":8928,"\nÞÝ×ØÕÖÓÔ\u000e\u0000A\u000b":8929,"³\u0000":8930,"H1":8931,"BD":8932,"<\u0000R":8933,"vq":8934,"Hé\bé":8935,"­":8936,"­\u0000\u0000\u0000":8937,"P6":8938,"\u0002À\u0003_Ö":8939,"Àt\r":8940,"HD$@":8941,"De":8942,"Ð\u0002":8943,"à3":8944,"long":8945,"tF":8946,"P\f":8947,"´ÿ":8948,"ã\u0003\u0002ª":8949,"à'@ù":8950,"Æé":8951,"ÄB":8952,"\u0000\u0000\u0000":8953,"¡\u0002@ù":8954,"é":8955,"So":8956,"\u0001Å":8957,"`\u0002\u0000":8958,"@¹â":8959,"z\u0000\u0000":8960,"Hl$XHt$`":8961,"{\u0000\u0000":8962,"ate\u0000":8963,"¢\u0000\u0000":8964,"MA":8965,"u+":8966,"ä\u0003\u0014ª":8967,"ØA":8968,"76":8969,"\u0019\u0000\u0019":8970,"ö\u0003\u0003ª":8971,"©\u0000\u0000\u0000":8972,"\u0000\u0000":8973," ë":8974,"Äè":8975,"k`":8976,"ü\u0017":8977,"$è":8978,"\u0001\u0016":8979,"\tè":8980,"\u0001\u0000":8981,"H\u0003H\u0005":8982,"\br\u0003":8983,"\u0007":8984,"öåºÿ":8985,"\"\u0001\f":8986,"IÇ":8987,"(Fÿ÷":8988,"8é":8989,"\u0004\u000f":8990,"Áû":8991,"\\$(":8992,"x\u0000%\u0000":8993,"\u0000\u0000\u0000\u0000\u0000\u0000F":8994,"Device":8995,"Y\u0001":8996,"K\u0000ù":8997,"\u0001<\u0000":8998,"\b\b\b\b":8999,"ø":9000,"c\u001c\u0000\u0012":9001,"IS":9002,"\u0000":9003,"b\u0012":9004,"Mem":9005,"Hìh":9006,"\u001dS":9007,"[é":9008,"\u0000\u0000\u0000":9009,"\u001f \u0003Õ\u001f \u0003Õ\u001f \u0003Õý{¿©":9010,"\u0000":9011,"{\b":9012,"\u0000\u00004":9013,"V\u0010":9014,"\u0014\u0001\u0000\u0000":9015,"C\u0002":9016,"\u0007\u0006":9017,"I \u0000":9018,"Ç":9019,"¹":9020,"\u00182":9021,"bÑ":9022,"8@x":9023,"\u0001\u0000":9024,"\n":9025,"\f\u00004":9026,"@G":9027,"0\u0003":9028,"\u0000\u0000\u0000H":9029,"ÉÿÉÿ":9030,"ã":9031,"Lê":9032,"P¡":9033,"á\u0001\u0000T":9034," \u0002\u001fÖð":9035,"]ø":9036,"\u0000\u0000":9037,"Hd$@\u0000":9038,"`7":9039,"Åÿÿ\u0017":9040,"@@\u0002\u0005õá\u0000@":9041,"¿è":9042,"Lâ":9043,"\u0018ÿ":9044,"àw":9045,"\u0000\u0000µ":9046,"Ñé":9047,"Üÿÿ":9048,"ãââãââ":9049,"÷c\u0006©":9050,"_W":9051,"\u0000@\u0000":9052," ¹":9053,"^Ã":9054,"Ll$":9055,"\u0003\u0000\u0001\u0000\u0000\u0000":9056,"\u0013(Gù":9057,"\u0000ðFùõ[":9058,"b\u0016@8@\u0018@\u0000 Á!\u001c\u0000\u0011":9059,"F©ÿÃ":9060,"fA;":9061,"@¬":9062,"Ûø":9063,"@¹B":9064,"Ä\u001a":9065,"ë\u0000\u0000":9066,"\u0000\u0001\u000b":9067,"úÿ":9068,"K\u0004":9069,"UHýS":9070,"UHõ":9071,"HL$P":9072,"Hì0Hê":9073,"\u0002\u0000ù":9074,"\u0000À!":9075,"b2":9076,"UUUUUUUU":9077,"\u00134":9078,"mj":9079,"tar":9080,"C\n":9081,"HÉt\n":9082,"öåºÿöåºÿ":9083,"\u0001":9084,"\u001ak":9085,"ê":9086,"¸\u001f":9087,"$\u0000\u0000\u0000\u0000\u0000\u0000\u0000":9088,"H;Â":9089,"\u000fWÉ":9090,"R\u0000\u0000\u0000":9091,"\f\u0002":9092,"0\u001c":9093,"ª\u0000\u0000\u0000":9094,"\u0005":9095,"Áÿÿ":9096,"\u0015©":9097,"Ôÿ":9098,"\u0001\u0000H\u0005":9099,"\"\u00009":9100,"\t\u0000":9101,"\u0001q`":9102,"I0":9103,"no-":9104,"ß\u0002\u0000q":9105,"rup":9106,"\u001d4":9107,"Á\u0000\u0000":9108,"\u0000<":9109,"ulti":9110,"çççç":9111,"«\u0000\u0000\u0000":9112,"HÇ":9113,"t;":9114,"@9 ":9115,"\u0019T":9116,"\u0001q":9117,"£\u0000\u0000\u0000":9118,"\u0002\u0000":9119,"Ã\u0003":9120," \u0000\u0000ù":9121,"\n\u0000":9122,"¡þÿT":9123,"iv":9124,"B\n":9125," \u0000 ":9126,"I\u0004$":9127,"ßÈ":9128,"F$":9129,"H;Ã":9130,"feren":9131,"R":9132,"è÷":9133," \"":9134,"\u0004":9135,"Á¬":9136,"\u0007ð":9137,"\u000e\u0000\u000f\u001fD\u0000\u0000":9138,"\u0010Hp\u0018":9139,"ø\u0001\u0000\u0000":9140,"À\u0005p\u0004`\u0003":9141,"?¼":9142,"ìëë":9143,"\t\u00004":9144,"°\u0000\u0000\u0000H":9145," 7":9146,"S\u0000y\u0000s\u0000t\u0000e\u0000":9147,"P0":9148,"met":9149,"C\u0014":9150,"¥\u0000\u0000\u0000":9151,"|H\u0010":9152,"dule":9153,"â\u0000":9154,"ÿÿð":9155,"SW":9156,"ÿ":9157,"´&":9158,"@K":9159,"HD$(HE":9160,"\u0006":9161,"ìÿT":9162,"\u0001<\u0000!ð}":9163,"Çÿÿ\u0017":9164,"\u000e\r":9165,"A":9166,"\r4":9167,"þÿÿé":9168,"9\u0003":9169,"\fð\n":9170,"\u0011\u000f":9171,"xÿ":9172,"Þÿÿ":9173,"Query":9174,"`\u0005":9175,"server":9176,"\u0000\u0000\u0000":9177,"[ÃÌÌÌÌÌÌÌ":9178,">@ù":9179,"tab":9180,"\u0000\u0001R":9181,"\u0000\u0000\u0000":9182,"¸£":9183,"à³":9184,"á\u0003\u0017ªà\u0003\u0013ª":9185,"º\b":9186,"\u0016Ð":9187,"-\u0000\u0000\u0000\u0000\u0000\u0000":9188,"NULL":9189,"G0":9190,"¤\u0000\u0000":9191,"ô":9192,"Û\u000f":9193,"¿\u0002":9194,"share":9195,"¬\u0000\u0000T":9196,"\u001f\u0000\u0003ë":9197,"Çÿ":9198,"":9199,"Ç¨À\u0003_Ö":9200,"\u0000\u0002R":9201,"Ð÷":9202," ":9203,"E\b":9204,"H\f%":9205,"À\u0003_Ö?#\u0003Õý{":9206,"L\\$`":9207,"óSA©õ[B©ý{Ã¨À\u0003_Ö":9208,"ö\u0003\u0001*":9209,"MÏ":9210,"\u0001\u0013":9211,"B\u000f¶":9212,"á\u0000\u0000":9213,"HÃH\\$0HÄ _":9214,"internal":9215,"ó¥":9216,"\u0000\u0000":9217,"64\u0000":9218,"@Ø":9219,"low":9220,", %s":9221,"?À":9222," \u0013":9223,"ÃÃ":9224,"ATI":9225,"\u0010":9226,"\r\u0005":9227,"À\u0000R":9228,"\u0000\u0000\u0000\u0000è":9229,"§\u0000\u0000\u0000":9230,"£`":9231,"} ":9232,"\u0001ÿÿT":9233,"\u0012\u0010":9234,"\u0018Hp ":9235," \u0001\u0000":9236,"Üÿ":9237,"HB\u0010ÿ\u0015":9238,"Hd$(\u0000":9239,".\n\u0000":9240,"á\u0003\u0014ª\u0000":9241,"º\u0000\u0000":9242,"HÁ\u0002":9243,"ts":9244,"\u0001p":9245,"C\u0000R":9246,"L#":9247,"óSA©\u0000\u0000R":9248,"+ ":9249,"?":9250,"¦\u0000\u0000\u0000":9251,"\u001eø":9252,"basi":9253,"HcÈ":9254,"DÅ":9255,"HÇ":9256,"!Ø":9257,"\u0004\u0000ÿÿÿÿ":9258,"f\u000fs":9259,"j 8":9260,"TR":9261,"ë)":9262,"H@\u0010":9263," \u001c":9264,"xh":9265,"\u0015\u0004":9266,"æ\u0003\u0000ª":9267,"à\u0012":9268,"imp":9269,"k\u0000\u0000\u0000":9270,"óSD©õ[E©÷c":9271,"\u000fR":9272,"\u001cT":9273,"0¢":9274,"¹\u0000\u0000":9275,"H\u0003É":9276,"\u0006\u0000":9277,"(9":9278,"É\u000f":9279,"\nÞÝ×ÕÖÓÔ\u000e\u0000A\u000b":9280,"¹\u0002\u0000":9281,"t\u0005è":9282,"b\u0000\u0000\u0000":9283,"ú":9284,"Ht$ ":9285,"\u0001\u0000È":9286,"\r*":9287,"return":9288,"EEEE":9289,"J":9290,"\r\u0000°":9291,"\u0001%":9292,"èé":9293,"X©":9294,"\u0002":9295,"W\u0010":9296,"x\u0002\u0000\u0000":9297,"r\u0003":9298,"al_":9299,"\"h":9300,"F":9301,"²\u0000\u0000\u0000":9302,"vice ":9303,"%s\n\u0000":9304,"å":9305,"­À":9306,"Îÿ\u0015":9307,"Æ":9308,"P(":9309,"E\u0018":9310,"":9311,"\f":9312,"ngth":9313,"IÎÿ\u0015":9314,"cü":9315,"defin":9316,"¸\b\u0000\u0000\u0000":9317,"!\u0000\u0002":9318,"¡ ":9319,"\u0002\u0000¹":9320,"\u0014\u0001\u0000\u0000\u0000":9321,"\u001aF":9322,"a\u0002\u0000T":9323,"Á":9324,"öØ":9325,"\u0000\u0001K":9326,"param":9327,"(h":9328,"q ":9329,"HD$(ÇD$ ":9330,"\u0001\u0000\u0002\u0000":9331,"change ":9332,"\u0000\u0000\u0001\u000b":9333,"\u001ft":9334,"A°":9335,"\u0002Ì":9336,"Id\u0000\b":9337,"÷Ù":9338,"Aü":9339,"A":9340,"Lt$ ":9341,"L$":9342,"\n\u0000ð\u0000":9343,"key":9344,"A¸\u0002\u0000\u0000\u0000":9345,"\u0007Ø":9346,"`r":9347,"O_":9348,"gin":9349,"èç":9350,"À\u0003_Ö\u001f \u0003Õ":9351,"#":9352,"â":9353,"Àt\u0007":9354,"\u001dh":9355,"H¼$":9356,"ÀÁ":9357,"!\u0000\u0000Ë":9358,"`ÿ":9359,"Ax":9360,"õ[\u0002©õ\u0003\u0000ª":9361,"HÀt\u0005":9362,"@\u0001\u0000´":9363,"Ùÿÿ":9364," x":9365,"®\u0000\u0000\u0000":9366,"þ\u0003":9367,"+@ð":9368,"bc":9369,"j\u0006":9370,"â\u0003\u0018*":9371,"\u0000`":9372,"\u0003":9373,"UP":9374,"\u0004©ý":9375,"Q":9376,"@`":9377,"s~":9378,"\u0001w":9379,"n\u0000\u0000":9380,"\u0000\u0000\u0001ë":9381,"bB":9382,"\u0000":9383,"\u0003\u0000 ":9384,"HG\b":9385,"tribu":9386,"\"\u0005\u0019\u0002\u0000\u0000\u0000":9387,"à\u0003\u0000":9388,"_0":9389,"i\u0000e\u0000":9390,"\f\u000b":9391,"HÂ'":9392,"gv":9393,"Åù":9394,"ìëëìëë":9395,"ÿ\u0007":9396,"(\u0001":9397,"èª":9398,"HÁé":9399,"xk":9400,"Aü":9401,"\b":9402,"s\u0004":9403,"Is0":9404,"var/":9405,"d£":9406,"C\u0000@ùã":9407,"dq":9408,"dH":9409,"HI\u0010º":9410,"Ð\u0006":9411,"¸¡":9412," \u0000\u0000\u0000\u0000\u0000\u0000\u0000\u0000\u0000\u0000\u0000":9413,"\u0004\u0000\n4":9414,"t5":9415,"wa":9416,"\u0018":9417,"ü\u0000":9418,"\u0015Ë":9419,"HÿÆ":9420,"Â\u0000\u0000\u0000":9421,"length":9422,"À":9423,"\u0019\u001b":9424,"íìì":9425,"«ÿ":9426,"ÿx":9427,"\u0000\u0000\u0000\u0000\u0000\u0000\u0000\u0001\u0000\u0000\u0000\u0002\u0000\u0000\u0000":9428,"\u0005\u0000\u0000è":9429,"h\u0010":9430,"\u001c\u0000\u0000\u0000\u0000\u0000\u0000":9431,"aJ":9432,"D$p":9433,"}R":9434,"0\u0002P":9435,"÷\u001b@ùý{Ä¨¿#\u0003ÕÀ\u0003_Ö":9436,"AUI":9437,"\u0018\u0010":9438,"ã":9439,"BL":9440,"­ ":9441,"\u0016ð":9442,"\u0000\u0000":9443,"\u0016\u0000\u0000\u0000\u0000\u0000":9444,"\u0003\u000f":9445,"Mö\u000f":9446,"Do":9447,"pv":9448,"\u0006\u0003U\u001d":9449,"Li":9450,"à\u0003\u0003*":9451,"tribute":9452,"à÷":9453,"HF":9454,"\u0002Ñý{":9455,"rl":9456,"¼©ý\u0003\u0000õ[\u0002©":9457,"\u0000\u0000":9458,"HÄ A_A^":9459,"H\u0003Ð":9460,"oi":9461,"t3":9462,"\u0000\u0004\u0000Q`\u0006\u0000¹":9463,"a\u0002\u0000¹":9464,"@\u000b":9465,"v\n":9466,"\u0002\u0000\u0010":9467,"HÙè":9468,"D\u0004\u0003":9469,"\u0007\u0001\u0000":9470,"\u000e\u0000´":9471,"\u0001\u0000\u0000º":9472,"\u0017\u0000ù\u0001\u0000Ò":9473,"p\u0011":9474,"\u0016F":9475,"b\u0001":9476,"\u000f":9477,"v\u0000a\u0000":9478,"·\u0000\u0000\u0000":9479,"Íé\u0000":9480,"Eà":9481,"ÿ":9482,"HC\u0010":9483,"linux":9484,"\u0010\u0000Q":9485,"\u0003Â":9486,"ßÞÞ":9487,"û":9488,"è\u0003\u0000\u0000":9489,"\u0004\u0014":9490,"must ":9491,"\t*H÷\r":9492,"(%":9493,"ÁA":9494,"\u0000\u0000":9495,">\u0000":9496,"ö\u0000":9497,"\u0000\u0004R":9498,"\u0001\u0001R":9499,"{\u0003":9500,"foun":9501,"ß":9502,"H+\u0005":9503,"öööf":9504,"\u0001qÀ":9505," \u0000\u0001\u0000":9506,"%\u0018":9507,"\u0000\u0000":9508,"_N":9509,"HP":9510,"9¸":9511,"\u0004D":9512,"üÿµ":9513,"\u0007":9514,"de\u0000":9515,"\u0001\u0000\u0000ù":9516,"\u000f2\u000bp":9517,"dis":9518,"5boost":9519,"ÿ¿":9520,"section":9521,"\u0001\u0017":9522,"GGG\u0000":9523,"\u0014¿":9524,"\u0001¨":9525,"Ð\u0002\u0000\u0000":9526,"R\u0000E\u0000":9527,"ÿó\u0003\u0000*":9528,"eH":9529,"@ù?\u0000\u0000ë":9530,"\u0004<":9531,"{0":9532,"\u000b\u0000ð\u0000":9533,"Mít":9534,"L\u0005":9535,"_n":9536,"0\u0000\u0000\u0000\u0000\u0000\u0000\u0000":9537,"öööföööf":9538,"//\u0000":9539,"Z":9540,"ý ":9541,"YP":9542,"B\u0000\u0004":9543," \u0000\u0000\u0000\u0000":9544,"À\u000e":9545,"`\u0000\u00004":9546,"":9547,"LM":9548,"ÿ\u0002":9549," \u0000@9":9550,"\u0000\u0000q":9551,"!\u001c\u0000\u0012?$\u0000q":9552,"\r\u000b":9553,"C":9554,"HEð":9555,"ED":9556,"":9557,"÷Ú":9558,"H;Ø":9559,"\f\u000b":9560,"H\\":9561,"\u0007k":9562,"A$":9563,"~\u0011":9564,"éæ":9565,"Exception":9566,"ëã":9567,"ÿÿH\r":9568,"Thread":9569,"?\u0000\u0002k":9570,"Âhbx":9571," %lu":9572,"@³":9573,"à\u0000y":9574,"\u0000ðFùâ\u001f":9575,"Óÿ":9576,"r\u0000e\u0000s\u0000":9577,"Hl$h":9578,"è£":9579,"y\u0010":9580,"HÉt\rH\u0001H@\u0010ÿ\u0015":9581,"B\f":9582,"Æ$":9583,"List":9584,"s\u0005":9585,"¨r":9586,"\b":9587,"+Ñ":9588,"\u0016\u0001\u0000\u0000\u0000":9589,"¤¤":9590,"\u0004©ý\u0003\u0001":9591,"\u0000\u0001\u0000\u0000\u0000à":9592,"\u001f\u0000\u0000¹":9593,"`k":9594,"G(":9595,"nl":9596,"z\u0000\u0007":9597,"÷Ò":9598,"\u0000\u0000\u0000HL$":9599,"ast":9600,"÷Å":9601,"wf":9602,"jq":9603,"":9604,"H|$\b":9605,"\u0000\u0000\u0000\u0000A\u000e \u0004\u0003B\u0002\u0001":9606,"/%":9607,"H\t":9608,"wq":9609,"%lu%lu":9610,"\u0004":9611,"AÃ":9612,"eH\f%":9613,"s":9614,"\u00180":9615,"h\u0001\u0000T":9616,"\u0000\u0001\u0000\u0000\u0000":9617,"HÄ ]Ã":9618,"from ":9619,"d1":9620,"è:":9621,"HyDxD":9622,"HL$`":9623,";ë":9624,"#":9625,"s\u0000\u0000\u0000\u0000\u0000\u0000\u0000":9626,"95":9627,"?$\u0000q":9628,"½":9629,"\u0000\u0000\u0002":9630,"b\u001e":9631,"\u0002":9632,"\u0003h":9633,"¨\u0000\u0000":9634,"ÆG":9635,"\u0002":9636,"\u0010\u0000\u0011":9637,"\u0002@Ò":9638,"E":9639,"\u0004Aÿÿ":9640,"\u0004\u001e":9641,"õ[B©à\u0003\u0014ªóSA©":9642,"H\u0016":9643,"HD$P":9644,"P\u0002":9645,"fÇE":9646,"\u0018Ë":9647,"\"0":9648,"þ\u0007Aø":9649,"ÞÞÞÞ":9650,"\u0000\u0000T":9651,"rv":9652,"éÔ":9653," \u0003\u0000T":9654,"è":9655,"@SHì H\u0005":9656,"x6":9657,"\u0000\u0000\u0001ë\u0001\u0000Ò":9658,"Õø":9659,"\t\n":9660,"WHìP":9661,"flag":9662,"LD$P":9663,"b":9664," \u0007":9665,"\u0014r":9666,"8\u0002\u0000\u0000":9667,"\u0000\u0001\u0000\u0000\u0000`":9668,"Å":9669,"source":9670,"Cx":9671,"\u0006Ë":9672,"ÿÿ\u0017þO¾©":9673,"roo":9674,"User":9675,"f:":9676,"Oðÿ0":9677,"á\u0003\u0002*":9678,"\u0019\u0004":9679,"itialize":9680,"ü ":9681,"¾ÿ":9682,"{D\u001bh":9683,"\b½":9684,"\u0003(":9685,"áC\u0000":9686,"\n\u0010":9687,"{\u0007\u0000":9688,"wk":9689,"HD$`":9690,"ÿâ\u0003\u0000ª":9691,"@\u0006\u0005\u0004\u0003":9692,"Q ":9693,"04":9694,"\u0003Æ":9695,"\u0004À":9696,"Pø":9697,"AÄ":9698,"C\u0002":9699,"HÄ(ÃÌÌÌÌÌÌÌÌÌ":9700,"fre":9701,"<\u0000<\u0000<\u0000<\u0000":9702,"\u0000\u0000RóS":9703,"\u0000@\u0000\u0000":9704,"÷ñ":9705,"p\u0010Hx\u0018":9706,"H´$":9707,"Activ":9708,"S\u0000e\u0000r\u0000":9709,"function":9710,"/var/":9711,"¸¸":9712,"HÄ\u0010":9713,"íììíìì":9714,"\u000b":9715,"èå":9716," %d\u0000":9717,"t7":9718,"þÿ\u0017$\u0003Õ":9719,"s=\"":9720,"à\u0015":9721,"\"$":9722,"ßÞÞßÞÞ":9723,"!ð":9724,"t9":9725,"BÐ":9726,"ø":9727,"\u0019\u0001":9728,", %r":9729,"\u0001\u0004\u0000\u0000":9730,"A\u000e`\f\u000b":9731,"\u001f\u0004":9732,"\"¸":9733,"\u0001\u0000L":9734,"\u0000\u0000":9735,"8\u0001":9736,"â":9737,"Hè":9738,"\u0001\u0000\u0000Ô\u001f\u0004@±":9739,"\u0001\u0000\u0017\u0000\u0000\u0000":9740,"Æÿÿ\u0017":9741,"y\b":9742,"A\u0004\u0000":9743,"\u0002\u0014":9744,"HÄp":9745,"¥8":9746,"J\u0018":9747,"IÇC":9748,"H\u0002\u0000\u0000":9749,"JX\u0000\u0000\u0000\u0000\u0000":9750,"P\u0000\u0000\u0000\u0000\u0000":9751,"\u0003":9752,"HMÀè":9753,"p:":9754,"\u0000e\u0000x\u0000":9755,"\u001f¼$ñ":9756,"h\u0000\u0000Tý{Á¨À\u0003_Ö":9757,"é\u0000\u0000T":9758,"Ò":9759,"T\u0001\u0000\u0000":9760,"":9761,"@\u0000ñ":9762,"CK":9763,"ø½":9764,"\u0006Ø9¹":9765,"V\u0000e\u0000r\u0000":9766,"\u0000à":9767,"Hì\u0018":9768," ":9769,"\nñ":9770,"GGG\u0000GGG\u0000":9771,"÷\u0006\u0000":9772,"a6":9773,"M ":9774,";F":9775,"BP":9776,"uì":9777,"\u0001":9778,"sz":9779,"\u0003r":9780,"\u001e\u0000\u0000\u0000\u0000\u0000":9781,"\u0002S":9782,"ÿ\u0006":9783,"'@ù\u0001\u0000@ùB\u0000\u0001ë\u0001\u0000Ò":9784,"\u0005\u0007":9785,"Pÿu":9786,"\u001fð":9787,"\u001a`":9788,"@¹\u001f\b\u0000q":9789,"ä\u0003\u0015ª":9790,"LL$0":9791,"ÉÉ":9792,"óX":9793,"face":9794,"H\u001c":9795," C":9796,"ÿÿ\u0017à\u0003\u0014ª":9797,"wd":9798,"\u0010":9799,".\n":9800,"â\u0003\u0000":9801,"è¥":9802,"P|":9803,"L\u001d":9804,"Ke":9805,"basic_":9806,"\u0018H|$ ":9807,"_ü":9808,"A\u000e(":9809,"@ùà\u0003\u0013ª":9810,"ë&":9811,"cø":9812,"b:":9813,"t=":9814,"ë'":9815,"À\u0003\u0000":9816,"yÿ":9817,"u2":9818,"87":9819,"R":9820,"\u00153":9821,"\u000eà\fp\u000b":9822,"_ÃÌÌÌÌÌÌÌÌÌÌ":9823,"A_A^A]A\\_^[":9824,"\b":9825,"Û÷":9826,"\u0000\u0000":9827,"H;":9828,"u\u0000p\u0000":9829,"\f\u0000´":9830,"o\u0000\u0000":9831,"\u0000\u0000":9832,"¹ñ\u0000\u000f":9833,"HÉ\u000f":9834,"\u001fX":9835,".?AV?$":9836,"q\u0000\u0000":9837,"÷":9838,"H[":9839,"<x":9840,"A\u000fº":9841,"j\u0007":9842,"\u0011è":9843,"¨\u0010":9844,"Ø\b":9845,"\u0016":9846,"j\u0018":9847,"ÿÿ\u0017â":9848,"UUUUT":9849,"á\u0017":9850,"Ó\u0000":9851,"àÜ":9852,".\u0000":9853,"r\u0000r\u0000o\u0000r\u0000":9854,"Íÿÿ":9855,"°Gù":9856,"\u001f\u0003\u0000q":9857,"ã\u0013":9858,"text\u0000":9859,"Eô":9860,"àÿ":9861,"\u001cð":9862,"\u0006y":9863,")\n\u0000":9864,"\u0010Â":9865,"\u0001\u0000\u0000\u0000\u0001\u0000":9866,"<\u0003":9867," \u0000R`":9868,"Vø":9869,"±ÿ":9870,"\u0017©":9871,".":9872," &":9873,"\u001cr":9874,"\u0007Ð":9875,"aile":9876,"hc8":9877,"ÃH\u0005":9878,"HL$x":9879,"òE\u000fÐ":9880,"@\u0000`\u0000":9881,"buil":9882,"\u001e\u0000\u0000\u0000\u0000":9883,"ov":9884,"Hú\u0000\u0010\u0000\u0000r":9885,"u'":9886,"\f2":9887,"\u0002\u0002Ò":9888,"\u0010b":9889,"@\u0011":9890,"PV":9891,"H\u0000\u0000\u0000\u0000":9892,"þá\u0003\u0000ª":9893,"HL$8":9894,"cur":9895,"@6":9896,"u&":9897,"\b\u0011":9898,"1\n":9899,"UUUUTUUUUUUUU":9900,":":9901,"I\t":9902,"¸\u000e\u0000\u0007":9903,"\nÑ":9904,"}ð":9905,"c\u0000k":9906,"è":9907,"ä\u0003\u0001*":9908,"ÄÄ":9909,"v\u0005":9910,"defa":9911,"á'":9912,"b":9913,"9]":9914,"hs":9915,"h\u0018":9916,"¨ÿ":9917,"Û\u0000":9918,"HcH\u0004":9919,"fC":9920,"\u0000\u0000":9921,"k\u0000¹":9922,"@ùâ":9923,"@¹\u001f\u0004\u00001":9924,"\u0004\u0000\u0000\u0000\u0000\u0000\u0000\u0000\u0000\u0000\u0000\u0000\u0000\u0000\u0000\u0000":9925,"\u0001":9926,"54":9927,"\u0006ñ":9928,"ø":9929,"TÐ;Õ":9930,"á\u0002\u0000":9931,"\u0004\u000e":9932,"H|$@":9933,"@9a":9934,"AÉ":9935,"Øÿÿ":9936,"Eì":9937,"½ÿ":9938,"ip ":9939,"WAVAWHì ":9940,"conne":9941,"\r\u0001":9942," \u0000T":9943,"\u0002\u0000T":9944,"\u0000Ò":9945,"ûÿûÿ":9946,"ç\u0000\u0000":9947,"HT$\u0010":9948,"Èé":9949,"!\u0004N":9950,"\u001cË":9951,"sB)":9952,"bytes":9953,"u_":9954,"U\u0000\u0000\u0000":9955,"!\u0018":9956,"\u0003Ç":9957,"HD$p":9958,"ó\u000b@ùý{Â¨¿#\u0003Õ":9959,"B":9960,"*,":9961,"­\u0000\u0000":9962,"\u001a\u0000T":9963,"quire":9964,"\u000b\u0000´":9965,"Óâ":9966,"L¤$":9967,"\b":9968,"C\u0002":9969,"R":9970,"SO":9971,"H\bH":9972,"II":9973,"\u0016©":9974,"¨©":9975,"uï":9976,"\u0002\u0001k":9977,"\u0011\n":9978,"è¤":9979,"\u0007ñ":9980,"ý{Å¨¿#\u0003ÕÀ\u0003_Ö":9981,"K@¹":9982,"¤":9983,"I":9984,"x0":9985,"\u000b\u0001\u0000\u0000":9986,"\b\u000b":9987,"\u0011\u0006":9988,"ÞÝÕ":9989,"}'":9990," Ë":9991,"á\u001f@ù":9992,"ë$":9993,"\t\u0001":9994,"\b\u0000\u0006":9995,"E\u0000v":9996,"Comm":9997,"ting ":9998,"d\n":9999,"ûÿµ":10000,"\r":10001,"T$\b":10002,"\u001a4":10003,"\u0019\u0000\u0019\u0000\u0000\u0000\u0000":10004,"×ÿÿ":10005,"þO¿©":10006,"\u0013\u0001\u0000\u0000\u0000":10007,"HD$H":10008,"Õÿÿ":10009,"¯è":10010,"\u0015\u0001\u0000\u0000\u0000":10011,"\u001fd":10012,"\u001bë":10013,"þ\u0000\u0000\u0000":10014,"\u0000a\u0000r\u0000":10015,"B\u000f\u0010":10016,"?":10017,"\u0001\u0000X":10018,"à\u0002\u0000T":10019,"4È":10020,"@¶":10021,"\u0000\u0000":10022,"\u001f\u0000\u0014k":10023,"(0":10024,"IÇ":10025,"ÿÿ ":10026,"\u000b":10027,"label":10028,"\b\u0006":10029,"à ":10030,"\tà\u0007":10031,"":10032,"Â\b\u0000":10033,"è¬":10034,"tC":10035,"ë\u0005»":10036,"þ\u0000\u0000":10037,"\u0001\u0000ø":10038,"\"ð":10039,"\u0002T":10040,"(%s":10041,"@ñ":10042,"A\u0006":10043,"\u0013\u0001\u0000\u0000\u0000\u0000\u0000":10044,"lob":10045,"Eì":10046,"Bx":10047,"\\$ ":10048,"H¨":10049,"\u0002\u0000\u00062\u00020":10050,"\u0003\u0000H":10051,"Ä\u0001":10052," ¸":10053,"?\u0004":10054,"-+":10055,"öA\u001c\u0001\u000f":10056,"\u0003\u0001ë":10057,"EÄ":10058,"\u0002\u0000ñ":10059,"\u001d\u0000\u0000\u0000\u0000\u0000":10060,"\u0003":10061,"R\b":10062,"Ã\u0002":10063,"%\u0010":10064,"\u0003":10065,"è©":10066,"q\u001c":10067,"H\u0007Iºp":10068,"²ÿ":10069,"Ç":10070,"3\u0005":10071,"ned ":10072,"HO":10073,"C)":10074,"E\u0000R\u0000":10075,"J\u0000\u0000\u0000":10076,"\u0000\u0004\u0000T":10077,"Öÿÿ":10078,"ó\u0003\u0015ª":10079,"\bR":10080,"H\u0001\u0000T":10081,"¶\u0000\u0000\u0000":10082,"µ\u0000\u0000":10083,"H\u0012":10084,"DËL\u0005":10085,"¯\u0000\u0000":10086,"Þÿ":10087,"Í,":10088,"üî":10089,"üüüüüüüü":10090,"D$\u0010":10091,"¸ß":10092,"\u0016\u000b":10093,"Q\u0004":10094,"Î\u0000\u0000\u0000":10095,"HD$\u0018":10096,"AE":10097,"ý{Â¨À\u0003_Ö":10098,"¹¹":10099,"PEAV":10100,"\u0010\u0000\u0000\u0000\u0000\u0000a\u0000\u0004\u0000":10101,"ßè":10102,"!d":10103," \u000b":10104,"t$0":10105,"pm":10106,"\b":10107,"\u001bË":10108,"\r\u0003":10109,"stream":10110,"ive":10111,"H¼$":10112,"?é":10113,"@¤":10114,"\u0000a\u0000i\u0000l\u0000e\u0000d\u0000 \u0000":10115,"\u000b\u0000\u000b\u0000":10116,"C\u0003":10117,"gh":10118,"HÄ\b":10119,"\u0010â":10120,"B\u0000\u0000TÀ\u0003_Ö":10121,"\t":10122,"\u001fü?±":10123,"\u001fü?±B\u0000\u0000TÀ\u0003_Ö":10124,"CB":10125,"Gù\u0000\u0000@ù":10126,"\t\u0000R":10127,"r\u0005":10128,"\u001a2":10129,"\u0000\u0002":10130,"FFFFFFFFFFFFFFFF":10131,"!@\u0001":10132,"þOÄ":10133,"`¦":10134,"ôW\u0001©ö_\u0002©":10135,"á\u0003\u0013ªà\u0003\u0015ª":10136,"aÂ":10137,"\u0001\u0014@8\"\u001cÓ":10138,"\u0006ày¹":10139,"\u0001\u0014@8\"\u001cÓÂhbx":10140,"8 ":10141,"A»":10142,"I\u000e":10143," Ã":10144,"\r\u0000´":10145,"\u0004\u0000µ":10146,"LIBC_":10147,"³\u0000\u0000\u0000":10148,"\u0002\u0000@ùâ":10149,";\u0000\u0000\u0000":10150,"ÿ$":10151,"\u0000\u00005":10152,"!\u0004N\u0018\u0000Aè":10153,"L$ ":10154,"vc":10155,"!\u0000\u0000\u0000\u0000\u0000":10156,"1\u000b":10157,"ø\u0005":10158,"":10159," `":10160,"col":10161,"\fÑ":10162,"ÿ\u000f":10163,"\u001bk":10164,"â\u0007":10165,"t\u0000i\u0000o\u0000n\u0000 \u0000":10166,"?\u0000¹":10167,"(":10168,"q\b":10169,"ª\u0000\u0000\u0000\u0000\u0000\u0000":10170,"tB":10171,"\u0011\u0003":10172,"HÀu\n":10173,"Õé":10174,"HI\u0018L\u0005":10175,"\u001f°":10176,"D#":10177,"EÀ":10178,"À\u0000\u0000µ":10179,"Éÿÿ\u0017":10180,"ÅÅ":10181,"tk":10182,"\u0002":10183,"Ó":10184,"Ã":10185,"K@":10186,"\u0001\n\u0000":10187,"'\u0000R":10188,"Høÿ":10189,"Aù\u0001\u0000@ùB\u0000\u0001ë\u0001\u0000Ò":10190,"ÁÉ":10191,"z\u0010":10192,"she":10193,"Âÿÿ":10194,"Vi":10195,"h\u0002\u0000\u0000":10196,"â":10197,"":10198,"ð\u0010à\u000e":10199,"cap":10200,"IÈè":10201,"¢\u0003":10202," \u0000\u0000\u0000é":10203,"Ð\u0003":10204,"\rÀ":10205,"\të":10206,"A­":10207,"\u001d\u0001\u0000\u0000\u0000\u0000\u0000":10208,"\u0001\u0000\u0000":10209,"ääää":10210,"\f*":10211,"x\u0004":10212,"#\u0003":10213,"\u0001\u0001\u0001":10214,"VS":10215,"fE\u000f":10216,"á\u001b@ù":10217,"¨\u0000\u0000\u0000H":10218,"\"":10219,"2":10220,"\u0000\b6":10221,"à\u0003\u0014*óSA©":10222,"Áè\u0010":10223,"\u001a0\u001a0\u001a0\u001a0":10224,"J©õ[":10225,"Ý\u0000":10226,"þü\u0003\u0000*":10227,"fE9":10228,"Hy":10229,"\u0002\u0000":10230,"ad\u0000":10231,"printf_":10232,"¡û":10233,"c\\":10234,"êéé":10235,">\u0006":10236,"¤\b":10237,"\t":10238,"B\u001c\u0000\u0012_":10239,"HD$0HE":10240,"]\u0000\u0000\u0000":10241,",è":10242,"\u0013\u0012":10243,"\u0017X":10244,"ÿÿÿÿ\u0000\u0000\u0000\u0000\u0000\u0000\u0000\u0000":10245,"\u0001":10246,"\t\u00005":10247,"\n\t":10248,"eo":10249,"ZF":10250,"?h":10251,"\u0011\u0018":10252,"Ú":10253,"Õÿÿ\u0017":10254,"X":10255,"\u000b":10256,"\b°":10257,"IÀ":10258,"üÿÿH":10259,"?\u0000\u0000j":10260,"4\u0001":10261,"á\u0003\u0016ªà\u0003\u0015ª":10262,"\u0001qa":10263,"\u0002\u0013":10264,"\u0018":10265,"A`":10266,"÷\u0002":10267,"\u000f\u0012":10268,"yDÿ÷":10269,"W\b":10270,"@\u0017":10271," ð":10272,"C\u0004\u0003":10273,"AÎ":10274,"\n\u0000\n\u0000":10275,"b":10276,"L7":10277,"HEè":10278,"@öÇ":10279,"}\b":10280,"wwww":10281,"$ø":10282,"P\u0000\u0000\u0000é":10283," 9":10284,"HÄ0A^":10285,"N\u0004":10286,"Lé":10287," [":10288,"A\u0000c\u0000":10289,"HÉt\u0013":10290,"|":10291,"õ\u0013@ùà\u0003\u0013ªóSA©":10292,"Coun":10293,"\u0004\u0004\u0000\u0000\u0000\u0000\u0000\u0000":10294,"mà":10295,"H@0ÿ\u0015":10296,"GX":10297,"glib":10298,"Õ\u0000\u0000\u0000":10299,"%":10300,"`ÿÿÿ":10301,"#8":10302,"Eè":10303,"\u0019\u0012":10304,"\u001c\u0001\u0000\u0000":10305,"¼å":10306,"úúúúúúúú":10307,"Output":10308,"Ad":10309,"DM":10310,"ÿw":10311,"ation\u0000":10312,"à«":10313,"\u0000\u0000\u0000è":10314,"Y\b":10315,"0\u0000.\u0000":10316,"K(":10317,"es ":10318,"p\u0000\u0010\u0000":10319,"current":10320,"÷cC©ùkD©":10321,"øO":10322,"V":10323,"G8":10324,"ç\u0002":10325,"öA\u001c\u0002t":10326,"ä]ù":10327,"··":10328,"£\u0000\u0000":10329," \u0000Ñ":10330,"oper":10331,"ÝÝÝÝ":10332,"A":10333,"P":10334,"\u0004\u0000\u00004\u0000\u0014\u0000\u000e":10335,"D$0":10336,"\u001f":10337,"error\u0000":10338,"S\b":10339,"failed":10340,"A|":10341,"aë":10342,"èò":10343,"Tag":10344,"\u000bF":10345,"\u0000\bÀZ":10346,"Ûÿÿ":10347,"¾¾":10348,"\u0006\u0000\u0010":10349,"³\u0000\u0000":10350,"°":10351,"Ä":10352,"c!":10353,"à":10354,"\u0014\u0000\u0000\u0000\u0000A\u000e\u0010\u0002\u0001C":10355,"ÿÿÿ\u000f":10356,"À&":10357,"ÿÿ\u0017$\u0003Õà\u0003\u0013ª":10358,"\n(":10359,"HEÐ":10360,"HM8":10361,"F@ù\u0001\u0000@9":10362,"IÐ":10363,"¡\b":10364,"!à\u000e":10365,"\b\u0000\u0000\u0000\u0000\u0000\u0000\u0000\u0000\u0000\u0000\u0000\u0000\u0000\u0000\u0000":10366,"|\u0000\u0000\u0000":10367,"\u0004Ë":10368,"H":10369,"\u0000\u0000\u0012Ch!¸ý{Á¨À\u0003_Ö":10370,"Èÿÿ\u0017":10371,"\u0001\u0000\u0000":10372,"\u0001¿#\u0003ÕÀ\u0003_Ö?#\u0003Õ":10373,"\u000f\u0000\u000f\u001fD\u0000\u0000":10374,"_s":10375,"BðFùý{":10376,"µ\u0000\u0000\u0000":10377,"\u0003\u0001":10378,"Uh":10379,"²ÿÿ\u0017":10380,"c\"":10381,"£\u0010":10382,"Á":10383,"pb":10384,"C\u0002":10385,"\u001d":10386,"MÀ\u000f":10387,"E+":10388,"\u0000\u0000\u0001\u0000\u0000À\u0000":10389,"`\u0018":10390,"Àt\t":10391,"h\u0000+":10392,"yi":10393,"malloc":10394,"ÿ":10395,"þ":10396,"^\u0000\u0000\u0000":10397,"ression":10398,"\u001cS":10399,"\n\u00001Àè":10400,"ature":10401,"fF":10402,"E\u0010":10403,"pj":10404,"Hé":10405,"R":10406,"s\t":10407,"S\u0000ù":10408,"íÿT":10409,"gj":10410,"@¹\u0000\u0000":10411,"\u000e":10412,"ùD":10413,"Á\u0000\u00004":10414,"!\u0000\u0002Ë":10415,"òòòò":10416,"ûD":10417,"HMðè":10418,"Ãé":10419,"\f\u0000ù":10420,"â#\u0000":10421," P":10422,"\u001a\u0000ù":10423,"Á\u001c":10424,"Â6":10425,"H¬":10426,"Proper":10427,"@ù¡":10428,"ÄA|\u0011":10429,"\r":10430,"\u0005\u0001\u0000\u0000":10431,"ø~":10432,"x#":10433,"ò\u0000":10434,"°î":10435,"wu":10436,"¥\b":10437,"ø\u0000":10438,"¢ÿ":10439,"\u0004":10440,"":10441,"\u0005(":10442,"\u00022":10443,"x\u0013":10444,"ít":10445,"\nð":10446,"³ÿ":10447,"á\u0003\u0018*":10448,"len":10449,"\u0006ù":10450,"{":10451,"Ö\u0000":10452,"bó":10453,"\f4":10454,"f=":10455,"\u0002":10456,"¦\u0000\u0000":10457,":*":10458,"":10459,"ã\u0010":10460,"\u0000`":10461,"\u000eR":10462,"ó\u0003\u0003ª":10463,"H»":10464,"_¼":10465,"\u001a":10466,"_\f":10467,"G\f":10468,"rm":10469,"?\u001c":10470,"«h":10471,"\u0004\u0000é":10472,"G\n":10473,"óSJ©õ[":10474,"Read":10475,"Priv":10476,"è":10477,"UUUUTUUUUUUUUU":10478," °":10479,"pq":10480,"\"\u0000Ñ":10481,"{\u0001":10482,"¿;":10483,"yb":10484,"HL$hè":10485,"\u0002\u0000":10486,"!H":10487,"Á\u0000\u0000\u0000":10488,"\u0002)":10489,"Hù":10490,"H+Â":10491,"\u0001":10492,"buffer":10493,"%z":10494,"ated ":10495,"\bà":10496,"I\u0000\u0000\u0000\u0000\u0000\u0000\u0000\u0000\u0000\u0000\u0000":10497,"$\r":10498,"\u0000¹":10499,"!\u0010\u0000":10500,"system ":10501,"ÿ":10502,"HM(":10503,"p\u0006":10504,"\u0011!":10505,"êééêéé":10506,"è­":10507,"dH\u0004%(\u0000\u0000\u0000":10508,"àã\u0000":10509,"Aþ":10510,"Àj":10511,"HØHÀt":10512,"@\t":10513,"Ã\u0000\u0000\u0000":10514,"Ú\u0000":10515,"¡\u0007R":10516,"\u0003\u0000é":10517,"Rø":10518,"MÛ":10519,"\u0004\u0000\u0011":10520,"d\u001a":10521,"I)":10522,"D1":10523,"ni":10524,"àþ":10525,"\u0013\u0015":10526,"\u00050":10527,"î\u0003":10528,"Z\u0000?":10529,"!\\":10530,"`\u0000\u0000µ":10531,"±\u0000\u0000":10532,"\n      ":10533,"T ":10534,"nel":10535,"EÐ":10536,"B\u0006\u0005":10537,"ø":10538,"É\u0000":10539,"\u0001ø":10540,"á\u0007\u001a":10541,"¾\u0000\u0000\u0000":10542,"Úÿÿ":10543,"H\\$\u0018Ht$ ":10544,"ø":10545,"0\u0000x\u0000%\u0000":10546,"H\\$8":10547,"chunk":10548,"\u0005\u000f":10549,"````":10550,"IÁ":10551,"ßßßß":10552,"àG":10553,"HÿÈ":10554,"DDDD":10555,"\u0006\u0000q":10556,"8":10557,"HC\u0010":10558,"\n\u00005":10559,"s\u0000\n":10560,"write ":10561,"Zÿ":10562,"@¦":10563,"vh":10564,"\u001eS":10565,"1öè":10566," \u0000\u0000\u0000è":10567,"´\u0000\u0000":10568,"·è":10569," ¡":10570,"L\u0001":10571,"Ê\u0000\u0000\u0000":10572,"àC\u0000":10573,"\u001b\u0010":10574,"@7":10575,"SR":10576,"set_":10577,"vd":10578,"§§":10579,"\u0003\u0001\u0000\u0000":10580,"à;@ù":10581,"yj":10582,"\u0007à9¹":10583,"HEÀ":10584,"\në":10585,"\u000e\u000e\u000e\u000e\u000e\u000e\u000e\u000e":10586,"TER":10587,"\u0002\u0000\u0000\u0000\u0000\u0000\u0000\u0000\u0000\u0000\u0000\u0000\u0000\u0000":10588,"\u0002\u0000\u0000":10589,"÷\u0006":10590,"ùÿ":10591,"Pé":10592,"©©":10593,"\u0006\u0000ð!":10594,"\u0012\u0003":10595,"\f\u0000è":10596,"class ":10597,"ì\f":10598,"u\u0000s\u0000":10599,"ö\u000f":10600,"[@ù":10601,"þÿþÿ":10602,"\u0000\u0003Ò":10603,"LL$@":10604,"¿":10605,"Aù":10606,"39":10607,"Lu":10608,"ë%":10609,"gu":10610,"\u0000¹\u0000":10611,"create ":10612,"bR":10613,"ÄC":10614,"t<":10615,"KK":10616,"®®":10617,"# ":10618,"use ":10619,"35":10620,"HT$p":10621,"ô\u0003\u0013ª":10622,"S©":10623,"?è":10624,"][":10625,"\u0001\u0000H":10626,"EÎ":10627,"\u001dF":10628,"@ü":10629,"H":10630,"ö@\u001c":10631,"#F":10632,"B\u0006\u0005":10633,"À\u0002\u0000\u0000":10634,"*/":10635,"B\u000f":10636,"u)":10637,"Oðÿ3":10638,"Du":10639,"Åé":10640,"?x":10641,"\u0001\u0000\u0000\u0000\u0001\u0000\u0000\u0000\u0001\u0000\u0000\u0000\u0001\u0000\u0000\u0000":10642,"Ð\u0010":10643,"\u0000\u0000":10644,"3@ùÿÃ":10645,"Åý":10646,"@\u0003\u0000\u0000":10647,"5\u0004":10648," Ð":10649,"HK\u0010":10650,"\u0010":10651,"\u0000\u0004\u0000\u0000":10652,"IÆ":10653,"ÿÿº":10654,"X\u0001":10655,"j@":10656,"\u0000\u0000":10657,"\u0004\u0000À":10658,"dex":10659,"se\u0000":10660,"?\u0004\u0000ñ":10661,"HUà":10662,"Man":10663,"":10664,"ÇF":10665,"\u0006ð":10666,"à#\u0000":10667,"\u0003\u0000\u0004":10668,"u1":10669,"%s/":10670,"NS_":10671,"\u001að":10672,"\n\u00004":10673,"BØ":10674,"%\u0007":10675,"Aþ":10676,"u\u0000t\u0000":10677,"`é":10678,"Ã":10679,"ÿÿK":10680,"\u0003\u0002":10681,"ÿÿó\u0003\u0000ª":10682,"!Ð":10683,"BI":10684,"@@QEAA":10685,"\u0004\u0000º":10686,"À\u0007":10687," \u0000\u0000\u0000\u0000\u0000\u0000\u0000\u0001\u0000\u0000\u0000\"\u0005\u0019":10688,"charact":10689,"\f9":10690,"`ª":10691,"T$\bB\f":10692,"ÿ":10693,"BE":10694,"\u0018r":10695,"\u0019\u0000\u0000\u0000\u0000\u0000\u0000":10696,"(\u0000\u0000\u0000\u0000\u0000\u0000\u0000":10697,"\u0001D":10698,"yd":10699,"Typ":10700,"Å\u0000\u0000\u0000":10701,"\u000fð":10702,"\u0010":10703,"Úÿ":10704,"@Á":10705,"}@":10706,"H\\$@Ht$H":10707,"uî":10708,"§\u0000\u0000":10709,"û\u0000\u0000":10710,"[\u0000\u0000\u0000":10711,"ort":10712,"ýýýýýýýý":10713," to ":10714,"Eü":10715,"Øè":10716,"|$0":10717,"B\u0002":10718,"ÇÇ":10719,"GH":10720,"JJ":10721,"\u0013`":10722,"\u0001\u0004\u0000ù":10723,"ÿ":10724,"B\u000e\u0018B\u000e\u0010B\u000e\b":10725,"\f\n":10726,"\u0005\u0000ÿÿÿÿ":10727,"\u0002\u0001\u0002\u0001":10728,"±\u0000\u0000\u0000":10729,"HÉt\u000b":10730,"HI@":10731,"DT$":10732,"\u0002":10733,"\u0000\u0000":10734,"H´$":10735,"! F":10736,"³\u0001":10737,"Open":10738,"À\u0002R":10739,"HÁê":10740,"I\u0006":10741,"\u0017YÞ\u0017YÞ\u0017YÞ\u0017YÞ":10742,"H$":10743,"RR":10744,"\u0018\u0007\u0000":10745,"":10746,"\u001f\u0000\u0004ë":10747,"\u0001\u0000$":10748,"À²":10749,"\u0007\u0000\u0000":10750,"¸":10751,"ä\u0003\u0013ª":10752,"ýú":10753,"»\u0000\u0000\u0000":10754,"\u0002\u0000":10755,"gram":10756,"½\u0000\u0000\u0000":10757,"\u0000¹â":10758,"Þ\u0000":10759,"ÿP\u0018":10760,"©Ø":10761,"×ÿ":10762,"0x%0":10763,"R\u0010":10764,"ÁÈ":10765,"òA\u000f":10766,"\u0001\u0000@ùá\u0017\u0000ù\u0001\u0000Ò":10767,"D\b":10768,"óç":10769,"\u0000\u0000ë":10770,"\nÝÞÓÔ\u000e\u0000A\u000b":10771,"\u0000 \u0000\u0000":10772,"^\b":10773,"\u001b\u0000\u0000\u0000\u0000\u0000\u0000":10774,")FxD":10775,"\u0004":10776,":\u0000R":10777,"/us":10778,"Ãÿ":10779,"\u0004\u0000 Ò":10780,"\u0012ð\u0010à\u000e":10781,"\t+":10782,"HÁè?":10783,"ùÿ4":10784,"èc":10785,"÷\"":10786,"ÆA":10787,"\u0001\u0000ñ":10788,"E1ÿ":10789,"P\u0006":10790,"\u0004õ":10791,"HT$H":10792,"WWW":10793,"à\u0002\u0000\u0000":10794,"b\u0000":10795,"z¹\u0000":10796,"ÖÕAØ×A":10797,"ÄÁ|\u0011":10798,"A\u0007\u0000ù":10799,"\u001a\u0003":10800,"BÈ":10801,"ø":10802,"À\t":10803,"ENS":10804,"¨{":10805,"@\u0007":10806,"\u000e":10807,"cðFù":10808,"ÿÿ\u0017ý{B©":10809,"\u0005":10810,"¿#\u0003ÕÀ\u0003_Ö?#\u0003Õý{¿©":10811,"7.":10812,".X\u0000\u0000\u0000\u0000\u0000":10813,"LÙ":10814,"!\u0002\u0000T":10815,"\b\u0007B\u0006\u0005":10816,"b\u0002@¹":10817,"p¢":10818,"B,":10819,"O\u0018":10820,"÷Â":10821,"è/":10822,"CX":10823,"E0":10824,"HIãA_A^A]A\\":10825,"\u0000\u0000":10826,"@¹":10827,"Im":10828,"Äÿÿ\u0017":10829,"é":10830,"main":10831,"E3ÀH\u0015":10832,"Le":10833,"s0":10834,"Óÿÿ":10835,"@\"":10836,"\u000f[":10837,"":10838,"ó\u000f\u001eúh":10839,"c\u0004":10840,"SIZ":10841,"¼©ý\u0003\u0000óS\u0001©ó\u0003\u0000ª":10842,"\u000e\u0000\u0000\u0000\u0000\u0000\u0000\u0000\u0000":10843,"E\f":10844,"(Is0":10845,"HJ":10846,"0 : { *(.":10847,"\"":10848,"HÄ [ÃÌÌÌÌÌÌÌÌÌÌ":10849,"X¸":10850,"a\u0000\u0000\u0010":10851,"\u0007\u0000ù\u0002\u0000Ò":10852,"DD$":10853,"%.*":10854," \u0000\u0000":10855,"ÎÎ":10856,"ÕÖÓÔ\f\u001f\u0000":10857," B":10858,"x¡":10859,"ment":10860,"\u000fWÀ\u000f\u0011":10861,"¾ÿÿ\u0017":10862,"s %-":10863,"à\u0000\u0000´":10864,"D0":10865,"AWAV":10866,"Þ\u0000\u0000\u0000":10867,"áááá":10868,"ÿ\u0003\u0005":10869," = ":10870,"SIOC":10871,"æ":10872,"\u0001q@":10873,"þÿÿ":10874,"\b":10875,"\u00048":10876,"\u0001\u0002R":10877,"Ht$(":10878,"]\u0000]\u0000]\u0000]\u0000":10879,"  ":10880,"\u0001\u0000\u0000\u0000ÿÿÿÿ":10881,"­ÿ":10882,"Í\u0000":10883,"ü\u000f":10884,"contro":10885,"\u0000\u0000HØ":10886,"}\u0001":10887,"b\u0010":10888,"á\u0003\u0016ªà\u0003\u0013ª":10889,"HD$(":10890,"\u0004\u000f":10891,"v\u0003":10892,"HH":10893,"ÌÌÌÌÌÌÌHé\bé":10894,"data$":10895,"A-A\u000e":10896,"H¦":10897,"\u0007\t":10898,"a\u0000l\u0000":10899,"ha¸":10900,"ÿ\u0000Ñ":10901,"ËHÿ\u0015":10902,"H+Ñ":10903,"thread":10904,"ÞÝ×Ø":10905,"þõ\u0003\u0000ª":10906,"Ä\u0000\u0000":10907,"Dm":10908,"\u0002\u0000R\u0001\u0000Ò":10909,"õ\u0003\u0013ª":10910,"bÂ":10911,"v\u0000i\u0000c\u0000e\u0000":10912,"ks":10913,"DS":10914,"OS":10915,"lm":10916,"U ":10917,"d\r\u0000\u0000\u0000\u0000Y":10918,"ÿP\u0010":10919,"`~":10920,"@§":10921,"\u0000\u0001\u0000\u0000\u0000\u0000\u0000\u0000\u0000\u0000\u0000\u0000\u0000":10922,"f\u0000f\u0000f\u0000f\u0000":10923,"N\u0000o\u0000":10924,"ã":10925,"H'\u0000":10926,"_C":10927,"\t\u0000ð\u0000":10928,"+=":10929,"":10930,"":10931,"Çé":10932,"!È":10933,"gw":10934,"6/":10935,"þOÁ¨À\u0003_Ö":10936,"\u0000@D":10937,"\u0019\u000f":10938,"ÿC\u0001À\u0003_Ö":10939,"\u0003\u0000\u000b":10940,"`\u0016@ù":10941,"h¨":10942,"ø\"":10943,"EÀt":10944,"qs":10945,"Le":10946,"ÇD$8":10947,"\u001dr":10948,"÷é":10949,"\u0003\u0004":10950,"¿£":10951,"Gener":10952,"è":10953,"þÿT":10954,"\f":10955,"vider":10956,"@9!À\u0000Q":10957,"c\u0002":10958,"\u0000\u0000":10959,"HEØ":10960,"Ô\u0006":10961,"`V":10962,":\u0001\u0000\u0000\u0000":10963,"J9":10964,"¬\u0000\u0000":10965,"I\u0000N\u0000":10966,"ÿu\b":10967,"I¹":10968,"HD$p":10969,"ÿÿÿÿÿÿ":10970,"Òÿÿ":10971,"\u0004)":10972,"\u0019r":10973,"@¡":10974,"\tK":10975,"U\u0010":10976,">":10977,"3_":10978,"eH\f%`\u0000\u0000\u0000":10979,"\u0000qÀ\u0000\u0000T":10980,"c\u0000\u0000Tc\u0000\u0000Tc\u0000\u0000Tc\u0000\u0000T":10981,"hd¸":10982,"µÿ":10983,"ü\u0000\u0000":10984,"\u0019%":10985,"x\u0019":10986,"\r\u000e":10987,"\u0001":10988,"H%":10989,"vu":10990,"\u001fÿ":10991,"dev\u0000":10992,"\u0005\u000e":10993,"Res":10994,"\u0013\u0001\u0000\u0000":10995,"¢ß":10996,"Mù":10997,"\u001bÒ":10998,"ob":10999,"\u0000\u0001\u0000T":11000,"ûÿ4":11001,"ì÷":11002,"\u0001\u0000Ô":11003,"\u001e\u0000T":11004,"á\u0006":11005,"\u000f·È":11006,"0\u0000+":11007," \b":11008,"H\u0003À":11009,"à\u0003\u0013ª\u0001\u0000R":11010,"AÏ":11011,"Ò\u0000\u0000\u0000":11012,"0\u0000\u0000\u0000\u0000":11013,"­ ":11014,"À\u000f":11015,"AVHì0":11016,"HW":11017,"É\u0000\u0000\u0000":11018,"À\u0002\u0000":11019,"\u0014È":11020,"\n":11021,"!\t\u0000ð!":11022,"ýÿ`":11023,"à+@ù":11024,"À":11025,"z":11026,"0\f":11027,"Áæ":11028,"â\u0013":11029,"Hc\b\u0000":11030,"Ò":11031,"HÅ":11032," Ð":11033,"èÿÿ":11034,"RT":11035,"B\u0006":11036,"b\u0002@ù":11037,"Hþ":11038,"B4":11039," in ":11040,"\u0002":11041,"wil":11042,"ý\u0003\u0000óS\u0001©ó\u0003\u0000ª":11043,"\u0007\u000b":11044,"¯ÿ":11045,"A\u0003\u0000T":11046,"Åø\u0011":11047,"Qÿ":11048,"HÉu":11049," \u0003\u0000":11050,".g":11051,"\u0000\u0000":11052," \u0010":11053,"=":11054,"þ\u001f\u0000\u0000q":11055,"`v":11056,"clu":11057,"\"%s":11058,"H7":11059,"½½":11060,"HÄ(Ã":11061,"\u0004K":11062,"\r2":11063,"\u0003\u0000\u0000":11064,"6 ":11065,"n\u0000o\u0000t\u0000 \u0000":11066,"\u0002\u0000ñ":11067,"Bo":11068,"À\u0002\u0000¹":11069,"M\u0001":11070,"\u0000q\u0000\u0000T":11071,"@9c":11072,"H|$\bè":11073,"õ[B©à\u0003\u0013*óSA©":11074,"lag":11075,"REL":11076,"²":11077," È":11078,"ò\u000f\u0010\u0005":11079,",\u0000\u0004":11080,"HUÐ":11081,"à\u0003\u001c*":11082,"A_A^A\\_^":11083,"aþÿT":11084,"(): ":11085,"\u0002":11086,"\u0000\u0000?":11087,"Aý":11088,"ºñ\u0000\u000f":11089,"HÁà\u0004":11090,"]":11091,"_v":11092,"DÈè":11093,"ating":11094,"ý\u0000\u0000":11095,"s=":11096,"÷¢":11097,"resul":11098,"p":11099,"!,":11100,"DM":11101,"zø":11102,"P\u0003\u0000\u0000":11103,"°\u0012":11104,",\u0000\u0004\u0000@D":11105,"Ê":11106,"¡":11107,"tem":11108,"\u0006\u00009":11109,"f\u000fï":11110,"/usr/":11111,"ò":11112,"Áÿÿ\u0017":11113,"Ò\u000f":11114,"stack":11115,"ðH\u000f":11116,"\u0001f":11117,"\u0006©ý":11118,"|$ ":11119,"Ù\u0003":11120,"××××":11121,"\u0002\u0002ë":11122,"ÕÖ\u000e\u0000A\u000e":11123,"lient":11124,"ÌÌÌÌÌÌÌÌq":11125,"É":11126," 2":11127,"@ù@":11128,"\u001b\u0012":11129,"æã":11130,"\rR":11131,"PI":11132,"ê":11133,"ÿu\u0014":11134,"D":11135,"\u001f\u0000\u0000\u0000\u0000\u0000":11136,"äè":11137,"@\u0006\u0000\u0000":11138,"HÉt\u0018H\u0001Iºp":11139,"Äÿÿ":11140,"¡h":11141,"Ãÿÿ\u0017":11142,"ÿ\u000f":11143,"L$ ":11144,"e\u0000\u0000\u0000\u0000\u0000\u0000\u0000":11145,"¡\u0002\u0000":11146,"y\u0000\u0000\u0000\u0000\u0000\u0000\u0000\u0000\u0000\u0000\u0000":11147,"H":11148,"\u0000\u0000\u0013":11149,"P":11150,"w\u0000a\u0000":11151,"Ïÿÿ":11152,"b¢":11153,"àj":11154,"\nr":11155,"mf":11156,"K8":11157,"AÿÀ":11158,"\u000f":11159,"H\\$\bWHì HÙ":11160,"Æ\u0000\u0000\u0000":11161,"òD\u000f":11162,"5_":11163,"address ":11164,"><":11165,"_ZN4gold":11166,"\u0006\u0000µ":11167,"îç":11168,"à8":11169,"k@¹":11170,"à\u0000\u00005":11171,"many ":11172,"ind":11173,"þô\u0003\u0000*":11174,"\"`":11175,"pð":11176,"ÿ`\n\u0000ù":11177,"HòHÙ":11178," ":11179,"L\\$p":11180,"H|$(":11181,"\u0001\u0000\f":11182,"Ð\u0005":11183,"F\u000e":11184,"xq":11185,"ïç":11186," ø":11187,"\u0006©ý\u0001":11188,"\u001a\u0001\u0000\u0000\u0000":11189,"Û$":11190,"LÍ":11191,"\u0001\u0000\u0000À":11192,"@3":11193,"8\u0000\u0000\u0000é":11194,"ÿ\u0003\u0002Ñ":11195,"â\u0000\u0000\u0000":11196,"ÐÐÐÐ":11197,"6":11198,"\u0006\u0001":11199,"À\u0003\u0000T":11200,"\n\u0000R":11201,"yi":11202,"Ï\u0000\u0000\u0000":11203,"x7":11204,"sto":11205,"í":11206,"úã":11207,"a\u0001":11208,"!<":11209,"IË":11210,"a\u0002@9":11211,"&":11212,"\u0001q ":11213,"C`":11214,"d-":11215,"\nR":11216,"s\u0007":11217,"HÆ":11218,"\u0002\u0013Ë":11219,"y\u001c":11220,"_ù":11221,"\u0006\u0000q":11222,"#`":11223,"óS\u0001©ô\u0003\u0000ª":11224,"(":11225,"lw":11226,"\"\u0000\u0000\u0000\u0000\u0000\u0000":11227,"\tA\u0000":11228,"è":11229,"ÆF":11230,"V8":11231,"j0":11232,"£ ":11233,"\u0007à\u0005":11234,"Á\u0002\u0000T":11235,"\u0000\u0001ø":11236,"\u0014\b":11237,"\u0002ñ":11238,"secon":11239,"ru":11240,"I¸":11241,"\u0013\u0000":11242,"LM":11243,"Ç\u0000\u0000\u0000":11244,"¹ÿ":11245,"µ\u0012":11246,"\fH=":11247,"\u0017\u000b":11248,"ôôôôôôôô":11249,"\u00164":11250,"ë;":11251,"\u0002\u0002R":11252,"HÇ$":11253,"»ÿÿ\u0017":11254,"\u0000\u0000":11255,"\u0006\u0000Ð!":11256,"\u001f":11257,"nore":11258,"Ìÿÿ":11259,"k\b":11260,"U¿":11261,"H;ø":11262,"Hé":11263,"f\u000f(":11264,"orig":11265,"ÿÿHØ":11266,"HEÈ":11267,"\u0019\u0006":11268,"^^":11269,"atch":11270,"`ð":11271,"@\u0000\u00004":11272,"\u0002\u0000k":11273,"òBÐ;Õ":11274,"ÿè¼¥ÿè¼¥ÿè¼¥ÿè¼¥":11275,"0\u00004\u0000":11276,"\u0002\u0000P":11277,"a\u000e@ù":11278,"\b":11279,"¤\u0010":11280,"Á\u0002@ù":11281,"=ÿ":11282," \u0005":11283,"B":11284," \u0000Rà":11285,"\u0000\u0000\u0000\u0000\u0000\u0001\u0000`\u0000":11286,"è":11287,"H;Ç":11288,"\u001f\u0000\u0016ë":11289,"ÞÝÓ\u000e\u0000\u0000\u0000\u0000":11290,"\u001e4":11291,"öööööööööööööööö":11292,"and\u0000":11293,"ace ":11294,"\u0005\u0000@\u0000R!":11295,"¥ðFùý{":11296,"\u0000ðFùâ7":11297,"Lò":11298,"ff\u000f\u001f\u0000\u0000\u0000\u0000\u0000":11299,"÷Þ":11300,"\u0003":11301,"\n\f":11302,"çææ":11303,"tu":11304,"Åÿ":11305,"ß":11306,"úÿ´":11307,"¥°":11308,"\u0003\u0000\u0000\u0012":11309,"`\u0002\u0000":11310,"`\u0014":11311,"IÁà\u0003":11312,"Åÿÿ":11313,"\u000b\u0000\u0000\u0014":11314,"a\u0004\u0000":11315,"ë*":11316,"time\u0000":11317," z":11318,"Ô\u0000\u0000":11319,"\u0003\u0000P":11320,"ÿ\u0003":11321,"O\u0000\u0000\u0000":11322,"\"x":11323,"ÌÌÌÌÌÌq":11324,"ÆD":11325,"ñ(":11326,"#\u0001":11327,"EØ":11328,"\u0006$":11329,"\t\u0000\u0000\u0000\u0000\u0000\u0000\u0000":11330,"Perl_":11331,"\u0000ù":11332,"¬ÿ":11333,"µ":11334,"s\u000e":11335,"ä":11336,"iface":11337,"\u0002à":11338,"H{":11339,"\u0004\u0012":11340,"\u0007":11341,"\u0002,":11342,"\u0000\u0000":11343," ":11344,".m":11345,"É\u0011":11346,"4¸":11347,"H\u0000\u0000\u0000\u0000\u0000\u0000\u0000\u0000\u0000\u0000\u0000":11348,"\u0018HI\u0010L\u0005":11349,"AÊ":11350,"\u0018K":11351,"\u0000\u0000\u0000\u0000ä\u000f\b":11352,"\u0006\u0014":11353,"ý{\u0001©ýC\u0000":11354,"\u0001\u0000Hÿ\u0015":11355,"\f":11356,"A\u0000p\u0000p\u0000":11357,"ÕC":11358,"òç":11359,"0":11360,"¡ÿ":11361,"T\u000eT\u000eT\u000eT\u000e":11362,"a\u0000r\u0000":11363,"@\u0012":11364,"Vh":11365,"f\u000fo\u0005":11366,"H@8ÿ\u0015":11367,"ICØ":11368,"è\u0010":11369,"@.":11370,"t\u0000e\u0000 \u0000":11371,"lv":11372,"\n,":11373,"|":11374,"Service":11375,"¡\u0010":11376,"!\u0001\u0000\u0000\u0000\u0000\u0000\u0000\u0000\u0000\u0000":11377,"\u0013C":11378,"ñ\u0007":11379,"¿":11380,"\b":11381,"GN":11382,"\nF":11383,"\u001fT":11384,"£":11385,"\u0018Dz":11386,"nb":11387,"\u0018±":11388,"`\u000f":11389,"\u0002\u0000\u0000\u0000\u0000\u0000\u0000\u0000\u0000\u0000":11390,"¾\u0000\u0000":11391,"\u000b\u00004":11392,"ÁÂ":11393,"\u0000ó\u0003\u0000ª":11394,"\u0002\u0014Ë":11395,"í#":11396,"\u0000\u0010ñ":11397,"":11398,"\u0001°":11399,"ó":11400,"H|$h":11401,"_\u0000ù":11402,"\u0005x":11403,"4è":11404,"¤(":11405,"\u001a\u0000\u0000\u0000\u0000\u0000":11406,"\u0000\u0000\u0000\u0000\u0000\u0000\b\u0000\u0000\u0000\u0000\u0000\u0000\u0000":11407,"££":11408,"à/@ù":11409,"@\u0000\u0000µ":11410,"\u0000\u0004@­":11411,"\u0000\u0001":11412,"Current":11413,"Ç\u0000\u0000":11414,"øþ":11415,"\t\u0001\u0000T":11416,"â\u0000\u0000":11417," \u0002\u0000ù":11418,"º\u0003":11419,"ILi":11420,"ä\u0003\u0018ª":11421,"`":11422,"é÷":11423,"\r9":11424,"\bHËè":11425,"":11426,"*":11427,"H<":11428,"ÏÿÖ":11429,"HY":11430,"\u0003Ñý{":11431,"\u001f@8":11432,"I\u000f¯":11433," \u0001 \u0001":11434,"B":11435,"b":11436,";Ê":11437,"Þ":11438,"öA\u001c\bt":11439,"\u0004":11440,"IÇ":11441,"0\u0003\u0000\u0000":11442," %02":11443,"\u000e":11444,"urren":11445,"\u0016+":11446,"ø?":11447,"C\u0001R":11448,"E\u0000v\u0000e\u0000n\u0000t\u0000":11449,"½\u0000\u0000":11450,"á7@ù":11451,"E\u0001":11452,"¼[":11453,"¡\u0005R":11454,"\r":11455,"¢":11456,"s\u0000\u0000\u0000\u0000\u0000\u0000\u0000\u0000\u0000\u0000\u0000":11457,"A":11458,"0µ":11459,"%p":11460,"Ò\u0000\u0000":11461,"Ð¡":11462,"÷\u0003\u0004ª":11463,"DÄ":11464,"moun":11465," ¢":11466,"%8":11467,"º\b\u0000\u0000\u0000":11468,"E\u0000x\u0000":11469,"ð":11470,"P¢":11471,"éÿT":11472,"d\u0000d\u0000":11473,"øH":11474,"á\u000b\u0000ù":11475,"gb":11476,"ute":11477,"¬@ù":11478,"Öè":11479,"ñ¨":11480,"t\u0002":11481,"w\u0004":11482,"\t(":11483,"\u0000\u0000":11484,"script":11485,"Øé":11486,"UATAUAVAW":11487,"\u0006":11488,"Hé\u0010é":11489,"!ì":11490," %-":11491,"nx":11492,"~ð":11493,"¿ÿÿ\u0017":11494,"\\ÿ":11495,"\u0001\u0000`\u0000":11496,"i\u0000s\u0000 \u0000":11497,"B\u0002\u0001":11498,"þü\u0003\u0000*\u001f\u0004\u00001":11499,"`>":11500,"jc":11501,"v\u0004":11502,"\u0003\u0000":11503,"áýÿT":11504,"\n":11505,"\u000fG":11506,"àâ":11507,"\u0000q¨":11508,"@@U":11509,"H":11510,"R\u0004":11511," /":11512,"¾©ý\u0003\u0000óS\u0001©ô\u0003\u0000ª":11513,"lush":11514,"Dà":11515,"\u0001\u0000":11516,", %rd":11517,"\u000fZ":11518,"ýÿÿè":11519,"\u001fq":11520,"ê":11521,"\u0002\u0000":11522,"À\u0002@9":11523,"¢\b":11524,"\u001f":11525,"sB\u0000":11526,"H\u0004$":11527,"|":11528,"valu":11529,"\b":11530,"P¤":11531,"£":11532,"ò\u0000\u0000\u0000":11533,"#\b":11534,"\u0002Ø":11535,"\u000f8":11536,"à\u0003\u001b*":11537,"¸ÿÿÿÿ":11538,"argument":11539,"<0":11540,"E\u0000n\u0000":11541,"m_":11542,"\"D":11543,"L¬$":11544,"ê\u0000\u0000\u0000":11545," *":11546,"\u0004":11547,"tq":11548,"a_":11549,"proces":11550,"Pj":11551,"L\u0000\u0000\u0000\u0000\u0000":11552,"lib/":11553,"÷\u0006\u0000\u0011":11554," 4":11555,"\u001c":11556,"HT$\u0010UHì0Hê":11557,"à\u0010":11558,"BJ":11559,"--------":11560,"»ÿ":11561,"HMø":11562,"LÓ":11563,"øÿÿÿ\u0000\u0000\u0000\u0000\u0000\u0000\u0000\u0000":11564,"\u0002\u0000¹\u0006\u0000ù":11565,"¨\u0002t":11566,"øÿ4":11567,"@\n":11568,"Ð\f":11569,"Y\u0019":11570,"ø$":11571,"Eÿ":11572," ë":11573,"Îÿÿ":11574,"ÿqÿq":11575,"\u0000\u0002k":11576,"\u0002\u0000\u0000":11577,"àÇ":11578,"ìç":11579,"!ðFù":11580,"°!ðFù":11581,"Pù":11582,"Xÿÿÿ":11583,"\u0006Ø9¹\u0007à9¹":11584,"\u0005":11585,"J":11586,"GLIBC_":11587,"sys/":11588,"¨\u0018":11589,"\u000e\u001c":11590,"\u0002é":11591,"îîîî":11592,"V©":11593,"(±":11594,"ÿ":11595,"\u001f\u0000\u0012":11596,"\t\u0000\u0000è":11597,"HÆ":11598,"úÿµ":11599,"Û\u0000\u0000":11600,"@·":11601,"@£":11602,"79":11603,"boot":11604,"I\u0000n\u0000t\u0000e\u0000r\u0000":11605,"\u000b\u0005":11606,"Hc\u0010\u0000":11607,"ò.ò.ò.ò.ò.ò.ò.ò.":11608,"v_":11609,"W":11610,"HD$X":11611,"|\u0001S":11612,"è\u0000\u0000":11613,"+\u0000\u0017\u0000\u0000\u0000":11614,"|\u0007":11615,"\u0002@\u0001\u0000\u0000\u0000":11616,"\u0003o":11617,"0\u0004":11618,"½":11619,"Êÿÿ\u0017":11620,"\u0013\u001b":11621,"%\u0001":11622,"ú\u0000\u0000\u0000":11623,">\n":11624,"!\u0000T":11625,"â":11626,"ûûûûûûûû":11627,"tÿ":11628,"specifi":11629,"\u0015\u0001\u0000\u0000":11630,"Enum":11631,"mis":11632,"<\u0006":11633,"format":11634,"¸\u0004\u0000\u0000\u0000":11635,"exec":11636," \t%":11637,"X6":11638,"Ì\u0000\u0000":11639,"i\u0000\u0000\u0000\u0000\u0000\u0000\u0000\u0000\u0000\u0000\u0000":11640,"Handl":11641,"tT":11642,"\u0004":11643,"²\u0000\u0000":11644,"ð\u0002\u0000\u0000":11645,"\b¹":11646,"ù\f":11647,"ö\u0003\u0002*":11648,"\u0000¹á":11649,"Í\u0000\u0000":11650,"t?":11651,"\u0003HË":11652,"\u0000\u0001\u0000\u0000\u0000\u0000\u0000":11653,"A!":11654,"¡\u0004\u0000":11655,"\u0014\u0007":11656,"p\t":11657,"ÀÂ":11658,",F":11659,"d\u0012":11660,"***ÿ***ÿ***ÿ***ÿ":11661,"î":11662,"H\u0017":11663,"\u0015HI\u0010L\u0005":11664,"ÿ":11665,"Ú×":11666,"¡°":11667,"\u0000\u0000k":11668,"»\u0000\u0000":11669,"#\u0002":11670," X":11671,"°\u0000\u0000\u0000è":11672,"}H":11673,"Fil":11674,"%s%s":11675,"\u0002B":11676,"hð":11677,"\t©ýC\u0002óS":11678,"§ô":11679,"èæ":11680,"H\\$PHl$XHt$`":11681,"èx":11682,"a\u0018":11683,"ase ":11684,"H¼$":11685,"zer":11686,"\u0000ø6":11687,"V\u0002\u0000":11688,"É\u0010":11689,"H":11690,"LD_":11691,"nf":11692,"`\u0000\u00005":11693,"Gz":11694,"ø\u0001t":11695,"DÊ":11696," ¦":11697,"ende":11698," \u0002\u0000":11699,"]ù\u0000":11700,"¨¿":11701,"@\u0004\u0000\u0000":11702,"SY":11703,"80":11704,"´\u0001":11705,"\n©ý":11706,"b\u0003":11707,"B\u0004\u0003":11708,"ffffffff":11709,"F\u001c":11710,"â\u0003\u0019*":11711,"\u001f\f\u0000q":11712,"\b\u0000Ò":11713,"\u0001\u0000Ä":11714,"Ù\u0000\u0000\u0000":11715,"z\u0000\u0000\u0000":11716,"ÍÌ":11717,"©\u0000\u0000":11718,"Inst":11719,"\u001f \u0000q":11720,"ÿÿ`":11721,"\u0002:":11722,"º\u0001\u0000\u0000\u0000":11723,"¤ÿ":11724,"@¹ã":11725,"\u0002\u0000Ò\u0001\u0000Ò":11726,"%u.":11727,"fH\u000f":11728,"\u0000\u0000\u0001K":11729,"(¨":11730,"â\u001b@ù":11731,"\u0001 \u0007":11732,"\b\u0000\u0000\u0000.":11733,"Ã\u0000\u0000":11734,"ûûû":11735,"¡8":11736,"Ñ\u0000\u0000\u0000":11737,"©ÿÿ\u0017":11738," \u0002\u0000¹":11739,"~~":11740,"out ":11741,"?#\u0003ÕÿÃ":11742,"!\b\u0000":11743,"ter ":11744,"¡\u0018":11745,"passwor":11746,"ë,":11747,"          ":11748,"Ðø":11749,"B":11750,"#":11751,"\u00042":11752,"ëh":11753,"öÂ\u0001t":11754,"":11755,"pf":11756,"(1":11757,"I-":11758,".u":11759,"ç\u001b":11760,"ë0":11761,"memory_":11762,"HK\u0018":11763,"syn":11764,"Cz":11765,"\u001a\u0010":11766,"\u0006\u0016":11767,"\u0001\u0000T":11768,"É\u0000\u0000":11769,"\u001f\u0000\u0015k":11770,"ø":11771,"E\n":11772,"á\u0000\u0000\u0000":11773,"\t":11774,"óD\u000f\u0010":11775,"KX":11776,"\u000bÁ":11777," ª":11778,"\u001fD":11779,"\u0000\u0000\u0000R":11780,"\u0001":11781,"ç":11782,"øÿáë":11783,"Ò":11784,"q@":11785,"\b\u0000\u0000\u0000è":11786,"\u0003\u0000\u0000é":11787,"MÌ":11788,"\u000fª":11789,"\u0001\u0000\u0000\u0000\u0000\u0000\u0003\u0004\u0000\u0000\u0000\u0000\u0000\u0000":11790,"æ\u0000\u0000":11791,"a:":11792,"\u0002\u0000H\u0005":11793,"]ð":11794,"té":11795,"D\u0011":11796,"|\u0005":11797,"¨\u0002\u0000\u0000":11798,"46":11799,"3Ð":11800,"\u001a":11801,"À0":11802,"^ÿ":11803,"\u001f\u0003\u0000ë":11804,"H":11805,"e\u0001e\u0001e\u0001e\u0001e\u0001e\u0001e\u0001e\u0001":11806,"2-":11807,"u6":11808,"a\u0010":11809,"Invalid ":11810,"\u0001q\u0001q\u0001q\u0001q\u0001q\u0001q\u0001q\u0001q":11811,"×\u0000\u0000":11812,"\u0006\u0000ù":11813,"\u0018«":11814,"Ä":11815,"i ":11816,"ÕA":11817,"\u0006\u0000ù":11818,"Áç":11819,"Col":11820,"symbol":11821,"óSE©":11822,"a\u0000t\u0000i\u0000o\u0000n\u0000":11823,"\u0005\u0000Q":11824,"`K":11825,"raw":11826,"Stat":11827,"!þÿT":11828,"j\f":11829,"[0":11830,"\u000fHÏHÿ\u0015":11831," p":11832,"\u0000":11833,"rx":11834,"ûX":11835,"js":11836," Gù":11837,"¶ÿ":11838,"\u00140":11839,"@:":11840,"ûª":11841,"Ë\u0000\u0000":11842,"HD$ ÿ\u0015":11843,"H\u0000\u0000\u0000é":11844,"L\\$P":11845,"º¾":11846,"ÚA":11847,"8\u0000\u0000\u0000\u0000\u0000\u0000\u0000":11848,"¸\u0000\u0000\u0000\u0000":11849,"`\u0006\u0000":11850,"mh":11851,"\b¾\b¾":11852,"Ùÿ":11853,"c\u0000k\u0000":11854,"\u0000\u0000":11855,"ÿ":11856,"XY":11857,"HMà":11858,"h 8":11859,"t\\":11860,"\u0002":11861,"":11862,"\u0001\u0000Ü":11863,"pk":11864,"\u001a":11865,"ª":11866,"Z\u0007\u0000\u0011":11867," {":11868,"\u0000ðFùâG":11869,"]ù\u0000À!":11870,"EA":11871,"ØÀu":11872,"\u0004":11873,"Ûÿ":11874,"ä":11875,"\u0005\u001c":11876,"ýÿÌ":11877,"H¿":11878,"\u000e\u0000\u0000\u0000\u0000\u0000\u0000\u0000":11879,"\u000b":11880,"5¸":11881,"è\u0013":11882,"sò":11883,"HÄ0_ÃÌÌÌÌÌÌÌÌ":11884,"\u0000\u0000Ã":11885,"S\u0000y\u0000s\u0000t\u0000e\u0000m\u0000":11886,"\u0004\u0000\u0010":11887,"Að":11888,"H\\$\u0010Ht$":11889,"hÿ":11890,"V0":11891,"\u0003\u0000Ð!":11892,"\u0000\u0000\u0000\u0000B\u000e":11893,"h\u0004":11894,"\u0007\u0000°\u0000":11895,"L|$ ":11896,"DF":11897,"<=":11898,"Class":11899,"\rõ":11900,"\u0012á":11901,"_ÿ":11902,"O0":11903,"\u00112":11904,"ÿP\b":11905,"öC":11906,"_\b\u0000q":11907,"³³":11908,"£Ð":11909,"\u001fù":11910,"ôç":11911,"ø¨":11912,"#4":11913,"\u0014J":11914,"ýÿà":11915,";þ":11916,"\u0011\u001c":11917," \u0000¹":11918,"\u0003\u0000Ò\u0001\u0000R":11919,"y\u0019\u0004r":11920,"\u0018\u0007\u0000\u0011":11921,"$I":11922,"c(":11923,"\u0005\u0000\u0001\u0000\u0000\u0000":11924,"úùø\u0000":11925,"\u0000\u0001\u0000\u0000\u0000":11926,"\u0000\u0001ë":11927,"1\u0000^":11928,"cde":11929,"À":11930,"As":11931,"j\u0001_è":11932,"\u0002d":11933,"Q":11934,"¸ä":11935,"À¢":11936,"HÉu\fè":11937,"ê\u0000\u0000":11938,"\u001e»":11939,"®ÿ":11940,"à\u0000R":11941,"\u001a":11942,"0\u0006\u0005B\u0004\u0003":11943,"P\n\tB\b\u0007":11944,"R":11945,"tD":11946,"Part":11947,"hb¸":11948,"mq":11949,"\u000fR":11950,"\u0010Hÿ\u0015":11951,"ââââ":11952,"@«":11953,"¶\u0000\u0000":11954,"ÈEù":11955,"ÿ":11956,"\u0015\u000b":11957," %u\n\u0000":11958,"\u0015\u0001":11959,"Ãè":11960,"û":11961,"IN":11962,"å":11963,"\u001fÐ":11964,"!p":11965,"Ï\u0000Ï\u0000":11966,"T\u0000\u0000\u0000\u0000\u0000":11967,"Ú\u0000\u0000\u0000":11968,"£\u0003":11969,"H×":11970,"óÿóÿóÿóÿ":11971,"ìììì":11972,"S":11973,"@\u0003@ù":11974,"R\u0000O\u0000":11975,".rela.":11976,"ðé":11977,"ZZ":11978,"once":11979,"\nÞÝ\u000e\u0000":11980,"O":11981,"IÑ":11982,"P\u0000o\u0000":11983,"×\u0000\u0000\u0000":11984,"S@¹":11985,"HÄ _ÃÌÌÌÌÌÌÌÌÌ":11986,"J\u0004":11987,"n{":11988,"H{\u0018":11989,"Imp":11990,"ò\u0000\u0000":11991,"":11992,"":11993,"a\b\u0000":11994,"HD$\u0010":11995,"3ÒHËè":11996,"`³":11997,"à":11998,"\u0005¹":11999,"pid":12000,"OF":12001," ":12002,"H\\$\bWHì0":12003,"A\u0001\u0000":12004,"X7":12005,"\u0004@\u0001\u0000\u0000\u0000":12006,"Ê\u0000\u0000":12007,"\u000b\u0010":12008,">>":12009,"\u000f®":12010,"\u000bÑ":12011,"line ":12012,"à\u001e":12013,"\u0002v":12014,"0\u00008\u0000":12015,"}\u0018":12016,"£ñ":12017,"KF":12018,"\u00152":12019,"M\f":12020,"|(":12021,"\u00059":12022,"\f7":12023,"\u0012":12024,"d\u0000\u0000\u0000\u0000\u0000":12025,"!FxD":12026,"{":12027,"}\u0010":12028,"tJ":12029,"Call":12030,"AÅ":12031,"úùø\u0000úùø\u0000":12032,"õ[B©÷cC©ùkD©":12033,"u3":12034,"\b\u0004":12035,"\u001e":12036,"H¡":12037,"òA\u000f\u0010":12038,"ÃÌH\u0005":12039,"HÄHX\bHp\u0010Hx\u0018":12040,"s, ":12041,"¤\u0003":12042,"~ÿ":12043,"PÓ":12044,"n\u0000s\u0000":12045,"\u0001\u0000":12046,"`\u001a@ù":12047,"Hl$`":12048," \u001a":12049,"J\u0001":12050,"µ\"\u0000":12051,"s2":12052,"H \u0000":12053,"@\u0004\u0000":12054,"ÇD$ \u0001\u0000\u0000\u0000":12055,"\u0016\u0010":12056,"HT$(":12057,"":12058,"|$(":12059,"\u0005\u00001Àè":12060,"\"ø":12061,"\u0004\u0000":12062,"\u001f`":12063,"\u001e":12064,"ò\u000f\\":12065,"G\u0001\u0000":12066,"c\u0000o\u0000n\u0000":12067,"ºº":12068,"à\u0002@9":12069,"\u000fC":12070,"vø":12071,"libc\u0000memory_":12072,"«":12073,"09":12074,"ë-":12075,"?ù":12076,
[...]
