{
  "version": "1.0",
  "truncation": null,
  "padding": null,
  "added_tokens": [
    {
      "id": 0,
      "content": "<|start|>",
      "single_word": false,
      "lstrip": false,
      "rstrip": false,
      "normalized": false,
      "special": true
    },
    {
      "id": 1,
      "content": "<|end|>",
      "single_word": false,
      "lstrip": false,
      "rstrip": false,
      "normalized": false,
      "special": true
    },
    {
      "id": 2,
      "content": "<|sep|>",
      "single_word": false,
      "lstrip": false,
      "rstrip": false,
      "normalized": false,
      "special": true
    },
    {
      "id": 3,
      "content": "<|cls|>",
      "single_word": false,
      "lstrip": false,
      "rstrip": false,
      "normalized": false,
      "special": true
    },
    {
      "id": 4,
      "content": "<|pad|>",
      "single_word": false,
      "lstrip": false,
      "rstrip": false,
      "normalized": false,
      "special": true
    },
    {
      "id": 5,
      "content": "<|mask|>",
      "single_word": false,
      "lstrip": false,
      "rstrip": false,
      "normalized": false,
      "special": true
    },
    {
      "id": 6,
      "content": "<|unk|>",
      "single_word": false,
      "lstrip": false,
      "rstrip": false,
      "normalized": false,
      "special": true
    },
    {
      "id": 7,
      "content": "<|reserved:0|>",
      "single_word": false,
      "lstrip": false,
      "rstrip": false,
      "normalized": false,
      "special": true
    },
    {
      "id": 8,
      "content": "<|reserved:1|>",
      "single_word": false,
      "lstrip": false,
      "rstrip": false,
      "normalized": false,
      "special": true
    },
    {
      "id": 9,
      "content": "<|reserved:2|>",
      "single_word": false,
      "lstrip": false,
      "rstrip": false,
      "normalized": false,
      "special": true
    },
    {
      "id": 10,
      "content": "<|reserved:3|>",
      "single_word": false,
      "lstrip": false,
      "rstrip": false,
      "normalized": false,
      "special": true
    },
    {
      "id": 11,
      "content": "<|reserved:4|>",
      "single_word": false,
      "lstrip": false,
      "rstrip": false,
      "normalized": false,
      "special": true
    },
    {
      "id": 12,
      "content": "<|reserved:5|>",
      "single_word": false,
      "lstrip": false,
      "rstrip": false,
      "normalized": false,
      "special": true
    },
    {
      "id": 13,
      "content": "<|reserved:6|>",
      "single_word": false,
      "lstrip": false,
      "rstrip": false,
      "normalized": false,
      "special": true
    },
    {
      "id": 14,
      "content": "<|reserved:7|>",
      "single_word": false,
      "lstrip": false,
      "rstrip": false,
      "normalized": false,
      "special": true
    },
    {
      "id": 15,
      "content": "<|reserved:8|>",
      "single_word": false,
      "lstrip": false,
      "rstrip": false,
      "normalized": false,
      "special": true
    },
    {
      "id": 16,
      "content": "<|reserved:9|>",
      "single_word": false,
      "lstrip": false,
      "rstrip": false,
      "normalized": false,
      "special": true
    },
    {
      "id": 17,
      "content": "<|reserved:10|>",
      "single_word": false,
      "lstrip": false,
      "rstrip": false,
      "normalized": false,
      "special": true
    },
    {
      "id": 18,
      "content": "<|reserved:11|>",
      "single_word": false,
      "lstrip": false,
      "rstrip": false,
      "normalized": false,
      "special": true
    },
    {
      "id": 19,
      "content": "<|reserved:12|>",
      "single_word": false,
      "lstrip": false,
      "rstrip": false,
      "normalized": false,
      "special": true
    },
    {
      "id": 20,
      "content": "<|reserved:13|>",
      "single_word": false,
      "lstrip": false,
      "rstrip": false,
      "normalized": false,
      "special": true
    },
    {
      "id": 21,
      "content": "<|reserved:14|>",
      "single_word": false,
      "lstrip": false,
      "rstrip": false,
      "normalized": false,
      "special": true
    },
    {
      "id": 22,
      "content": "<|reserved:15|>",
      "single_word": false,
      "lstrip": false,
      "rstrip": false,
      "normalized": false,
      "special": true
    },
    {
      "id": 23,
      "content": "<|reserved:16|>",
      "single_word": false,
      "lstrip": false,
      "rstrip": false,
      "normalized": false,
      "special": true
    },
    {
      "id": 24,
      "content": "<|reserved:17|>",
      "single_word": false,
      "lstrip": false,
      "rstrip": false,
      "normalized": false,
      "special": true
    },
    {
      "id": 25,
      "content": "<|reserved:18|>",
      "single_word": false,
      "lstrip": false,
      "rstrip": false,
      "normalized": false,
      "special": true
    },
    {
      "id": 26,
      "content": "<|reserved:19|>",
      "single_word": false,
      "lstrip": false,
      "rstrip": false,
      "normalized": false,
      "special": true
    },
    {
      "id": 27,
      "content": "<|reserved:20|>",
      "single_word": false,
      "lstrip": false,
      "rstrip": false,
      "normalized": false,
      "special": true
    },
    {
      "id": 28,
      "content": "<|reserved:21|>",
      "single_word": false,
      "lstrip": false,
      "rstrip": false,
      "normalized": false,
      "special": true
    },
    {
      "id": 29,
      "content": "<|reserved:22|>",
      "single_word": false,
      "lstrip": false,
      "rstrip": false,
      "normalized": false,
      "special": true
    },
    {
      "id": 30,
      "content": "<|reserved:23|>",
      "single_word": false,
      "lstrip": false,
      "rstrip": false,
      "normalized": false,
      "special": true
    },
    {
      "id": 31,
      "content": "<|reserved:24|>",
      "single_word": false,
      "lstrip": false,
      "rstrip": false,
      "normalized": false,
      "special": true
    },
    {
      "id": 32,
      "content": "<|reserved:25|>",
      "single_word": false,
      "lstrip": false,
      "rstrip": false,
      "normalized": false,
      "special": true
    },
    {
      "id": 33,
      "content": "<|reserved:26|>",
      "single_word": false,
      "lstrip": false,
      "rstrip": false,
      "normalized": false,
      "special": true
    },
    {
      "id": 34,
      "content": "<|reserved:27|>",
      "single_word": false,
      "lstrip": false,
      "rstrip": false,
      "normalized": false,
      "special": true
    },
    {
      "id": 35,
      "content": "<|reserved:28|>",
      "single_word": false,
      "lstrip": false,
      "rstrip": false,
      "normalized": false,
      "special": true
    },
    {
      "id": 36,
      "content": "<|reserved:29|>",
      "single_word": false,
      "lstrip": false,
      "rstrip": false,
      "normalized": false,
      "special": true
    },
    {
      "id": 37,
      "content": "<|reserved:30|>",
      "single_word": false,
      "lstrip": false,
      "rstrip": false,
      "normalized": false,
      "special": true
    },
    {
      "id": 38,
      "content": "<|reserved:31|>",
      "single_word": false,
      "lstrip": false,
      "rstrip": false,
      "normalized": false,
      "special": true
    },
    {
      "id": 39,
      "content": "<|reserved:32|>",
      "single_word": false,
      "lstrip": false,
      "rstrip": false,
      "normalized": false,
      "special": true
    },
    {
      "id": 40,
      "content": "<|reserved:33|>",
      "single_word": false,
      "lstrip": false,
      "rstrip": false,
      "normalized": false,
      "special": true
    },
    {
      "id": 41,
      "content": "<|reserved:34|>",
      "single_word": false,
      "lstrip": false,
      "rstrip": false,
      "normalized": false,
      "special": true
    },
    {
      "id": 42,
      "content": "<|reserved:35|>",
      "single_word": false,
      "lstrip": false,
      "rstrip": false,
      "normalized": false,
      "special": true
    },
    {
      "id": 43,
      "content": "<|reserved:36|>",
      "single_word": false,
      "lstrip": false,
      "rstrip": false,
      "normalized": false,
      "special": true
    },
    {
      "id": 44,
      "content": "<|reserved:37|>",
      "single_word": false,
      "lstrip": false,
      "rstrip": false,
      "normalized": false,
      "special": true
    },
    {
      "id": 45,
      "content": "<|reserved:38|>",
      "single_word": false,
      "lstrip": false,
      "rstrip": false,
      "normalized": false,
      "special": true
    },
    {
      "id": 46,
      "content": "<|reserved:39|>",
      "single_word": false,
      "lstrip": false,
      "rstrip": false,
      "normalized": false,
      "special": true
    },
    {
      "id": 47,
      "content": "<|reserved:40|>",
      "single_word": false,
      "lstrip": false,
      "rstrip": false,
      "normalized": false,
      "special": true
    },
    {
      "id": 48,
      "content": "<|reserved:41|>",
      "single_word": false,
      "lstrip": false,
      "rstrip": false,
      "normalized": false,
      "special": true
    },
    {
      "id": 49,
      "content": "<|reserved:42|>",
      "single_word": false,
      "lstrip": false,
      "rstrip": false,
      "normalized": false,
      "special": true
    },
    {
      "id": 50,
      "content": "<|reserved:43|>",
      "single_word": false,
      "lstrip": false,
      "rstrip": false,
      "normalized": false,
      "special": true
    },
    {
      "id": 51,
      "content": "<|reserved:44|>",
      "single_word": false,
      "lstrip": false,
      "rstrip": false,
      "normalized": false,
      "special": true
    },
    {
      "id": 52,
      "content": "<|reserved:45|>",
      "single_word": false,
      "lstrip": false,
      "rstrip": false,
      "normalized": false,
      "special": true
    },
    {
      "id": 53,
      "content": "<|reserved:46|>",
      "single_word": false,
      "lstrip": false,
      "rstrip": false,
      "normalized": false,
      "special": true
    },
    {
      "id": 54,
      "content": "<|reserved:47|>",
      "single_word": false,
      "lstrip": false,
      "rstrip": false,
      "normalized": false,
      "special": true
    },
    {
      "id": 55,
      "content": "<|reserved:48|>",
      "single_word": false,
      "lstrip": false,
      "rstrip": false,
      "normalized": false,
      "special": true
    },
    {
      "id": 56,
      "content": "<|reserved:49|>",
      "single_word": false,
      "lstrip": false,
      "rstrip": false,
      "normalized": false,
      "special": true
    },
    {
      "id": 57,
      "content": "<|reserved:50|>",
      "single_word": false,
      "lstrip": false,
      "rstrip": false,
      "normalized": false,
      "special": true
    },
    {
      "id": 58,
      "content": "<|reserved:51|>",
      "single_word": false,
      "lstrip": false,
      "rstrip": false,
      "normalized": false,
      "special": true
    },
    {
      "id": 59,
      "content": "<|reserved:52|>",
      "single_word": false,
      "lstrip": false,
      "rstrip": false,
      "normalized": false,
      "special": true
    },
    {
      "id": 60,
      "content": "<|reserved:53|>",
      "single_word": false,
      "lstrip": false,
      "rstrip": false,
      "normalized": false,
      "special": true
    },
    {
      "id": 61,
      "content": "<|reserved:54|>",
      "single_word": false,
      "lstrip": false,
      "rstrip": false,
      "normalized": false,
      "special": true
    },
    {
      "id": 62,
      "content": "<|reserved:55|>",
      "single_word": false,
      "lstrip": false,
      "rstrip": false,
      "normalized": false,
      "special": true
    },
    {
      "id": 63,
      "content": "<|reserved:56|>",
      "single_word": false,
      "lstrip": false,
      "rstrip": false,
      "normalized": false,
      "special": true
    },
    {
      "id": 64,
      "content": "<|reserved:57|>",
      "single_word": false,
      "lstrip": false,
      "rstrip": false,
      "normalized": false,
      "special": true
    },
    {
      "id": 65,
      "content": "<|reserved:58|>",
      "single_word": false,
      "lstrip": false,
      "rstrip": false,
      "normalized": false,
      "special": true
    },
    {
      "id": 66,
      "content": "<|reserved:59|>",
      "single_word": false,
      "lstrip": false,
      "rstrip": false,
      "normalized": false,
      "special": true
    },
    {
      "id": 67,
      "content": "<|reserved:60|>",
      "single_word": false,
      "lstrip": false,
      "rstrip": false,
      "normalized": false,
      "special": true
    },
    {
      "id": 68,
      "content": "<|reserved:61|>",
      "single_word": false,
      "lstrip": false,
      "rstrip": false,
      "normalized": false,
      "special": true
    },
    {
      "id": 69,
      "content": "<|reserved:62|>",
      "single_word": false,
      "lstrip": false,
      "rstrip": false,
      "normalized": false,
      "special": true
    },
    {
      "id": 70,
      "content": "<|reserved:63|>",
      "single_word": false,
      "lstrip": false,
      "rstrip": false,
      "normalized": false,
      "special": true
    },
    {
      "id": 71,
      "content": "<|reserved:64|>",
      "single_word": false,
      "lstrip": false,
      "rstrip": false,
      "normalized": false,
      "special": true
    },
    {
      "id": 72,
      "content": "<|reserved:65|>",
      "single_word": false,
      "lstrip": false,
      "rstrip": false,
      "normalized": false,
      "special": true
    },
    {
      "id": 73,
      "content": "<|reserved:66|>",
      "single_word": false,
      "lstrip": false,
      "rstrip": false,
      "normalized": false,
      "special": true
    },
    {
      "id": 74,
      "content": "<|reserved:67|>",
      "single_word": false,
      "lstrip": false,
      "rstrip": false,
      "normalized": false,
      "special": true
    },
    {
      "id": 75,
      "content": "<|reserved:68|>",
      "single_word": false,
      "lstrip": false,
      "rstrip": false,
      "normalized": false,
      "special": true
    },
    {
      "id": 76,
      "content": "<|reserved:69|>",
      "single_word": false,
      "lstrip": false,
      "rstrip": false,
      "normalized": false,
      "special": true
    },
    {
      "id": 77,
      "content": "<|reserved:70|>",
      "single_word": false,
      "lstrip": false,
      "rstrip": false,
      "normalized": false,
      "special": true
    },
    {
      "id": 78,
      "content": "<|reserved:71|>",
      "single_word": false,
      "lstrip": false,
      "rstrip": false,
      "normalized": false,
      "special": true
    },
    {
      "id": 79,
      "content": "<|reserved:72|>",
      "single_word": false,
      "lstrip": false,
      "rstrip": false,
      "normalized": false,
      "special": true
    },
    {
      "id": 80,
      "content": "<|reserved:73|>",
      "single_word": false,
      "lstrip": false,
      "rstrip": false,
      "normalized": false,
      "special": true
    },
    {
      "id": 81,
      "content": "<|reserved:74|>",
      "single_word": false,
      "lstrip": false,
      "rstrip": false,
      "normalized": false,
      "special": true
    },
    {
      "id": 82,
      "content": "<|reserved:75|>",
      "single_word": false,
      "lstrip": false,
      "rstrip": false,
      "normalized": false,
      "special": true
    },
    {
      "id": 83,
      "content": "<|reserved:76|>",
      "single_word": false,
      "lstrip": false,
      "rstrip": false,
      "normalized": false,
      "special": true
    },
    {
      "id": 84,
      "content": "<|reserved:77|>",
      "single_word": false,
      "lstrip": false,
      "rstrip": false,
      "normalized": false,
      "special": true
    },
    {
      "id": 85,
      "content": "<|reserved:78|>",
      "single_word": false,
      "lstrip": false,
      "rstrip": false,
      "normalized": false,
      "special": true
    },
    {
      "id": 86,
      "content": "<|reserved:79|>",
      "single_word": false,
      "lstrip": false,
      "rstrip": false,
      "normalized": false,
      "special": true
    },
    {
      "id": 87,
      "content": "<|reserved:80|>",
      "single_word": false,
      "lstrip": false,
      "rstrip": false,
      "normalized": false,
      "special": true
    },
    {
      "id": 88,
      "content": "<|reserved:81|>",
      "single_word": false,
      "lstrip": false,
      "rstrip": false,
      "normalized": false,
      "special": true
    },
    {
      "id": 89,
      "content": "<|reserved:82|>",
      "single_word": false,
      "lstrip": false,
      "rstrip": false,
      "normalized": false,
      "special": true
    },
    {
      "id": 90,
      "content": "<|reserved:83|>",
      "single_word": false,
      "lstrip": false,
      "rstrip": false,
      "normalized": false,
      "special": true
    },
    {
      "id": 91,
      "content": "<|reserved:84|>",
      "single_word": false,
      "lstrip": false,
      "rstrip": false,
      "normalized": false,
      "special": true
    },
    {
      "id": 92,
      "content": "<|reserved:85|>",
      "single_word": false,
      "lstrip": false,
      "rstrip": false,
      "normalized": false,
      "special": true
    },
    {
      "id": 93,
      "content": "<|reserved:86|>",
      "single_word": false,
      "lstrip": false,
      "rstrip": false,
      "normalized": false,
      "special": true
    },
    {
      "id": 94,
      "content": "<|reserved:87|>",
      "single_word": false,
      "lstrip": false,
      "rstrip": false,
      "normalized": false,
      "special": true
    },
    {
      "id": 95,
      "content": "<|reserved:88|>",
      "single_word": false,
      "lstrip": false,
      "rstrip": false,
      "normalized": false,
      "special": true
    },
    {
      "id": 96,
      "content": "<|reserved:89|>",
      "single_word": false,
      "lstrip": false,
      "rstrip": false,
      "normalized": false,
      "special": true
    },
    {
      "id": 97,
      "content": "<|reserved:90|>",
      "single_word": false,
      "lstrip": false,
      "rstrip": false,
      "normalized": false,
      "special": true
    },
    {
      "id": 98,
      "content": "<|reserved:91|>",
      "single_word": false,
      "lstrip": false,
      "rstrip": false,
      "normalized": false,
      "special": true
    },
    {
      "id": 99,
      "content": "<|reserved:92|>",
      "single_word": false,
      "lstrip": false,
      "rstrip": false,
      "normalized": false,
      "special": true
    },
    {
      "id": 100,
      "content": "<|reserved:93|>",
      "single_word": false,
      "lstrip": false,
      "rstrip": false,
      "normalized": false,
      "special": true
    },
    {
      "id": 101,
      "content": "<|reserved:94|>",
      "single_word": false,
      "lstrip": false,
      "rstrip": false,
      "normalized": false,
      "special": true
    },
    {
      "id": 102,
      "content": "<|reserved:95|>",
      "single_word": false,
      "lstrip": false,
      "rstrip": false,
      "normalized": false,
      "special": true
    },
    {
      "id": 103,
      "content": "<|reserved:96|>",
      "single_word": false,
      "lstrip": false,
      "rstrip": false,
      "normalized": false,
      "special": true
    },
    {
      "id": 104,
      "content": "<|reserved:97|>",
      "single_word": false,
      "lstrip": false,
      "rstrip": false,
      "normalized": false,
      "special": true
    },
    {
      "id": 105,
      "content": "<|reserved:98|>",
      "single_word": false,
      "lstrip": false,
      "rstrip": false,
      "normalized": false,
      "special": true
    },
    {
      "id": 106,
      "content": "<|reserved:99|>",
      "single_word": false,
      "lstrip": false,
      "rstrip": false,
      "normalized": false,
      "special": true
    },
    {
      "id": 107,
      "content": "<|reserved:100|>",
      "single_word": false,
      "lstrip": false,
      "rstrip": false,
      "normalized": false,
      "special": true
    },
    {
      "id": 108,
      "content": "<|reserved:101|>",
      "single_word": false,
      "lstrip": false,
      "rstrip": false,
      "normalized": false,
      "special": true
    },
    {
      "id": 109,
      "content": "<|reserved:102|>",
      "single_word": false,
      "lstrip": false,
      "rstrip": false,
      "normalized": false,
      "special": true
    },
    {
      "id": 110,
      "content": "<|reserved:103|>",
      "single_word": false,
      "lstrip": false,
      "rstrip": false,
      "normalized": false,
      "special": true
    },
    {
      "id": 111,
      "content": "<|reserved:104|>",
      "single_word": false,
      "lstrip": false,
      "rstrip": false,
      "normalized": false,
      "special": true
    },
    {
      "id": 112,
      "content": "<|reserved:105|>",
      "single_word": false,
      "lstrip": false,
      "rstrip": false,
      "normalized": false,
      "special": true
    },
    {
      "id": 113,
      "content": "<|reserved:106|>",
      "single_word": false,
      "lstrip": false,
      "rstrip": false,
      "normalized": false,
      "special": true
    },
    {
      "id": 114,
      "content": "<|reserved:107|>",
      "single_word": false,
      "lstrip": false,
      "rstrip": false,
      "normalized": false,
      "special": true
    },
    {
      "id": 115,
      "content": "<|reserved:108|>",
      "single_word": false,
      "lstrip": false,
      "rstrip": false,
      "normalized": false,
      "special": true
    },
    {
      "id": 116,
      "content": "<|reserved:109|>",
      "single_word": false,
      "lstrip": false,
      "rstrip": false,
      "normalized": false,
      "special": true
    },
    {
      "id": 117,
      "content": "<|reserved:110|>",
      "single_word": false,
      "lstrip": false,
      "rstrip": false,
      "normalized": false,
      "special": true
    },
    {
      "id": 118,
      "content": "<|reserved:111|>",
      "single_word": false,
      "lstrip": false,
      "rstrip": false,
      "normalized": false,
      "special": true
    },
    {
      "id": 119,
      "content": "<|reserved:112|>",
      "single_word": false,
      "lstrip": false,
      "rstrip": false,
      "normalized": false,
      "special": true
    },
    {
      "id": 120,
      "content": "<|reserved:113|>",
      "single_word": false,
      "lstrip": false,
      "rstrip": false,
      "normalized": false,
      "special": true
    },
    {
      "id": 121,
      "content": "<|reserved:114|>",
      "single_word": false,
      "lstrip": false,
      "rstrip": false,
      "normalized": false,
      "special": true
    },
    {
      "id": 122,
      "content": "<|reserved:115|>",
      "single_word": false,
      "lstrip": false,
      "rstrip": false,
      "normalized": false,
      "special": true
    },
    {
      "id": 123,
      "content": "<|reserved:116|>",
      "single_word": false,
      "lstrip": false,
      "rstrip": false,
      "normalized": false,
      "special": true
    },
    {
      "id": 124,
      "content": "<|reserved:117|>",
      "single_word": false,
      "lstrip": false,
      "rstrip": false,
      "normalized": false,
      "special": true
    },
    {
      "id": 125,
      "content": "<|reserved:118|>",
      "single_word": false,
      "lstrip": false,
      "rstrip": false,
      "normalized": false,
      "special": true
    },
    {
      "id": 126,
      "content": "<|reserved:119|>",
      "single_word": false,
      "lstrip": false,
      "rstrip": false,
      "normalized": false,
      "special": true
    },
    {
      "id": 127,
      "content": "<|reserved:120|>",
      "single_word": false,
      "lstrip": false,
      "rstrip": false,
      "normalized": false,
      "special": true
    },
    {
      "id": 128,
      "content": "<|reserved:121|>",
      "single_word": false,
      "lstrip": false,
      "rstrip": false,
      "normalized": false,
      "special": true
    },
    {
      "id": 129,
      "content": "<|reserved:122|>",
      "single_word": false,
      "lstrip": false,
      "rstrip": false,
      "normalized": false,
      "special": true
    },
    {
      "id": 130,
      "content": "<|reserved:123|>",
      "single_word": false,
      "lstrip": false,
      "rstrip": false,
      "normalized": false,
      "special": true
    },
    {
      "id": 131,
      "content": "<|reserved:124|>",
      "single_word": false,
      "lstrip": false,
      "rstrip": false,
      "normalized": false,
      "special": true
    },
    {
      "id": 132,
      "content": "<|reserved:125|>",
      "single_word": false,
      "lstrip": false,
      "rstrip": false,
      "normalized": false,
      "special": true
    },
    {
      "id": 133,
      "content": "<|reserved:126|>",
      "single_word": false,
      "lstrip": false,
      "rstrip": false,
      "normalized": false,
      "special": true
    },
    {
      "id": 134,
      "content": "<|reserved:127|>",
      "single_word": false,
      "lstrip": false,
      "rstrip": false,
      "normalized": false,
      "special": true
    }
  ],
  "normalizer": null,
  "pre_tokenizer": null,
  "post_processor": {
    "type": "TemplateProcessing",
    "single": [
      {
        "SpecialToken": {
          "id": "<|start|>",
          "type_id": 0
        }
      },
      {
        "Sequence": {
          "id": "A",
          "type_id": 0
        }
      },
      {
        "SpecialToken": {
          "id": "<|end|>",
          "type_id": 0
        }
      }
    ],
    "pair": [
      {
        "SpecialToken": {
          "id": "<|start|>",
          "type_id": 0
        }
      },
      {
        "Sequence": {
          "id": "A",
          "type_id": 0
        }
      },
      {
        "SpecialToken": {
          "id": "<|sep|>",
          "type_id": 0
        }
      },
      {
        "Sequence": {
          "id": "B",
          "type_id": 0
        }
      },
      {
        "SpecialToken": {
          "id": "<|end|>",
          "type_id": 0
        }
      }
    ],
    "special_tokens": {
      "<|cls|>": {
        "id": "<|cls|>",
        "ids": [
          3
        ],
        "tokens": [
          "<|cls|>"
        ]
      },
      "<|end|>": {
        "id": "<|end|>",
        "ids": [
          1
        ],
        "tokens": [
          "<|end|>"
        ]
      },
      "<|mask|>": {
        "id": "<|mask|>",
        "ids": [
          5
        ],
        "tokens": [
          "<|mask|>"
        ]
      },
      "<|pad|>": {
        "id": "<|pad|>",
        "ids": [
          4
        ],
        "tokens": [
          "<|pad|>"
        ]
      },
      "<|sep|>": {
        "id": "<|sep|>",
        "ids": [
          2
        ],
        "tokens": [
          "<|sep|>"
        ]
      },
      "<|start|>": {
        "id": "<|start|>",
        "ids": [
          0
        ],
        "tokens": [
          "<|start|>"
        ]
      },
      "<|unk|>": {
        "id": "<|unk|>",
        "ids": [
          6
        ],
        "tokens": [
          "<|unk|>"
        ]
      }
    }
  },
  "decoder": null,
  "model": {
    "type": "BPE",
    "dropout": null,
    "unk_token": null,
    "continuing_subword_prefix": null,
    "end_of_word_suffix": null,
    "fuse_unk": false,
    "byte_fallback": false,
    "ignore_merges": false,
    "vocab": {
      "<|start|>": 0,
      "<|end|>": 1,
      "<|sep|>": 2,
      "<|cls|>": 3,
      "<|pad|>": 4,
      "<|mask|>": 5,
      "<|unk|>": 6,
      "<|reserved:0|>": 7,
      "<|reserved:1|>": 8,
      "<|reserved:2|>": 9,
      "<|reserved:3|>": 10,
      "<|reserved:4|>": 11,
      "<|reserved:5|>": 12,
      "<|reserved:6|>": 13,
      "<|reserved:7|>": 14,
      "<|reserved:8|>": 15,
      "<|reserved:9|>": 16,
      "<|reserved:10|>": 17,
      "<|reserved:11|>": 18,
      "<|reserved:12|>": 19,
      "<|reserved:13|>": 20,
      "<|reserved:14|>": 21,
      "<|reserved:15|>": 22,
      "<|reserved:16|>": 23,
      "<|reserved:17|>": 24,
      "<|reserved:18|>": 25,
      "<|reserved:19|>": 26,
      "<|reserved:20|>": 27,
      "<|reserved:21|>": 28,
      "<|reserved:22|>": 29,
      "<|reserved:23|>": 30,
      "<|reserved:24|>": 31,
      "<|reserved:25|>": 32,
      "<|reserved:26|>": 33,
      "<|reserved:27|>": 34,
      "<|reserved:28|>": 35,
      "<|reserved:29|>": 36,
      "<|reserved:30|>": 37,
      "<|reserved:31|>": 38,
      "<|reserved:32|>": 39,
      "<|reserved:33|>": 40,
      "<|reserved:34|>": 41,
      "<|reserved:35|>": 42,
      "<|reserved:36|>": 43,
      "<|reserved:37|>": 44,
      "<|reserved:38|>": 45,
      "<|reserved:39|>": 46,
      "<|reserved:40|>": 47,
      "<|reserved:41|>": 48,
      "<|reserved:42|>": 49,
      "<|reserved:43|>": 50,
      "<|reserved:44|>": 51,
      "<|reserved:45|>": 52,
      "<|reserved:46|>": 53,
      "<|reserved:47|>": 54,
      "<|reserved:48|>": 55,
      "<|reserved:49|>": 56,
      "<|reserved:50|>": 57,
      "<|reserved:51|>": 58,
      "<|reserved:52|>": 59,
      "<|reserved:53|>": 60,
      "<|reserved:54|>": 61,
      "<|reserved:55|>": 62,
      "<|reserved:56|>": 63,
      "<|reserved:57|>": 64,
      "<|reserved:58|>": 65,
      "<|reserved:59|>": 66,
      "<|reserved:60|>": 67,
      "<|reserved:61|>": 68,
      "<|reserved:62|>": 69,
      "<|reserved:63|>": 70,
      "<|reserved:64|>": 71,
      "<|reserved:65|>": 72,
      "<|reserved:66|>": 73,
      "<|reserved:67|>": 74,
      "<|reserved:68|>": 75,
      "<|reserved:69|>": 76,
      "<|reserved:70|>": 77,
      "<|reserved:71|>": 78,
      "<|reserved:72|>": 79,
      "<|reserved:73|>": 80,
      "<|reserved:74|>": 81,
      "<|reserved:75|>": 82,
      "<|reserved:76|>": 83,
      "<|reserved:77|>": 84,
      "<|reserved:78|>": 85,
      "<|reserved:79|>": 86,
      "<|reserved:80|>": 87,
      "<|reserved:81|>": 88,
      "<|reserved:82|>": 89,
      "<|reserved:83|>": 90,
      "<|reserved:84|>": 91,
      "<|reserved:85|>": 92,
      "<|reserved:86|>": 93,
      "<|reserved:87|>": 94,
      "<|reserved:88|>": 95,
      "<|reserved:89|>": 96,
      "<|reserved:90|>": 97,
      "<|reserved:91|>": 98,
      "<|reserved:92|>": 99,
      "<|reserved:93|>": 100,
      "<|reserved:94|>": 101,
      "<|reserved:95|>": 102,
      "<|reserved:96|>": 103,
      "<|reserved:97|>": 104,
      "<|reserved:98|>": 105,
      "<|reserved:99|>": 106,
      "<|reserved:100|>": 107,
      "<|reserved:101|>": 108,
      "<|reserved:102|>": 109,
      "<|reserved:103|>": 110,
      "<|reserved:104|>": 111,
      "<|reserved:105|>": 112,
      "<|reserved:106|>": 113,
      "<|reserved:107|>": 114,
      "<|reserved:108|>": 115,
      "<|reserved:109|>": 116,
      "<|reserved:110|>": 117,
      "<|reserved:111|>": 118,
      "<|reserved:112|>": 119,
      "<|reserved:113|>": 120,
      "<|reserved:114|>": 121,
      "<|reserved:115|>": 122,
      "<|reserved:116|>": 123,
      "<|reserved:117|>": 124,
      "<|reserved:118|>": 125,
      "<|reserved:119|>": 126,
      "<|reserved:120|>": 127,
      "<|reserved:121|>": 128,
      "<|reserved:122|>": 129,
      "<|reserved:123|>": 130,
      "<|reserved:124|>": 131,
      "<|reserved:125|>": 132,
      "<|reserved:126|>": 133,
      "<|reserved:127|>": 134,
      "\u0000": 135,
      "\u0001": 136,
      "\u0002": 137,
      "\u0003": 138,
      "\u0004": 139,
      "\u0005": 140,
      "\u0006": 141,
      "\u0007": 142,
      "\b": 143,
      "\t": 144,
      "\n": 145,
      "\u000b": 146,
      "\f": 147,
      "\r": 148,
      "\u000e": 149,
      "\u000f": 150,
      "\u0010": 151,
      "\u0011": 152,
      "\u0012": 153,
      "\u0013": 154,
      "\u0014": 155,
      "\u0015": 156,
      "\u0016": 157,
      "\u0017": 158,
      "\u0018": 159,
      "\u0019": 160,
      "\u001a": 161,
      "\u001b": 162,
      "\u001c": 163,
      "\u001d": 164,
      "\u001e": 165,
      "\u001f": 166,
      " ": 167,
      "!": 168,
      "\"": 169,
      "#": 170,
      "$": 171,
      "%": 172,
      "&": 173,
      "'": 174,
      "(": 175,
      ")": 176,
      "*": 177,
      "+": 178,
      ",": 179,
      "-": 180,
      ".": 181,
      "/": 182,
      "0": 183,
      "1": 184,
      "2": 185,
      "3": 186,
      "4": 187,
      "5": 188,
      "6": 189,
      "7": 190,
      "8": 191,
      "9": 192,
      ":": 193,
      ";": 194,
      "<": 195,
      "=": 196,
      ">": 197,
      "?": 198,
      "@": 199,
      "A": 200,
      "B": 201,
      "C": 202,
      "D": 203,
      "E": 204,
      "F": 205,
      "G": 206,
      "H": 207,
      "I": 208,
      "J": 209,
      "K": 210,
      "L": 211,
      "M": 212,
      "N": 213,
      "O": 214,
      "P": 215,
      "Q": 216,
      "R": 217,
      "S": 218,
      "T": 219,
      "U": 220,
      "V": 221,
      "W": 222,
      "X": 223,
      "Y": 224,
      "Z": 225,
      "[": 226,
      "\\": 227,
      "]": 228,
      "^": 229,
      "_": 230,
      "`": 231,
      "a": 232,
      "b": 233,
      "c": 234,
      "d": 235,
      "e": 236,
      "f": 237,
      "g": 238,
      "h": 239,
      "i": 240,
      "j": 241,
      "k": 242,
      "l": 243,
      "m": 244,
      "n": 245,
      "o": 246,
      "p": 247,
      "q": 248,
      "r": 249,
      "s": 250,
      "t": 251,
      "u": 252,
      "v": 253,
      "w": 254,
      "x": 255,
      "y": 256,
      "z": 257,
      "{": 258,
      "|": 259,
      "}": 260,
      "~": 261,
      "": 262,
      "": 263,
      "": 264,
      "": 265,
      "": 266,
      "": 267,
      "": 268,
      "": 269,
      "": 270,
      "": 271,
      "": 272,
      "": 273,
      "": 274,
      "": 275,
      "": 276,
      "": 277,
      "": 278,
      "": 279,
      "": 280,
      "": 281,
      "": 282,
      "": 283,
      "": 284,
      "": 285,
      "": 286,
      "": 287,
      "": 288,
      "": 289,
      "": 290,
      "": 291,
      "": 292,
      "": 293,
      "": 294,
      " ": 295,
      "¡": 296,
      "¢": 297,
      "£": 298,
      "¤": 299,
      "¥": 300,
      "¦": 301,
      "§": 302,
      "¨": 303,
      "©": 304,
      "ª": 305,
      "«": 306,
      "¬": 307,
      "­": 308,
      "®": 309,
      "¯": 310,
      "°": 311,
      "±": 312,
      "²": 313,
      "³": 314,
      "´": 315,
      "µ": 316,
      "¶": 317,
      "·": 318,
      "¸": 319,
      "¹": 320,
      "º": 321,
      "»": 322,
      "¼": 323,
      "½": 324,
      "¾": 325,
      "¿": 326,
      "À": 327,
      "Á": 328,
      "Â": 329,
      "Ã": 330,
      "Ä": 331,
      "Å": 332,
      "Æ": 333,
      "Ç": 334,
      "È": 335,
      "É": 336,
      "Ê": 337,
      "Ë": 338,
      "Ì": 339,
      "Í": 340,
      "Î": 341,
      "Ï": 342,
      "Ð": 343,
      "Ñ": 344,
      "Ò": 345,
      "Ó": 346,
      "Ô": 347,
      "Õ": 348,
      "Ö": 349,
      "×": 350,
      "Ø": 351,
      "Ù": 352,
      "Ú": 353,
      "Û": 354,
      "Ü": 355,
      "Ý": 356,
      "Þ": 357,
      "ß": 358,
      "à": 359,
      "á": 360,
      "â": 361,
      "ã": 362,
      "ä": 363,
      "å": 364,
      "æ": 365,
      "ç": 366,
      "è": 367,
      "é": 368,
      "ê": 369,
      "ë": 370,
      "ì": 371,
      "í": 372,
      "î": 373,
      "ï": 374,
      "ð": 375,
      "ñ": 376,
      "ò": 377,
      "ó": 378,
      "ô": 379,
      "õ": 380,
      "ö": 381,
      "÷": 382,
      "ø": 383,
      "ù": 384,
      "ú": 385,
      "û": 386,
      "ü": 387,
      "ý": 388,
      "þ": 389,
      "ÿ": 390,
      "\u0000\u0000": 391,
      "\u0000\u0000\u0000\u0000": 392,
      "ÿÿ": 393,
      "\u0000\u0000\u0000": 394,
      "\u0000\u0000\u0000\u0000\u0000\u0000\u0000\u0000": 395,
      "ÿÿÿÿ": 396,
      "ÌÌ": 397,
      "H": 398,
      "~~": 399,
      "\u0001\u0000": 400,
      "ÌÌÌÌ": 401,
      "ÿÿÿÿÿÿÿÿ": 402,
      "H": 403,
      "\u0002\u0000": 404,
      "H": 405,
      "\u0003\u0000": 406,
      "\u0001\u0000\u0000": 407,
      "\u0001\u0000\u0000\u0000": 408,
      "\u0004\u0000": 409,
      "~~~~": 410,
      "H": 411,
      "\u0000\u0000\u0000\u0000\u0000": 412,
      "@ù": 413,
      "\u0000": 414,
      "D$": 415,
      " \u0000": 416,
      "ÍÍ": 417,
      "\u000f\u0010": 418,
      "ÌÌÌÌÌÌÌÌ": 419,
      "à\u0003": 420,
      "\u0006\u0000": 421,
      "\u0002\u0000\u0000": 422,
      "L": 423,
      "\b\u0000": 424,
      "D\u000f": 425,
      "\u0005\u0000": 426,
      "  ": 427,
      "I": 428,
      "\u0000\u0000\u0000\u0000\u0000\u0000": 429,
      "ÿÿ\u0017": 430,
      "L": 431,
      "ÿ": 432,
      "\u0007\u0000": 433,
      "A\u000f": 434,
      "\u0010\u0000": 435,
      "@\u0000": 436,
      "ó\u000f": 437,
      "\u0000\u0000\u0000\u0000\u0000\u0000\u0000": 438,
      "À": 439,
      "L": 440,
      "@¹": 441,
      "\n\u0000": 442,
      "ÿÿÿ": 443,
      "\u000f": 444,
      "f\u000f": 445,
      "~~~~~~~~": 446,
      "\u0004\u0000\u0000": 447,
      "\u0003\u0000\u0000": 448,
      "E\u000f": 449,
      "L$": 450,
      "\u0003Õ": 451,
      "þÿ": 452,
      "R": 453,
      "\\$": 454,
      "\u000f": 455,
      "\u0000\u0001": 456,
      "ý{": 457,
      "\u0000": 458,
      "a\u0000": 459,
      "\u0000ù": 460,
      "e\u0000": 461,
      "\u0000R": 462,
      "\u0001\u0001": 463,
      "\t\u0000": 464,
      "t$": 465,
      "\u000f(": 466,
      "ÿ\u0015": 467,
      "\u0000H": 468,
      "\u000f\u0011": 469,
      "\" ": 470,
      "\u0000 ": 471,
      "ÍÍÍÍ": 472,
      "\f\u0000": 473,
      "$": 474,
      "\u000e\u0000": 475,
      "o\u0000": 476,
      "Ò": 477,
      "á\u0003": 478,
      "0\u0000": 479,
      "`\u0000": 480,
      "D": 481,
      "\u0003\u0000ª": 482,
      "\u000b\u0000": 483,
      "|$": 484,
      "\u000f\u0000": 485,
      "H": 486,
      "\u000f": 487,
      "t\u0000": 488,
      "HÄ": 489,
      "T$": 490,
      "\u0005\u0000\u0000": 491,
      "\r\u0000": 492,
      "ÄA": 493,
      "3À": 494,
      "d\u0000": 495,
      "i\u0000": 496,
      "\u0002\u0000\u0000\u0000": 497,
      "\"\u0000": 498,
      "ýÿ": 499,
      "in": 500,
      "À\u0003": 501,
      "\u000f¶": 502,
      "\u0014\u0000": 503,
      "óS": 504,
      "A": 505,
      "A\u0000": 506,
      "\u0004\u0000\u0000\u0000": 507,
      "\u0013ª": 508,
      "n\u0000": 509,
      "\u0000\u0000": 510,
      "s\u0000": 511,
      "\u001f\u0000": 512,
      "_\u0000": 513,
      "D": 514,
      "!\u0001": 515,
      "\u0000@": 516,
      "\" \u000f": 517,
      "\u0000\u0000T": 518,
      "\u0000": 519,
      "\u0002\u0002": 520,
      "r\u0000": 521,
      "\u0000H": 522,
      "_Ö": 523,
      "ÄÁ": 524,
      "I": 525,
      "\b\u0000\u0000": 526,
      "\u0006\u0000\u0000": 527,
      "üÿ": 528,
      "À\u0003_Ö": 529,
      "Hì": 530,
      "\bÀ": 531,
      "\u0003\u0001": 532,
      "ø": 533,
      "c\u0000": 534,
      "1\u0000": 535,
      "4\u0000": 536,
      "$": 537,
      "er": 538,
      "\u0001\u0000\u0000\u0000": 539,
      "#\u0003Õ": 540,
      "\u0000\u0004": 541,
      "@\u0000\u0000\u0000": 542,
      "@9": 543,
      "Ä": 544,
      "\u000fY": 545,
      "\u0000¹": 546,
      "H;": 547,
      "p\u0000": 548,
      "þ": 549,
      "E\u0000": 550,
      "þÿÿ": 551,
      "\u0000q": 552,
      ".\u0000": 553,
      "D\u0000": 554,
      "\u0012\u0000": 555,
      "dd": 556,
      "2\u0000": 557,
      "l$": 558,
      "    ": 559,
      "!\u0000": 560,
      "\u001f ": 561,
      "\u000f\u001f": 562,
      "E": 563,
      "\u0003\u0003": 564,
      "\u0010\u0000\u0000": 565,
      "\u0014ª": 566,
      "ûÿ": 567,
      " \u0000": 568,
      "ý": 569,
      "on": 570,
      "\u0000ÿ": 571,
      "H\u0005": 572,
      "\u0003\u0000\u0000\u0000": 573,
      "ùù": 574,
      "H": 575,
      "\u0007\u0000\u0000": 576,
      "8\u0000": 577,
      "\u0011\u0000": 578,
      "\u001f \u0003Õ": 579,
      "â\u0003": 580,
      "àx": 581,
      "\u0004\u0004": 582,
      "õ[": 583,
      "ÿH": 584,
      "re": 585,
      "00": 586,
      "\u0000\u0000H": 587,
      "\b\u0000\u0000\u0000": 588,
      "ÇE": 589,
      "\u0002\u0001": 590,
      "ÌÌÌ": 591,
      "Àt": 592,
      "HD$": 593,
      "\u0003\u0000": 594,
      "\u001c\u0000": 595,
      "$\u0000": 596,
      "M": 597,
      "\u0005\u0005": 598,
      "AA": 599,
      "E": 600,
      "à\u0003\u0013ª": 601,
      "HÁ": 602,
      "M": 603,
      "\u0018\u0000": 604,
      "\u0000ð": 605,
      "ÇD$": 606,
      "¼$": 607,
      "6\u0000": 608,
      "ÿu": 609,
      "te": 610,
      "l\u0000": 611,
      "H\\$": 612,
      "\u0000\u0000\u0000H": 613,
      "\u0016\u0000": 614,
      "P\u0000": 615,
      "\u0000\u0000\u0000H": 616,
      "A¸": 617,
      "\u0000è": 618,
      "ÿT": 619,
      "or": 620,
      "3Ò": 621,
      " %": 622,
      "F\u0000": 623,
      "ó\u000f\u0010": 624,
      "À\u0000": 625,
      "Hÿ": 626,
      "\u000f·": 627,
      "\u0003\u0002": 628,
      "\u0001\u0000T": 629,
      "I\u0000": 630,
      "\u0015ª": 631,
      "3\u0000": 632,
      "-\u0000": 633,
      "u\u0000": 634,
      "ÿ": 635,
      "\u0000\u0002": 636,
      "ý\u0003\u0000": 637,
      "A\u000e": 638,
      "I": 639,
      "\u0000(": 640,
      "\u0000\u0004\u0000": 641,
      "\u0001 ": 642,
      "À": 643,
      "\u0001t": 644,
      "D$": 645,
      "\u0010\u0010": 646,
      "\u0000\u0000\u0000": 647,
      "\u001a\u0000": 648,
      "C\u0000": 649,
      "E3": 650,
      "$": 651,
      "\u0003\u0000*": 652,
      "S\u0000": 653,
      "A©": 654,
      "\u000f)": 655,
      "ò\u000f": 656,
      "\u0000": 657,
      "´$": 658,
      "t ": 659,
      "9\u0000": 660,
      "úÿ": 661,
      "\u0001\u0000\u0001\u0000": 662,
      ",\u0000": 663,
      "H\u0015": 664,
      "\t\u0000\u0000": 665,
      "Pè": 666,
      "\u0013\u0000": 667,
      "\u0001\u0004": 668,
      "ti": 669,
      "Ét": 670,
      "Fù": 671,
      "\u000f\u0000\u0000": 672,
      "øÿ": 673,
      "]Ã": 674,
      "j\u0000": 675,
      "=\u0000": 676,
      "$": 677,
      "ÍÍÍÍÍÍÍÍ": 678,
      "5\u0000": 679,
      "\u0005\u0000\u0000\u0000": 680,
      "B\u0000": 681,
      "\u0001©": 682,
      "\u0000Ò": 683,
      "\u0001\u0000\u0000\u0000\u0000": 684,
      "ff": 685,
      "Hc": 686,
      "ðÿ": 687,
      "÷c": 688,
      "_^": 689,
      "%\u0000": 690,
      "H\u0003": 691,
      "\u0000": 692,
      "\u0019\u0000": 693,
      "D\u000f(": 694,
      " \n": 695,
      "ùÿ": 696,
      "Ëè": 697,
      "_Ã": 698,
      "I": 699,
      "Ïè": 700,
      " H": 701,
      "AV": 702,
      "st": 703,
      "al": 704,
      "\n\u0000\u0000": 705,
      "\u0001ÿ": 706,
      "&\u0000": 707,
      "\u0015\u0000": 708,
      "\u0016ª": 709,
      "\u0000\u0000": 710,
      "\u0001\u0000\u0000\u0000\u0000\u0000": 711,
      "7\u0000": 712,
      "M\u0000": 713,
      "T\u0000": 714,
      "|H": 715,
      "\u0010\u0000\u0000\u0000": 716,
      "(\u0000": 717,
      "Gù": 718,
      "\u0010\u0001": 719,
      "@\u0000\u0000": 720,
      "\b\u0002": 721,
      "?\u0000": 722,
      "le": 723,
      "Î": 724,
      "ar": 725,
      "ýÿÿ": 726,
      "\u0003\u0004": 727,
      "\u000fW": 728,
      "¿#\u0003Õ": 729,
      "E": 730,
      "\u000b\u0000\u0000": 731,
      "\bH": 732,
      "m\u0000": 733,
      " \u0000\u0000\u0000": 734,
      "\u001e\u0000": 735,
      "\u0002\u0004": 736,
      "d ": 737,
      "\u0001u": 738,
      "\u0001": 739,
      "÷ÿ": 740,
      "ð\u0000": 741,
      "\u0017\u0000": 742,
      "\b": 743,
      "Aÿ": 744,
      "A": 745,
      "\u001f\u0000\u0000": 746,
      "HÄ ": 747,
      "A^": 748,
      "\f\u0000\u0000": 749,
      "óA\u000f": 750,
      " è": 751,
      "\u0010": 752,
      "A¹": 753,
      "?#\u0003Õ": 754,
      "\u000fX": 755,
      "¬$": 756,
      "g\u0000": 757,
      "A": 758,
      "HÇ": 759,
      "\bH": 760,
      "L\u0005": 761,
      "ó\u000f\u0011": 762,
      "\u0000\u0000\u0000è": 763,
      "\u0004": 764,
      ":\u0000": 765,
      "H\u000f": 766,
      "s ": 767,
      " \u0000\u0000": 768,
      "/\u0000": 769,
      "ÞÝ": 770,
      "R\u0000": 771,
      "à\u0003\u0014ª": 772,
      "an": 773,
      "O\u0000": 774,
      "\u0000": 775,
      "öÿ": 776,
      "d$": 777,
      "\u0001\u0000\u0000": 778,
      "H\\$": 779,
      "en": 780,
      "AT": 781,
      "*\u0000": 782,
      "óSA©": 783,
      "õÿ": 784,
      "Ð\u0000": 785,
      "e ": 786,
      "\u0000\u0000": 787,
      "\u0005\u0001": 788,
      "v\u0000": 789,
      "<\u0000": 790,
      "et": 791,
      "M": 792,
      "I;": 793,
      "D\u000fY": 794,
      "ÿ\u0000": 795,
      "N\u0000": 796,
      "#\u0000": 797,
      "W\u0000": 798,
      "\u0000\u0000\u0000\u0000\u0000\u0000\u0000\u0000\u0000": 799,
      "[Ã": 800,
      "h\u0000": 801,
      "\u0000": 802,
      "Èè": 803,
      ")\u0000": 804,
      "B©": 805,
      "E": 806,
      "\u0001\u0000Ò": 807,
      "U": 808,
      "!\u0001\u0000": 809,
      "(\n": 810,
      "y\u0000": 811,
      "`\u0006": 812,
      "\u0000\u0000\u0000\u0000\u0000\u0000\u0000\u0000\u0000\u0000\u0000": 813,
      "\u001b\u0000": 814,
      "ü": 815,
      "\"\u0001": 816,
      "H+": 817,
      "\r\n": 818,
      "\u001d\u0000": 819,
      "H\u0000": 820,
      "Åø": 821,
      "\u0010ÿ": 822,
      "L\u0000": 823,
      " \u0002": 824,
      "\u0000\u0000": 825,
      "?\u0000\u0000": 826,
      "`\u0002": 827,
      "D\u000f\u0010": 828,
      "at": 829,
      "@@": 830,
      "ïÿ": 831,
      "\u0017ª": 832,
      "\u0010H": 833,
      "\u000f": 834,
      "K\u0000": 835,
      "\u0001\u0002": 836,
      "\u0002©": 837,
      "X\u0000": 838,
      "HM": 839,
      "ó\u000fY": 840,
      "H\r": 841,
      "ro": 842,
      "b\u0000": 843,
      "H\u0012": 844,
      "\u0000\u0000\u0000": 845,
      "\u0006\u0003": 846,
      "ñÀ": 847,
      "@\u0001": 848,
      "nv": 849,
      "\u0000": 850,
      "\"": 851,
      "\r\u0000\u0000": 852,
      "\u0001H": 853,
      "Uì": 854,
      "Àu": 855,
      "ùk": 856,
      "°\u0000": 857,
      "H\r": 858,
      " \u0001": 859,
      ";\u0000": 860,
      "\u0002\u0000T": 861,
      "VW": 862,
      "\u0000\u0000è": 863,
      "Áè": 864,
      "de": 865,
      "'\u0000": 866,
      "A\\": 867,
      "ôÿ": 868,
      "\u0000\u0000\u0001": 869,
      "Åx": 870,
      " \u0000 \u0000": 871,
      "ÿ": 872,
      "à\u0000": 873,
      "\u0000\u0000\u0000\u0000\u0000\u0000\u0000\u0000\u0000\u0000\u0000\u0000": 874,
      "ÿ÷": 875,
      "]Â": 876,
      "\u0001\u0000\u0000H": 877,
      "f\u0000": 878,
      "à": 879,
      "ó\u0003\u0000ª": 880,
      "M": 881,
      "x\u0000": 882,
      "Ç": 883,
      "fA\u000f": 884,
      "HE": 885,
      "\u0003\u0001ª": 886,
      "Ïp": 887,
      "D\u0000\u0000": 888,
      "ÿÿ": 889,
      "3É": 890,
      "Ïÿ": 891,
      "\u0000\u0000R": 892,
      "ÿ": 893,
      "\u000f\bÀ": 894,
      "°\u0001": 895,
      " \u0002": 896,
      "0H": 897,
      "@\u0004": 898,
      "\u0001\u0010": 899,
      "\u000f\u000f": 900,
      "\u0001\u0000`\u0000": 901,
      "\u001f\u0004\u0000": 902,
      "lo": 903,
      "\u0006\u0000\u0000\u0000": 904,
      "\u0000\u0000\u0000": 905,
      "\bH": 906,
      "E\u000fY": 907,
      "HL$": 908,
      "ò\u000f\u0010": 909,
      "\u0001q": 910,
      "h\u001a": 911,
      "\u0004": 912,
      "}H": 913,
      ">\u0000": 914,
      "û": 915,
      "1À": 916,
      "þþ": 917,
      "\u0018ª": 918,
      "\t\u0005": 919,
      "óÿ": 920,
      "ñÿ": 921,
      "f": 922,
      "+\u0000": 923,
      "üÿÿ": 924,
      "k\u0000": 925,
      "ã\u0003": 926,
      "A_": 927,
      " \u0000\u0000\u0000": 928,
      "\u0000H": 929,
      "\u0001\u000f": 930,
      "óS\u0001©": 931,
      "ö": 932,
      "Îè": 933,
      "\u0000À": 934,
      "HI": 935,
      "\u000f¯": 936,
      "èÿ": 937,
      "am": 938,
      "\u0000\u0002\u0000": 939,
      "îÿ": 940,
      "òÿ": 941,
      "H3": 942,
      "ic": 943,
      "\u0004\u0000": 944,
      "w\u0000": 945,
      "\u0001": 946,
      "G\u0000": 947,
      "!\u0000\u0000\u0000": 948,
      "E3À": 949,
      "A\u000f(": 950,
      "\u0004\u0001": 951,
      "\u0000\u0000": 952,
      "AW": 953,
      "Ìè": 954,
      "[\u0000": 955,
      "U\u0000": 956,
      "@\u0001\u0000\u0000\u0000": 957,
      "ÓÔ": 958,
      "@\b": 959,
      "¹": 960,
      "à\u0003\u0015ª": 961,
      "A\u000b": 962,
      "IÁ": 963,
      "ba": 964,
      "H9": 965,
      "\u0007\u0000\u0000\u0000": 966,
      "@": 967,
      "\u0006\u0006": 968,
      "\u0002\u0003": 969,
      "B\u000e": 970,
      "Á¨": 971,
      "ì": 972,
      "\u0000\u0010": 973,
      " \n\u0005": 974,
      "\b\u0000\u0000\u0000\u0000\u0000\u0000\u0000": 975,
      "A": 976,
      "Ã@": 977,
      "ÿÃ": 978,
      "ùùùù": 979,
      "ÿ\u000f": 980,
      "\bè": 981,
      "\\\u0000": 982,
      "å": 983,
      "\u0001\u0006": 984,
      "\u0002 ": 985,
      "\u000e\u0000\u0000": 986,
      "": 987,
      "ýý": 988,
      "\u0013@": 989,
      "bñ": 990,
      "@S": 991,
      "Ò": 992,
      "j\u0001": 993,
      "C©": 994,
      "À": 995,
      "\u0010H": 996,
      "¤$": 997,
      ": ": 998,
      "àÿ": 999,
      "íÿ": 1000,
      "\u0003ÿ": 1001,
      "\" \u000f\bÀ": 1002,
      "\u0002\u0005": 1003,
      "\u0000\b": 1004,
      "Iÿ": 1005,
      "un": 1006,
      "\u0001\u0000@ù": 1007,
      "3ÿ": 1008,
      "ÿÿT": 1009,
      "\u0000": 1010,
      "HÉt": 1011,
      "AU": 1012,
      "\u0002\u0000\u0002\u0000": 1013,
      "\u0002@ù": 1014,
      "\u0014\u0000\u000e": 1015,
      "ìÿ": 1016,
      "Q\u0000": 1017,
      "L\u0003": 1018,
      "\u0000\u0001ë": 1019,
      "Y\u0000": 1020,
      "|\u0011": 1021,
      "\f\u0000\u0000\u0000": 1022,
      "É": 1023,
      "ú\u0000": 1024,
      "\u000fÆ": 1025,
      "\u00020": 1026,
      "\f": 1027,
      "se": 1028,
      "10": 1029,
      "\u0000": 1030,
      "\f\f": 1031,
      "éÿ": 1032,
      "ë\u0003": 1033,
      "M": 1034,
      "\u0000\u0003": 1035,
      "\u0000\u0000H": 1036,
      ", ": 1037,
      "\u0001": 1038,
      "\u001aª": 1039,
      "ó\u000fX": 1040,
      "ü\u0000": 1041,
      "\u000f": 1042,
      "ë\u0002": 1043,
      "æÿ": 1044,
      "A\u000f\u0010": 1045,
      "\u0006\u0001": 1046,
      "\u0000ðFù": 1047,
      "À\u0000\u0000\u0000": 1048,
      "îî": 1049,
      "L;": 1050,
      "I\u0003": 1051,
      "dddd": 1052,
      "": 1053,
      "\u0003©": 1054,
      "áÿ": 1055,
      "ëÿ": 1056,
      "L\r": 1057,
      "þÿ\u0017": 1058,
      "ûs": 1059,
      "à": 1060,
      "ý{Á¨": 1061,
      "@ ": 1062,
      "\t\u0000\u0000\u0000": 1063,
      "ÿÿ": 1064,
      "\f\u0002": 1065,
      "¿©": 1066,
      "HÀ": 1067,
      "$ ": 1068,
      "\u0019ª": 1069,
      "\b\u0001": 1070,
      "\u0000\u0000H": 1071,
      "ÆE": 1072,
      "{\u0010": 1073,
      "b\u0001": 1074,
      "In": 1075,
      "ÿt": 1076,
      "\u0005\u0004": 1077,
      "": 1078,
      "A]": 1079,
      "°\u0000\u0000\u0000": 1080,
      "E\u000fX": 1081,
      "HU": 1082,
      "@\u0010": 1083,
      "co": 1084,
      "\f": 1085,
      "çÿ": 1086,
      "ing": 1087,
      "E\u000f(": 1088,
      "%ÿ": 1089,
      "a\u0000\u0000\u0000": 1090,
      "\u0000\u0001\u0000\u0000": 1091,
      " ": 1092,
      "\t\t": 1093,
      "\u0010è": 1094,
      "Ëÿ": 1095,
      "A": 1096,
      "õ[B©": 1097,
      "D$ ": 1098,
      "©ÿ": 1099,
      "]\u0000": 1100,
      "ø\u0000": 1101,
      "\u000f": 1102,
      "\u0007\u0007": 1103,
      "D": 1104,
      "Ç\u0000": 1105,
      "\bÿ": 1106,
      "D\u000f\u0011": 1107,
      "\u0004\u0003": 1108,
      "HT$": 1109,
      "\u001a": 1110,
      "`\u0001": 1111,
      "__": 1112,
      "åÿ": 1113,
      "|\u0010": 1114,
      "\u0002": 1115,
      "êÿ": 1116,
      "ù": 1117,
      "D\u000fX": 1118,
      "\u0002\u0010": 1119,
      "(ÿ": 1120,
      "\u0003\u0000T": 1121,
      "þO": 1122,
      " \u0000\u0000": 1123,
      "@H": 1124,
      "%s": 1125,
      "\u0001\u0000\u0000\u0000\u0000\u0000\u0000\u0000": 1126,
      "`\u0000\u0000": 1127,
      "\u0013@Ñ": 1128,
      "\u0010\u0000\u0000\u0000\u0000\u0000": 1129,
      "\u0004$": 1130,
      "ac": 1131,
      "\u000f\\": 1132,
      "0\u0000\u0000\u0000": 1133,
      "¨ÿ": 1134,
      "Èÿ": 1135,
      "âÿ": 1136,
      "\u000f\u0000\u0000\u0000": 1137,
      "V\u0000": 1138,
      "si": 1139,
      " \u0000R": 1140,
      "V1": 1141,
      "ÿÿH": 1142,
      "üü": 1143,
      "D$0": 1144,
      "\u0005ÿ": 1145,
      "À\u0001": 1146,
      "\u0000\u0000\u0000\u0000\u0001\u0000\u0000\u0000": 1147,
      "C": 1148,
      "as": 1149,
      "\u0013*": 1150,
      "þÿT": 1151,
      "$0": 1152,
      ",,": 1153,
      "\u0004ÿ": 1154,
      "à\u0003\u0016ª": 1155,
      "\u000b@ù": 1156,
      "à\u0007": 1157,
      "\u0000\u0000\u0000": 1158,
      "¸\u0000": 1159,
      "\u000f": 1160,
      "PP": 1161,
      "À\u000f": 1162,
      "±\u0000": 1163,
      "\u0002ÿ": 1164,
      "Û": 1165,
      "\u0002\u0000Ò": 1166,
      "ý{¿©": 1167,
      " ": 1168,
      "\u000f/": 1169,
      "ø\u0003": 1170,
      "@8": 1171,
      "ec": 1172,
      "it": 1173,
      "\u0004@": 1174,
      " ": 1175,
      "": 1176,
      "â#": 1177,
      "\u0000\u0000\u0000\u0000\u0000": 1178,
      "\u0000t": 1179,
      "äÿ": 1180,
      "Pÿ": 1181,
      "        ": 1182,
      "\u0001\b": 1183,
      "­\u0000": 1184,
      "H¸": 1185,
      "$ÿ": 1186,
      "\u0005è": 1187,
      "\u0000\u0001\u0000": 1188,
      "Àÿ": 1189,
      " t": 1190,
      "\u0001H": 1191,
      "z\u0000": 1192,
      "\u0014\u0000\u0000\u0000": 1193,
      "\u0004\u0002": 1194,
      "\u0004\u0000\u0000\u0000\u0000": 1195,
      " ": 1196,
      "}\u0000": 1197,
      "|\u0000": 1198,
      "y": 1199,
      "A\u000fY": 1200,
      "HÁ": 1201,
      "¤ÿ": 1202,
      "à~": 1203,
      "xD": 1204,
      "à\u0001": 1205,
      "D\u000f)": 1206,
      "M": 1207,
      "E3É": 1208,
      "Hì": 1209,
      "\u0011\u0000\u0000": 1210,
      "ý\u0000": 1211,
      "Á": 1212,
      "WHì": 1213,
      "ø\u0001": 1214,
      "q\u0000": 1215,
      "\b\u0010": 1216,
      "\u0006\u0003U": 1217,
      "\u0007ÿ": 1218,
      "bò": 1219,
      "Ht$": 1220,
      "\u0001\u0001\u0001\u0001": 1221,
      "þ\u0000": 1222,
      "ll": 1223,
      "Z\u0000": 1224,
      "ô\u0003\u0000ª": 1225,
      "\u0010H": 1226,
      "ãÿ": 1227,
      " ÿ": 1228,
      "À\u0000\u0000": 1229,
      "Hß": 1230,
      "J\u0000": 1231,
      "p\u0001": 1232,
      "\u000f®": 1233,
      "\u0018H": 1234,
      " Ò": 1235,
      "es": 1236,
      "no": 1237,
      "\u0000\u0000\u0000\u0000\u0000": 1238,
      "\u0005\u0003": 1239,
      "\u001bª": 1240,
      "Áà": 1241,
      "a\u0000\u0004\u0000": 1242,
      "¥ÿ": 1243,
      "ch": 1244,
      "\u0002": 1245,
      "\u0000\u0000\u0000é": 1246,
      "a\u0002": 1247,
      "$@": 1248,
      "\u0000": 1249,
      "ÿC": 1250,
      "ò\u000f\u0011": 1251,
      "A\b": 1252,
      "Â¨": 1253,
      "D©": 1254,
      "HË": 1255,
      "ò": 1256,
      "H=": 1257,
      " F": 1258,
      "?\u0000\u0000\u0000": 1259,
      "\u0000\u0000\u0001\u0000": 1260,
      "Åü": 1261,
      "ÕÖ": 1262,
      "ÿ": 1263,
      "Äâ": 1264,
      "HËè": 1265,
      "0\u0001": 1266,
      "Ð;": 1267,
      "Áÿ": 1268,
      "": 1269,
      " H": 1270,
      " ÿ": 1271,
      "\u001f \u0003Õ\u001f \u0003Õ": 1272,
      "\b\b": 1273,
      "\u000fWÀ": 1274,
      "HÂ": 1275,
      "¦ÿ": 1276,
      "§ÿ": 1277,
      "b¡": 1278,
      "Æÿ": 1279,
      "ü\u0003": 1280,
      "3Û": 1281,
      "\n\u0000\u0000\u0000": 1282,
      "--": 1283,
      "\u0010r": 1284,
      "\u0002ë": 1285,
      "\u0001\u0003": 1286,
      "\u0006ÿ": 1287,
      "tion": 1288,
      "\u0000\u0000\u0000": 1289,
      "ú": 1290,
      "1ÿ": 1291,
      "Îÿ": 1292,
      "@": 1293,
      ")ÿ": 1294,
      "\u0000": 1295,
      "33": 1296,
      "\n\u0002": 1297,
      "¬ÿ": 1298,
      "þÿ": 1299,
      "á\u0003\u0013ª": 1300,
      "": 1301,
      "\u0001": 1302,
      "\u0002": 1303,
      "Ñÿ": 1304,
      "C\b": 1305,
      "di": 1306,
      "ûÿÿ": 1307,
      "ma": 1308,
      "\u0000`": 1309,
      "\u001c\u0000\u0012": 1310,
      "\u0004©": 1311,
      "Ð\u0000\u0000\u0000": 1312,
      "#ÿ": 1313,
      "\u0000\u0000\b": 1314,
      "à\u0000\u0000\u0000": 1315,
      "Þÿ": 1316,
      "Ðÿ": 1317,
      "u": 1318,
      "D$": 1319,
      "HÀt": 1320,
      "\u0002t": 1321,
      "12": 1322,
      "ÌÌÌÌÌ": 1323,
      "o\u0000o\u0000": 1324,
      "ßÿ": 1325,
      " A": 1326,
      "U": 1327,
      " f": 1328,
      "\u0000\u000f": 1329,
      "bá": 1330,
      "=": 1331,
      "F": 1332,
      "@\u0000R": 1333,
      "ð\u000f": 1334,
      "HM": 1335,
      "ri": 1336,
      "\u0007\u0001": 1337,
      "x\u0010": 1338,
      "\u000e\u000e": 1339,
      "\u0018H": 1340,
      "ÌÌÌÌÌÌÌ": 1341,
      "\u0002": 1342,
      "ûû": 1343,
      "!ð": 1344,
      "\u0014\u0000\u0000": 1345,
      "nvnv": 1346,
      ";È": 1347,
      "þ\u0001": 1348,
      "\u0004\u0010": 1349,
      "Éÿ": 1350,
      " \u0001": 1351,
      "H\u0001": 1352,
      "P\u0001": 1353,
      ",0": 1354,
      "\fÿ": 1355,
      "ªÿ": 1356,
      "ü\u0001": 1357,
      "\u0006\u0004": 1358,
      "br": 1359,
      "\u0000\u0000\u0002": 1360,
      "C\u0010": 1361,
      "ä\u0003": 1362,
      "Âÿ": 1363,
      ",ÿ": 1364,
      "õ[\u0002©": 1365,
      "\u0000": 1366,
      "\u0000\u0000\u0002\u0000": 1367,
      "fE\u000f": 1368,
      "H÷": 1369,
      "¿#\u0003ÕÀ\u0003_Ö": 1370,
      "&ÿ": 1371,
      " \u0001\u0000": 1372,
      "\u000fº": 1373,
      "\u0000\u0000\u0000\u0000\u0000\u0002\u0000": 1374,
      "\u0000": 1375,
      "": 1376,
      "ex": 1377,
      "{D": 1378,
      "ýþ": 1379,
      "¡ÿ": 1380,
      "Åÿ": 1381,
      "Úÿ": 1382,
      "\u000b\u0000\u0000\u0000": 1383,
      "\u0000\u0000Ò": 1384,
      "3ö": 1385,
      "\u000f\u001f@\u0000": 1386,
      "\u0006@ù": 1387,
      "ù\u0000": 1388,
      "\n\u0004": 1389,
      "\u0014*": 1390,
      "f\u000f\u001f": 1391,
      "!ÿ": 1392,
      "Hø": 1393,
      "\u0018ÿ": 1394,
      "Êÿ": 1395,
      "$\u0003Õ": 1396,
      "@\u0002": 1397,
      "$\u0000\u0000": 1398,
      "Á": 1399,
      "E": 1400,
      "\b": 1401,
      "Åú": 1402,
      "`\n": 1403,
      "@y": 1404,
      "Ýÿ": 1405,
      "HÒ": 1406,
      "Øÿ": 1407,
      ")": 1408,
      "\u0014": 1409,
      "A\u0010": 1410,
      "\u0005": 1411,
      "Àt": 1412,
      "ð\u0000\u0000\u0000": 1413,
      "\t\u0004": 1414,
      "*ÿ": 1415,
      "¥\u0000": 1416,
      "G": 1417,
      "\fp": 1418,
      "þ÷": 1419,
      "ð\u0001": 1420,
      "Ûÿ": 1421,
      "D;": 1422,
      "A;": 1423,
      "\"\u0005": 1424,
      "\u0000\u0000?": 1425,
      "'ÿ": 1426,
      "Ø\u0000": 1427,
      " \u0000\u0001\u0000": 1428,
      "¢ÿ": 1429,
      "Üÿ": 1430,
      "á\u0003\u0014ª": 1431,
      "È": 1432,
      "A": 1433,
      "\u0013@ù": 1434,
      "2À": 1435,
      "\f\u0001": 1436,
      "\t\u0005": 1437,
      "M\u0003": 1438,
      "@è": 1439,
      "0è": 1440,
      "×ÿ": 1441,
      "\u0000": 1442,
      "üþ": 1443,
      "\u0013\u0000\u0000": 1444,
      "ïîî": 1445,
      "\"ÿ": 1446,
      "ø": 1447,
      "Ùÿ": 1448,
      "\n\n": 1449,
      "HÛ": 1450,
      "Tÿ": 1451,
      "fD\u000f": 1452,
      "": 1453,
      "\u0004": 1454,
      "jÿ": 1455,
      "¾©": 1456,
      "\u0004\u0000\u0004\u0000": 1457,
      "HL$": 1458,
      "mp": 1459,
      " \u0003": 1460,
      "\bu": 1461,
      "Äb": 1462,
      " \u0004": 1463,
      "|@": 1464,
      "è": 1465,
      "À\u0002": 1466,
      "£ÿ": 1467,
      "°ÿ": 1468,
      "H\u0005": 1469,
      "HÉ": 1470,
      "Öÿ": 1471,
      "!\u0000\u0000": 1472,
      "«ÿ": 1473,
      "\u0014ÿ": 1474,
      "\u0012\u0000\u0000": 1475,
      "­ÿ": 1476,
      "À": 1477,
      "\u0005\u0002": 1478,
      "\n": 1479,
      "Ïq": 1480,
      "Íÿ": 1481,
      "\nÞÝ": 1482,
      "ÿ": 1483,
      "il": 1484,
      "(\u0000\u0000\u0000": 1485,
      "^\u0000": 1486,
      "\u0001\u0000\u0000\u0000\u0000\u0000\u0000": 1487,
      "\u0001\u0000R": 1488,
      "0ÿ": 1489,
      "Ð;Õ": 1490,
      "F": 1491,
      "ad": 1492,
      "op": 1493,
      "A\u0001": 1494,
      "à": 1495,
      "ó\u000f\\": 1496,
      "\u0004\b": 1497,
      "Òÿ": 1498,
      "\u000e\u0010": 1499,
      "¨\u0000\u0000\u0000": 1500,
      "\u0011ÿ": 1501,
      "\u0010\u0010\u0010\u0010": 1502,
      "Ét": 1503,
      "\u0001\u0000\u0000H": 1504,
      "à\u0002": 1505,
      "\u0000": 1506,
      "\u0005\u0006": 1507,
      "û\u0000": 1508,
      "òE\u000f": 1509,
      "\u0000\u0000\u0000\u0000!\u0001": 1510,
      "\tÿ": 1511,
      "US": 1512,
      "\u001cÿ": 1513,
      "H5": 1514,
      "\u000f": 1515,
      "G": 1516,
      "Õÿ": 1517,
      "+ÿ": 1518,
      "H": 1519,
      "\u001dÿ": 1520,
      "ab": 1521,
      "@\u0003": 1522,
      "Àt": 1523,
      "®\u0000": 1524,
      "\u0000": 1525,
      "Óÿ": 1526,
      "\u0010\u0002": 1527,
      "f": 1528,
      "á": 1529,
      "¯ÿ": 1530,
      "óE\u000f": 1531,
      "Ôÿ": 1532,
      "\u0001è": 1533,
      "f\u000fo": 1534,
      "B\u0000\u0000": 1535,
      "V2": 1536,
      "\u000b\u0000ù": 1537,
      "\u000bÿ": 1538,
      "\u0014\u0001": 1539,
      "//": 1540,
      "Ìÿ": 1541,
      "óD\u000f": 1542,
      "Á\u0000": 1543,
      "D9": 1544,
      "ý\u0001": 1545,
      "à\u0003\u0017ª": 1546,
      "\u001eÿ": 1547,
      "\u0001": 1548,
      "A_A^": 1549,
      "\u0012ÿ": 1550,
      "L9": 1551,
      "àxàx": 1552,
      "E ": 1553,
      "Ã¨": 1554,
      "\u0006\u0000": 1555,
      "ÓÔ\u000e\u0000": 1556,
      "\nÿ": 1557,
      "up": 1558,
      "$\u0003Õ": 1559,
      "I+": 1560,
      "û\u0001": 1561,
      "AVAW": 1562,
      "\u0000\u0000H": 1563,
      "\u0004 ": 1564,
      "\u001c\u0000\u0000\u0000": 1565,
      "à\u0000\u0000": 1566,
      "\u0012\u0000\u0000\u0000": 1567,
      "ë\u0005": 1568,
      "ÿÿÿ\u0000": 1569,
      "D": 1570,
      "32": 1571,
      "@ÿ": 1572,
      "ý{Â¨": 1573,
      "ÃA": 1574,
      "4\u0000\u0014\u0000\u000e": 1575,
      "\u0004\u0000T": 1576,
      "Re": 1577,
      "\u0002": 1578,
      "ç\u0000": 1579,
      "\u001fÿ": 1580,
      "ûþ": 1581,
      "bâ": 1582,
      "À\u000f": 1583,
      "ïè": 1584,
      "ut": 1585,
      "\u0000A\u000e": 1586,
      "Íè": 1587,
      "ô\u0000": 1588,
      "\u0000\u0000\u0000\u0001": 1589,
      "\u0000": 1590,
      "ÌÌÌÌÌÌ": 1591,
      "\u0007\u0000ù": 1592,
      "úþ": 1593,
      "|H(": 1594,
      "¿ÿ": 1595,
      "A": 1596,
      "\u001f\u0000\u0000q": 1597,
      "\u0000\u0000\u0000": 1598,
      "@©": 1599,
      "H\u0001": 1600,
      "}\u0019": 1601,
      "\rÿ": 1602,
      "@X": 1603,
      "\u000f\u001f\u0000\u0000\u0000\u0000\u0000": 1604,
      "à\u000f": 1605,
      "\u0000": 1606,
      "\u0007@ù": 1607,
      "è\u0000": 1608,
      "Ê ": 1609,
      "¡\u0000": 1610,
      "HL$": 1611,
      "\u0003\u0002ª": 1612,
      "\u0010\u0004": 1613,
      "!\u0000R": 1614,
      "ÿ": 1615,
      "Çÿ": 1616,
      "\u0003\u0005": 1617,
      "16": 1618,
      "ÿ": 1619,
      "\u0015*": 1620,
      "®ÿ": 1621,
      "é": 1622,
      "B\u0001": 1623,
      "oo": 1624,
      "HE": 1625,
      "á\u0003\u0000ª": 1626,
      "\u0007\b": 1627,
      "HÄ0": 1628,
      "L+": 1629,
      "\r\r": 1630,
      "\u0002": 1631,
      "Åû": 1632,
      "ÃÌÌÌ": 1633,
      "ÿ": 1634,
      "-ÿ": 1635,
      "\u000fD": 1636,
      "½\u0000": 1637,
      "\f\u0004": 1638,
      "¸ÿ": 1639,
      "Ã": 1640,
      "A\u0003": 1641,
      "ÿ": 1642,
      "¨\u0001t": 1643,
      "Äã": 1644,
      "A\u0004": 1645,
      "\u0002\u0000ù": 1646,
      "bb": 1647,
      "\u0000": 1648,
      "\u0016ÿ": 1649,
      "$\u0010": 1650,
      "A\u000fX": 1651,
      "Ï": 1652,
      "\u000f\u001f": 1653,
      "\u0004\u0002\u0000": 1654,
      "\u000eÿ": 1655,
      "HÄ": 1656,
      "`\u0003": 1657,
      "\u0004\n": 1658,
      "HÏè": 1659,
      "¶ÿ": 1660,
      "\u000fÿ": 1661,
      "@H": 1662,
      "H": 1663,
      "}": 1664,
      "h ": 1665,
      "H$": 1666,
      "\u0017\u0017": 1667,
      "è:": 1668,
      "Äÿ": 1669,
      "HÙ": 1670,
      "\u0000 ": 1671,
      "$(": 1672,
      "<": 1673,
      "üý": 1674,
      "Æ": 1675,
      "Ç\u0005": 1676,
      "a\u0000\u0003\u0000": 1677,
      "\u0018\u0000\u0000\u0000": 1678,
      "ºÿ": 1679,
      "\t\u0001": 1680,
      "y ": 1681,
      "\u0017\u0000\u0000\u0000": 1682,
      "ÿ": 1683,
      "\"": 1684,
      "\u0006\b": 1685,
      "øþ": 1686,
      "\u000f®è": 1687,
      "tr": 1688,
      "\u0002\b": 1689,
      "¤\u0000": 1690,
      "\u0004\u0000\u0011": 1691,
      "¾ÿ": 1692,
      "HE": 1693,
      "Vè": 1694,
      "\u0001": 1695,
      "\u0010\u0005": 1696,
      "ú\u0003": 1697,
      "B\u0000\u0001ë": 1698,
      "\u001bÿ": 1699,
      "À\u0004": 1700,
      "à\u0004": 1701,
      "ð?": 1702,
      "½ÿ": 1703,
      "0H": 1704,
      "¼ÿ": 1705,
      "(F": 1706,
      "/ÿ": 1707,
      "ªª": 1708,
      "@\u0001\u0000\u0000": 1709,
      "@\u0000": 1710,
      "us": 1711,
      "\u0013ÿ": 1712,
      "\u0014": 1713,
      "\u0018è": 1714,
      "ßø": 1715,
      "\u0000\u0000": 1716,
      "P\u0005\u0005": 1717,
      "`\u0006\u0000": 1718,
      "\u0003": 1719,
      "¸\u0000\u0000\u0000": 1720,
      "\u0005©": 1721,
      "\u0002\u0000¹": 1722,
      "ÿ": 1723,
      "ø\u0002": 1724,
      "Xÿ": 1725,
      "pÿ": 1726,
      "\u001aÿ": 1727,
      "_^[": 1728,
      "H\u0010": 1729,
      "Aù": 1730,
      "úú": 1731,
      "\u000fE": 1732,
      "Â\u0000": 1733,
      "\u0005": 1734,
      "\u001cª": 1735,
      "¨\u0000": 1736,
      "Ç": 1737,
      "\u001e": 1738,
      "üõ": 1739,
      "º\u0000": 1740,
      "{ÿ": 1741,
      "\u0000\u0000\u001e": 1742,
      "02": 1743,
      "\u0000\u0000é": 1744,
      "\r\u0000\u0000\u0000": 1745,
      "à\u0017": 1746,
      "B": 1747,
      "Åù": 1748,
      "\u0003": 1749,
      "\u0005": 1750,
      "á\u0003\u0015ª": 1751,
      "H$": 1752,
      "$\u0018": 1753,
      "\u0002\u0000\u0000\u0000\u0000": 1754,
      "ÿ": 1755,
      "HK": 1756,
      "ò\u0000": 1757,
      "Dÿ": 1758,
      "´ÿ": 1759,
      "= ": 1760,
      "L$": 1761,
      "úÿÿ": 1762,
      "E©": 1763,
      "\"\u0001\u0000": 1764,
      "~\u0000": 1765,
      "\u0019ÿ": 1766,
      "\u0004\u0006": 1767,
      "÷cC©": 1768,
      "i\u0000n\u0000": 1769,
      "\u0000\u0000\u0000\u0001\u0000\u0000\u0000": 1770,
      "×Ø": 1771,
      "\u0017ÿ": 1772,
      "\n\u0001": 1773,
      "\u00062": 1774,
      "§\u0000": 1775,
      "\u0003\u0000\u0000\u0000\u0000": 1776,
      "{\u0000": 1777,
      "\u0000": 1778,
      "±ÿ": 1779,
      "\u0001@": 1780,
      "}": 1781,
      "\u0003\u0000ù": 1782,
      " \u0001\u0000\u0000": 1783,
      "õ\u0000": 1784,
      "ve": 1785,
      "Ä¡": 1786,
      "Bÿ": 1787,
      "yD": 1788,
      "ÃÌ": 1789,
      "ÿ": 1790,
      "»ÿ": 1791,
      "A\u0000\u0000": 1792,
      "\u0000\u0000": 1793,
      "ù\u0001": 1794,
      "!": 1795,
      "Áé": 1796,
      "ú\u0001": 1797,
      "ú": 1798,
      "\u0015ÿ": 1799,
      "\u0002@": 1800,
      "li": 1801,
      "H": 1802,
      "A\u0000\u0000\u0000": 1803,
      "çè": 1804,
      "P\u0000\u0000": 1805,
      "@\u0018": 1806,
      "µÿ": 1807,
      "\u0000\u0000\u0000\u0000\u0000\u0000\u0002\u0000": 1808,
      "¿\u0000": 1809,
      "\u0006\n": 1810,
      "\r": 1811,
      "\u0005\u0000": 1812,
      "÷÷": 1813,
      "\u0000\u0000\u0000\u0000\u0002\u0000": 1814,
      "Â": 1815,
      "Ãÿ": 1816,
      "\u0001": 1817,
      "\u0016\u0000\u0000": 1818,
      "cÿ": 1819,
      "û\u0003": 1820,
      "ùþ": 1821,
      "`ÿ": 1822,
      "Hì(": 1823,
      "ø7": 1824,
      "È\u0000\u0000\u0000": 1825,
      "ÿ": 1826,
      "\u001f\u0004\u0000q": 1827,
      "\b": 1828,
      "D$@": 1829,
      "Vÿ": 1830,
      "Ñ\u0000": 1831,
      "|$ ": 1832,
      "ø\u0004": 1833,
      "ûý": 1834,
      "Yÿ": 1835,
      "\u0012": 1836,
      "þ": 1837,
      "¢\u0000": 1838,
      "\\ÿ": 1839,
      "B\b": 1840,
      "À\u000f": 1841,
      "f\u000f": 1842,
      "\u0002u": 1843,
      "Ø": 1844,
      "\u0003ð": 1845,
      "²ÿ": 1846,
      "ÿ": 1847,
      "\u0007\u0004": 1848,
      "\u0015\u0000\u0000": 1849,
      "ñ\u0000": 1850,
      "F\u0000\u0000\u0000\u0000\u0000": 1851,
      "\u0011\u0001": 1852,
      "H": 1853,
      "L$": 1854,
      "`": 1855,
      "ø": 1856,
      "\u0001": 1857,
      "8H": 1858,
      "à#": 1859,
      "\u0010": 1860,
      "ÿ": 1861,
      "\u0002\u0002\u0002\u0002": 1862,
      "0\u0000\u0000": 1863,
      "\u0002": 1864,
      "È\u0000": 1865,
      "¹\u0000": 1866,
      "Qÿ": 1867,
      "Åþ": 1868,
      "to": 1869,
      "=ÿ": 1870,
      "ÿ": 1871,
      ".ÿ": 1872,
      "!\u0005": 1873,
      "M;": 1874,
      "Åx\u0011": 1875,
      "ôW": 1876,
      "ÿ": 1877,
      " C": 1878,
      "\u0018\u0001": 1879,
      "\b\u0004": 1880,
      "\u0001\u0000\u0000è": 1881,
      "ý÷": 1882,
      "ýÿ": 1883,
      "ý{Ã¨": 1884,
      "\u0001\u0000 \u0000": 1885,
      "$\u0000\u0000\u0000": 1886,
      "xÿ": 1887,
      "D\u000f¶": 1888,
      "\u0000": 1889,
      "\u000f": 1890,
      "¹ÿ": 1891,
      "\u0003\u0010": 1892,
      "ò\u000fY": 1893,
      "â\u000f": 1894,
      "me": 1895,
      "}H\u0018": 1896,
      "$P": 1897,
      "\u0003": 1898,
      " \u0013@Ñ": 1899,
      "RE": 1900,
      "2ÿ": 1901,
      "ÿ": 1902,
      "é\u0000": 1903,
      "  \u000f\bÀ": 1904,
      "?ÿ": 1905,
      "ó\u0003": 1906,
      "\u0004r": 1907,
      "\u0000\u0000ë": 1908,
      "Æ\u0000": 1909,
      "\r\u0001": 1910,
      "\u001d": 1911,
      "H$": 1912,
      "$": 1913,
      "øø": 1914,
      "4ÿ": 1915,
      "`\u0000\u0000\u0000": 1916,
      "·ÿ": 1917,
      "x\u0011": 1918,
      "\u0013ò": 1919,
      "\u0019\u0000\u0000": 1920,
      "pe": 1921,
      "B\u0010": 1922,
      "\u0019": 1923,
      "³ÿ": 1924,
      "\u0000": 1925,
      "\u000e\u0000\u0000\u0000": 1926,
      "ð": 1927,
      "\u0001\n": 1928,
      "ô\u0003": 1929,
      "ù\u0003": 1930,
      "ý{¾©": 1931,
      "¡@": 1932,
      "ÍÌ": 1933,
      "Eÿ": 1934,
      "8ÿ": 1935,
      "]": 1936,
      "\u0018\u0000\u0000": 1937,
      "ID": 1938,
      "ÄB": 1939,
      "à\u0003\u0013*": 1940,
      "\bt": 1941,
      "HÄ(": 1942,
      "ö\u0000": 1943,
      "t$ ": 1944,
      "\u0000H;": 1945,
      "**": 1946,
      "ó\u000f": 1947,
      "\u000b\u0001": 1948,
      "H\f": 1949,
      "Ë": 1950,
      "¨\u0001": 1951,
      "\u0012\u0001": 1952,
      "©p": 1953,
      "\u0018H": 1954,
      "bA": 1955,
      "\u0000\u0000@": 1956,
      "Wÿ": 1957,
      "ó\u0003\u0000*": 1958,
      "\u0000\u0000\u0000\u0000A\u000e": 1959,
      "\u0002þ": 1960,
      "Â": 1961,
      " \u0003": 1962,
      "n\u0000t\u0000": 1963,
      "½©": 1964,
      "\u0001\u0000\u0001": 1965,
      "F\b": 1966,
      "HÏ": 1967,
      "ýÿT": 1968,
      "s\u0000.\u0000": 1969,
      "ý\u0003\u0000óS\u0001©": 1970,
      "u\u0007": 1971,
      "IN": 1972,
      "\u0010@": 1973,
      "\u0004\u0005": 1974,
      "Ð": 1975,
      "Lc": 1976,
      "\u0004": 1977,
      "ÿ": 1978,
      "\u0000": 1979,
      "[ÿ": 1980,
      "<ÿ": 1981,
      "``": 1982,
      "í\u0000": 1983,
      "\u0013\u0001": 1984,
      "èè": 1985,
      "::": 1986,
      "ÿ": 1987,
      "A\u000f¶": 1988,
      "E": 1989,
      "A9": 1990,
      "úý": 1991,
      "òA\u000f": 1992,
      "\u0006\u0002": 1993,
      "ë\u0007": 1994,
      "M": 1995,
      "ÿ": 1996,
      "hÿ": 1997,
      "\u0000": 1998,
      "Ic": 1999,
      "bQ": 2000,
      "¿\u0000\u0000": 2001,
      "\u0010": 2002,
      "\u0011\u0002": 2003,
      "\u000b\u000b": 2004,
      "D\u0001": 2005,
      "\b\u0000\b\u0000": 2006,
      "\u0000": 2007,
      "à\u0003\u0018ª": 2008,
      "b!": 2009,
      "ÿ": 2010,
      "oÿ": 2011,
      "÷\u0000": 2012,
      "ÿ": 2013,
      ">ÿ": 2014,
      "\u0000\u0000´": 2015,
      "]ù": 2016,
      "\u0004%": 2017,
      "¦\u0000": 2018,
      "\fè": 2019,
      "ÿ": 2020,
      "ÿ": 2021,
      "ÄÂ": 2022,
      "å]Â": 2023,
      "u": 2024,
      "\u000f": 2025,
      "Sÿ": 2026,
      "\u0007\u0002": 2027,
      "H|$": 2028,
      "Åx\u0010": 2029,
      ">â#": 2030,
      "e\u0000r\u0000": 2031,
      ",\u0000\u0000\u0000": 2032,
      ";ÿ": 2033,
      "U": 2034,
      "$\u0001": 2035,
      "\u0005\u0000T": 2036,
      "\b\u0006": 2037,
      "Àè": 2038,
      "£\u0000": 2039,
      "Mÿ": 2040,
      "ge": 2041,
      "\u0000\u0002\u0000\u0000": 2042,
      "öþ": 2043,
      "ÿ": 2044,
      "p\u0004": 2045,
      "\u0010\u0001\u0000\u0000": 2046,
      "\u0001\u0000@\u0000": 2047,
      "(K": 2048,
      "å\u0000": 2049,
      "ÿ": 2050,
      "11": 2051,
      "$x": 2052,
      "ôþ": 2053,
      "P\u0010": 2054,
      "\u0000H\u0000": 2055,
      "t\u0005": 2056,
      "ýC": 2057,
      "ÿ": 2058,
      "con": 2059,
      "F\u0001": 2060,
      "\u0002H": 2061,
      "I÷": 2062,
      "\u0018": 2063,
      "t\t": 2064,
      "sh": 2065,
      "ÿ": 2066,
      "\u0000\u00004": 2067,
      "\u0000ä": 2068,
      "Fÿ": 2069,
      "\r\u0000\n\u0000": 2070,
      "\u0016\u0001": 2071,
      "+Á": 2072,
      "\u0004\u0007": 2073,
      "øý": 2074,
      "E": 2075,
      "D$(": 2076,
      "å\u0003": 2077,
      " @": 2078,
      "\u001b@ù": 2079,
      "\u0000": 2080,
      "Îè": 2081,
      "\u0000\u0000À": 2082,
      "BB": 2083,
      "\u0000\u0000\u0000\u0000\u0000\u0000\u0000\u0000\u0000\u0000\u0000\u0000\u0000\u0000\u0000": 2084,
      "Uÿ": 2085,
      "ÌÌÌÌÌÌÌÌÌÌÌÌ": 2086,
      " J": 2087,
      "\u0001\u0014": 2088,
      "\u0000": 2089,
      "\u0000\u0000\u0000@": 2090,
      "bÿ": 2091,
      "G\b": 2092,
      "Ä\u0000": 2093,
      "ÇD$ ": 2094,
      "\u0001\u0000\u0004": 2095,
      "õ\u0003\u0000ª": 2096,
      "µ\u0000": 2097,
      "ª\u0000": 2098,
      "\u0002)": 2099,
      "fÿ": 2100,
      "àþ": 2101,
      "\u0004\u000b": 2102,
      "Ý\u0000": 2103,
      "\"\u0000 ": 2104,
      "D$P": 2105,
      "á\u0000": 2106,
      "rÿ": 2107,
      " (": 2108,
      "\\$": 2109,
      "\u0001 \u0007": 2110,
      "lÿ": 2111,
      "\"\u0000@ù": 2112,
      "|ÿ": 2113,
      "3Ä": 2114,
      "aÿ": 2115,
      "Gÿ": 2116,
      "$`": 2117,
      "ur": 2118,
      "Ç$": 2119,
      ",00": 2120,
      "Rÿ": 2121,
      "Áá": 2122,
      "è\u0001": 2123,
      "9ÿ": 2124,
      "@\u0000`\u0000": 2125,
      "6ÿ": 2126,
      "\u001c\u0001": 2127,
      "0\u0002": 2128,
      "}ÿ": 2129,
      "þÿÿÿ": 2130,
      "rt": 2131,
      ",p": 2132,
      "\u0003": 2133,
      "\u0000é": 2134,
      "7ÿ": 2135,
      "~ÿ": 2136,
      "óA\u000fY": 2137,
      "! ": 2138,
      "ÿ": 2139,
      "$H": 2140,
      "B\u0004": 2141,
      "4": 2142,
      "ÇF": 2143,
      "ÇA": 2144,
      "õ\u0003": 2145,
      "wÿ": 2146,
      "ñÀ\" \u000f\bÀ": 2147,
      "Ø\u0000\u0000\u0000": 2148,
      "4\u0006\u0000": 2149,
      "Zÿ": 2150,
      "ýH": 2151,
      ".?": 2152,
      "ñþ": 2153,
      "ïþ": 2154,
      "\u0005þ": 2155,
      "\u0011\u0011": 2156,
      "\u001c": 2157,
      "|H\u0010": 2158,
      "òþ": 2159,
      "ter": 2160,
      "ÿ": 2161,
      "ÇC": 2162,
      "Lÿ": 2163,
      "ü\u0002": 2164,
      "E\b": 2165,
      "@\\": 2166,
      "$8": 2167,
      "HÄ _Ã": 2168,
      "H\u0004": 2169,
      "Ð\u0001": 2170,
      "b±": 2171,
      "V": 2172,
      "@U": 2173,
      "dÿ": 2174,
      "\u0001\u00004": 2175,
      "»\u0000": 2176,
      "\u000f\u001f\u0000": 2177,
      "\u0005\u0007": 2178,
      "5ÿ": 2179,
      "Ä\u0001": 2180,
      "f;": 2181,
      "¾\u0000": 2182,
      "!ðFù": 2183,
      "Í\u0000": 2184,
      "ap": 2185,
      "vÿ": 2186,
      "ö\u0003": 2187,
      "ðð": 2188,
      "t\n": 2189,
      "b\u0002": 2190,
      "óþ": 2191,
      "\u0000(": 2192,
      "\u0000": 2193,
      "?": 2194,
      "Jÿ": 2195,
      "\b\u0003": 2196,
      "D": 2197,
      "vm": 2198,
      "\u0013\u0000ù": 2199,
      "\u0001\u0000´": 2200,
      "ate": 2201,
      "ÿ": 2202,
      "x ": 2203,
      "K": 2204,
      "\u0002r": 2205,
      "ðþ": 2206,
      "LE": 2207,
      "\u0001Ø": 2208,
      "Ä": 2209,
      "el": 2210,
      "\u0005\u0010": 2211,
      ":ÿ": 2212,
      "u\u0005": 2213,
      "\u0004A": 2214,
      "sÿ": 2215,
      "bu": 2216,
      "õþ": 2217,
      "C": 2218,
      "E\u000fÆ": 2219,
      "ver": 2220,
      "¬\u0000": 2221,
      "]ÿ": 2222,
      "yÿ": 2223,
      "\u0000": 2224,
      "º\u0001\u0000\u0000\u0000": 2225,
      "\u000e\u0001": 2226,
      "_ÿ": 2227,
      "fi": 2228,
      "\u0002\u0000R": 2229,
      "f\u000fn": 2230,
      "1ö": 2231,
      "\b@": 2232,
      "Å\u0000": 2233,
      "L\u0001": 2234,
      "½è": 2235,
      "A ": 2236,
      "ÿ": 2237,
      "of": 2238,
      "ü÷": 2239,
      "HÁ": 2240,
      "\u0001\u0000\u0000": 2241,
      "\"\u0005\u0019": 2242,
      "\u0005 ": 2243,
      "mÿ": 2244,
      "ÙÚ": 2245,
      "\u0004F": 2246,
      "zÿ": 2247,
      "qÿ": 2248,
      "Ðþ": 2249,
      "\u000f\u0012": 2250,
      "\u000e ": 2251,
      "\u0002\u0013": 2252,
      "ùý": 2253,
      "\u0004\u0018": 2254,
      "%": 2255,
      "ä\u0000": 2256,
      "ò\u000fX": 2257,
      "?$": 2258,
      "ÃÌÌ": 2259,
      "\u0000\u0000\u0012": 2260,
      "\u0017\u0000\u0000": 2261,
      "^ÿ": 2262,
      "\u0002\u0014": 2263,
      "Kÿ": 2264,
      "iÿ": 2265,
      "T$": 2266,
      "\u0001\u0006\u0002\u0000": 2267,
      "Nÿ": 2268,
      "\\$": 2269,
      "ë\u0004": 2270,
      "\u0000": 2271,
      "à\u0005": 2272,
      "H\b": 2273,
      "nÿ": 2274,
      "0\u00000\u0000": 2275,
      "I": 2276,
      "\u0001": 2277,
      "\u0000\u0000\u0000\u0000\u0000!\u0001": 2278,
      "Åý": 2279,
      "â\u0000": 2280,
      "ó\u0000": 2281,
      "á\u0003\u0016ª": 2282,
      "\u000f\u0001": 2283,
      "Ç": 2284,
      "\u0004þ": 2285,
      "bÁ": 2286,
      "\u0007þ": 2287,
      "\u0006þ": 2288,
      "\u0000\u0000\u0000\u0000\u0000\u0000\u0000\u0000\u0000\u0000": 2289,
      "@SHì": 2290,
      "bÑ": 2291,
      "Ò\u0000": 2292,
      "\u0001": 2293,
      "x": 2294,
      "0F": 2295,
      "Ä\b": 2296,
      "kÿ": 2297,
      "j\u0002": 2298,
      "\u0000H": 2299,
      "\u0004t": 2300,
      "\u0001\u0000\u0000\u0000": 2301,
      "[]": 2302,
      "\u0001À": 2303,
      "is": 2304,
      "=\"": 2305,
      "((": 2306,
      "Oÿ": 2307,
      "AAAA": 2308,
      "H": 2309,
      "\u0007": 2310,
      "ÿÿ\u0000\u0000": 2311,
      "Ä\f": 2312,
      ">\u0000\u0000": 2313,
      "H\\$\bH": 2314,
      "íþ": 2315,
      "\u001e\u0000\u0000": 2316,
      "ÆD$": 2317,
      "1Ò": 2318,
      "P\b": 2319,
      "Ç@": 2320,
      "Ù\u0000": 2321,
      "Àu": 2322,
      "ï\u0000": 2323,
      "ÇD": 2324,
      "H3Ìè": 2325,
      "\u000f\u0010\u000f\u0010": 2326,
      "è\u0003": 2327,
      "øÿÿ": 2328,
      "\u0000": 2329,
      "\u0002\u0001": 2330,
      "`\u0004": 2331,
      "\n#": 2332,
      "\u0006\u0005": 2333,
      "ú\u0002": 2334,
      "«\u0000": 2335,
      "\u0005": 2336,
      "id": 2337,
      "\u001a0": 2338,
      "\u0016*": 2339,
      "Hù": 2340,
      "`\u0012": 2341,
      "S ": 2342,
      "0x": 2343,
      "\u0003þ": 2344,
      "ce": 2345,
      "gÿ": 2346,
      "": 2347,
      "D$`": 2348,
      "à\u0003\u001aª": 2349,
      "\u0010\u0003": 2350,
      "\u0000": 2351,
      " p": 2352,
      "eÿ": 2353,
      "\u0000\u0000\u0016": 2354,
      "ùÿÿ": 2355,
      "\u0000": 2356,
      "\u0011\u0004": 2357,
      "(è": 2358,
      "": 2359,
      "\u000f\u0011E": 2360,
      "æ\u0000": 2361,
      "UU": 2362,
      "L1": 2363,
      "ë\u0000": 2364,
      "Á\u0001": 2365,
      "À\u000f": 2366,
      "0\u0001\u0000\u0000": 2367,
      "\u0003\u0001*": 2368,
      "\u0000\u0004\u0000": 2369,
      "´\u0000": 2370,
      "óB": 2371,
      "\u0001": 2372,
      "èþ": 2373,
      "\u0000": 2374,
      "lu": 2375,
      "\u0012\u0002": 2376,
      "X\u0000\u0000\u0000\u0000\u0000": 2377,
      "Mc": 2378,
      "\u0006p": 2379,
      "t_": 2380,
      "Ã\u0000": 2381,
      "a\u0000t\u0000": 2382,
      "\u0005\b": 2383,
      "\u0017\u0001": 2384,
      "HÈ": 2385,
      "ta": 2386,
      "HX": 2387,
      "t\u0007": 2388,
      "ûü": 2389,
      "\u000f\u000f\u000f\u000f": 2390,
      "Çè": 2391,
      "ð\u0003": 2392,
      "¼\u0000": 2393,
      "\bE": 2394,
      "÷c\u0003©": 2395,
      "û\u0002": 2396,
      "th": 2397,
      "÷è": 2398,
      "\u0005\u0000Ð": 2399,
      "\u0000\u0012": 2400,
      "h`": 2401,
      "\u0004": 2402,
      "": 2403,
      "\u0002": 2404,
      "\f\u0003": 2405,
      "HT$": 2406,
      "[\u0001": 2407,
      "i\u0000o\u0000": 2408,
      "0 ": 2409,
      "à\u001f": 2410,
      "\u0001\u0000\u0000\u0000": 2411,
      "òD\u000f": 2412,
      "\u0004\u0000": 2413,
      "Cÿ": 2414,
      "Wè": 2415,
      "H": 2416,
      "\fþ": 2417,
      "\u0000\u0014\u0000\u000e": 2418,
      "©\u0000": 2419,
      "ì\u0000": 2420,
      "\u0004è": 2421,
      "!\b": 2422,
      "\u0006\t": 2423,
      "\u0001\u000b": 2424,
      "\u0007\u0003": 2425,
      "b": 2426,
      "\u0000\u0000ÿ": 2427,
      "öý": 2428,
      "È": 2429,
      "ù\u0002": 2430,
      "ôý": 2431,
      "uÿ": 2432,
      "\u0010\u0000\u0000r": 2433,
      "Hñ": 2434,
      "ïîîïîî": 2435,
      "ë\b": 2436,
      "E": 2437,
      "HÃ": 2438,
      "}": 2439,
      "\u0001\u0005": 2440,
      "D": 2441,
      "\u0004\u0000Ð": 2442,
      "\u0018\u0002": 2443,
      "loc": 2444,
      "mo": 2445,
      " \u0005": 2446,
      "éþ": 2447,
      "!@": 2448,
      "\u0005\u0000ð": 2449,
      "\u0000\u0000L": 2450,
      "HD": 2451,
      "Ä ": 2452,
      "\u0000\u0000\u0010": 2453,
      "\tþ": 2454,
      "\u0000\f": 2455,
      "à?": 2456,
      " %s": 2457,
      "64": 2458,
      "DD": 2459,
      "ul": 2460,
      "]": 2461,
      "À ": 2462,
      "\u0006\u0000ù": 2463,
      "îþ": 2464,
      "ìþ": 2465,
      "\u0002ð": 2466,
      "¸\u0001\u0000\u0000\u0000": 2467,
      "à\u0003\u0019ª": 2468,
      "øH": 2469,
      "A÷": 2470,
      "Ä\u0004": 2471,
      "ÿ": 2472,
      "\u0010\u000f": 2473,
      "\u0005\u0000°": 2474,
      "\u0010t": 2475,
      "\u0000": 2476,
      "÷\u0003": 2477,
      "20": 2478,
      "\bW": 2479,
      "D\u0003": 2480,
      "\u0001Å": 2481,
      "ß\u0000": 2482,
      "p\u0000o\u0000": 2483,
      "Ä¨": 2484,
      "Õ\u0000": 2485,
      "çþ": 2486,
      "\u0002\u000f": 2487,
      "\u0000\u0000\u0000\u0000a": 2488,
      ";Á": 2489,
      "\"\"": 2490,
      "\u0004ð": 2491,
      "âþ": 2492,
      "ôd": 2493,
      "@(": 2494,
      "\u001a\u0000\u0000": 2495,
      "h\u0001": 2496,
      "\f\u0006": 2497,
      "u\u0004": 2498,
      "AÁ": 2499,
      "0000": 2500,
      "ë\u0006": 2501,
      " \u0007": 2502,
      " \u0010": 2503,
      "f\u000fY": 2504,
      "?Ö": 2505,
      "IT": 2506,
      "#\u0001": 2507,
      "\u0007": 2508,
      "\u001f\u0004\u00001": 2509,
      "øü": 2510,
      "A": 2511,
      "ùùùùùùùù": 2512,
      "\b": 2513,
      "úü": 2514,
      "\bþ": 2515,
      "P\u0001\u0000\u0000": 2516,
      "ÿÿÿÿ\u0000\u0000\u0000\u0000": 2517,
      "HÓ": 2518,
      "8H": 2519,
      "\rþ": 2520,
      "\n\u0006": 2521,
      "Ú\u0000": 2522,
      "áþ": 2523,
      " ": 2524,
      "\u0001\u0000\u0000\u0000\u0001\u0000\u0000\u0000": 2525,
      "  ": 2526,
      "õõ": 2527,
      " s": 2528,
      "\u0000\u0000\u0000\u0002": 2529,
      "ö\u0001": 2530,
      "\u0000\u0000!\u0001": 2531,
      "um": 2532,
      "P": 2533,
      "ý{½©": 2534,
      "\t\u0002": 2535,
      "H\u0016": 2536,
      "ÃÌÌÌÌÌÌÌÌ": 2537,
      "\nþ": 2538,
      "\u0004\u0000°": 2539,
      "(\u0002": 2540,
      "\f\u0010": 2541,
      "V3": 2542,
      "ÿ\u000f\u0000\u0000": 2543,
      "A]A\\": 2544,
      "ðè": 2545,
      "pp": 2546,
      "\u0000\u0000\u0000\u0000\u0001": 2547,
      "@\u0000@\u0000": 2548,
      "óý": 2549,
      "\u0000": 2550,
      "\u0004\u000f": 2551,
      "o\u0000w\u0000": 2552,
      "H\u0003": 2553,
      "ñý": 2554,
      "\n\u0000 ": 2555,
      "@Æ": 2556,
      "tÿ": 2557,
      "": 2558,
      "ãþ": 2559,
      "\b\u0000q": 2560,
      "A\u0000R": 2561,
      "\u0000\u0000@ù": 2562,
      "æþ": 2563,
      "T$": 2564,
      "\u0004\u0011": 2565,
      "ã\u0000": 2566,
      "Ü\u0000": 2567,
      "ÄC": 2568,
      "ùü": 2569,
      "ATAU": 2570,
      "÷þ": 2571,
      "\u0000L": 2572,
      "Ht$": 2573,
      "$X": 2574,
      "`\u0001\u0000\u0000": 2575,
      "bq": 2576,
      "ðý": 2577,
      "\u000bþ": 2578,
      "Ô\u0000": 2579,
      "N": 2580,
      "\u0000\u0000\u0000\u0000\u0000\u0000\u0000\u0000\u0000\u0000\u0000\u0000\u0000": 2581,
      "@!": 2582,
      "\u0015\u0001": 2583,
      "A+": 2584,
      "\u001fD\u0000\u0000": 2585,
      "=\u0000\u0000": 2586,
      "ëþ": 2587,
      "Ì\u0000": 2588,
      "è\u0000\u0000\u0000": 2589,
      "\u0004": 2590,
      "\u0014\u0014": 2591,
      "D8": 2592,
      "\u000f\u001f\u0000": 2593,
      "â\u0003\u0000ª": 2594,
      "ê\u0000": 2595,
      "@": 2596,
      "\u0006\u0000\u0011": 2597,
      "â": 2598,
      "õý": 2599,
      "\u0003\u0000": 2600,
      "b": 2601,
      "u\n": 2602,
      "ÝÞ": 2603,
      "8è": 2604,
      "öö": 2605,
      "\"\u0000\u0000": 2606,
      "ô\u0001": 2607,
      "EE": 2608,
      "De": 2609,
      "\u000e\u0000A\u000b": 2610,
      "æ\u0003": 2611,
      " \u0001\u0000\u0000": 2612,
      "À": 2613,
      "(H": 2614,
      "ù": 2615,
      "(\u0001": 2616,
      "\b\n": 2617,
      "äþ": 2618,
      "HH": 2619,
      "ææ": 2620,
      "Hö": 2621,
      "ha": 2622,
      "!\u0004": 2623,
      "\u0000p": 2624,
      "\u0017*": 2625,
      "êþ": 2626,
      "¸\u0001": 2627,
      "à\u0006": 2628,
      "î\u0000": 2629,
      "ct": 2630,
      "\u000f": 2631,
      "|$": 2632,
      "òý": 2633,
      "H|$": 2634,
      "­Þ": 2635,
      "\r": 2636,
      "dd\u0000": 2637,
      "ÛÜ": 2638,
      "\u0004\u0000Q": 2639,
      "F": 2640,
      "ì": 2641,
      "|H\u0011": 2642,
      "ame": 2643,
      "\u001c\u0000\u0000": 2644,
      "$": 2645,
      "\u0002P": 2646,
      "\u0001\u0000\u0000": 2647,
      "é\u0001": 2648,
      " \b": 2649,
      "\u0015": 2650,
      "8\u0001": 2651,
      "OP": 2652,
      "E\u0003": 2653,
      "h\"": 2654,
      "L$0": 2655,
      "\u0010\u0000\u0000\u0000\u0000": 2656,
      "\u0004\u0000\u00004\u0000\u0014\u0000\u000e": 2657,
      "$p": 2658,
      "u\u0006": 2659,
      "ÄÃ": 2660,
      "ïý": 2661,
      "\n ": 2662,
      "\u0006\u0000": 2663,
      "\u0001Ñ": 2664,
      "\u000f\u0016": 2665,
      "Î\u0000": 2666,
      "@": 2667,
      "üÿ": 2668,
      "i\u0000c\u0000": 2669,
      "HÎè": 2670,
      "f\u000fX": 2671,
      "_S": 2672,
      "0\u0004": 2673,
      "P": 2674,
      "X\u0001": 2675,
      "\u0012þ": 2676,
      "Hßè": 2677,
      "\u001fÖ": 2678,
      "t$\u0018": 2679,
      "û": 2680,
      "ðÿðÿ": 2681,
      "åþ": 2682,
      "\u0001\u0001\u0001": 2683,
      "\r": 2684,
      "\u0005ð": 2685,
      "(\u0012": 2686,
      "0\t": 2687,
      "á\u000f": 2688,
      "\u0010": 2689,
      "ñ\u0001": 2690,
      "\u0000\u0000": 2691,
      "Ï\u0000": 2692,
      "(\"": 2693,
      "\u0000\u0000t": 2694,
      "B)": 2695,
      "ý\u0003": 2696,
      "y\u000b": 2697,
      "±\u0016": 2698,
      "\u000eþ": 2699,
      "\b\u0001\u0000\u0000": 2700,
      "ed": 2701,
      "la": 2702,
      "` ": 2703,
      "\u0002\u0015": 2704,
      "p": 2705,
      "òò": 2706,
      "ra": 2707,
      "\u0010\f": 2708,
      "Ê!": 2709,
      "\u0004\u0000ð": 2710,
      "ÀH": 2711,
      "\u0005@": 2712,
      "À\b": 2713,
      "_\u00001\u0000": 2714,
      "\u0000\u0000\u0000\u0002\u0000": 2715,
      "": 2716,
      "ER": 2717,
      "\u0004\u0014": 2718,
      "É\u0000": 2719,
      "Ép": 2720,
      "Áþ": 2721,
      "@D": 2722,
      "!\u0010": 2723,
      "\u0004;": 2724,
      "\u0000\u0000\u0014": 2725,
      "Hl$": 2726,
      "ÑÀ": 2727,
      "HD$ ": 2728,
      "\b\u0011": 2729,
      "?\u0000\u0000\u0000\u0000": 2730,
      "zD": 2731,
      "\u0002\u0006": 2732,
      "`ø": 2733,
      "\u001f\u0001": 2734,
      "þ": 2735,
      "NS": 2736,
      "¯\u0000": 2737,
      "`\f": 2738,
      "\u0002p": 2739,
      "\n\u0005": 2740,
      "AL": 2741,
      "¶\u0000": 2742,
      "\u000f¿": 2743,
      ") ": 2744,
      "\u0007\u0000": 2745,
      "Ä!": 2746,
      "ø6": 2747,
      "c ": 2748,
      " þ": 2749,
      "\u0003\u0000\u0003\u0000": 2750,
      "ø\u0000\u0000\u0000": 2751,
      "H\u0014": 2752,
      "t\u0006": 2753,
      "ww": 2754,
      "ñÀ\" ": 2755,
      "ýü": 2756,
      "Ðè": 2757,
      "\u0004": 2758,
      "44": 2759,
      "\u0016þ": 2760,
      "Àu": 2761,
      "ù": 2762,
      "G\u0000\u0000\u0000": 2763,
      "\u0004\u0004\u0004\u0004": 2764,
      "×\u0000": 2765,
      "ä\u000f": 2766,
      "\u0006\u0000T": 2767,
      "<\u0001": 2768,
      "fA": 2769,
      ">\u0000\u0000\u0000": 2770,
      "ç\u0003": 2771,
      "f": 2772,
      "B": 2773,
      "\"\u0000": 2774,
      "Ê\u0000": 2775,
      "\u0006©": 2776,
      "A\u0002": 2777,
      "·\u0000": 2778,
      "\u0001\r": 2779,
      "!": 2780,
      "Û\u0000": 2781,
      "": 2782,
      "H": 2783,
      "\u0001P": 2784,
      "o ": 2785,
      "O": 2786,
      "ññ": 2787,
      "01": 2788,
      "@": 2789,
      "\u0001\f": 2790,
      "\u000bÈ": 2791,
      "!\u0002": 2792,
      "Åø\u0011": 2793,
      "éý": 2794,
      "Xþ": 2795,
      "PE": 2796,
      "%x": 2797,
      "²\u0000": 2798,
      "C ": 2799,
      "Æè": 2800,
      "\u001e\u0001": 2801,
      "\u0010": 2802,
      ",\u0001": 2803,
      "¯þ": 2804,
      "\u0010ð": 2805,
      "\n2": 2806,
      "ë\t": 2807,
      "\u0003\u0003ª": 2808,
      "ýÿ\u0017": 2809,
      "#": 2810,
      "Æþ": 2811,
      "Þ\u0000": 2812,
      "\u0010": 2813,
      "\u0011þ": 2814,
      "PH": 2815,
      "û÷": 2816,
      "H$": 2817,
      "öÿÿ": 2818,
      "³\u0000": 2819,
      "": 2820,
      "\u0004\u0002\u0000\"": 2821,
      "A\u000f\u0011": 2822,
      "tt": 2823,
      "a\u0001": 2824,
      "P\u0004": 2825,
      "\u0010d": 2826,
      "\u0019\u0001": 2827,
      "Ïè": 2828,
      "Ó\u0000": 2829,
      "\u000b\u0002": 2830,
      "\u0003\u0003\u0003\u0003": 2831,
      "\b\u0012": 2832,
      "Bù": 2833,
      "\\þ": 2834,
      "HD$": 2835,
      "à~àx": 2836,
      "\u0001\u00005": 2837,
      "ßþ": 2838,
      "èý": 2839,
      "t$": 2840,
      "óD\u000f\u0010": 2841,
      "hd": 2842,
      "%\u0000\u0000": 2843,
      "¸\u0001\u0000\u0000": 2844,
      "ëë": 2845,
      "\n@ù": 2846,
      "do": 2847,
      "t\u000e": 2848,
      "HÁ": 2849,
      "\u000f\u001f\u0000\u0000\u0000\u0000": 2850,
      "1Àè": 2851,
      "\u001b\u0000ù": 2852,
      "\u001dð": 2853,
      "\n\u000e": 2854,
      "B ": 2855,
      "\u001b\u0000\u0000": 2856,
      "à\u0003\u0001": 2857,
      "@": 2858,
      "\u0005ý": 2859,
      "": 2860,
      "dddddddd": 2861,
      "\u0005R": 2862,
      "p\u0001\u0000\u0000": 2863,
      "\u0007\u0000T": 2864,
      "\u0001ù": 2865,
      "À!": 2866,
      "`\u000e": 2867,
      "\u0000\u0000": 2868,
      "Á": 2869,
      "\u0014þ": 2870,
      "\b": 2871,
      "â\u000f\u0000": 2872,
      "H×": 2873,
      "  \u000f": 2874,
      "\u0006ð": 2875,
      "": 2876,
      "AP": 2877,
      "_s": 2878,
      "³Þ": 2879,
      "[a": 2880,
      "G\u0010": 2881,
      "ï\u0003": 2882,
      "öÂ": 2883,
      "%\u0001": 2884,
      "Ë\u0000": 2885,
      "\u001c¾": 2886,
      "Üþ": 2887,
      "\u0007ð": 2888,
      "ë\n": 2889,
      "á\u0003\u0017ª": 2890,
      "\u001b\u0001": 2891,
      "Þþ": 2892,
      "\u0002": 2893,
      "\u0003": 2894,
      " \u0002\u0000": 2895,
      "p ": 2896,
      "â\u0003\u0014ª": 2897,
      "Ñþ": 2898,
      "ÇEü": 2899,
      "u\b": 2900,
      "Ïþ": 2901,
      ",\u0000\u0004": 2902,
      "é\u0003": 2903,
      "88": 2904,
      "Yþ": 2905,
      "Ôþ": 2906,
      "Úþ": 2907,
      "!\u0005\u0002\u0000": 2908,
      "t\f": 2909,
      "HÃ": 2910,
      "üÿT": 2911,
      "êê": 2912,
      "Ýþ": 2913,
      "\u0000\u0000": 2914,
      "Àþ": 2915,
      "\u0004": 2916,
      "HÈè": 2917,
      "ö_": 2918,
      "\u001a\u0001": 2919,
      " ": 2920,
      "\u0018\u0001\u0000\u0000": 2921,
      "ó\u000f^": 2922,
      "ë\u0001": 2923,
      "\fq": 2924,
      "Øþ": 2925,
      "\u0000!\u0001": 2926,
      "HÎ": 2927,
      "åå": 2928,
      "_\u0000\u0000": 2929,
      "\f\u000b": 2930,
      "a\u0002\u0000": 2931,
      " \u0000\u0000\u0000\u0000\u0000": 2932,
      "H": 2933,
      "\u0007ý": 2934,
      "\u0002ù": 2935,
      "\u0010þ": 2936,
      "\u000fþ": 2937,
      "\u0006": 2938,
      ";þ": 2939,
      "B\u0003": 2940,
      "á": 2941,
      "ùkD©": 2942,
      "22": 2943,
      "H": 2944,
      "\u0007\u0000ð": 2945,
      "\u0010\n": 2946,
      "8\u0000\u0000\u0000": 2947,
      "\u000f¾": 2948,
      "_1": 2949,
      "¿þ": 2950,
      "4\u0000\u0000\u0000": 2951,
      "Eù": 2952,
      "\u0006": 2953,
      "\u0001\u0000@ùB\u0000\u0001ë": 2954,
      "\u000f\u001fD\u0000\u0000": 2955,
      "=\u0000 \u0000": 2956,
      "u ": 2957,
      ")\u0000\u0000\u0000\u0000": 2958,
      "Ö\u0000": 2959,
      "\u0000( \u0002": 2960,
      "C\u0018": 2961,
      "\u0001": 2962,
      "Ê": 2963,
      "àý": 2964,
      "à;": 2965,
      "N": 2966,
      "óó": 2967,
      "N": 2968,
      "àC": 2969,
      "\u0001\u0000\u0000": 2970,
      "$$": 2971,
      "ßè": 2972,
      "ss": 2973,
      "\u001bh": 2974,
      "â\u0003\u0013ª": 2975,
      "2\u0000\u0000\u0000": 2976,
      "P ": 2977,
      "àà": 2978,
      "\fð": 2979,
      "\u000f[": 2980,
      " \u0000 \u0000 \u0000 \u0000": 2981,
      "\u0001": 2982,
      "Hú": 2983,
      "Ûþ": 2984,
      "@SH": 2985,
      "   ": 2986,
      "4\u0001": 2987,
      "¸þ": 2988,
      "\u0013þ": 2989,
      "\u000bð": 2990,
      "\u0000H\u0012": 2991,
      "\u0016\u0004": 2992,
      "\t\u0006": 2993,
      "A\u0018": 2994,
      "÷ÿÿ": 2995,
      "x\u0001": 2996,
      "=": 2997,
      "{\u0011": 2998,
      "p\u0002": 2999,
      "F\u0010": 3000,
      "\u001f\u0003": 3001,
      "<$": 3002,
      "`\u0005": 3003,
      "f.": 3004,
      "t2": 3005,
      "\t\b": 3006,
      "y)": 3007,
      "H": 3008,
      "u\f": 3009,
      "D\u000f·": 3010,
      "t$": 3011,
      "¿\u0000\u0000": 3012,
      "D\u0000\u0000\u0000": 3013,
      "\u0013\u0002": 3014,
      "@": 3015,
      "&": 3016,
      "Ùþ": 3017,
      "H+Á": 3018,
      "@\f": 3019,
      "H\\": 3020,
      "&\u0001": 3021,
      "\u0003\u0000Ò": 3022,
      "ò\u0001": 3023,
      "\t\u0003": 3024,
      "¾þ": 3025,
      "\u0018þ": 3026,
      "\u0007\u0006": 3027,
      "HÄ [Ã": 3028,
      "`è": 3029,
      "ú": 3030,
      "í\u0001": 3031,
      "G": 3032,
      "Ò": 3033,
      "Co": 3034,
      "Ö": 3035,
      "\r\u0003": 3036,
      "\u0000P": 3037,
      "°þ": 3038,
      "\u0002\u0000ë": 3039,
      "¨þ": 3040,
      "==": 3041,
      "6\u0001": 3042,
      "óA\u000f\u0010": 3043,
      "à ": 3044,
      "\u0007\u0005": 3045,
      "Sè": 3046,
      "öt": 3047,
      "ÑÑ": 3048,
      "c\b": 3049,
      "(H": 3050,
      "óA": 3051,
      "\u0006": 3052,
      "!À": 3053,
      "ø\u0001": 3054,
      "à\b": 3055,
      "Qè": 3056,
      "ý\u0002": 3057,
      "×": 3058,
      "Ç\u0001": 3059,
      "\u0018\u0018": 3060,
      "ó\u000b@ù": 3061,
      "\u0001": 3062,
      "#": 3063,
      "ÞÝ\u000e": 3064,
      "p\u0003": 3065,
      "à\u0003\u0014*": 3066,
      "c\u0000\u0002ë": 3067,
      "úû": 3068,
      "ig": 3069,
      "$": 3070,
      "F©": 3071,
      "ê\u0001": 3072,
      "\u0002ª": 3073,
      "\u000b\u0004": 3074,
      "Îÿ\u0015": 3075,
      "0\u0003": 3076,
      "#\u0000": 3077,
      "ëý": 3078,
      "éé": 3079,
      "ËE": 3080,
      "\u001d\u0001": 3081,
      "\u0000": 3082,
      "ne": 3083,
      "øè": 3084,
      "Óþ": 3085,
      "¼þ": 3086,
      "I\u0001": 3087,
      "öÁ": 3088,
      "ì H": 3089,
      "\tð": 3090,
      "AB": 3091,
      "ïï": 3092,
      "\n\b": 3093,
      "`\u001a": 3094,
      "\u001f\u0000\u0000\u0000": 3095,
      "\tè": 3096,
      "ub": 3097,
      "'\u0001": 3098,
      "@¸": 3099,
      "Ëè": 3100,
      "O ": 3101,
      "M+": 3102,
      "Òþ": 3103,
      "×þ": 3104,
      "üû": 3105,
      "|$": 3106,
      "Ä ": 3107,
      "HÿÂ": 3108,
      "\"\u0002": 3109,
      "Aþ": 3110,
      "ð\u000fÁ": 3111,
      "\u0003": 3112,
      "\f\u0011": 3113,
      "F\u0004": 3114,
      "\u0016\u0000\u0000\u0000": 3115,
      "\u0019þ": 3116,
      "\u0018\u0003": 3117,
      "ô\u0003\u0000*": 3118,
      "(\u0000\u0000": 3119,
      "a ": 3120,
      "íý": 3121,
      "\"": 3122,
      "õ\u0001": 3123,
      "Èþ": 3124,
      "Ð\u0003": 3125,
      "Âþ": 3126,
      "é\u0002": 3127,
      "\u0019*": 3128,
      "\u0010\u0000\u0010\u0000": 3129,
      " þ": 3130,
      "ôô": 3131,
      "Äþ": 3132,
      "M\u0001": 3133,
      "Çþ": 3134,
      "@$": 3135,
      "÷\u0001": 3136,
      "Áê": 3137,
      "ÀH": 3138,
      "Aø": 3139,
      "D\u0000A\u0000": 3140,
      "½þ": 3141,
      "3í": 3142,
      "T\u0001": 3143,
      "I9": 3144,
      "Õþ": 3145,
      "á\u0001": 3146,
      "ÿè": 3147,
      "þ": 3148,
      "u\u0010": 3149,
      "\t": 3150,
      "Öþ": 3151,
      "$\b": 3152,
      "ç\u0001": 3153,
      "ìý": 3154,
      "|\u0001": 3155,
      "llvm": 3156,
      "\u0011\u0000\u0000\u0000": 3157,
      "Ç": 3158,
      "\\ù": 3159,
      "\u001cþ": 3160,
      "\u0004": 3161,
      "\u0000\u0000\u0000\u0000\u0010": 3162,
      "Ù": 3163,
      "îý": 3164,
      "H": 3165,
      "Ç": 3166,
      "": 3167,
      "ó\u0001": 3168,
      "\u0005": 3169,
      "@ø": 3170,
      "A\u000f·": 3171,
      "\u0000L": 3172,
      "\u0013\u0004": 3173,
      "Íþ": 3174,
      "V4": 3175,
      "\u0007": 3176,
      "ý{Ä¨": 3177,
      "á\u0002": 3178,
      "\u0000H3Ä": 3179,
      "\u0000\u0000L": 3180,
      "¼©": 3181,
      "òE\u000fÐ": 3182,
      "\bC": 3183,
      "è\u0002": 3184,
      "t\r": 3185,
      "À\u0010": 3186,
      "DE": 3187,
      "+Â": 3188,
      "\u0014\u0002": 3189,
      "â\u0004": 3190,
      "8\u0000\u0000": 3191,
      "ð\u0002": 3192,
      "\u0005\n": 3193,
      "k ": 3194,
      "»þ": 3195,
      "C\u0001": 3196,
      "G\u0001": 3197,
      "HÀ": 3198,
      "\u001f\u0000\u0001ë": 3199,
      "$þ": 3200,
      "â\u0003\u0015ª": 3201,
      "bó": 3202,
      "$\u0002": 3203,
      "Eð": 3204,
      "3Å": 3205,
      "\u0007\u0000°": 3206,
      "j\u0004": 3207,
      "Éþ": 3208,
      "pþ": 3209,
      "\u0017þ": 3210,
      "Ìþ": 3211,
      "0þ": 3212,
      "\u001aþ": 3213,
      "Ó": 3214,
      "\u0005F": 3215,
      "}": 3216,
      "@þ": 3217,
      "Ó": 3218,
      " \u0000\u0000\u0000\u0000": 3219,
      "þ": 3220,
      "ý": 3221,
      "\u0003": 3222,
      "HÄ": 3223,
      "\u001dþ": 3224,
      "\u0003\u0000ð": 3225,
      "\u0007\u0000Ð": 3226,
      "\u0000u": 3227,
      "±\u0001": 3228,
      "z\u0010": 3229,
      "T\u0000o\u0000": 3230,
      "\bë": 3231,
      "\u001c\u0002": 3232,
      "\u000e\u0004": 3233,
      "¤þ": 3234,
      "oþ": 3235,
      "`þ": 3236,
      "\u000f": 3237,
      "ìì": 3238,
      "\u0006\u0000°": 3239,
      "CO": 3240,
      "Æ": 3241,
      "ÄÁ|\u0011": 3242,
      "ºþ": 3243,
      "ÄA|\u0011": 3244,
      "\u0002\u0000": 3245,
      "!þ": 3246,
      "\r\u0002": 3247,
      "øû": 3248,
      "\u00062\u00020": 3249,
      "ÌÌÌÌH\\$": 3250,
      "º\u0001": 3251,
      "\u000bp": 3252,
      " \"": 3253,
      "\u00000": 3254,
      "e\u0000n\u0000": 3255,
      "þ": 3256,
      "Mü": 3257,
      "±þ": 3258,
      "\u0005\u000b": 3259,
      "B\u000e\u0010": 3260,
      "I\u000f": 3261,
      "\r\b": 3262,
      ".?AV": 3263,
      "\u0006ý": 3264,
      "nt": 3265,
      "\u0006\u0010": 3266,
      "Ç": 3267,
      "ï\u0001": 3268,
      "`\b": 3269,
      "òE": 3270,
      "\u0003": 3271,
      "à'": 3272,
      "«þ": 3273,
      "?þ": 3274,
      "n ": 3275,
      "\rð": 3276,
      "ip": 3277,
      "@Y": 3278,
      "ÿÿé": 3279,
      "À\u0005": 3280,
      "0\n": 3281,
      "\u0001ÿP": 3282,
      ")\u0000\u0000": 3283,
      "EP": 3284,
      "öü": 3285,
      "\u0006": 3286,
      "Êþ": 3287,
      "\u0018*": 3288,
      "T_": 3289,
      "¨*": 3290,
      "\u0000ÿ\u0015": 3291,
      " \t": 3292,
      "AC": 3293,
      "Iã": 3294,
      "\u0005": 3295,
      "´þ": 3296,
      "+\u0006": 3297,
      "@z": 3298,
      "Ïr": 3299,
      "(þ": 3300,
      "@\u0000\u0000\u0000(\n": 3301,
      "\u0002": 3302,
      "/þ": 3303,
      "õ\u0013@ù": 3304,
      "L2": 3305,
      "=þ": 3306,
      "È\u0001": 3307,
      "<\u0000\u0000\u0000": 3308,
      "ó¤": 3309,
      "K¹": 3310,
      "\u001eú": 3311,
      "\u0003\u0000°": 3312,
      "³þ": 3313,
      "ø\b": 3314,
      "t\u0012": 3315,
      "\u0003\b": 3316,
      "\u0004ý": 3317,
      "HÄ@": 3318,
      "Ëþ": 3319,
      "\u0007\u0010": 3320,
      "ys": 3321,
      "a\u0000c\u0000": 3322,
      "\u0000\u0000\u0000\u0000P": 3323,
      "E1": 3324,
      "¿\u0001": 3325,
      "òB": 3326,
      "\u0004H": 3327,
      "@\u0000\u0000T": 3328,
      "µþ": 3329,
      "ÇG": 3330,
      "_p": 3331,
      "éð": 3332,
      "WR": 3333,
      "+@ù": 3334,
      "@\u0005": 3335,
      "8þ": 3336,
      "\u0000ë": 3337,
      "@ð": 3338,
      "¬þ": 3339,
      "Ø×": 3340,
      "P\u0005": 3341,
      "\u001bþ": 3342,
      "å]Ã": 3343,
      "xx": 3344,
      "\u0004u": 3345,
      "ÐH": 3346,
      "\u001fþ": 3347,
      "ö\u0003\u0000ª": 3348,
      "Eü": 3349,
      "t\u000b": 3350,
      ">þ": 3351,
      "|(": 3352,
      "`8": 3353,
      "þ": 3354,
      "": 3355,
      "H;È": 3356,
      "ú÷": 3357,
      "Îþ": 3358,
      "¦þ": 3359,
      "à3": 3360,
      "J\u0001": 3361,
      "\u0002\f": 3362,
      "Ðý": 3363,
      "Bþ": 3364,
      "C\f": 3365,
      "": 3366,
      "e\u0000\u0000\u0000": 3367,
      "\u0017@ù": 3368,
      "¡þ": 3369,
      "þ": 3370,
      "L$ ": 3371,
      "­þ": 3372,
      "\u0000\u0001k": 3373,
      "\u000f": 3374,
      "\u0014\u0010": 3375,
      "\u0004ñ": 3376,
      "\"þ": 3377,
      "A0": 3378,
      "çý": 3379,
      "\tý": 3380,
      "þ": 3381,
      "\u0002*": 3382,
      ")\u0001": 3383,
      "íí": 3384,
      "êý": 3385,
      "\u0006": 3386,
      "ép": 3387,
      ",\u0000\u0000": 3388,
      "\u0010\u0000": 3389,
      "\u0002\u0000\u0000H": 3390,
      "?\u0001": 3391,
      "Ñè": 3392,
      "\t\u0010": 3393,
      "\u000f\u0010\u0000": 3394,
      "+\u0001": 3395,
      "\u0002": 3396,
      "þ": 3397,
      "ä\u0001": 3398,
      "ûÿ": 3399,
      "IÎè": 3400,
      "æý": 3401,
      "\u0005\u000f": 3402,
      "§þ": 3403,
      "d\u0000e\u0000": 3404,
      "\u0000à": 3405,
      "¥þ": 3406,
      "E\b": 3407,
      ",þ": 3408,
      "d\u0000\u0000\u0000": 3409,
      "+þ": 3410,
      "ol": 3411,
      "\u0000": 3412,
      "\u0000\u0004\u0000\u0011": 3413,
      "%\u0004": 3414,
      "\u001eþ": 3415,
      "à": 3416,
      "\u0015þ": 3417,
      "Pþ": 3418,
      "I[": 3419,
      "fff": 3420,
      "\u001c\u0004": 3421,
      "þ": 3422,
      "ãý": 3423,
      "`\u001e": 3424,
      "H#": 3425,
      "¶þ": 3426,
      "! ": 3427,
      "þ": 3428,
      "nþ": 3429,
      "o\u0000r\u0000": 3430,
      "}Ó": 3431,
      "P": 3432,
      "E": 3433,
      "<þ": 3434,
      "\u0002\u0018": 3435,
      "\u0000\u0000 Ò": 3436,
      "ÿÿ\u0017?#\u0003Õ": 3437,
      "1\u000b": 3438,
      "\u0005ù": 3439,
      "\u0014\u0003": 3440,
      "è?": 3441,
      "\u0001\u0000\u0000H": 3442,
      "\n\u0003": 3443,
      "H\u0018": 3444,
      "\u0000 \u0007": 3445,
      "E;": 3446,
      "¢þ": 3447,
      "hþ": 3448,
      "·þ": 3449,
      "9þ": 3450,
      "âý": 3451,
      "#\u0006": 3452,
      "ø÷": 3453,
      "ë\u000b": 3454,
      "\u0000\u0000": 3455,
      "8F": 3456,
      "  ": 3457,
      "á\u0003\u0018ª": 3458,
      "ddd\u0000": 3459,
      "xþ": 3460,
      "\u0012\u0003": 3461,
      ">b": 3462,
      "D$8": 3463,
      "19": 3464,
      "1\u0001": 3465,
      "í": 3466,
      "<": 3467,
      "\u0011\u0010": 3468,
      "ent": 3469,
      "U": 3470,
      "î\u0001": 3471,
      "\u0000A": 3472,
      "`H": 3473,
      "À\u000f": 3474,
      "ò\u0003": 3475,
      "p\b": 3476,
      "ÿ\u0000\u0000\u0000": 3477,
      "\u0000\u0000": 3478,
      "for": 3479,
      "u\t": 3480,
      "ï¾": 3481,
      "Ä": 3482,
      "\"@": 3483,
      "\u0001r": 3484,
      "\f": 3485,
      "&þ": 3486,
      "@\u0000\u0000": 3487,
      "Ch": 3488,
      "ó\u0003\u0001ª": 3489,
      "HK": 3490,
      "PE": 3491,
      "f\u000f(": 3492,
      "áá": 3493,
      "%þ": 3494,
      "7@ù": 3495,
      "$h": 3496,
      "\u0012\u0012": 3497,
      "IÎ": 3498,
      "P\u0000\u0000\u0000": 3499,
      "#þ": 3500,
      "ë\r": 3501,
      "\u0011\u0003": 3502,
      "\nð": 3503,
      "À\u0000Q": 3504,
      "D$(": 3505,
      "d\u0000\u0000": 3506,
      "£þ": 3507,
      "x": 3508,
      "ªþ": 3509,
      "áý": 3510,
      "®þ": 3511,
      "ãã": 3512,
      "HU": 3513,
      "\br": 3514,
      "H\u0004": 3515,
      "X\u0000\u0000\u0000": 3516,
      "ì ": 3517,
      "à\u0003\u001bª": 3518,
      "B": 3519,
      "ôü": 3520,
      "'": 3521,
      "\u000b\b": 3522,
      "|þ": 3523,
      "e\u0000s\u0000": 3524,
      "\u0000\u0018": 3525,
      "Oð": 3526,
      "zþ": 3527,
      "`*": 3528,
      "åý": 3529,
      "ùû": 3530,
      "d\u0001": 3531,
      "±Å": 3532,
      "-þ": 3533,
      "lin": 3534,
      "j\u0003": 3535,
      "H\u0005": 3536,
      "@\u0006": 3537,
      "õü": 3538,
      "\b\u0000T": 3539,
      "à\u000e": 3540,
      "P\u0002": 3541,
      "\u0004\f": 3542,
      "þ": 3543,
      "R\u0010": 3544,
      "0": 3545,
      "%\u0002": 3546,
      "÷Ø": 3547,
      "\u0000\u0000\u0000!\u0001": 3548,
      "\n\t": 3549,
      "ÿÿÿ\u0000ÿÿÿ\u0000": 3550,
      "þ": 3551,
      "UVW": 3552,
      "#\u0002": 3553,
      "HÂ'": 3554,
      "â\u0001": 3555,
      "H\\$0": 3556,
      "sþ": 3557,
      "Hl$": 3558,
      "2 ": 3559,
      "lþ": 3560,
      "HT$": 3561,
      "HÇ": 3562,
      "\b": 3563,
      "²þ": 3564,
      "þ": 3565,
      "ÿÿH": 3566,
      "SS": 3567,
      "ö\u0005": 3568,
      "\u000e\u0002": 3569,
      ")\u0000\u0000\u0000": 3570,
      "\u0004": 3571,
      "q\u0001": 3572,
      "þ": 3573,
      "ýÃ": 3574,
      "\u0019\u0002": 3575,
      "C\u0004": 3576,
      "\u0002\u0000\u0000H": 3577,
      "4þ": 3578,
      "÷ý": 3579,
      "A,": 3580,
      "43": 3581,
      "~þ": 3582,
      "jþ": 3583,
      "(\u0001\u0000\u0000": 3584,
      "òü": 3585,
      "(\u001a": 3586,
      "\u000e\u0018": 3587,
      "\u0010h": 3588,
      "\u000f\b": 3589,
      "Dþ": 3590,
      "'þ": 3591,
      "}þ": 3592,
      "!¸": 3593,
      "\u0007©": 3594,
      "Ex": 3595,
      "\u0001": 3596,
      ")þ": 3597,
      "äý": 3598,
      "ñ": 3599,
      "\u0000\u0000\u0000": 3600,
      "'\u0002": 3601,
      "À\u0001\u0000\u0000": 3602,
      "LÃ": 3603,
      "ÌÌÌÌÌÌÌÌÌÌÌ": 3604,
      "t.": 3605,
      "Hø\u001f": 3606,
      "G": 3607,
      "vic": 3608,
      "\u0003": 3609,
      "\n\u0000ù": 3610,
      "kÀ": 3611,
      "þ": 3612,
      "pr": 3613,
      "\u001b\u0002": 3614,
      "\u0002": 3615,
      "1þ": 3616,
      "\bWHì": 3617,
      "": 3618,
      "þ": 3619,
      "\u00054": 3620,
      "'\u0000\u0000": 3621,
      "#r": 3622,
      "þ": 3623,
      "]þ": 3624,
      "þ": 3625,
      "þ": 3626,
      "..": 3627,
      "\b\u0000Ð": 3628,
      "þ": 3629,
      "A\u0000\u0000": 3630,
      "þ": 3631,
      "j\u0000j\u0000": 3632,
      "±\u0012": 3633,
      "\u0000Ø": 3634,
      "$": 3635,
      "Lþ": 3636,
      "\b\u0000°": 3637,
      "u\u0000t\u0000": 3638,
      "¹þ": 3639,
      "\u0004\u0000Ñ": 3640,
      "\bð": 3641,
      "A(": 3642,
      "Gþ": 3643,
      "L7": 3644,
      "HØ": 3645,
      "IO": 3646,
      "þ": 3647,
      "}\u0018": 3648,
      "Ç\u0006": 3649,
      "D$p": 3650,
      "&\u0002": 3651,
      "\fý": 3652,
      "üõ": 3653,
      "*þ": 3654,
      "u\r": 3655,
      "EN": 3656,
      "þ": 3657,
      "Zþ": 3658,
      "j ": 3659,
      "@ö": 3660,
      "\u000b\u0003": 3661,
      "\u0000\u0000\u0000\u0000\u0001\u0000": 3662,
      "3þ": 3663,
      "_8": 3664,
      "\u001fü": 3665,
      " \u0006": 3666,
      "\u0017\b": 3667,
      "Ã\u0010": 3668,
      "dþ": 3669,
      "ñü": 3670,
      "\u0001": 3671,
      "Ït": 3672,
      "\rý": 3673,
      "y\u0010": 3674,
      "Æ\u0005": 3675,
      "fD": 3676,
      "þ": 3677,
      "ng": 3678,
      "ú\u0004": 3679,
      "\n": 3680,
      "ø\u0006": 3681,
      "Lp": 3682,
      ":þ": 3683,
      "\u0000\u0000@¹": 3684,
      "6þ": 3685,
      "Q\u0001": 3686,
      "ý": 3687,
      "\u0007ù": 3688,
      "\u0005\u0000\u0005\u0000": 3689,
      "\u001d\u0000\u0000": 3690,
      "ë\f": 3691,
      "~\u0001": 3692,
      "\u0000\u0006": 3693,
      "F\u0002": 3694,
      "HÖ": 3695,
      "Eü": 3696,
      "ì\u0001": 3697,
      "E\u0001": 3698,
      "Eþ": 3699,
      "\u0005": 3700,
      "þ": 3701,
      "\b\u000f": 3702,
      "(\u001e": 3703,
      "K\u0001": 3704,
      "H\u0001": 3705,
      "\u0007ü": 3706,
      "\f\r": 3707,
      "vþ": 3708,
      "O": 3709,
      "þ": 3710,
      "\u0001\u0000H": 3711,
      "I\u0010": 3712,
      "þ": 3713,
      "yþ": 3714,
      "þ": 3715,
      "@\u0014": 3716,
      "HÆ": 3717,
      "ÌÌÌÌUì": 3718,
      "\b©": 3719,
      "t\u0011": 3720,
      "\n\u0010": 3721,
      " ": 3722,
      "I\u0011": 3723,
      "aþ": 3724,
      "\u0014\u0012": 3725,
      "ile": 3726,
      "is ": 3727,
      "mþ": 3728,
      "J": 3729,
      "þ": 3730,
      "øù": 3731,
      "Åø\u0010": 3732,
      "³ÞW": 3733,
      "SVW": 3734,
      "y": 3735,
      "u\u0000d\u0000": 3736,
      "H": 3737,
      ");": 3738,
      "L$": 3739,
      "[a": 3740,
      "wþ": 3741,
      "t\u0003": 3742,
      "@\u0000\u0000\u0000\u0000\u0000": 3743,
      "ÖÕ": 3744,
      "55": 3745,
      "Mþ": 3746,
      "b\"": 3747,
      "\u0002\u0000\u0000\u0000\u0000\u0000": 3748,
      "com": 3749,
      "2þ": 3750,
      "gþ": 3751,
      "°\u0000\u0000": 3752,
      "C\u000f": 3753,
      "ó\u000b\u0000ù": 3754,
      ",\"": 3755,
      "\u0004\u0000\u00004": 3756,
      "Uþ": 3757,
      "\u0000\u0000\u0000\u0000\u0001\u0000\u0000": 3758,
      ",0,0": 3759,
      " \u0004": 3760,
      "t\u0004": 3761,
      "@0": 3762,
      "÷\u0002": 3763,
      "\u000b": 3764,
      "t\u0013": 3765,
      "ïü": 3766,
      "A8": 3767,
      "HC": 3768,
      "C\u0000\u0000": 3769,
      "H\u0007": 3770,
      "C\u0000": 3771,
      "7þ": 3772,
      "Wþ": 3773,
      "\u0011\b": 3774,
      " \u0000": 3775,
      "^þ": 3776,
      "": 3777,
      "É\u0010": 3778,
      "\u000bý": 3779,
      "\u0003Á": 3780,
      "]Â\u0004\u0000": 3781,
      "}": 3782,
      "æ\u0001": 3783,
      "E\u0010": 3784,
      "X": 3785,
      "óü": 3786,
      "Ð\u0002": 3787,
      "ø\u0005": 3788,
      "Qþ": 3789,
      "á\u001f": 3790,
      "9\u0001": 3791,
      "x\u0013": 3792,
      "_þ": 3793,
      "@¨": 3794,
      "Hè": 3795,
      "{": 3796,
      "ze": 3797,
      "fþ": 3798,
      "@9\u001f": 3799,
      ".þ": 3800,
      "û\u0004": 3801,
      "\r\u0010": 3802,
      "p\u0000\u0000\u0000": 3803,
      "": 3804,
      "\u0000ðFùâ": 3805,
      "þ": 3806,
      " '": 3807,
      "å\u0001": 3808,
      ", %": 3809,
      "Xè": 3810,
      "E_": 3811,
      "@\"": 3812,
      "\u0003ë": 3813,
      "\ný": 3814,
      "@\u0016": 3815,
      "\b;": 3816,
      "\u0001": 3817,
      "pè": 3818,
      "@\u0000\u0000": 3819,
      "A": 3820,
      "Bð": 3821,
      "%": 3822,
      "H©": 3823,
      "Hÿt": 3824,
      "\u0004\u0000q": 3825,
      "+È": 3826,
      "\u0014\u0004": 3827,
      "qu": 3828,
      "HÇD$": 3829,
      "\u0002": 3830,
      "\u0001\u0000@9": 3831,
      "Vþ": 3832,
      "St": 3833,
      "òD\u000f\u0010": 3834,
      "HD$(": 3835,
      "%0": 3836,
      "kþ": 3837,
      "\f\u0004\u0000\u0000\u0000": 3838,
      "": 3839,
      "cþ": 3840,
      "G©": 3841,
      "\n": 3842,
      "\u000fZ": 3843,
      "©þ": 3844,
      "¨\u0002": 3845,
      "H3Ä": 3846,
      "can": 3847,
      "Rþ": 3848,
      "P@": 3849,
      "\" \u000fF": 3850,
      "l.": 3851,
      "[þ": 3852,
      "Ã¸": 3853,
      "Ýý": 3854,
      "úù": 3855,
      "\u0005\u0018": 3856,
      "PH": 3857,
      "ã\u0001": 3858,
      "\u0005ü": 3859,
      "Fþ": 3860,
      "\u0002": 3861,
      "\f\u0007": 3862,
      "@#": 3863,
      "$\u0000q": 3864,
      "\u0010é": 3865,
      "5þ": 3866,
      "\u0018º": 3867,
      "ò\u0002": 3868,
      "óSA©õ[B©": 3869,
      "ó\u000f\u0012": 3870,
      "B\u0002": 3871,
      "\u0003\u000f": 3872,
      "\u0010Ç": 3873,
      "\u0000\u0000\n": 3874,
      ">\u0001": 3875,
      "ô\u0003\u0001ª": 3876,
      "": 3877,
      "HK": 3878,
      "rþ": 3879,
      "á": 3880,
      "à4": 3881,
      "\"\u0004": 3882,
      "": 3883,
      "\u0001": 3884,
      "80": 3885,
      "@\u0007": 3886,
      "`\u0010": 3887,
      "\u001f\u0004": 3888,
      "\bé": 3889,
      "\f$": 3890,
      "H ": 3891,
      "üÿ\u0017": 3892,
      "À\u0003_Ö?#\u0003Õ": 3893,
      "ÿÿÿ": 3894,
      "Ît": 3895,
      "\u0013\u0013": 3896,
      "=\u0004": 3897,
      "iþ": 3898,
      "*\u0001": 3899,
      "\u0000\u0000\u0000\u0000ÿÿÿÿ": 3900,
      "\u0002\u0000\u0000\u0000\u0000\u0000\u0000\u0000": 3901,
      "\u0002": 3902,
      "fD": 3903,
      "\u000eý": 3904,
      "`\u0007": 3905,
      "\u0000\u0005": 3906,
      "Nþ": 3907,
      "Iþ": 3908,
      "Sþ": 3909,
      "Á\u0002": 3910,
      "\rñ": 3911,
      "Ñ\u0001": 3912,
      "\u0006\u0007": 3913,
      "\u0014$": 3914,
      "ßý": 3915,
      "¢\n": 3916,
      "è\u000f": 3917,
      "Á@": 3918,
      "Ô\u0001": 3919,
      "99": 3920,
      "14": 3921,
      "por": 3922,
      "66": 3923,
      "C\u000f\u0010": 3924,
      "bþ": 3925,
      "n\u0000d\u0000": 3926,
      "0": 3927,
      "Jþ": 3928,
      "Áâ": 3929,
      "*": 3930,
      "Q\b": 3931,
      "8\u0001\u0000\u0000": 3932,
      "\u0006\u0000Ð": 3933,
      "\u0003 ": 3934,
      "àü": 3935,
      "ô\u0002": 3936,
      "t\b": 3937,
      "Lt$": 3938,
      "Kþ": 3939,
      "ë\u000e": 3940,
      "\u0000\u0000T": 3941,
      ",,,,": 3942,
      ".\u0001": 3943,
      "\u0013\u0010": 3944,
      "\u0003\u0000Ð": 3945,
      "H": 3946,
      "\né": 3947,
      "\u001dù": 3948,
      "a\u0000$\u0000": 3949,
      "A\f": 3950,
      "ø\u0007": 3951,
      "#\u0000\u0000": 3952,
      "\u0014ð": 3953,
      "eþ": 3954,
      "-\u0001": 3955,
      "èû": 3956,
      "\u0000\u00005": 3957,
      "$À": 3958,
      "Aö": 3959,
      "\u0014p": 3960,
      "2": 3961,
      ",\n": 3962,
      "²\u0001": 3963,
      "LÇ": 3964,
      "Üý": 3965,
      "ÃB": 3966,
      "Q\u0010": 3967,
      "s\f": 3968,
      "": 3969,
      "Y\u0001": 3970,
      "/\u0001": 3971,
      "Hú\u0000": 3972,
      "à\u0013": 3973,
      "1\u0000": 3974,
      "É\u0001": 3975,
      "\u0011r": 3976,
      "à\u000b": 3977,
      "\u0000\u0000": 3978,
      "b¢": 3979,
      "ù\u0004": 3980,
      "2\u0001": 3981,
      "\bý": 3982,
      "Oþ": 3983,
      "=\u0001": 3984,
      "\u0002\u0000´": 3985,
      "à\f": 3986,
      "¸ý": 3987,
      "ê\u0003": 3988,
      "\u0012\u0000\"": 3989,
      "\u0000L": 3990,
      "\u0003\u0002*": 3991,
      "\u0000\u0000 ": 3992,
      "\u0003ª": 3993,
      "HC": 3994,
      "ë\u0011": 3995,
      "\u0004": 3996,
      "@\u000f": 3997,
      "t\u000f": 3998,
      "Ø\u0001": 3999,
      "\u0000\u0000 ": 4000,
      "³\u0001": 4001,
      "!\u0003": 4002,
      "Dù": 4003,
      "à\u0001\u0000\u0000": 4004,
      "\u0002": 4005,
      "\u0005\t": 4006,
      "Â\u0001": 4007,
      "H": 4008,
      "\u0015\u0015": 4009,
      "\u0012": 4010,
      ":%": 4011,
      "ø\u0010": 4012,
      "\u000e0": 4013,
      "\u0000\u0000\u0000f": 4014,
      "y¹": 4015,
      "ùk\u0004©": 4016,
      "\\\u0001": 4017,
      "X\u0001\u0000\u0000": 4018,
      "\u000e\u0003": 4019,
      "e\u0001": 4020,
      "@ý": 4021,
      " r": 4022,
      "ø\u000f": 4023,
      "°\u0001\u0000\u0000": 4024,
      "ð ": 4025,
      "\u0005x": 4026,
      "ú": 4027,
      "\u0007è": 4028,
      "RO": 4029,
      "_\u00002\u0000": 4030,
      "\f\u000f": 4031,
      "À\u0006": 4032,
      "`\"": 4033,
      "\u0014è": 4034,
      "\u0005û": 4035,
      "\u0005ô": 4036,
      "Ò\u0001": 4037,
      "\u0012ý": 4038,
      "oc": 4039,
      "HÐ": 4040,
      "A": 4041,
      "\u0002\u0000": 4042,
      "\u0006ü": 4043,
      " \u0000\u0000T": 4044,
      "ÈH": 4045,
      "»": 4046,
      "øú": 4047,
      "ò\u000fÐ": 4048,
      "6\u0002": 4049,
      "J\u0010": 4050,
      "F ": 4051,
      "t\u001e": 4052,
      "Àé": 4053,
      "\u001c\u0003": 4054,
      "Ñ": 4055,
      "fo": 4056,
      " ý": 4057,
      "ty": 4058,
      "ûÿT": 4059,
      "\u0015\b": 4060,
      "Æý": 4061,
      "o\u0000o\u0000o\u0000o\u0000": 4062,
      "\u0002": 4063,
      "öû": 4064,
      "\r\u0004": 4065,
      "`\u0016": 4066,
      "¹é": 4067,
      "4": 4068,
      "A\u000f\\": 4069,
      "\u001a": 4070,
      "\u000b\u0010": 4071,
      "PA": 4072,
      "\u0000\u0000\u0000 ": 4073,
      "h\u0001\u0000\u0000": 4074,
      "\u0001\u0000": 4075,
      "÷ü": 4076,
      "f\u000f\u001fD\u0000\u0000": 4077,
      " a": 4078,
      "ÕÖÓÔ\u000e\u0000": 4079,
      "Y\u0000\u0000\u0000\u0000\u0000": 4080,
      "Xý": 4081,
      " b": 4082,
      "Þý": 4083,
      "\u001bÀ": 4084,
      "\u0004!": 4085,
      "%%": 4086,
      "@ò": 4087,
      "\u0007\u0000": 4088,
      "pu": 4089,
      ".": 4090,
      "\u0007": 4091,
      "\"\u0010": 4092,
      "qþ": 4093,
      "Æ": 4094,
      "Ð\u0000\u0000": 4095,
      "àè": 4096,
      "Àý": 4097,
      "F\f": 4098,
      "ââ": 4099,
      "\u0012\u0010": 4100,
      "Äc": 4101,
      "\u0006\u0000ð": 4102,
      "÷ñ": 4103,
      "??": 4104,
      "CA": 4105,
      "À\u0007": 4106,
      "\u0012": 4107,
      "25": 4108,
      "HÿÀ": 4109,
      "E\u0000\u0000\u0000\u0000\u0000": 4110,
      "&&": 4111,
      "Ñý": 4112,
      "¤\u0001": 4113,
      "ù#": 4114,
      "\u0003H": 4115,
      "Úý": 4116,
      "óD": 4117,
      "\u0004\u0000\u0000\u0000\u0000\u0000\u0000": 4118,
      "ke": 4119,
      "\u001e\u001e": 4120,
      ".c": 4121,
      "get": 4122,
      "1\u0000\u0000": 4123,
      "K\u0010": 4124,
      "ää": 4125,
      "N": 4126,
      "IÖ": 4127,
      "\u0002\u00004": 4128,
      "\u0004ë": 4129,
      "\u0002\u0000q": 4130,
      "3\u0001": 4131,
      "\u0016ý": 4132,
      "ÒÒ": 4133,
      "\r\u0006": 4134,
      "\u000bÐ": 4135,
      "po": 4136,
      "@\u0002\u0000\u0000": 4137,
      "Ûý": 4138,
      "h\u0002": 4139,
      "_\u0001": 4140,
      "\f\b": 4141,
      "int": 4142,
      "Ùý": 4143,
      "->": 4144,
      "\n©": 4145,
      "{þ": 4146,
      "\u0010x": 4147,
      "@¬": 4148,
      "\u0003ý": 4149,
      " \u000f": 4150,
      "Áý": 4151,
      "[]A\\": 4152,
      "\u0000$": 4153,
      "\u0001": 4154,
      ",%": 4155,
      "Ãè": 4156,
      "2\u0000\u0000": 4157,
      "|$": 4158,
      "\u0013\u0000\u0000\u0000": 4159,
      "Íý": 4160,
      "ð\u0007": 4161,
      "\u000f": 4162,
      "E": 4163,
      "@\u0000 \u0000": 4164,
      "ÚÙ": 4165,
      "LM": 4166,
      "ö\u0002": 4167,
      "ÿ\u000f\u0000\u0000\u0000\u0000\u0000\u0000": 4168,
      "S": 4169,
      "¥\u0001": 4170,
      "½ý": 4171,
      "res": 4172,
      "\u0000\u0001\u0000\u0000\u0000": 4173,
      "7\u0001": 4174,
      "\u0000\u0013ò": 4175,
      "°ý": 4176,
      "\f\f\f\f": 4177,
      "â\u0003\u0016ª": 4178,
      "\u0000\u0000\u0000\u0000A\u000e\u0010": 4179,
      "Òý": 4180,
      "ü\u001c": 4181,
      ")\u0002": 4182,
      "ûú": 4183,
      "P\u0003": 4184,
      "ag": 4185,
      "\u0001": 4186,
      "@%": 4187,
      "1\u0002": 4188,
      "\u000e\b": 4189,
      "çç": 4190,
      "øg": 4191,
      "\u0005": 4192,
      "ßß": 4193,
      "Å¨": 4194,
      "X¸": 4195,
      "ñ\u0007": 4196,
      "Q\u0002": 4197,
      "D ": 4198,
      "Øý": 4199,
      "\u0000º": 4200,
      "Õý": 4201,
      "úÿ": 4202,
      "\u0017\r": 4203,
      "ðü": 4204,
      "\u001f\u0002": 4205,
      "\u0003": 4206,
      "ñ\u0003": 4207,
      "à\u0010": 4208,
      "H": 4209,
      "H\u0001H": 4210,
      "\u0002": 4211,
      "able": 4212,
      "¹\u0001": 4213,
      "l_": 4214,
      "\u001a\u0002": 4215,
      "H\u0000\u0000\u0000": 4216,
      " ": 4217,
      "R\u0001": 4218,
      "D+": 4219,
      "\u0010W": 4220,
      "\rÐ": 4221,
      "PK": 4222,
      "''": 4223,
      "RT": 4224,
      "H\t": 4225,
      "": 4226,
      "\u0011ý": 4227,
      "^\u0001": 4228,
      "N\b": 4229,
      "\u0001\u0000\u001e": 4230,
      "`\u0000\u0000\u0000\u0000\u0000": 4231,
      "ÄÁ|\u0010": 4232,
      "\u000fÐ": 4233,
      "Ïý": 4234,
      "\u0002": 4235,
      "a\u0003": 4236,
      "À": 4237,
      "1": 4238,
      "\u0004\t": 4239,
      "\u0001\u0000µ": 4240,
      "@À": 4241,
      "H\u000f¯": 4242,
      "Ld$": 4243,
      "I": 4244,
      "\u000f\u0002": 4245,
      "\u001f\b\u0000q": 4246,
      "\u0010\u0000\u0000\u0001": 4247,
      "5\u0001": 4248,
      "S\u0001": 4249,
      "\u000eð": 4250,
      "\u0014ý": 4251,
      "ÿÀ": 4252,
      "ation": 4253,
      "\u0000\u0000\u0000\u0000\u0000\"\u0001": 4254,
      "\f": 4255,
      "t\u0010": 4256,
      "7": 4257,
      "N\u0001": 4258,
      "¾ý": 4259,
      "à+": 4260,
      "t\u0015": 4261,
      "ë\u000f": 4262,
      "J©": 4263,
      "\u0000h": 4264,
      "ÇD$(": 4265,
      "Ãþ": 4266,
      "à\u0003\u0001ª": 4267,
      "fE": 4268,
      "Âý": 4269,
      "O\b": 4270,
      "\u001cù": 4271,
      "`E": 4272,
      "\b\u0000ð": 4273,
      " \u0006": 4274,
      "z\u0011": 4275,
      "\u0010\u0001\u0000": 4276,
      "Ìý": 4277,
      "ñ\u0002": 4278,
      "ó\u0004": 4279,
      "Øè": 4280,
      "LL": 4281,
      "Öý": 4282,
      "\u0010\b": 4283,
      "ó\u000f\u0016": 4284,
      ">>": 4285,
      "I©": 4286,
      ":\u0001": 4287,
      "Èè": 4288,
      "04": 4289,
      "\u0001": 4290,
      "if": 4291,
      "¸": 4292,
      "\f\u0005": 4293,
      "\u0012\u0004": 4294,
      "\t\u0000T": 4295,
      "°\u0002": 4296,
      "\u0000I": 4297,
      "17": 4298,
      "\u000e@ù": 4299,
      "õ\u0002": 4300,
      "¿ý": 4301,
      "þ": 4302,
      ";\u0001": 4303,
      "´\u0001": 4304,
      "13": 4305,
      "y\u000bN": 4306,
      "á\u0004": 4307,
      "Óý": 4308,
      "l ": 4309,
      "!x": 4310,
      "k\u0001": 4311,
      "\u0013ý": 4312,
      "p\u0007": 4313,
      "\nÀ": 4314,
      "O\u0010": 4315,
      "AM": 4316,
      "Äý": 4317,
      "\u001c\u001c": 4318,
      "\"\u0003": 4319,
      "\\ý": 4320,
      "\u0003\u0000´": 4321,
      "\t\u0000ð": 4322,
      "\u0000\u0000\u0001\u0000\u0000\u0000": 4323,
      "Ôý": 4324,
      "\u0014ë": 4325,
      "m ": 4326,
      "\u0013\b": 4327,
      "öÃ": 4328,
      "#>": 4329,
      "u\u000b": 4330,
      "l\u0001": 4331,
      "ü\u0004": 4332,
      "\u0000\u0000\u0003": 4333,
      "15": 4334,
      "\u0000\u0000\u0000\u0000@\u0000\u0000\u0000": 4335,
      "?\u0003": 4336,
      "\u0001": 4337,
      "ØØ": 4338,
      "@)": 4339,
      " \b": 4340,
      "ðH": 4341,
      "he": 4342,
      "à/": 4343,
      "ä\u000f\u0000": 4344,
      "B0": 4345,
      "ÿÿ\u0017$\u0003Õ": 4346,
      "÷\u0003\u0000ª": 4347,
      "$\u0003": 4348,
      "Z\u0001": 4349,
      "á\u0007": 4350,
      "â": 4351,
      "Tþ": 4352,
      "\u0005": 4353,
      "\u0001\u0000\b": 4354,
      "Q\u0004": 4355,
      "¼ý": 4356,
      "à\u0007@ù": 4357,
      "à\u0003\u0015*": 4358,
      "×ý": 4359,
      "ÁA": 4360,
      "ST": 4361,
      "H(": 4362,
      "B@": 4363,
      "L\u000f": 4364,
      "\u0016\u0002": 4365,
      "¯ý": 4366,
      "î\u0003": 4367,
      "\u0011\u0006": 4368,
      "ÐÐ": 4369,
      "WÀ": 4370,
      "\u00144": 4371,
      "îü": 4372,
      "¾\u0001": 4373,
      "ý": 4374,
      "Ïu": 4375,
      "kÉ": 4376,
      "ÂH": 4377,
      "E\u000f\\": 4378,
      "b\u0011": 4379,
      "Æàx": 4380,
      "\fü": 4381,
      "ÍÌL": 4382,
      "YY": 4383,
      "\u0000\u0000\b\u0000": 4384,
      "\tü": 4385,
      "ûù": 4386,
      ".s": 4387,
      "t\u0016": 4388,
      "\u0015\u0002": 4389,
      "Ì\u0001": 4390,
      "\b": 4391,
      "V5": 4392,
      "\r": 4393,
      "\n$": 4394,
      "LÀ": 4395,
      "!ü": 4396,
      "\u0004": 4397,
      "\u0000\u0000\u0001\u0000\u0000": 4398,
      "\t©": 4399,
      "\n×": 4400,
      "\u0004*": 4401,
      "Ó\u0001": 4402,
      "t\"": 4403,
      "\u0000\u0000f": 4404,
      "A@": 4405,
      "Ñø": 4406,
      " \u0002\u0000\u0000": 4407,
      "\u0000f": 4408,
      "çü": 4409,
      "¨ý": 4410,
      "\u001a*": 4411,
      "Hï": 4412,
      "óA\u000f\u0011": 4413,
      "\u0004\u0000\n": 4414,
      "Yý": 4415,
      "Ap": 4416,
      "Éý": 4417,
      "\u0010\r": 4418,
      "C0": 4419,
      "L|$": 4420,
      "LO": 4421,
      "\u0003\u0004\u0000\u0000\u0000\u0000\u0000\u0000": 4422,
      "ù": 4423,
      "ç\u0004": 4424,
      "à\t": 4425,
      ")F": 4426,
      "G\u0004": 4427,
      "\u0005\u000e": 4428,
      "ß\u0001": 4429,
      "\u0002": 4430,
      "á\u0003\u0000*": 4431,
      "ôWA©": 4432,
      "\u0003\u0000R": 4433,
      "_f": 4434,
      "\u0000\u0000\u0000\u000f": 4435,
      "\u001b": 4436,
      "L ": 4437,
      "\u0010I": 4438,
      "g\u0001": 4439,
      "õÿÿ": 4440,
      "": 4441,
      "ú\u0006": 4442,
      "á?": 4443,
      "Æ\u0001": 4444,
      "\u0018ý": 4445,
      "l$": 4446,
      "B\f": 4447,
      "\b\u0000": 4448,
      "t\u0001": 4449,
      "Û\u0001": 4450,
      "!F": 4451,
      "âü": 4452,
      "\u0002": 4453,
      "!": 4454,
      "%u": 4455,
      "@V": 4456,
      "ì\u0003": 4457,
      "\u0000\u0000T": 4458,
      "|\u0003": 4459,
      "\u0004\u0000Ò": 4460,
      "V6": 4461,
      "IF": 4462,
      "Èý": 4463,
      "Wa": 4464,
      "Â\u0002": 4465,
      "°\u0003": 4466,
      "EÐ": 4467,
      "ù÷": 4468,
      "º©": 4469,
      "\u0000@9": 4470,
      "~\b": 4471,
      "Mic": 4472,
      "f\u000fs": 4473,
      "Ú\u0001": 4474,
      "ë\u0010": 4475,
      "!\u0004\u0000": 4476,
      "íü": 4477,
      "bB": 4478,
      "\u001e\u0002": 4479,
      "\u001c*": 4480,
      "not ": 4481,
      "¬ý": 4482,
      "\u0010\u0010\u0010\u0010\u0010\u0010\u0010\u0010": 4483,
      "\u0005\"": 4484,
      "ã\u0004": 4485,
      "z\u0001": 4486,
      "û": 4487,
      "ç\u0002": 4488,
      "â ": 4489,
      "8\u0002": 4490,
      "\u0006\u0005": 4491,
      "Æ@": 4492,
      "\"": 4493,
      "\t\u0000Ð": 4494,
      "9¹": 4495,
      "\nü": 4496,
      "K\b": 4497,
      "8@": 4498,
      "\u0001\u0004\u0001": 4499,
      "\u0001": 4500,
      "\u0015\u0003": 4501,
      "ºý": 4502,
      "ÿ\u0001": 4503,
      "A¸\u0001\u0000\u0000\u0000": 4504,
      "â\u001f": 4505,
      "CH": 4506,
      "s\u0002": 4507,
      "\u0010ÿ\u000f\u0000\u0000": 4508,
      "ý": 4509,
      "0": 4510,
      "L3": 4511,
      ";Ð": 4512,
      "Îý": 4513,
      "H": 4514,
      "û\u0007": 4515,
      " \f": 4516,
      "\u0012ð": 4517,
      "\u000bü": 4518,
      "Çý": 4519,
      "è": 4520,
      "H": 4521,
      "\u0005\u0005\u0005\u0005": 4522,
      "\u0016\u0003": 4523,
      "8`": 4524,
      "A": 4525,
      "/": 4526,
      "\u0000\u0000\u0000\u0000\b\u0000\u0000\u0000": 4527,
      "": 4528,
      "à!": 4529,
      "Æ¨": 4530,
      "f\u000f\\": 4531,
      "æü": 4532,
      "ý{¼©": 4533,
      "\u0018": 4534,
      " \f": 4535,
      "\u0006*": 4536,
      "\u0001": 4537,
      "Ëý": 4538,
      "\u0001": 4539,
      "\u000f": 4540,
      "SU": 4541,
      "\u0000\u0000\u0000\u0000": 4542,
      "ÁH": 4543,
      "\u0004\u0000ù": 4544,
      "\u0017\u0002": 4545,
      "\u0018ð": 4546,
      "ú\u0007": 4547,
      "\u001a\u001a": 4548,
      "t$0": 4549,
      "ë\u0013": 4550,
      "Ø": 4551,
      "c\u0001": 4552,
      "\u0010 ": 4553,
      "\u0019\u0004": 4554,
      "}\u0001": 4555,
      ",\u0002": 4556,
      "LD$": 4557,
      "\u0005ò": 4558,
      "\t\n": 4559,
      "AÐ;Õ": 4560,
      "ÜÜ": 4561,
      "$\u0004": 4562,
      "â\u0002": 4563,
      "Hì H": 4564,
      "\u0001\u0000\u0000\u0000": 4565,
      "¨\u0000\u0000": 4566,
      "set": 4567,
      "\u0012\u0000 ": 4568,
      "²ý": 4569,
      "t\u0000e\u0000": 4570,
      "!!": 4571,
      "Õ\u0001": 4572,
      "18": 4573,
      ",\u0004": 4574,
      "\u0015\u0000\u0000\u0000": 4575,
      "\u0001": 4576,
      "LÆ": 4577,
      "\u0006": 4578,
      "1F": 4579,
      "\u0000\u0000ð": 4580,
      "4 ": 4581,
      "@F": 4582,
      "\u0010ý": 4583,
      "(ý": 4584,
      "ÿ?": 4585,
      "\u0002": 4586,
      "óE": 4587,
      "\u0004\u0000\u0000\u0000\u0000\u0000\u0000\u0000": 4588,
      "Êý": 4589,
      "\u0002\u0000Ð": 4590,
      "y\u0001": 4591,
      "B\u000f": 4592,
      "D$ ": 4593,
      "\u0013\u0003": 4594,
      "\u0002\u0000°": 4595,
      "\u0017ý": 4596,
      "\u0018\u0004": 4597,
      "77": 4598,
      "\u001b*": 4599,
      "##": 4600,
      "áü": 4601,
      ")\u0004\u0000\u0000\u0000": 4602,
      "^[": 4603,
      "¢\u0001": 4604,
      "½": 4605,
      "Þ\u0001": 4606,
      "õ\u0013\u0000ù": 4607,
      "\u001fS": 4608,
      "\u0011è": 4609,
      "Ç": 4610,
      "à\n": 4611,
      "!`": 4612,
      "\u000fð": 4613,
      "t\u0017": 4614,
      "\u0005H": 4615,
      "?\u0000\u0000ë": 4616,
      "ä\u0002": 4617,
      "b1": 4618,
      "49": 4619,
      "\u0003À": 4620,
      "\u000fd": 4621,
      "HX": 4622,
      "\u0019ý": 4623,
      "\u0010\u0000": 4624,
      "½": 4625,
      "\u0006ª": 4626,
      "4$": 4627,
      "âÃ": 4628,
      "y\u0018": 4629,
      "ãü": 4630,
      "V\u0001": 4631,
      "\u0002\u0000\u0000è": 4632,
      "D$0": 4633,
      "8\u0004": 4634,
      "ôW\u0001©": 4635,
      "ìü": 4636,
      "\u001cý": 4637,
      "t\u0014": 4638,
      "~@": 4639,
      "¹": 4640,
      "\u0007": 4641,
      "}\u0010": 4642,
      "\u0007ò": 4643,
      "u\u000e": 4644,
      "Hl$": 4645,
      ": %": 4646,
      "©ý": 4647,
      "Ý\u0001": 4648,
      "`¸": 4649,
      "str": 4650,
      "®\u0000\u0000\u0000\u0000\u0000": 4651,
      "ðH": 4652,
      "\u0005\f": 4653,
      "H\u0001\u0000\u0000": 4654,
      "@A": 4655,
      "86": 4656,
      "\u0001": 4657,
      "t\u0005è": 4658,
      "{": 4659,
      "\u0000\u0000µ": 4660,
      "³ý": 4661,
      "\u000f¶À": 4662,
      "éü": 4663,
      "(s": 4664,
      "tþ": 4665,
      "d_": 4666,
      "\u000f\u0010\u0005": 4667,
      "D\u0004": 4668,
      "U\u0001": 4669,
      "Hþ": 4670,
      "r\u0000e\u0000": 4671,
      "\u000f\u0000\u0000\u0000\u0000\u0000": 4672,
      "ùÿ": 4673,
      "×è": 4674,
      "I": 4675,
      "Cþ": 4676,
      "ÆEü": 4677,
      "\u0000\u0000\u0000A": 4678,
      "Æ\u0004": 4679,
      "ó\u0002": 4680,
      "H\u0003": 4681,
      "\u0000\u0000\u0000!": 4682,
      "`\u0002@¹": 4683,
      "\u0016": 4684,
      "0ý": 4685,
      "\"": 4686,
      "ö÷": 4687,
      "uþ": 4688,
      "û\b": 4689,
      "(\u0003": 4690,
      "ùú": 4691,
      "0\u0010": 4692,
      "øH": 4693,
      "|\b": 4694,
      "Ü\u0001": 4695,
      " \u001f": 4696,
      "ý": 4697,
      "<<": 4698,
      "%\u0000\u0000\u0000\u0000": 4699,
      "¶ý": 4700,
      "ÔÓ": 4701,
      "À\"": 4702,
      "¦ý": 4703,
      "E3ö": 4704,
      "´ý": 4705,
      "W\u0001": 4706,
      "\rü": 4707,
      "p\u0010": 4708,
      "è÷": 4709,
      " \u0005": 4710,
      "\n\f": 4711,
      "H": 4712,
      "D": 4713,
      "\u0006H": 4714,
      "(": 4715,
      "\u0000\u0000\u0000\u0001\u0000": 4716,
      "¡\u0001": 4717,
      "Mo": 4718,
      "\u0001": 4719,
      "ó\u000f~": 4720,
      "`\u0002@ù": 4721,
      "\u0003\u0000¹": 4722,
      "or ": 4723,
      "ÃÌÌÌÌÌÌÌ": 4724,
      "\u0001\u0000\u0000Ô": 4725,
      "<\u0002": 4726,
      " ": 4727,
      "¤ý": 4728,
      "bÒ": 4729,
      "O\u0001": 4730,
      "\t": 4731,
      "\u001c": 4732,
      "Å\u0001": 4733,
      "C(": 4734,
      "0\f": 4735,
      "\u0003": 4736,
      "MP": 4737,
      "\u0001\u0000\u0000\u0000è": 4738,
      "`&": 4739,
      "W\u0000i\u0000n\u0000": 4740,
      "¿": 4741,
      ",q": 4742,
      "\u000fý": 4743,
      "=ý": 4744,
      "\u0000\u0000\u0000L": 4745,
      "59": 4746,
      "ôû": 4747,
      "C_": 4748,
      "4": 4749,
      "\u000f2": 4750,
      "<\u0010": 4751,
      "b": 4752,
      "\u0005\u0001\u0000": 4753,
      "ý": 4754,
      "à\u0003\u001cª": 4755,
      "Pý": 4756,
      "£\u0001": 4757,
      "A,": 4758,
      "ë\u0015": 4759,
      "\u0000x": 4760,
      "Ã": 4761,
      "\u0018\b": 4762,
      "z\u0012": 4763,
      ":": 4764,
      "A¿": 4765,
      "ùø": 4766,
      "i\u0001": 4767,
      "õû": 4768,
      "ÿÿÿ\u000f": 4769,
      "r\u0000o\u0000": 4770,
      "Ù\u0001": 4771,
      "\u0000Æ": 4772,
      "\u0000\u0000\u0000\u0000\u0002": 4773,
      "­ý": 4774,
      "ã\u000f": 4775,
      "\u0015\u0004": 4776,
      "1É": 4777,
      "`": 4778,
      "»\u0001": 4779,
      "HY": 4780,
      "\u0001": 4781,
      "H$": 4782,
      "·\u0001": 4783,
      "1\u0010": 4784,
      "u\u0018": 4785,
      "r\u0001": 4786,
      "\u0013": 4787,
      "\u001dý": 4788,
      "ting": 4789,
      "@ú": 4790,
      "\u0015ý": 4791,
      "Ð\u0001\u0000\u0000": 4792,
      "AD": 4793,
      ">": 4794,
      "ÿ%": 4795,
      "HD$0": 4796,
      "í\u0003": 4797,
      "f\u0001": 4798,
      "48": 4799,
      "?ý": 4800,
      "ôÿÿ": 4801,
      "\u0018\u0010": 4802,
      "WW": 4803,
      "è\u0007": 4804,
      "\bò": 4805,
      "k\u0002": 4806,
      "`ý": 4807,
      "Hû": 4808,
      "u\u0001": 4809,
      "@¼": 4810,
      "AF": 4811,
      "\u001aý": 4812,
      "¿#\u0003ÕÀ\u0003_Ö?#\u0003Õ": 4813,
      "@+": 4814,
      "bò}H\u0018": 4815,
      "¢ý": 4816,
      "\u000fÀ": 4817,
      "§ý": 4818,
      "a\u0004": 4819,
      "£ý": 4820,
      "\u001d\u0002": 4821,
      "\u0005$": 4822,
      "ý": 4823,
      "þý": 4824,
      "b²": 4825,
      "t(": 4826,
      "¶\u0001": 4827,
      "æ\u0004": 4828,
      "ÔÔ": 4829,
      "[é": 4830,
      "lp": 4831,
      "øò": 4832,
      "\u0003": 4833,
      "õ\u0003\u0001ª": 4834,
      "@ï": 4835,
      "ËF": 4836,
      "%\u0010": 4837,
      "&\u0000\u0000": 4838,
      "¿\u0002": 4839,
      "_Z": 4840,
      "EÀ": 4841,
      "A]A^": 4842,
      "s\u0001": 4843,
      "u\u0003": 4844,
      "\u0000@\u0000\u0000": 4845,
      "÷?": 4846,
      "u\u0012": 4847,
      " !": 4848,
      "\u0002\u00005": 4849,
      "\u001f\u0000\u0000ñ": 4850,
      ";ý": 4851,
      "ù\u0006": 4852,
      "\u0000Ð": 4853,
      "ï\u0002": 4854,
      "x\b": 4855,
      "ø\u0001u": 4856,
      "«\u0001": 4857,
      "yn": 4858,
      "ê\u0002": 4859,
      "]\u0001": 4860,
      "f\u000fÆ": 4861,
      "ú\u0005": 4862,
      "µý": 4863,
      "®ý": 4864,
      "ÿ\u0003\u0002": 4865,
      "Ö\u0001": 4866,
      "@\u001a": 4867,
      "\u0001": 4868,
      "\u0000": 4869,
      ">\u0002": 4870,
      "`B": 4871,
      "á\u0017": 4872,
      "»ý": 4873,
      "Åû\u0010": 4874,
      "G\u0018": 4875,
      "W\u0010": 4876,
      ")\u0004": 4877,
      "ø\f": 4878,
      "äü": 4879,
      "S\u0010": 4880,
      "`!": 4881,
      "/ý": 4882,
      "E\u0002": 4883,
      "¥ý": 4884,
      "3È": 4885,
      "À=": 4886,
      "\n\u0000T": 4887,
      "\u000e\u000e\u000e\u000e": 4888,
      "*H": 4889,
      "40": 4890,
      "ý": 4891,
      "\u0013": 4892,
      "\u0002\u0000ð": 4893,
      "(\u0004": 4894,
      " \u0018": 4895,
      "HÛt": 4896,
      "\u0000\u0000\u0000": 4897,
      "¸\u0005": 4898,
      "|>": 4899,
      "B\u000e\u0018": 4900,
      "{\u0001": 4901,
      "\u0011\f": 4902,
      "?\u0000\u0000k": 4903,
      "øñ": 4904,
      "éû": 4905,
      "XH": 4906,
      "ì": 4907,
      "I": 4908,
      "FF": 4909,
      "=%": 4910,
      "u\u0011": 4911,
      "¹ý": 4912,
      "Eø": 4913,
      "sp": 4914,
      "oý": 4915,
      "\u0013ð": 4916,
      "hè": 4917,
      "ë\u0012": 4918,
      "$ð": 4919,
      "SV": 4920,
      "?\u0002": 4921,
      "\u000eü": 4922,
      "\u0006è": 4923,
      "D\u000fW": 4924,
      "Ã@\u0000": 4925,
      "\u001a\u0000\u001a\u0000": 4926,
      "\u0014": 4927,
      "z\u0016": 4928,
      "\u00140": 4929,
      "\u001bý": 4930,
      "\u0019\u0019": 4931,
      " !": 4932,
      "L": 4933,
      "\\$0": 4934,
      "\u0013": 4935,
      "\u001f": 4936,
      "h\u0000\u0000\u0000": 4937,
      "No": 4938,
      "H": 4939,
      "\u0003\u0004ª": 4940,
      "(": 4941,
      "23": 4942,
      "a\u0000\u0000": 4943,
      "¬\u0001": 4944,
      "HM": 4945,
      "ý": 4946,
      "àxàxàxàx": 4947,
      "óû": 4948,
      "!": 4949,
      "ªý": 4950,
      "\r\t": 4951,
      "\u001d\u001d": 4952,
      "\u0006\u000b": 4953,
      "·ý": 4954,
      " I": 4955,
      "Hï": 4956,
      "â": 4957,
      "\"\u0000R": 4958,
      "$": 4959,
      "ëü": 4960,
      " À": 4961,
      "«ý": 4962,
      "ue": 4963,
      "\u0011ü": 4964,
      "À\u000f": 4965,
      "õ\u0003\u0000*": 4966,
      "½\u0001": 4967,
      "ò": 4968,
      "P\u0018": 4969,
      "A¾": 4970,
      "\u0006ò": 4971,
      "\u0007\n": 4972,
      "ý{Á¨¿#\u0003Õ": 4973,
      "f\u000f\u001f\u0000\u0000\u0000\u0000\u0000": 4974,
      "W\u0000i\u0000n\u0000d\u0000": 4975,
      "pý": 4976,
      "": 4977,
      "hb": 4978,
      "\u0015ð": 4979,
      "\u001f\b": 4980,
      "ò\u000f\\": 4981,
      "Ä\u0003": 4982,
      "ÿé": 4983,
      "\u0000\u0000I": 4984,
      "s_": 4985,
      "î\u0002": 4986,
      "4\u0002": 4987,
      "ý": 4988,
      "ù\b": 4989,
      "vi": 4990,
      "Ï\u0001": 4991,
      "ïû": 4992,
      "\u0013ë": 4993,
      "_è": 4994,
      "Óè": 4995,
      "Ph": 4996,
      "f\u000f\u001f\u0000": 4997,
      "êü": 4998,
      "\u0001": 4999,
      "!ø": 5000,
      "t\u0019": 5001,
      "±ý": 5002,
      "end": 5003,
      "J": 5004,
      "1 ": 5005,
      "\u0003Ñ": 5006,
      "\t\u0000°": 5007,
      "pro": 5008,
      "V\u0002": 5009,
      "\u001fý": 5010,
      "\u0013\u0000Ò": 5011,
      "¡ý": 5012,
      "§\u0001": 5013,
      "\u0004l": 5014,
      "A\u001c": 5015,
      "\t\u0000": 5016,
      "Î\u0001": 5017,
      "": 5018,
      "\u001fø": 5019,
      "à\u001b": 5020,
      "Ã\u0001": 5021,
      "ca": 5022,
      "cl": 5023,
      " ý": 5024,
      "Ê\u0001": 5025,
      "\tò": 5026,
      "/\u0000\u0000": 5027,
      "IS": 5028,
      "=": 5029,
      "BÀ": 5030,
      "fa": 5031,
      "ã\u0002": 5032,
      "<\u0003": 5033,
      ";Â": 5034,
      " \u0007": 5035,
      "\r\u0018": 5036,
      "õ÷": 5037,
      "HH": 5038,
      "+": 5039,
      "b": 5040,
      "ñû": 5041,
      "sý": 5042,
      "\u0003": 5043,
      "v\u0001": 5044,
      "á\u0003\u0019ª": 5045,
      "¦\u0001": 5046,
      "t!": 5047,
      "è\u000b": 5048,
      "åü": 5049,
      ">ý": 5050,
      "AUAT": 5051,
      "¼\u0001": 5052,
      "Ç\u0002": 5053,
      "\u0004\u000e": 5054,
      "ÃH": 5055,
      "¡\u0000\u0000T": 5056,
      "\u0004\u0003": 5057,
      "ÿ\u0003": 5058,
      "x\u0002": 5059,
      "_ø": 5060,
      "f\u0002": 5061,
      "Í\u0001": 5062,
      "\u0006r": 5063,
      "D\u0002": 5064,
      "\u0006\u000f": 5065,
      "\u0000\u0000L": 5066,
      "ó\u000fo": 5067,
      "­\u0001": 5068,
      "\t": 5069,
      "*\u0004": 5070,
      "Dý": 5071,
      "$ý": 5072,
      "\u0014\b": 5073,
      "\f": 5074,
      "$r": 5075,
      "mm": 5076,
      "t\u001a": 5077,
      ".\u0000\u0000": 5078,
      "t\u001b": 5079,
      "\f": 5080,
      "Ç\u0003": 5081,
      "M9": 5082,
      "gn": 5083,
      "\u0016ë": 5084,
      "\u0017\u0004": 5085,
      "0": 5086,
      "ô\u0004": 5087,
      "\u000fo": 5088,
      "HÂ": 5089,
      "A)": 5090,
      "¸\u0002": 5091,
      "ì\u0002": 5092,
      "<ý": 5093,
      "+ý": 5094,
      "W\u0000i\u0000": 5095,
      "èü": 5096,
      "\u0000\u0000\u0000\u0000\u0001\u0000`\u0000": 5097,
      "\u0000A\u000e\u0010": 5098,
      "\" \u000fG": 5099,
      "o\u0000w\u0000s\u0000.\u0000": 5100,
      "ý": 5101,
      "D\u000f\\": 5102,
      "¤\u0000\u0000\u0000": 5103,
      "ý": 5104,
      "t$8": 5105,
      "J\u0004": 5106,
      "G ": 5107,
      "\b": 5108,
      "Con": 5109,
      "\u0005r": 5110,
      "fD\u000fY": 5111,
      "ý": 5112,
      "\n\u0000\n\u0000": 5113,
      "ö\u0007": 5114,
      "ó\u000f\u001eú": 5115,
      "u\u0015": 5116,
      "ÿÿµ": 5117,
      "Bü": 5118,
      "j\b": 5119,
      "â": 5120,
      "\u0010": 5121,
      "È\u000f": 5122,
      "\u000b\u0005": 5123,
      "!": 5124,
      "Oô": 5125,
      "@\u0012\u0000\"": 5126,
      "": 5127,
      "pH": 5128,
      "Ð\u0004": 5129,
      "03": 5130,
      "-": 5131,
      "HI\u0018": 5132,
      "úø": 5133,
      "AR": 5134,
      ";ð": 5135,
      "\r\u0005": 5136,
      "\u0019x": 5137,
      "ý": 5138,
      "ý": 5139,
      "\u0006\u0000q": 5140,
      "ý{¿©ý\u0003\u0000": 5141,
      "P": 5142,
      "ý": 5143,
      "\u0007à": 5144,
      "\bWH": 5145,
      "\u0004ª": 5146,
      "`0": 5147,
      "45": 5148,
      "Mü": 5149,
      "Óà": 5150,
      "ow": 5151,
      "Ø\u0002": 5152,
      "¡\u0013@Ñ": 5153,
      "&": 5154,
      "`@": 5155,
      "\u0006R": 5156,
      "val": 5157,
      "K{D": 5158,
      "V\u0002\u0000": 5159,
      "½": 5160,
      " -": 5161,
      "\u0019": 5162,
      "ý": 5163,
      "H$": 5164,
      "\u0014": 5165,
      "÷û": 5166,
      "ý": 5167,
      "e\u0000g\u0000": 5168,
      "@,": 5169,
      "ï¾­Þ": 5170,
      "\u0000\u0000\u0000ÿ": 5171,
      "\u0005ª": 5172,
      "#ý": 5173,
      "2\u0010": 5174,
      "%r": 5175,
      "`\u0000\u0000T": 5176,
      "4ý": 5177,
      "ÿÿè": 5178,
      "\bA": 5179,
      "D3": 5180,
      "í\u0002": 5181,
      "\u000f\u0004": 5182,
      "\u0011\t": 5183,
      "é\u0004": 5184,
      "\u001d\u0003": 5185,
      "âÂ": 5186,
      "ý": 5187,
      "¨\u0002t": 5188,
      "))": 5189,
      "@\bÿ\u0015": 5190,
      "Gý": 5191,
      "er ": 5192,
      "\u0017\u0003": 5193,
      ",\u0001\u0000\u0000": 5194,
      "\u0001\u0000\u0002\u0000": 5195,
      "ñ?": 5196,
      "N\u0010": 5197,
      "E\u0000_\u0000": 5198,
      "\u0010\u0000q": 5199,
      ">": 5200,
      "\u000f\u0014": 5201,
      ")\u0003": 5202,
      "ÚÚ": 5203,
      "Åè": 5204,
      "\u001f(": 5205,
      "t:": 5206,
      "HL": 5207,
      "ý": 5208,
      "%ý": 5209,
      "ú\b": 5210,
      "hý": 5211,
      "\u0000\u0000°": 5212,
      "$\u0000\u0000\u0000\u0000": 5213,
      "ý": 5214,
      "øó": 5215,
      "µ\u0001": 5216,
      "#\u0004": 5217,
      "ý": 5218,
      "Ã@\u0000\u0000": 5219,
      " ü": 5220,
      "x\u0018": 5221,
      "s@": 5222,
      "ø\u001f": 5223,
      "\b": 5224,
      "¡\u0002": 5225,
      "\u0006û": 5226,
      "\u0019": 5227,
      "\u0011\u0005": 5228,
      "f\u000fÖ": 5229,
      "": 5230,
      "Ç\u0004": 5231,
      "\n": 5232,
      "\u0012ü": 5233,
      "\u0007": 5234,
      "ûsE©": 5235,
      "ý": 5236,
      "¸\u0003": 5237,
      "À%": 5238,
      "t\u0018": 5239,
      "\u0019\u0003": 5240,
      "\u001eý": 5241,
      "\u0010": 5242,
      "ÇH": 5243,
      "a\u0000\u0000T": 5244,
      "ú?": 5245,
      "â?": 5246,
      "ø": 5247,
      "Ë\u0001": 5248,
      "\f": 5249,
      "\u0000\"": 5250,
      "øð": 5251,
      "\u0007û": 5252,
      "Hïè": 5253,
      "-ý": 5254,
      "@\u0001\u0000": 5255,
      "\u0010ÿÖ": 5256,
      "vý": 5257,
      "0I": 5258,
      ".ý": 5259,
      " *": 5260,
      "òû": 5261,
      "\u001f8": 5262,
      "\u0003": 5263,
      "b\u0012": 5264,
      "Aý": 5265,
      "\u0007\t": 5266,
      " B": 5267,
      "\u0006F": 5268,
      "ã\u0003\u0000ª": 5269,
      "|\u0002": 5270,
      "ý{Á¨À\u0003_Ö": 5271,
      "ÜÛ": 5272,
      "s\u0000\u0000\u0000": 5273,
      ";ø": 5274,
      "!ý": 5275,
      "@\u001c": 5276,
      "\u0000\u0000\u0000\u0000\u0000\u0000\u0000\u0000\u0000\u0000\u0000\u0000\u0000\u0000": 5277,
      " \n": 5278,
      "ý": 5279,
      "\u000fWÉ": 5280,
      "³ÞW#": 5281,
      "å\u0002": 5282,
      "\bF": 5283,
      "ine": 5284,
      "øHø\u001f": 5285,
      "\u0000\b\u0000": 5286,
      "u\u000f": 5287,
      "Åü\u0010": 5288,
      "'ý": 5289,
      "HÄ8": 5290,
      "èó": 5291,
      "Û": 5292,
      "°,": 5293,
      "\u0000ÿ¿": 5294,
      "\f\n": 5295,
      ",ý": 5296,
      "~ý": 5297,
      "\bf": 5298,
      "": 5299,
      "H": 5300,
      "ø": 5301,
      " <": 5302,
      "ý": 5303,
      "=": 5304,
      "Â\u0000\u0000": 5305,
      "ù\u0005": 5306,
      "\u001b\u001b": 5307,
      "u\u0014": 5308,
      "da": 5309,
      "\u0003": 5310,
      "À/": 5311,
      "Æé": 5312,
      "IÇ": 5313,
      "òA\u000f\u0010": 5314,
      "fE\u000fY": 5315,
      "è'": 5316,
      "0\r": 5317,
      "ý": 5318,
      "\u001e": 5319,
      "H;\u0005": 5320,
      "\u0005": 5321,
      "ý": 5322,
      "\u0007\u000b": 5323,
      "\"ý": 5324,
      "óA\u000fX": 5325,
      "\u0006\u0000\u0006\u0000": 5326,
      "\u0002": 5327,
      "\u0000\u0004\u0000Q": 5328,
      "èç": 5329,
      "\u0007\u000f": 5330,
      "ò?": 5331,
      "t\u001c": 5332,
      "Á\u0003": 5333,
      "HÁè": 5334,
      "\u0006": 5335,
      "ÞÞ": 5336,
      "ò\u000f\u0012": 5337,
      "@­": 5338,
      "ÖÖ": 5339,
      "A#": 5340,
      "ë\u0014": 5341,
      "ace": 5342,
      "ý": 5343,
      "\u0001\u0000": 5344,
      "SP": 5345,
      "6\u0003": 5346,
      "E\u0000\u0000": 5347,
      "\u0000@\u0000": 5348,
      "w\u0001": 5349,
      "\u0017\u0017\u0017\u0017": 5350,
      "É": 5351,
      "  ": 5352,
      "Lç": 5353,
      "\u0011ð": 5354,
      "e": 5355,
      "x\u0004": 5356,
      "\u0000\u0014": 5357,
      "ö\u000f": 5358,
      "\u0000@\u0000": 5359,
      "b\u0000\u0000": 5360,
      "\u0010\u0006": 5361,
      "\u0000\u0000\u0000": 5362,
      "Eà": 5363,
      "P": 5364,
      "^Ã": 5365,
      "J\b": 5366,
      "ý": 5367,
      "\u0003": 5368,
      "@ ": 5369,
      "ÀZ": 5370,
      "\u0010A": 5371,
      "H\u0004%": 5372,
      "\u0004\u0000\u0000\u0000\u0000\u0000": 5373,
      "C8": 5374,
      "ø?": 5375,
      "è#": 5376,
      "À": 5377,
      "s\u0006\u0000": 5378,
      "Â\u0003": 5379,
      "X\u0002": 5380,
      "\np": 5381,
      "&ý": 5382,
      "L$": 5383,
      "\u0005!": 5384,
      "\u000b©": 5385,
      "æ\u0002": 5386,
      "ÄA|\u0010": 5387,
      "Tÿ\u001d": 5388,
      "\u0003\u0004\u0000\u0000": 5389,
      "EL": 5390,
      "|ý": 5391,
      "\u0002": 5392,
      "`\u0002\u0000\u0000": 5393,
      "\u0005t": 5394,
      "\u0014ü": 5395,
      "<\u0000<\u0000": 5396,
      "}ý": 5397,
      "\u0004ü": 5398,
      "F\u0018": 5399,
      "\u0005\u0013": 5400,
      "?ô": 5401,
      "øÿ": 5402,
      "y\u0000\u0000\u0000": 5403,
      "Lý": 5404,
      "sc": 5405,
      " \u0000=\u0000 \u0000": 5406,
      "pl": 5407,
      "\u0002": 5408,
      "û": 5409,
      ")ý": 5410,
      "HxD": 5411,
      "\u0017": 5412,
      "Ê\"": 5413,
      "HÆ": 5414,
      "_^]Ã": 5415,
      "\u0001": 5416,
      "Àò": 5417,
      "3ý": 5418,
      "\u0010\"": 5419,
      "Ùè": 5420,
      "\u000bÁ": 5421,
      "ÆD": 5422,
      "En": 5423,
      "\u0007": 5424,
      "HÞ": 5425,
      "À<": 5426,
      "\u0014": 5427,
      "\u0001": 5428,
      "8ý": 5429,
      " I": 5430,
      "\u0010P": 5431,
      "\u0007\u0000\u0011": 5432,
      "Hÿ": 5433,
      "óÿÿ": 5434,
      " è": 5435,
      "L\u0000\u0000\u0000": 5436,
      "s\n": 5437,
      "t-": 5438,
      "Eè": 5439,
      "\u001f\u001f": 5440,
      "\u000bò": 5441,
      "\u0010Ht$\u0018": 5442,
      "2ý": 5443,
      "L$@": 5444,
      "Ð\u000f": 5445,
      "ho": 5446,
      "¨\u0003": 5447,
      "H": 5448,
      "f9": 5449,
      "µ\u0002": 5450,
      ":": 5451,
      "MA": 5452,
      "\u000b\u0000T": 5453,
      "öú": 5454,
      ">": 5455,
      "t+": 5456,
      "tio": 5457,
      "!\f": 5458,
      "`H": 5459,
      "3\u0000\u0000": 5460,
      "\u0005T": 5461,
      ";\u0000\u0000": 5462,
      "\u0006ô": 5463,
      "ý": 5464,
      "Sý": 5465,
      "\u0011\u000f": 5466,
      "Ày": 5467,
      "\u0005\u0012": 5468,
      "\u0002\u0000\u0001\u0000": 5469,
      "x\u0001\u0000\u0000": 5470,
      "Ò ": 5471,
      "Ð\u0007": 5472,
      "è\u001b": 5473,
      "\bü": 5474,
      "\u0004q": 5475,
      "4\u0000\u0000": 5476,
      "K©": 5477,
      "Ðü": 5478,
      "\u0005÷": 5479,
      "}\b": 5480,
      "ð": 5481,
      "ë\u0016": 5482,
      "@&": 5483,
      "]é": 5484,
      "#\u0003": 5485,
      "H)": 5486,
      "lý": 5487,
      "38": 5488,
      "\u0007\u0000": 5489,
      "\r\u000b": 5490,
      "\u0005\u0014": 5491,
      "Bý": 5492,
      "EX": 5493,
      "\u00040": 5494,
      "L5": 5495,
      "\u001f\u0004@": 5496,
      "Lçè": 5497,
      "\rò": 5498,
      "(Ã": 5499,
      "àc": 5500,
      "\u001b\u0003": 5501,
      "v\b": 5502,
      "xý": 5503,
      "' ": 5504,
      "yý": 5505,
      "1ý": 5506,
      "t\u001d": 5507,
      "×\u0001": 5508,
      "PU": 5509,
      "Rý": 5510,
      "`\u0000R": 5511,
      " ": 5512,
      "\u0005*": 5513,
      "3Ìè": 5514,
      "@p": 5515,
      "wa": 5516,
      "Lq": 5517,
      "ïî": 5518,
      "\u0016ü": 5519,
      "öù": 5520,
      "ó\u0007": 5521,
      "5ý": 5522,
      "@\u0004\u0000": 5523,
      "K\u0002": 5524,
      "ó÷": 5525,
      "ÌÌÌÌH": 5526,
      "ô÷": 5527,
      "ñè": 5528,
      "\u001a": 5529,
      "\u0012": 5530,
      "øõ": 5531,
      "8\u0003": 5532,
      "?": 5533,
      "mý": 5534,
      "\u0012x": 5535,
      "H$": 5536,
      "^ý": 5537,
      "ðû": 5538,
      "W ": 5539,
      "i\u0000o\u0000n\u0000": 5540,
      "yp": 5541,
      "\u0000\u0000\u0000": 5542,
      " \u000f": 5543,
      "n\u0001": 5544,
      "\u0000\u0000": 5545,
      "è;": 5546,
      "E@": 5547,
      "c\u0000\u0002ë\u0002\u0000Ò": 5548,
      "06": 5549,
      "A\u0000": 5550,
      "_i": 5551,
      ")\u0003\u0000\u0000\u0000": 5552,
      "\u0000\u0000\u0000\u0000`": 5553,
      "\b\t": 5554,
      "Ä\u0010": 5555,
      "++": 5556,
      "¡\u0003": 5557,
      "PQ": 5558,
      "¿\u0000\u0000¿\u0000\u0000": 5559,
      "óD\u000fY": 5560,
      "\u0001\u0000 Ò": 5561,
      "»": 5562,
      "á\u0003\u001aª": 5563,
      "9ý": 5564,
      "L¼$": 5565,
      "c\u0000\u0000": 5566,
      "÷Ù": 5567,
      "*ý": 5568,
      "HO": 5569,
      "ý": 5570,
      "m\u0001": 5571,
      "!8": 5572,
      "è£": 5573,
      "AÀ": 5574,
      "\u0003": 5575,
      "ö\u0004": 5576,
      "\u0000\u0000=": 5577,
      "\u0001\u0000\u0002": 5578,
      "Ö\u0002": 5579,
      "mi": 5580,
      "0\u000f": 5581,
      "7\u0000ù": 5582,
      "rý": 5583,
      "and": 5584,
      "ø\u000b": 5585,
      "ù?": 5586,
      "3Á": 5587,
      "\u0000\u0000\u0000\u0000\u0000\u0000\u0000\u0001\u0000\u0000\u0000": 5588,
      "òA": 5589,
      "h\u001e": 5590,
      "í#": 5591,
      "N\u0004": 5592,
      "_ý": 5593,
      "á#": 5594,
      "D\u000e": 5595,
      "\u001a\u0003": 5596,
      "aý": 5597,
      "ð\u0004": 5598,
      "¾": 5599,
      "ÏÿÖ": 5600,
      "ø\u0002": 5601,
      "wý": 5602,
      "ÆC": 5603,
      "â\u0007": 5604,
      "\u0000\u0016": 5605,
      "\u001d\u0012": 5606,
      "~\u0016": 5607,
      "V7": 5608,
      "'@ù": 5609,
      "\u001c": 5610,
      "\u0010": 5611,
      "­p": 5612,
      ">\u0004": 5613,
      "0_": 5614,
      "]ý": 5615,
      "Ñ\u0003": 5616,
      "*\u0000\u0000": 5617,
      "\u001c$": 5618,
      "0\b": 5619,
      "Mý": 5620,
      "Fr": 5621,
      "\u0001\u0000\u0000": 5622,
      "\u0004": 5623,
      "H\\": 5624,
      "V8": 5625,
      "òñ": 5626,
      "\u0000D": 5627,
      " \u0002\u001fÖ": 5628,
      "è\u001f": 5629,
      "\u0011\u0014": 5630,
      "©q": 5631,
      "nvnvnvnv": 5632,
      "\u0000": 5633,
      "àã": 5634,
      "\u0000\u0000\u0000\u0000\u0001\u0000\u0001\u0000": 5635,
      "*\u0002": 5636,
      " d": 5637,
      "»©": 5638,
      "àG": 5639,
      "\u0001\u0000": 5640,
      "ù\u0007": 5641,
      "AWAV": 5642,
      "H\u0002": 5643,
      "à\u0001": 5644,
      "": 5645,
      "\u0001\u0000\u0016": 5646,
      "õ\u0007": 5647,
      "õú": 5648,
      "ÿÿ5": 5649,
      "¯\u0001": 5650,
      "Á\u0010": 5651,
      "Àx": 5652,
      "Q": 5653,
      "\u0002": 5654,
      "Th": 5655,
      "\u0015\u0010": 5656,
      "\u000eè": 5657,
      "À\f": 5658,
      " 0": 5659,
      "\u0013\n": 5660,
      "=\u0002": 5661,
      "L\u0002": 5662,
      "\u0002\u0000\u0002": 5663,
      "\u0010": 5664,
      "cý": 5665,
      "iý": 5666,
      "ØH": 5667,
      "Á": 5668,
      "Ð\u0006": 5669,
      "o\u0001": 5670,
      "ý": 5671,
      "ATAUAVAW": 5672,
      "\n¸": 5673,
      "zý": 5674,
      "½èð": 5675,
      "\u0000\u0000@9": 5676,
      "ð\u0001\u0000\u0000": 5677,
      "%\u0003": 5678,
      "ö±": 5679,
      "K0": 5680,
      "I\u0000n\u0000t\u0000": 5681,
      "±\u0000\u0000\u0000\u0000\u0000": 5682,
      "ó?": 5683,
      "[\u0000\u0000": 5684,
      "\u000e": 5685,
      "&\u0000\u0000\u0000": 5686,
      "\u0018ë": 5687,
      "p\u0000\u0000": 5688,
      "fý": 5689,
      "9\u0003": 5690,
      "<|": 5691,
      "0\u0014": 5692,
      "¸\u0000\u0000": 5693,
      "À": 5694,
      ":ý": 5695,
      "\u0011\n": 5696,
      "\u0001\u0000\u0000\u0000\u0000\u0000\u0002\u0000": 5697,
      "\rû": 5698,
      "jý": 5699,
      "¾": 5700,
      "Á\u0004": 5701,
      "Åô": 5702,
      "\u001a0": 5703,
      "¹©": 5704,
      "\u0000\u000f": 5705,
      "t)": 5706,
      "\b\u0016": 5707,
      "F\u0003": 5708,
      "I\u0002": 5709,
      "ÍÌÌ": 5710,
      "\u001e\u0000\u0000\u0000\u0000": 5711,
      "_D": 5712,
      "T$": 5713,
      "\u0007\u0000\u0007\u0000": 5714,
      "6\u0000\u0000": 5715,
      "av": 5716,
      "è§": 5717,
      "ª\u0001": 5718,
      "Aü": 5719,
      "H\u000fD": 5720,
      "dý": 5721,
      "eý": 5722,
      "Qý": 5723,
      "\"\u0000\r\u0000\n\u0000": 5724,
      "ôú": 5725,
      "\u0016": 5726,
      "\u0011": 5727,
      "ud": 5728,
      "_\u0000D\u0000": 5729,
      "A-": 5730,
      "AE": 5731,
      ".0": 5732,
      "\u0001": 5733,
      "\u0002": 5734,
      "bÂ": 5735,
      "\b\u0005": 5736,
      "A\u0000M\u0000": 5737,
      "HÄ0_Ã": 5738,
      "9": 5739,
      "Ú": 5740,
      "Å\u0004": 5741,
      "a\u001a": 5742,
      "ðé": 5743,
      "ð\u0000\u0000": 5744,
      "Wý": 5745,
      "à\"": 5746,
      "ÏpÀ": 5747,
      "\u0000\u0000\u0000H": 5748,
      "t,": 5749,
      "L$P": 5750,
      "8": 5751,
      "3\u0002": 5752,
      "add": 5753,
      "Á\u001c": 5754,
      "èë": 5755,
      "Eý": 5756,
      "\u0007ª": 5757,
      "H\t": 5758,
      "Fý": 5759,
      "@\n": 5760,
      "\u0013\u0007": 5761,
      "\u0001\u0000°": 5762,
      "Åy": 5763,
      "ø\n": 5764,
      "Zý": 5765,
      "\b@\u0000": 5766,
      "À#": 5767,
      "e\u0000d\u0000": 5768,
      "ê": 5769,
      "4\u0003": 5770,
      "\u0006\f": 5771,
      "bý": 5772,
      "hH": 5773,
      "Ó": 5774,
      "á\u0003\u001bª": 5775,
      "P0": 5776,
      ",\u0003": 5777,
      "K\u0000S\u0000": 5778,
      "@\u0000": 5779,
      "(\u0000¢\n": 5780,
      "÷": 5781,
      "h\u0010": 5782,
      "</": 5783,
      "+\u0002": 5784,
      "\u0019\u0000\u0000\u0000": 5785,
      "\u0006\u0000Q": 5786,
      "A": 5787,
      "I\u0018": 5788,
      "K": 5789,
      "àû": 5790,
      "æ?": 5791,
      "ø\t": 5792,
      "|$0": 5793,
      "\u0002\u0000\u0000": 5794,
      "\u0016\u0016": 5795,
      "}o": 5796,
      "\u0015ë": 5797,
      "@\u0001R": 5798,
      "07": 5799,
      "Ný": 5800,
      "Àë": 5801,
      "\u001ap": 5802,
      "ò÷": 5803,
      "\u000bè": 5804,
      "7ý": 5805,
      "@¶": 5806,
      "\u0005?": 5807,
      "IÏ": 5808,
      "ns": 5809,
      "\u0000\u0000\u0000\u0000H": 5810,
      "\u0015ü": 5811,
      "[ý": 5812,
      "r ": 5813,
      "ïÿÿ\u0017": 5814,
      "b\u0003": 5815,
      "à£": 5816,
      "all": 5817,
      "ký": 5818,
      ",": 5819,
      "ßü": 5820,
      "ú": 5821,
      "ø\u0000\u0000": 5822,
      "À\n": 5823,
      "H¨": 5824,
      "\u001f\u0010": 5825,
      "t\u0002": 5826,
      "\u0005ë": 5827,
      "À\u000f": 5828,
      "\u0000\u0000\u0000": 5829,
      "ÞÝ\u000e\u0000\u0000\u0000\u0000": 5830,
      "Rè": 5831,
      "ný": 5832,
      "¼\u0000q": 5833,
      "Ñé": 5834,
      "\u0000\u0000\u0000\u0000a\u0000\u0004\u0000": 5835,
      "F\u0000\u0000": 5836,
      "L´$": 5837,
      "\u0005ñ": 5838,
      "í±": 5839,
      "`.": 5840,
      "E3ä": 5841,
      "\u000b": 5842,
      "Li": 5843,
      "O@": 5844,
      "#\u0010": 5845,
      "ß\u0002": 5846,
      "\u001e\u0003": 5847,
      "\u000f": 5848,
      "\u0000È": 5849,
      "\u0015": 5850,
      "ø\u0011": 5851,
      "\u0001\u0000\u0000": 5852,
      "_P": 5853,
      " ": 5854,
      "óE\u000f\u0012": 5855,
      "Ó\u0003": 5856,
      "`\"\u0000 ": 5857,
      "|": 5858,
      ";;": 5859,
      "øö": 5860,
      "\u000b\u0000": 5861,
      "\nÝÞ": 5862,
      " ¢": 5863,
      "XX": 5864,
      "ô?": 5865,
      "\n": 5866,
      "@¦": 5867,
      "K\u0000\u0000\u0000": 5868,
      "\t": 5869,
      "\u0001þ": 5870,
      "\u0000ü": 5871,
      "W\u0000\u0000\u0000": 5872,
      "è3": 5873,
      "\u0000\u001c": 5874,
      "a\u0000r\u0000": 5875,
      "": 5876,
      "\u0013ü": 5877,
      "C\u0002": 5878,
      "fÇE": 5879,
      "\u0001": 5880,
      "\fò": 5881,
      "á": 5882,
      "\u0000 \u0000": 5883,
      "+\u0000ù": 5884,
      "s.": 5885,
      "`2": 5886,
      "\n2\u0006p": 5887,
      "@": 5888,
      "Ýü": 5889,
      "½ü": 5890,
      "#": 5891,
      "\b\u0007": 5892,
      "ÅÜ": 5893,
      "l$": 5894,
      "ûÿ\u0017": 5895,
      "v\u0007": 5896,
      "/": 5897,
      "ù\u0010": 5898,
      "u\u0017": 5899,
      "7": 5900,
      "à\r": 5901,
      "gý": 5902,
      "÷\u000f": 5903,
      "Me": 5904,
      "è": 5905,
      "\r\nHK": 5906,
      "÷\u001b@ù": 5907,
      "'": 5908,
      "_^]": 5909,
      "Ä0": 5910,
      "Ãý": 5911,
      "\u0004": 5912,
      "v\u0003": 5913,
      "Àü": 5914,
      "_T": 5915,
      "òD": 5916,
      "": 5917,
      "\u0000(Gù": 5918,
      "Lt$": 5919,
      "(é": 5920,
      "@\u0000\u0000\u0000\u0004\u0002\u0000\"": 5921,
      " h": 5922,
      "òF": 5923,
      "\u0000H;È": 5924,
      "\u0000\u0000\u0000\u0000\b\u0000\u0000\u0000\u0000\u0000\u0000\u0000": 5925,
      "\u0019\b": 5926,
      "`\u000b": 5927,
      " ¨": 5928,
      "_\u00004\u0000": 5929,
      "\u0018": 5930,
      "\\\\": 5931,
      "uø": 5932,
      "Ll$": 5933,
      " \u0003\u0000\u0000": 5934,
      "Á\b": 5935,
      "è\u0013": 5936,
      "ÏÏ": 5937,
      "\t": 5938,
      "UH": 5939,
      "\tû": 5940,
      "<\u0000\u0000": 5941,
      "\u0000ÿ\u0000": 5942,
      "`\n@ù": 5943,
      "WRIT": 5944,
      ":\u0002": 5945,
      "aø": 5946,
      "@SHì H": 5947,
      "%d": 5948,
      "\u001a": 5949,
      "Jý": 5950,
      "E\f": 5951,
      "óô": 5952,
      "\r": 5953,
      "\u0010": 5954,
      "ì|": 5955,
      "(u": 5956,
      "%\u0000\u0000\u0000": 5957,
      "\u0005\u0011": 5958,
      "IÏè": 5959,
      "\u0005Ñ": 5960,
      "Ký": 5961,
      "\u000e(": 5962,
      "C\u0000o\u0000": 5963,
      "I\b": 5964,
      " \u0002\u0000\u0000": 5965,
      "©\u0001": 5966,
      "\u001a": 5967,
      "\u0002ý": 5968,
      "t%": 5969,
      "\u0005d": 5970,
      "h\u0006": 5971,
      "a\u0000l\u0000": 5972,
      "C\u0000\u0000\u0000": 5973,
      "÷ù": 5974,
      "\u0007 ": 5975,
      "îû": 5976,
      "D\u0000e\u0000": 5977,
      "j\u0010": 5978,
      "BÐ;Õ": 5979,
      "\u0002": 5980,
      "Uý": 5981,
      "t\u001f": 5982,
      "À>": 5983,
      "\u0000\u0004\u0000\u0000": 5984,
      "I\u000f¯": 5985,
      "L½": 5986,
      "\u001e": 5987,
      "\u000f\u0003": 5988,
      "\u0010": 5989,
      "!": 5990,
      "\u0000\u0000`": 5991,
      "Åì": 5992,
      "\u0004Ñ": 5993,
      "p": 5994,
      "\u0000\u0000ÿÿ": 5995,
      "L÷": 5996,
      "Vý": 5997,
      "cr": 5998,
      "è«": 5999,
      "ing ": 6000,
      "'t ": 6001,
      "ÿ": 6002,
      "\u0017\u0010": 6003,
      "29": 6004,
      ")": 6005,
      "\u0001\u0000ð": 6006,
      "@\r": 6007,
      "Õ": 6008,
      "â\u0005": 6009,
      "GU": 6010,
      "LM": 6011,
      "è+": 6012,
      "øë": 6013,
      "A_A^A]A\\": 6014,
      "\b\u0007": 6015,
      "(Gù": 6016,
      "Tý": 6017,
      "\u0006": 6018,
      "\u0015": 6019,
      "{ý": 6020,
      "p": 6021,
      "\u0000\u0000\u0000": 6022,
      "H": 6023,
      "}\u0011": 6024,
      "P(": 6025,
      "HA": 6026,
      "@\u0012": 6027,
      "à\u0014": 6028,
      "Iü": 6029,
      "\f\u0016": 6030,
      " \u0002\u0004": 6031,
      "CC": 6032,
      "\tô": 6033,
      "Læ": 6034,
      " ": 6035,
      "\u0000\u0003\u0000": 6036,
      "&\u0003": 6037,
      "!\u001c": 6038,
      "\f\u000b": 6039,
      "Eô": 6040,
      "e\u0000 \u0000": 6041,
      "íû": 6042,
      "|I\u0011": 6043,
      "\u0018ü": 6044,
      "A_Ã": 6045,
      ".p": 6046,
      "gro": 6047,
      "áÅ": 6048,
      "\u0011\u0012": 6049,
      "\u000f\u0013": 6050,
      "#": 6051,
      "\u000f": 6052,
      "HÇE": 6053,
      "\u0004\u0003": 6054,
      "Êâ": 6055,
      "Iý": 6056,
      "\u0019\u0010": 6057,
      "\u0002\u0000 ": 6058,
      "ø\u001f": 6059,
      "?ü": 6060,
      "±\u001a": 6061,
      "A\u0014": 6062,
      "@'": 6063,
      "\f\u0000q": 6064,
      "\u000bû": 6065,
      "j\n": 6066,
      "OR": 6067,
      "vice": 6068,
      "E\u0018": 6069,
      "\u0000°": 6070,
      "¼\u0000\u0000\u0000": 6071,
      "s(": 6072,
      "\u0003\u0001": 6073,
      "\u001a\u0004": 6074,
      "èC": 6075,
      "ck": 6076,
      "\u0000\u0000\u0000\u0000 ": 6077,
      "-\u0000\u0000": 6078,
      "@ü": 6079,
      "\u0001\u0000H": 6080,
      "Ç": 6081,
      "\u0001\u0000\u0000\u0001": 6082,
      "¹0": 6083,
      "6ý": 6084,
      "\b\u0007": 6085,
      "÷\u0006": 6086,
      "v\u0005": 6087,
      "à\u0003\u0000": 6088,
      "I\u0004": 6089,
      "\u0007": 6090,
      "\u000f(Æ": 6091,
      "\u0002": 6092,
      "è/": 6093,
      "ìû": 6094,
      "\r©": 6095,
      "õ\u0004": 6096,
      "Ô\u0003": 6097,
      "Ò\u0003": 6098,
      "\u000f\bÀ": 6099,
      "\u000eà": 6100,
      "\u0005ú": 6101,
      "\nò": 6102,
      "\u0002\u0002\u0002": 6103,
      "üú": 6104,
      ":!": 6105,
      "à\u0007\u0000ù": 6106,
      "\n%": 6107,
      "4@": 6108,
      "\u0007ô": 6109,
      "è\u0017": 6110,
      "¢\u0002": 6111,
      ",1": 6112,
      "ÃÌÌÌÌÌ": 6113,
      "\u0011 ": 6114,
      "H¬": 6115,
      "2\u0002": 6116,
      "Name": 6117,
      "\u000b\t": 6118,
      "ir": 6119,
      "t>": 6120,
      "L¤$": 6121,
      "Op": 6122,
      "D": 6123,
      "0\u0006": 6124,
      "8 ": 6125,
      "¿\u0003": 6126,
      "\u0016": 6127,
      "\b\u0000\u0000\u0000\u0000": 6128,
      "PS": 6129,
      "0\u0002\u0000\u0000": 6130,
      "?\u0000\u0002": 6131,
      "Oð\u0000": 6132,
      "Ôü": 6133,
      "Xü": 6134,
      "\bª": 6135,
      "h\u0003": 6136,
      "\u0011": 6137,
      "ôÿ": 6138,
      "è": 6139,
      "F\n": 6140,
      "b2": 6141,
      "@": 6142,
      "¨\u0001\u0000\u0000": 6143,
      "è\u0004": 6144,
      "ø\u0018": 6145,
      "\u0004": 6146,
      "\u0000@\u0000\u0000\u0000": 6147,
      "À": 6148,
      "\b": 6149,
      "@\t": 6150,
      "º\u0002": 6151,
      "\u0010d¡": 6152,
      "\u0005\r": 6153,
      "ð\b": 6154,
      "èé": 6155,
      "\u001b2": 6156,
      "K ": 6157,
      "ÿÿ\u0000": 6158,
      "s\u0010": 6159,
      "+\u0000\u0000": 6160,
      "Í\u0003": 6161,
      "P\u0006": 6162,
      "÷ÿ": 6163,
      "\u0011\u0000\u0000\u0000\u0000\u0000": 6164,
      "`\u0006@ù": 6165,
      "I0": 6166,
      "\f©": 6167,
      "a\u0000n\u0000": 6168,
      "EØ": 6169,
      "\u0000ÿ?": 6170,
      "\u0010ü": 6171,
      "ïú": 6172,
      "t;": 6173,
      "U\u0002": 6174,
      "\u0000T": 6175,
      "\u0005\u0000\u0000\u0000\u0000\u0000": 6176,
      "\fû": 6177,
      "H": 6178,
      "²\u0002": 6179,
      "ö?": 6180,
      "@2": 6181,
      "\u0006ù": 6182,
      "\u000f4": 6183,
      " /": 6184,
      " \u0010": 6185,
      "\u001b\u0004": 6186,
      "I\u0000n\u0000": 6187,
      "\u0006 ": 6188,
      "öõ": 6189,
      "Uìì": 6190,
      "\u0002": 6191,
      "É\u000f": 6192,
      "gr": 6193,
      "Yü": 6194,
      "®\u0001": 6195,
      "ñù": 6196,
      "\u0001\u0000@ùB\u0000\u0001ë\u0001\u0000Ò": 6197,
      "ÃÌÌÌÌ": 6198,
      "t\u0000\u0000\u0000": 6199,
      "}H\u0004": 6200,
      "ÄÁ|": 6201,
      "ÆÆ": 6202,
      "D$H": 6203,
      "¿": 6204,
      "\u0001\u0000`\u0000\"": 6205,
      "\u0000!": 6206,
      "Íé": 6207,
      "\nû": 6208,
      "\u0007": 6209,
      "À\t": 6210,
      "AVHì": 6211,
      "Ä": 6212,
      "\bH": 6213,
      "v\u0004": 6214,
      "­\u0002": 6215,
      "5\u0002": 6216,
      "F\u0005": 6217,
      "p:": 6218,
      "B\u0000\u0001ë\u0001\u0000Ò": 6219,
      "^è": 6220,
      "G\u0002": 6221,
      "~Ó": 6222,
      "L$": 6223,
      "ÝÝ": 6224,
      "_é": 6225,
      "ov": 6226,
      "`6": 6227,
      "Üü": 6228,
      "ð÷": 6229,
      "fC": 6230,
      "\r\u0007": 6231,
      "Ïs": 6232,
      "ÀÚ": 6233,
      "ñ÷": 6234,
      "~\u0012": 6235,
      "B\u0018": 6236,
      "á\u0000\u0000": 6237,
      "\u000f(Â": 6238,
      "îÿÿ": 6239,
      "\u0000\u0000\u0000ë": 6240,
      "\u0019ü": 6241,
      "@\u000b": 6242,
      "1\u000b0\t": 6243,
      "\u000f(Á": 6244,
      "ÅÄ": 6245,
      "U ": 6246,
      "H": 6247,
      "t?": 6248,
      "D\u0000H\u0000": 6249,
      "Á": 6250,
      "Æ\u0002": 6251,
      "by": 6252,
      "\u0006\u0005": 6253,
      "V": 6254,
      "}(": 6255,
      "O\u0004": 6256,
      "`": 6257,
      "Oý": 6258,
      "À±": 6259,
      "$\u0007": 6260,
      "\f\t": 6261,
      "qý": 6262,
      ":\u0000 ": 6263,
      "\u0010": 6264,
      "ïÿÿ": 6265,
      "ñú": 6266,
      "K\u0004": 6267,
      "\b\"": 6268,
      "\u0002\u0000k": 6269,
      "\u0000\u0000": 6270,
      "d\u0002": 6271,
      "\t\u0004": 6272,
      "\u0015 ": 6273,
      "L$": 6274,
      "õù": 6275,
      "¾ü": 6276,
      "\u0017ü": 6277,
      "Æü": 6278,
      "\u0006ë": 6279,
      "9F": 6280,
      "tý": 6281,
      "Åä": 6282,
      "à\u0012": 6283,
      "HÀu": 6284,
      "1\u0000\u0000\u0000": 6285,
      "r\u0003": 6286,
      "÷Ð": 6287,
      "@`": 6288,
      "\u0000ù\u0001\u0000Ò": 6289,
      "ÿþ": 6290,
      "óú": 6291,
      "\u000fB": 6292,
      "î\u0004": 6293,
      "R\b": 6294,
      "\u0000\u0000\u0000\u0000": 6295,
      "ñ\u0004": 6296,
      "á\u0005": 6297,
      "~": 6298,
      "T": 6299,
      ";": 6300,
      "nd": 6301,
      "0A": 6302,
      "øô": 6303,
      "ý{Æ¨": 6304,
      "\u0006\u0000Ñ": 6305,
      "\u0004": 6306,
      "\u0003": 6307,
      "Ð\u0005": 6308,
      "\u0002": 6309,
      "\u0014\u000b": 6310,
      "(¿": 6311,
      "èï": 6312,
      "?": 6313,
      "M\u0010": 6314,
      "Pro": 6315,
      "05": 6316,
      "I ": 6317,
      "-éð": 6318,
      "èÃ": 6319,
      "H": 6320,
      "ES": 6321,
      "24": 6322,
      "inte": 6323,
      "úo": 6324,
      "$4": 6325,
      "Hí": 6326,
      "21": 6327,
      "óÿÿ\u0017": 6328,
      "å\u0004": 6329,
      "08": 6330,
      "\n\u000b": 6331,
      "½": 6332,
      "HS": 6333,
      "G\f": 6334,
      "9\u0002": 6335,
      "gi": 6336,
      "\u001f$\u0000q": 6337,
      "-\u0002": 6338,
      "\b\u000b": 6339,
      "\u0014d": 6340,
      "Øü": 6341,
      "H": 6342,
      "\u0000\u0007": 6343,
      "Ï\u0003": 6344,
      "¨!": 6345,
      "0\u0005": 6346,
      ".h": 6347,
      "HÀ\u000f": 6348,
      "$è": 6349,
      "\u001e\u0004": 6350,
      "pa": 6351,
      "m_": 6352,
      "\u0004": 6353,
      "Â\u0004": 6354,
      "HF": 6355,
      "": 6356,
      "`\u0004\u0000": 6357,
      "D$X": 6358,
      "MM": 6359,
      "09": 6360,
      "ðFù": 6361,
      "\u0003U": 6362,
      "t\u0000i\u0000": 6363,
      "\u001fD": 6364,
      "\u0000þ": 6365,
      "\u0000$\u0000\u0000": 6366,
      "R": 6367,
      "ï\u0004": 6368,
      "éq": 6369,
      "\u0006à": 6370,
      "õ?": 6371,
      "T": 6372,
      "\u001cü": 6373,
      "\b\u0002\u0000": 6374,
      ",00,00": 6375,
      " \u0004\u0000": 6376,
      "Hñ¹": 6377,
      "Ôø": 6378,
      "X\u0005": 6379,
      "\u001f4": 6380,
      "\u0010\u0015": 6381,
      "@*": 6382,
      "< ": 6383,
      "óE\u000f\u0016": 6384,
      "AÆ": 6385,
      "t&": 6386,
      "ÅÅ": 6387,
      "÷\u0007": 6388,
      "Þü": 6389,
      "ç\u0005": 6390,
      "ffff": 6391,
      "È\u0002": 6392,
      "}\u0004": 6393,
      "Az": 6394,
      "\u0014\u0007": 6395,
      "E\u0004": 6396,
      "\u0003": 6397,
      "T\u0000o\u0000p\u0000o\u0000": 6398,
      "fE\u000fX": 6399,
      "\u0014\u0006": 6400,
      "T": 6401,
      " \"": 6402,
      "Ø\u0003": 6403,
      "LÜ": 6404,
      "À\u000e": 6405,
      "fA\u000fX": 6406,
      "\u0010": 6407,
      "L": 6408,
      "ÿÿÿè": 6409,
      "F": 6410,
      "V9": 6411,
      "a\u0000\u0000": 6412,
      "Hÿ%": 6413,
      "Ñú": 6414,
      "E\u000f¶": 6415,
      "U\u0010": 6416,
      "\r2": 6417,
      "u\u0016": 6418,
      "\u0000,": 6419,
      ";÷": 6420,
      "\u0005l": 6421,
      " ": 6422,
      "Á\u0000\u0000T": 6423,
      "fA\u000fY": 6424,
      "@\u0003\u0000\u0000": 6425,
      "@W": 6426,
      "ý{Å¨": 6427,
      "\u001f\u0004\u0000±": 6428,
      "h ¸": 6429,
      "\t\u000f": 6430,
      "<\u0004": 6431,
      "\u0001": 6432,
      "D$ è": 6433,
      ",À": 6434,
      "ô\u0007": 6435,
      "Öü": 6436,
      "\b¿": 6437,
      "B\u000b": 6438,
      "öè": 6439,
      "<": 6440,
      "\u0000\n": 6441,
      "PF": 6442,
      "Ûü": 6443,
      "\bL": 6444,
      "óù": 6445,
      "t*": 6446,
      "@q": 6447,
      "á\u0006": 6448,
      "\\ü": 6449,
      "QQ": 6450,
      "@L": 6451,
      "¬\u0000\u0000\u0000": 6452,
      "\u0000D": 6453,
      "Å{\u0010": 6454,
      "@v": 6455,
      "Ã\u0002": 6456,
      "\u0013\u0000R": 6457,
      "Î\u0003": 6458,
      "¨\u0004": 6459,
      "\u0010D": 6460,
      "tex": 6461,
      "A½": 6462,
      "\u0010\u0007": 6463,
      "\u0001\u0000`": 6464,
      "öE": 6465,
      "\u0001\u0000è": 6466,
      "×ü": 6467,
      "\u000eû": 6468,
      "}}": 6469,
      "ñò": 6470,
      ".\u0000\u0000\u0000": 6471,
      "H\\$0H": 6472,
      "l\u0000\u0000\u0000": 6473,
      "\u0010½": 6474,
      "3 ": 6475,
      "W": 6476,
      "µ": 6477,
      "w.": 6478,
      "\u000eò": 6479,
      "\u0000#": 6480,
      "\f\u0018": 6481,
      "\u0014\u000f": 6482,
      "\nè": 6483,
      "ý": 6484,
      "AN": 6485,
      "\t\u0000\t\u0000": 6486,
      "ÌÌÌÌÌÌÌÌÌ": 6487,
      "\t\u0007": 6488,
      "Ã\r": 6489,
      "ð\u0006": 6490,
      "\u0005#": 6491,
      "A¼": 6492,
      "\u0010\u000b": 6493,
      "¸ü": 6494,
      "à\u000b@ù": 6495,
      "\u0007R": 6496,
      "\u0006H": 6497,
      "ts": 6498,
      "@P": 6499,
      "Ñü": 6500,
      "H¼": 6501,
      "\u0004\u0004\u0000\u0000\u0000\u0000\u0000\u0000": 6502,
      "\u0000ô": 6503,
      "\u0004": 6504,
      "R\u0002": 6505,
      "ë\u0017": 6506,
      "AÓ": 6507,
      "T\u0002": 6508,
      "\u0010\u001c": 6509,
      "\u0010ò": 6510,
      "T ": 6511,
      "@?": 6512,
      "@\u000e": 6513,
      "=\u0000\u0000\u0000": 6514,
      "\u0000(\n": 6515,
      "3@ù": 6516,
      "26": 6517,
      "°\u0004": 6518,
      " ü": 6519,
      "Ç\u0007": 6520,
      "\u0000\b\u0000\u0000": 6521,
      "\u001bü": 6522,
      "\u0010\u0002\u0000\u0000": 6523,
      "ôù": 6524,
      "B\u0000\u0000\u0000": 6525,
      "%\b": 6526,
      "¸": 6527,
      "ö\u0006": 6528,
      "\u000b¹": 6529,
      "@\u0019": 6530,
      "] ": 6531,
      "\u001f\u0000\u0001k": 6532,
      "\f÷": 6533,
      "\u001d\u0004": 6534,
      "ïù": 6535,
      "Jü": 6536,
      "H\"": 6537,
      "1\u0016": 6538,
      "4\u0004": 6539,
      "\u0015\u0018": 6540,
      "B9": 6541,
      "\\\u0000\u0000\u0000": 6542,
      "@": 6543,
      "ÿÿÿH": 6544,
      "\u0003\u0000\u0000\u0000\u0000\u0000\u0000\u0000": 6545,
      "`\u0002\u0000": 6546,
      "Hú": 6547,
      "0ü": 6548,
      "\u000e\u000f": 6549,
      "ÓÔ\u000e": 6550,
      "\u000e\u0006": 6551,
      "à": 6552,
      "úò": 6553,
      "": 6554,
      "j\u0000ÿ": 6555,
      "è¯": 6556,
      "è¿": 6557,
      "Hi": 6558,
      "\u001f¸": 6559,
      "äÂ": 6560,
      "ý{A©": 6561,
      "HA": 6562,
      "\u0010ñ": 6563,
      "_\u0003": 6564,
      "Úü": 6565,
      "Dv": 6566,
      "a\u0011": 6567,
      "¬\u0002": 6568,
      "\u0006\u0006\u0006\u0006": 6569,
      "\u0000Hc": 6570,
      "\u001dü": 6571,
      "\f\u0000T": 6572,
      "\u000e": 6573,
      "\u0005\u0016": 6574,
      "rr": 6575,
      "ÿu\f": 6576,
      "\u0000\u0000\u0000\u0000À": 6577,
      "3\u0000\u0000\u0000": 6578,
      "àø": 6579,
      "P\u0002\u0000\u0000": 6580,
      "5\u0004": 6581,
      "s:": 6582,
      "t0": 6583,
      "/\u0002": 6584,
      "d$": 6585,
      "i\u0002": 6586,
      "àÃ": 6587,
      "\u0005\u0015": 6588,
      ";Ê": 6589,
      "\u0003\u0003\u0003": 6590,
      "íÿÿ\u0017": 6591,
      "\u0000": 6592,
      "e\u0000c\u0000": 6593,
      "z\u0002": 6594,
      "t8": 6595,
      "Ïv": 6596,
      "Íü": 6597,
      "p\u0006": 6598,
      "u\u0013": 6599,
      "èã": 6600,
      "µ": 6601,
      "MÆ": 6602,
      "HÚ": 6603,
      "À~": 6604,
      "\u0003\u0000\u0000H": 6605,
      "Û±": 6606,
      "Uü": 6607,
      "3Í": 6608,
      "Óü": 6609,
      "Mð": 6610,
      "\u0000+": 6611,
      "t=": 6612,
      "L\u000f¯": 6613,
      "è7": 6614,
      "f\u000fï": 6615,
      "\u0012\b": 6616,
      "\u0011\u0007": 6617,
      "----": 6618,
      "Òü": 6619,
      "À$": 6620,
      "ã\u0007": 6621,
      "\u0017ë": 6622,
      "Õü": 6623,
      "]Â\b\u0000": 6624,
      "\u0001\u0000Ð": 6625,
      "\u0019\n": 6626,
      "e\u0002": 6627,
      "bj": 6628,
      "Ò±": 6629,
      "w\u0003": 6630,
      "\u0010L": 6631,
      "\u001e\u0001\u0000\u0001\u0000": 6632,
      "½\u0003": 6633,
      "E3ÿ": 6634,
      "\u0018¿": 6635,
      "áû": 6636,
      "¸ñ": 6637,
      "\r\u000f": 6638,
      "°ü": 6639,
      "X\u0000\u0000": 6640,
      "I×": 6641,
      "\u0005ø": 6642,
      "bR": 6643,
      "N ": 6644,
      "\b": 6645,
      "HO": 6646,
      "\u0014\u0000Ò": 6647,
      "z": 6648,
      "2\u0003": 6649,
      "\u0001\u0000\u0000H\u0012": 6650,
      "\u001b\u0000\u0000\u0000": 6651,
      "AÀ": 6652,
      "\u0006Ø": 6653,
      "\u001a\u0000\u0000\u0000": 6654,
      "´\u0000\u0000\u0000": 6655,
      "0": 6656,
      "\t\u000b": 6657,
      "\u0010\u0000*": 6658,
      "!\u0014": 6659,
      "\n# ": 6660,
      " À": 6661,
      "H": 6662,
      "°è": 6663,
      "HT": 6664,
      "¨ü": 6665,
      "L6": 6666,
      "\u001c\u0012": 6667,
      "?\u0000\u0000": 6668,
      "%,": 6669,
      "$": 6670,
      "\u0016\u0000p": 6671,
      "M\b": 6672,
      "\u000b\u0000ð": 6673,
      "%\u0004\u0000\u0000\u0000\u0000": 6674,
      "\u0000ä\u000f\u0000": 6675,
      "âØ": 6676,
      ".\u0002": 6677,
      "\u0000\u0000\u0000\u0000è": 6678,
      "1Û": 6679,
      " x": 6680,
      "`\u001a\u0000": 6681,
      "\u0001\u0000\u0000\u0000\u0000\u0000\u0000\u0000\u0000\u0000\u0000\u0000": 6682,
      "w\b": 6683,
      "\u0002": 6684,
      "J\u0002": 6685,
      "Ïü": 6686,
      "÷\u0004": 6687,
      "Ù\u0002": 6688,
      "B": 6689,
      "p\u0018": 6690,
      "È\u0001\u0000\u0000": 6691,
      "PD": 6692,
      "_c": 6693,
      "\u001c\b": 6694,
      "$\f": 6695,
      "\u000b\u0000\u000b\u0000": 6696,
      "E ": 6697,
      "h\n": 6698,
      "ED": 6699,
      "U\b": 6700,
      "R\u0004": 6701,
      "<@": 6702,
      "_^[Ã": 6703,
      "\u0012è": 6704,
      "{ ": 6705,
      "M ": 6706,
      "\"\u0000\u0000\u0000": 6707,
      "ü": 6708,
      "MI": 6709,
      "Àî": 6710,
      "¢\u0003": 6711,
      "\u001aü": 6712,
      "y\u0000\u0000": 6713,
      "÷é": 6714,
      "T\u0000\u0000\u0000": 6715,
      "3Èè": 6716,
      "(ü": 6717,
      "Éq": 6718,
      "\u0000\u0000\u0000\u0000p": 6719,
      "¾\u0002": 6720,
      "\u0016ð": 6721,
      "\nô": 6722,
      "\u000f ": 6723,
      "!à": 6724,
      "\u000e": 6725,
      "ÿH\r": 6726,
      "\f@": 6727,
      "\u0000d": 6728,
      "\u0015k": 6729,
      "": 6730,
      "\bô": 6731,
      "¼ü": 6732,
      ">ü": 6733,
      "ÛÛ": 6734,
      "\u0000|": 6735,
      "\n": 6736,
      "Ld$": 6737,
      "ä\u0004": 6738,
      "\u0000@D": 6739,
      "äø": 6740,
      "fD\u000fX": 6741,
      "tY": 6742,
      "c\u0002": 6743,
      "Bu": 6744,
      "2\u0004": 6745,
      "\u00008": 6746,
      "\u0003r": 6747,
      "îè": 6748,
      "3": 6749,
      "e\u0000t\u0000": 6750,
      "\u0015û": 6751,
      "\u00050": 6752,
      "\u00130": 6753,
      "y\u0004": 6754,
      "Á\u000f": 6755,
      "~": 6756,
      "}ü": 6757,
      "\u0018\u0014": 6758,
      "ô": 6759,
      "\u0000\u0000\u0000\u0000\u0004": 6760,
      "ÃC": 6761,
      "\u0010\u0014": 6762,
      "a8": 6763,
      "À\u000b": 6764,
      "¿ü": 6765,
      "E\f": 6766,
      "ax": 6767,
      "çû": 6768,
      "\bû": 6769,
      "ð\u000b": 6770,
      ";\u0002": 6771,
      "¯ü": 6772,
      "t#": 6773,
      "ÇD$0": 6774,
      "¥\u0002": 6775,
      "ou": 6776,
      "tu": 6777,
      "A°": 6778,
      "HIø": 6779,
      "\u0000\u0000H": 6780,
      ",\u0000\u0004\u0000@D": 6781,
      "\u0003": 6782,
      "¹\u0001\u0000\u0000\u0000": 6783,
      "e\u0000l\u0000": 6784,
      "(O": 6785,
      "\u0005\u001b": 6786,
      "®è": 6787,
      ">\n": 6788,
      "tc": 6789,
      "D\u000b": 6790,
      "*Gù": 6791,
      "uý": 6792,
      "à\u0003@ù": 6793,
      "Hì8": 6794,
      "\u0013\u000b": 6795,
      "Ú½": 6796,
      "\rô": 6797,
      "Ýé": 6798,
      "B(": 6799,
      "\u0000\u0000\u0000Ç": 6800,
      "Ð\n": 6801,
      "\bñ": 6802,
      "L$`": 6803,
      "\u0010\t": 6804,
      "ä±": 6805,
      "\u0014T": 6806,
      "ZÀ": 6807,
      "ê\u0004": 6808,
      "89": 6809,
      "H\u001d": 6810,
      " ¨": 6811,
      "\u0006": 6812,
      "öñ": 6813,
      "ÄA|": 6814,
      "!0": 6815,
      "ãû": 6816,
      "\u0011H": 6817,
      "@\u0000\u0000\u0000\u0000": 6818,
      "\u0000r": 6819,
      "\r\f": 6820,
      "uc": 6821,
      "\u0010U": 6822,
      "Å\u0002": 6823,
      "_F": 6824,
      " c": 6825,
      "\u0003\u0003*": 6826,
      "3\u0000ù": 6827,
      "\u0012\u0006": 6828,
      "ðÿÿ\u0017": 6829,
      "þ": 6830,
      "std": 6831,
      "\u0012\f": 6832,
      "\u0002": 6833,
      "úÿT": 6834,
      "h\u0004": 6835,
      "@\u0000": 6836,
      "\u0013\f": 6837,
      "CL": 6838,
      "¯¯": 6839,
      "\u000e\u0007": 6840,
      "ö\u000f": 6841,
      ":\u0000\u0000": 6842,
      "CR": 6843,
      "[\u0000\u0004\u0000": 6844,
      "\u0001\u000f": 6845,
      "\u0018I": 6846,
      "1\u0004": 6847,
      ";Ø": 6848,
      "\u0003Ð": 6849,
      "p\u0002\u0000\u0000": 6850,
      "y\u0002": 6851,
      "è»": 6852,
      "t'": 6853,
      "Ùü": 6854,
      "\u0014 ": 6855,
      "÷ú": 6856,
      "ld": 6857,
      "!r": 6858,
      "i\u0000s\u0000": 6859,
      "Ñ\u0002": 6860,
      "file": 6861,
      "øé": 6862,
      "Ô\u0002": 6863,
      "Áü": 6864,
      "´\u0000q": 6865,
      "Å": 6866,
      "0ð": 6867,
      ".f": 6868,
      "÷ö": 6869,
      "\r ": 6870,
      "t1": 6871,
      "Eü": 6872,
      "u\u001a": 6873,
      "\"\f": 6874,
      "ý{º©": 6875,
      "\u0019ð": 6876,
      "Âü": 6877,
      "àO": 6878,
      "@²": 6879,
      "\u0000\u001e": 6880,
      "æÀ": 6881,
      "~\u0000\u0000\u0000": 6882,
      "(\u0010": 6883,
      "H\u0012\u0000": 6884,
      "\u0000L": 6885,
      "\u0000": 6886,
      "Ä\u0002": 6887,
      "òÿÿ": 6888,
      "=ü": 6889,
      "Â\u0004\u0000": 6890,
      "ò\u0004": 6891,
      "PPPP": 6892,
      "]ü": 6893,
      "&\u0004": 6894,
      "1\u0003": 6895,
      "\u0000ÌÌÌ": 6896,
      "sr": 6897,
      "ÀÅ": 6898,
      "a\u0012": 6899,
      "t7": 6900,
      "â": 6901,
      "êû": 6902,
      "PC": 6903,
      "\u0000\u0000\u0000\u0000Y": 6904,
      "be": 6905,
      "3\u0003": 6906,
      "v\u0002": 6907,
      "è{": 6908,
      "î#": 6909,
      "`": 6910,
      "ý{¾©ý\u0003\u0000": 6911,
      "ú\u000b": 6912,
      "g\u0003": 6913,
      "È\u0003": 6914,
      "èc": 6915,
      "ùõ": 6916,
      "°": 6917,
      "\u0014\u0016": 6918,
      "I\u0000D\u0000": 6919,
      "!$": 6920,
      "": 6921,
      "\u0013\t": 6922,
      "8M": 6923,
      "\u0004": 6924,
      "æû": 6925,
      "\u0015\t": 6926,
      "\u0003": 6927,
      " r": 6928,
      "@x": 6929,
      "\u0010B": 6930,
      "\u0000Ä": 6931,
      "ú\t": 6932,
      "\u001d\b": 6933,
      "öÿÿ\u0017": 6934,
      "[[": 6935,
      "u\u0002": 6936,
      "à\u0017\u001a": 6937,
      "¸\u0004": 6938,
      "ýC\u0000": 6939,
      "ß\u0003": 6940,
      "úõ": 6941,
      "C\u0003": 6942,
      "[À": 6943,
      "Pj": 6944,
      "Pü": 6945,
      "\u0000%": 6946,
      "âû": 6947,
      "Ó\r": 6948,
      "Îü": 6949,
      "ý{\u0001©": 6950,
      "ú\u000f": 6951,
      "\u0000\u0000D": 6952,
      "\u0015&": 6953,
      "Môd": 6954,
      "$": 6955,
      " &": 6956,
      "E8": 6957,
      " \u0012": 6958,
      "Ë\u0002": 6959,
      "¼\u0002": 6960,
      "\u0001\u0006\u0002\u0000\u00062\u00020": 6961,
      "ù\u000f": 6962,
      "\u0011û": 6963,
      "'\u0003": 6964,
      "îÿÿ\u0017": 6965,
      "()": 6966,
      "nn": 6967,
      "brM": 6968,
      "HÉ\u000f": 6969,
      "P\f": 6970,
      "àH": 6971,
      "\r\u000e": 6972,
      "\u0003": 6973,
      "Åð": 6974,
      "\u0014\n": 6975,
      "g ": 6976,
      "\u0000\u0000º": 6977,
      "¡À": 6978,
      "!\n": 6979,
      "à%": 6980,
      "\u0002\u0004\u0000\u0000": 6981,
      "¥À": 6982,
      "\u0000\u0001\r": 6983,
      "L|$": 6984,
      "Á": 6985,
      "ÅÌ": 6986,
      "\b": 6987,
      "¢\u0000R": 6988,
      "\u0015\u000b": 6989,
      "\u0000¸": 6990,
      "¥ü": 6991,
      "27": 6992,
      "im": 6993,
      "0D": 6994,
      "èÛ": 6995,
      ".d": 6996,
      "p½": 6997,
      "ion": 6998,
      "äû": 6999,
      "ype": 7000,
      ";Æ": 7001,
      "H\u0001ÿ": 7002,
      "À\r": 7003,
      "öÿ": 7004,
      "\u001c": 7005,
      "××": 7006,
      "\u0011\"": 7007,
      "X\u0004": 7008,
      "\u0010%": 7009,
      "+Ê": 7010,
      "`z": 7011,
      "`\u0001\u0000": 7012,
      "H]": 7013,
      "\u000b": 7014,
      "AS": 7015,
      "Ìü": 7016,
      "Äü": 7017,
      "ñð": 7018,
      "L©": 7019,
      "\u0003\u00004": 7020,
      "\u001e\u0012": 7021,
      "ïÿ": 7022,
      "àK": 7023,
      "ëû": 7024,
      "7\u0002": 7025,
      "*À": 7026,
      "\u0000\u0000": 7027,
      "»ü": 7028,
      "Ñê": 7029,
      "=\u0003": 7030,
      "$ ": 7031,
      "Uì": 7032,
      "s\b": 7033,
      "\u000e\u0005": 7034,
      "Èü": 7035,
      "óSA©ý{Â¨": 7036,
      "\u000f\u0011": 7037,
      "XÃ": 7038,
      "À\u0012": 7039,
      "ûs\u0005©": 7040,
      "ÅÔ": 7041,
      "B": 7042,
      "\u001f\u0012": 7043,
      "t6": 7044,
      "N3": 7045,
      "ÓÔ\u000e\u0000A\u000b": 7046,
      "\fô": 7047,
      "óò": 7048,
      "HÃ": 7049,
      "-\u0003": 7050,
      "WH": 7051,
      "D$": 7052,
      ",\u0000 \u0000": 7053,
      "\u0000@\u0000\u0000\u0000\u0000\u0000\u0000": 7054,
      ";Ç": 7055,
      "0\u0007": 7056,
      "c/": 7057,
      "9\u0010": 7058,
      "!\u0018": 7059,
      "í\u0004": 7060,
      "\u0003\u0000\u0000è": 7061,
      "y": 7062,
      "5": 7063,
      "Ø\b": 7064,
      "\u001c\t": 7065,
      "û": 7066,
      "â\u0017": 7067,
      "Êü": 7068,
      ">\u0003": 7069,
      "v\u0010": 7070,
      "t/": 7071,
      "7\u0000\u0000": 7072,
      "þÿ5": 7073,
      "à÷": 7074,
      ":+": 7075,
      "46": 7076,
      "¤\u0002": 7077,
      "hh": 7078,
      "`\u0012\u0000": 7079,
      "x\u0003": 7080,
      "H\u000b": 7081,
      "C@": 7082,
      "\fr": 7083,
      "\u0001\u0000@ùá": 7084,
      "õ\u000f": 7085,
      "è": 7086,
      "ùò": 7087,
      "ï÷": 7088,
      "`j": 7089,
      "A3": 7090,
      "?\u0000\u0000q": 7091,
      "\u0000\u0000\u0000\u0000\u0000\u0000\u0001\u0000\u0000\u0000": 7092,
      "â\u0003\u0017ª": 7093,
      "\u0002\u0000": 7094,
      "ø\u0003\u0000ª": 7095,
      "`\t": 7096,
      "ÿ\u0002": 7097,
      "`x": 7098,
      "\n4": 7099,
      "HD": 7100,
      "`:": 7101,
      "\u0010\u0000\u0000\u0002": 7102,
      "\u0018\u0006": 7103,
      "\u001a": 7104,
      "\f ": 7105,
      "ÿ": 7106,
      "\n\u000f": 7107,
      "\u0007": 7108,
      "à": 7109,
      "=?": 7110,
      "Ëü": 7111,
      "\u0005D": 7112,
      "\u000f": 7113,
      "Ü\u0002": 7114,
      "G": 7115,
      "0\u001c": 7116,
      "Éü": 7117,
      "`Ó": 7118,
      "h\u0018": 7119,
      "PM": 7120,
      "!\u0004\u0000\u0011": 7121,
      "ðÿÿ": 7122,
      "HÄP": 7123,
      "A\u000f¯": 7124,
      "t4": 7125,
      "\u000f\u000f\u000f\u000f\u000f\u000f\u000f\u000f": 7126,
      "ON": 7127,
      "sion": 7128,
      "Õ\u0003": 7129,
      "ÂÂ": 7130,
      "Q ": 7131,
      "\u0014\u0000R": 7132,
      "\u0001\u0004\u0001\u0000\u0004": 7133,
      "w\u0004": 7134,
      "÷cC©ùkD©": 7135,
      "ET": 7136,
      "!": 7137,
      "E°": 7138,
      "\u0018\u0002\u0000\u0000": 7139,
      "u%": 7140,
      "\u0010©": 7141,
      "Cý": 7142,
      "\u0003\u00005": 7143,
      "\u0010$": 7144,
      "È\u0000\u0000": 7145,
      "±\u001e": 7146,
      "ã?": 7147,
      "Ðà": 7148,
      "s\u0000\u0000": 7149,
      "\u001c\u0007": 7150,
      "\u001a ": 7151,
      "\u00104": 7152,
      "R,": 7153,
      "E3Ò": 7154,
      "\u0005(": 7155,
      "6\u0000\u0000\u0000": 7156,
      "////": 7157,
      "\b": 7158,
      "½\u0002": 7159,
      "\u0015\u0000R": 7160,
      "\u0010f": 7161,
      "Æ\u0003": 7162,
      "¬": 7163,
      "rtk": 7164,
      "Set": 7165,
      "i\u001e": 7166,
      "\u0002\u0000ñ": 7167,
      "é÷": 7168,
      "$ è": 7169,
      "\u0005\u0000\u0000\u0000\u0000": 7170,
      "s\u0003": 7171,
      "3Éè": 7172,
      "ack": 7173,
      "0$": 7174,
      "\u001cø": 7175,
      "\u0004\u0000\u0000H": 7176,
      "\n\t": 7177,
      "ë": 7178,
      "\u0000\u0001\u000b": 7179,
      "RR": 7180,
      "Ðû": 7181,
      "uð": 7182,
      "\n\u0007": 7183,
      "`Â": 7184,
      "\t\t\t\t": 7185,
      "ì\b": 7186,
      "`\u000f": 7187,
      "\u0000\u0000\u0000\u0000\u0002\u0000\u0000\u0000": 7188,
      "Yø": 7189,
      "ñÿÿ": 7190,
      "S_": 7191,
      "\u001b\b": 7192,
      "HD$8": 7193,
      "ñ\u000f": 7194,
      "tin": 7195,
      "úó": 7196,
      "\u0001\u0001\u0000": 7197,
      "I@": 7198,
      "": 7199,
      "`F": 7200,
      "a¸": 7201,
      " \t": 7202,
      "$ü": 7203,
      "\u0010": 7204,
      "ÑH": 7205,
      "\b\u0000\u0000\u0000\u0000": 7206,
      "D$": 7207,
      "HcÈ": 7208,
      "àò": 7209,
      "Ì1": 7210,
      "?\u0004": 7211,
      ">R": 7212,
      "\u0012û": 7213,
      "\u001eü": 7214,
      "÷Ú": 7215,
      "- ": 7216,
      "Ê#": 7217,
      "@": 7218,
      "ë\u001a": 7219,
      "[\u0010": 7220,
      "Æ$": 7221,
      "uü": 7222,
      "èß": 7223,
      "": 7224,
      "7\u0004": 7225,
      "K(": 7226,
      "\u0007H": 7227,
      "ÌÌÌÌÌÌÌÌÌÌ": 7228,
      "\u001f\u0018": 7229,
      "\u0000\u0000\u0004\u0000": 7230,
      "E": 7231,
      "\u0000\u0000\u0000\u0003": 7232,
      "\u0005y": 7233,
      "HG": 7234,
      "\f\u000e": 7235,
      "\u0003": 7236,
      "\u0016\u0010": 7237,
      "è": 7238,
      "V\b": 7239,
      "æ\u0005": 7240,
      "\rù": 7241,
      "ã\u0005": 7242,
      "\t": 7243,
      "\u0001\u0000\u0000\"": 7244,
      ":?": 7245,
      "â\u0003\u0018ª": 7246,
      "hc": 7247,
      "Óâ": 7248,
      "ÌÌÌÌé": 7249,
      "5?": 7250,
      "xp": 7251,
      "Mä": 7252,
      " m": 7253,
      "ì0": 7254,
      " =": 7255,
      "\u001að": 7256,
      "¡\u0004": 7257,
      "D\n": 7258,
      "Í": 7259,
      "\u001f@ù": 7260,
      "PY": 7261,
      "\r\r\r\r": 7262,
      ";ü": 7263,
      "<ü": 7264,
      "`/": 7265,
      "Ð?": 7266,
      "ìÿÿ\u0017": 7267,
      "\u000bñ": 7268,
      "\u0005k": 7269,
      "\u0007*": 7270,
      "à\u0000\u0000T": 7271,
      "}\u0002": 7272,
      "°\b": 7273,
      "|": 7274,
      "ë\u0018": 7275,
      "\u0000\u0000\u0000\u0000@": 7276,
      "\u001a\u0012": 7277,
      "YÃ": 7278,
      "\rõ": 7279,
      "Ä\u0004": 7280,
      "\u000b\u0006": 7281,
      "L¬$": 7282,
      "C\u001c": 7283,
      "ø\u0003": 7284,
      "à\u0003\u0002ª": 7285,
      "ÿP": 7286,
      "è>": 7287,
      "Ù\u0003": 7288,
      "ñÿ": 7289,
      "cü": 7290,
      "û": 7291,
      "T?": 7292,
      "åû": 7293,
      "\u0000\u0000\u0000\u0000": 7294,
      "(v": 7295,
      "\u0000\u0000": 7296,
      "\nr": 7297,
      "Ð\b": 7298,
      "½½": 7299,
      "E¸": 7300,
      "L¼$": 7301,
      "Å|\u0010": 7302,
      "=ð": 7303,
      "'\u0004": 7304,
      "~\u0002": 7305,
      "à:\u0000": 7306,
      "¬ü": 7307,
      "Çü": 7308,
      "àS": 7309,
      "öó": 7310,
      "ùð": 7311,
      "\u0000\u0000\u0000\u0000\u0000\u0000\u0000\u0000\u0001\u0000\u0000\u0000": 7312,
      "Ày": 7313,
      "_m": 7314,
      "ü": 7315,
      ")\u0010": 7316,
      "47": 7317,
      "\u001cð": 7318,
      "ñÿÿ\u0017": 7319,
      "\u0013\u0006": 7320,
      "±ÄA": 7321,
      "0p": 7322,
      "o\u0000n\u0000": 7323,
      "\u00077": 7324,
      "èw": 7325,
      "è×": 7326,
      "\u0014û": 7327,
      "`#": 7328,
      "bP": 7329,
      "Ô\u0001\u0000": 7330,
      "j\u0000j": 7331,
      "à": 7332,
      "À\u000f": 7333,
      "s\u0004": 7334,
      "EC": 7335,
      "\\\u0002": 7336,
      "Ý\u0002": 7337,
      "F\u0000\u0000\u0000": 7338,
      "Þ\u0002": 7339,
      "¡A": 7340,
      "èK": 7341,
      "/%": 7342,
      "@h": 7343,
      " L": 7344,
      "lib": 7345,
      "âø": 7346,
      "Lñ": 7347,
      "\u00184": 7348,
      "W\b": 7349,
      "è[": 7350,
      "\u0017ð": 7351,
      "u\u001b": 7352,
      "\u0000\u0000p": 7353,
      "\u0002\u0000\u0006": 7354,
      "w\u0010": 7355,
      "ô\u0001\u0000\u0000": 7356,
      "H\f": 7357,
      " in": 7358,
      "ÀÀ": 7359,
      " $": 7360,
      "\u0013@¹": 7361,
      "÷ò": 7362,
      "£ü": 7363,
      ">?": 7364,
      "QP": 7365,
      "è\u0005": 7366,
      "\u0006": 7367,
      "\u0018\u000f": 7368,
      "\u000e\u0000\u0000\u0000\u0000\u0000": 7369,
      "\u0000\u0000r": 7370,
      " &": 7371,
      "¤\u0003": 7372,
      "read": 7373,
      "\u0004": 7374,
      "\u000e\n": 7375,
      "\u0001\u0001\u0001\u0001\u0001\u0001\u0001\u0001": 7376,
      "Hú\u0000\u0010\u0000\u0000r": 7377,
      "\u0000\u0000\u0000": 7378,
      "6": 7379,
      "O": 7380,
      " #": 7381,
      "¼å": 7382,
      "a\u0006": 7383,
      " \u000b": 7384,
      "\u0001K": 7385,
      "\u001c4": 7386,
      "a\u0000m\u0000": 7387,
      "S\u0002": 7388,
      "Å\b": 7389,
      "J": 7390,
      "\u001e\u0000p": 7391,
      "om": 7392,
      "\tÐ": 7393,
      "EÈ": 7394,
      "Cð": 7395,
      "ñ\b": 7396,
      "V_": 7397,
      "ô\u0006": 7398,
      ";û": 7399,
      "{\u0002": 7400,
      " th": 7401,
      ".\u0000I\u0000": 7402,
      "b\u0010": 7403,
      "òÿÿ\u0017": 7404,
      "\b": 7405,
      "ect": 7406,
      "H": 7407,
      "Un": 7408,
      "¢À": 7409,
      "ë!": 7410,
      "Â": 7411,
      "Ü\u0003": 7412,
      "öò": 7413,
      "i\u0000\u0000\u0000\u0000\u0000": 7414,
      "C\u0014": 7415,
      "/ü": 7416,
      "\u0007x": 7417,
      "|É\u0010": 7418,
      "du": 7419,
      "0>": 7420,
      "à\u000f@ù": 7421,
      "i\u0000\u0000\u0000": 7422,
      "õò": 7423,
      "é\u0001t": 7424,
      "\u0002Ñ": 7425,
      "°": 7426,
      "A\u0006": 7427,
      "ÆH": 7428,
      "8": 7429,
      "41": 7430,
      "õÿÿ\u0017": 7431,
      "&": 7432,
      "ü": 7433,
      "èW": 7434,
      "\u00186": 7435,
      "ê\u0005": 7436,
      "Ò": 7437,
      "l\u0002": 7438,
      "%-": 7439,
      "FX": 7440,
      "´ü": 7441,
      "\u0001\u0000 \u0000": 7442,
      "u\u001c": 7443,
      "ýH\u0019": 7444,
      "(*": 7445,
      "\u0010": 7446,
      "EH¸": 7447,
      "\u0018\u0019": 7448,
      "àð": 7449,
      "r\u0004": 7450,
      "ý{Ã¨À\u0003_Ö": 7451,
      "\u0000X": 7452,
      "\u0016û": 7453,
      "\r\u0000\u0000\u0000\u0000\u0000": 7454,
      " \u000e": 7455,
      "\"\u0006": 7456,
      "M©": 7457,
      "S\b": 7458,
      "á\u000b": 7459,
      " ": 7460,
      "<\u0000\u0012": 7461,
      "ö\u000b": 7462,
      "PL": 7463,
      "E : ": 7464,
      "À\u0002\u0000\u0000": 7465,
      "H¼$": 7466,
      ")ü": 7467,
      "²\u0004": 7468,
      "\\ø": 7469,
      "ÿÿÿÿÿÿ": 7470,
      "ë\u0019": 7471,
      "\"ü": 7472,
      "\u001e\u0000\u0000\u0000": 7473,
      "·ü": 7474,
      "\u0004": 7475,
      "ö\b": 7476,
      "é\b": 7477,
      "oü": 7478,
      "r\u0002": 7479,
      "`\u0000\u0000\u0000\u0000\u0000\u0000\u0000": 7480,
      "Àx": 7481,
      "À?": 7482,
      "5": 7483,
      "ü": 7484,
      "\u0019\u0003\u0000": 7485,
      "c\u0010": 7486,
      "\u0000( \u0002\u0000( \u0002": 7487,
      "Mi": 7488,
      " \u0002\u0005": 7489,
      "¡ü": 7490,
      "\u0000\u0000\u0000I": 7491,
      "\r÷": 7492,
      "$": 7493,
      "±\u0003": 7494,
      "\u001b\u0010": 7495,
      "$z": 7496,
      "": 7497,
      "\u0003": 7498,
      "\r\u0000T": 7499,
      "ºü": 7500,
      "`\n\u0000": 7501,
      " ": 7502,
      "<": 7503,
      "\u000fÀ": 7504,
      " \u0018": 7505,
      "\b\u0000ù": 7506,
      "ö_B©": 7507,
      "¨ ": 7508,
      "\f\u0012": 7509,
      "ýû": 7510,
      " \u000b": 7511,
      "a\u0010": 7512,
      "ïð": 7513,
      "E\u001e": 7514,
      "é\u0006": 7515,
      "óÿ": 7516,
      "\u0004": 7517,
      "$Ð": 7518,
      "+\u0006\u0001\u0004\u0001": 7519,
      "û?": 7520,
      "v\u0006": 7521,
      "0L": 7522,
      "[\b": 7523,
      "\u0000*": 7524,
      "UP": 7525,
      "AAA": 7526,
      "\u0014\"": 7527,
      "\u0000â\u000f\u0000": 7528,
      "ü\u0000ü\u0000": 7529,
      "+\u0003": 7530,
      "\u0011\u001c": 7531,
      "â\u0006": 7532,
      "H¦": 7533,
      "_v": 7534,
      "­ü": 7535,
      "ËG": 7536,
      "\rú": 7537,
      "\u0014%": 7538,
      "1í": 7539,
      "ü": 7540,
      "c\u0000": 7541,
      "H$": 7542,
      "\u0001\u0013ò": 7543,
      "Ø\u0000\u0000": 7544,
      "36": 7545,
      "IP": 7546,
      "Xø": 7547,
      "ö\t": 7548,
      "ø": 7549,
      "\u0013\u0005": 7550,
      "¶ü": 7551,
      "µü": 7552,
      "\u0015\u0012": 7553,
      "óø": 7554,
      "K": 7555,
      "Get": 7556,
      "õÿ": 7557,
      "M@": 7558,
      "B\u0001R": 7559,
      "t<": 7560,
      "è": 7561,
      "Hø": 7562,
      "\u0011\u000b": 7563,
      "E\u0000\u0000\u0000": 7564,
      "8Í": 7565,
      "H»": 7566,
      "\fù": 7567,
      "§\u0010": 7568,
      "7¢": 7569,
      "\"ô": 7570,
      "E0": 7571,
      "` ": 7572,
      "éÿÿ\u0017": 7573,
      "\u001b\u0006": 7574,
      "pC": 7575,
      "H;Ê": 7576,
      "dd\u0000ddd\u0000": 7577,
      "Ê\u0002": 7578,
      "\u0005h": 7579,
      "\u0014\u0000q": 7580,
      "V\u0010": 7581,
      "¹ü": 7582,
      "`\u0018": 7583,
      "H;Á": 7584,
      "b\u0004": 7585,
      "@-": 7586,
      "ó\u000b@ùý{Â¨": 7587,
      "/>": 7588,
      "¦\u0002": 7589,
      "N\u0002": 7590,
      "\u0014÷": 7591,
      "ÓX": 7592,
      "\u000f\u0000\u000f\u0000": 7593,
      "ÀA": 7594,
      "28": 7595,
      "!Ð": 7596,
      "Ý\u0003": 7597,
      ",ü": 7598,
      "+Ð": 7599,
      "fÇ": 7600,
      "\u0004": 7601,
      "ted": 7602,
      "#\b": 7603,
      "º\u0003": 7604,
      "\u0014\t": 7605,
      "1ü": 7606,
      "ñ\u0006": 7607,
      "-ü": 7608,
      "è": 7609,
      "àó": 7610,
      "Ø\u0004": 7611,
      "ü": 7612,
      "0": 7613,
      "ë\u001e": 7614,
      "]A\\": 7615,
      "\b": 7616,
      "\u001f2": 7617,
      "v\n": 7618,
      "u÷": 7619,
      "#ð": 7620,
      "è·": 7621,
      "\u0019": 7622,
      "F0": 7623,
      "||": 7624,
      "å]": 7625,
      "\u001f\u0003\u0000": 7626,
      "¤ü": 7627,
      "+ø": 7628,
      "\u000eô": 7629,
      "Ú\u0002": 7630,
      "%\\": 7631,
      "{": 7632,
      "è": 7633,
      "W\u0002": 7634,
      "a \u0000\u0000": 7635,
      "\u0004": 7636,
      "³ü": 7637,
      "_ÃÌ": 7638,
      "t$@": 7639,
      "D\b": 7640,
      "DI": 7641,
      "\\$`": 7642,
      " \u0000\u0000\u0000\u0000\u0000\u0000\u0000": 7643,
      "UN": 7644,
      "\u001e\u0010": 7645,
      "~\u0004": 7646,
      "Â\u0010": 7647,
      " @": 7648,
      "á@": 7649,
      "Õ\u0002": 7650,
      "B\u0000R": 7651,
      "Z\u0002": 7652,
      "¦ü": 7653,
      "ú\n": 7654,
      "|?": 7655,
      "B\u0004\u0000": 7656,
      "H\u001c": 7657,
      "\"\u0000Ò": 7658,
      "Þ\u0003": 7659,
      "\u0017\f": 7660,
      "0\u0018": 7661,
      "G\u000f\u0010": 7662,
      "\u0015ï": 7663,
      "|\u0000|\u0000": 7664,
      "Û\u0002": 7665,
      "\u0001\u0016": 7666,
      "\u000e\u000b": 7667,
      "õ\u0006": 7668,
      "\u0000\u0000\u0000\u0000\u0000\u0000\u0002": 7669,
      "Ì\u0002": 7670,
      "\u0015÷": 7671,
      "èk": 7672,
      "Â\b": 7673,
[...]
