{
  "version": "1.0",
  "truncation": null,
  "padding": null,
  "added_tokens": [
    {
      "id": 0,
      "content": "<|start|>",
      "single_word": false,
      "lstrip": false,
      "rstrip": false,
      "normalized": false,
      "special": true
    },
    {
      "id": 1,
      "content": "<|end|>",
      "single_word": false,
      "lstrip": false,
      "rstrip": false,
      "normalized": false,
      "special": true
    },
    {
      "id": 2,
      "content": "<|sep|>",
      "single_word": false,
      "lstrip": false,
      "rstrip": false,
      "normalized": false,
      "special": true
    },
    {
      "id": 3,
      "content": "<|cls|>",
      "single_word": false,
      "lstrip": false,
      "rstrip": false,
      "normalized": false,
      "special": true
    },
    {
      "id": 4,
      "content": "<|pad|>",
      "single_word": false,
      "lstrip": false,
      "rstrip": false,
      "normalized": false,
      "special": true
    },
    {
      "id": 5,
      "content": "<|mask|>",
      "single_word": false,
      "lstrip": false,
      "rstrip": false,
      "normalized": false,
      "special": true
    },
    {
      "id": 6,
      "content": "<|unk|>",
      "single_word": false,
      "lstrip": false,
      "rstrip": false,
      "normalized": false,
      "special": true
    },
    {
      "id": 7,
      "content": "<|reserved:0|>",
      "single_word": false,
      "lstrip": false,
      "rstrip": false,
      "normalized": false,
      "special": true
    },
    {
      "id": 8,
      "content": "<|reserved:1|>",
      "single_word": false,
      "lstrip": false,
      "rstrip": false,
      "normalized": false,
      "special": true
    },
    {
      "id": 9,
      "content": "<|reserved:2|>",
      "single_word": false,
      "lstrip": false,
      "rstrip": false,
      "normalized": false,
      "special": true
    },
    {
      "id": 10,
      "content": "<|reserved:3|>",
      "single_word": false,
      "lstrip": false,
      "rstrip": false,
      "normalized": false,
      "special": true
    },
    {
      "id": 11,
      "content": "<|reserved:4|>",
      "single_word": false,
      "lstrip": false,
      "rstrip": false,
      "normalized": false,
      "special": true
    },
    {
      "id": 12,
      "content": "<|reserved:5|>",
      "single_word": false,
      "lstrip": false,
      "rstrip": false,
      "normalized": false,
      "special": true
    },
    {
      "id": 13,
      "content": "<|reserved:6|>",
      "single_word": false,
      "lstrip": false,
      "rstrip": false,
      "normalized": false,
      "special": true
    },
    {
      "id": 14,
      "content": "<|reserved:7|>",
      "single_word": false,
      "lstrip": false,
      "rstrip": false,
      "normalized": false,
      "special": true
    },
    {
      "id": 15,
      "content": "<|reserved:8|>",
      "single_word": false,
      "lstrip": false,
      "rstrip": false,
      "normalized": false,
      "special": true
    },
    {
      "id": 16,
      "content": "<|reserved:9|>",
      "single_word": false,
      "lstrip": false,
      "rstrip": false,
      "normalized": false,
      "special": true
    },
    {
      "id": 17,
      "content": "<|reserved:10|>",
      "single_word": false,
      "lstrip": false,
      "rstrip": false,
      "normalized": false,
      "special": true
    },
    {
      "id": 18,
      "content": "<|reserved:11|>",
      "single_word": false,
      "lstrip": false,
      "rstrip": false,
      "normalized": false,
      "special": true
    },
    {
      "id": 19,
      "content": "<|reserved:12|>",
      "single_word": false,
      "lstrip": false,
      "rstrip": false,
      "normalized": false,
      "special": true
    },
    {
      "id": 20,
      "content": "<|reserved:13|>",
      "single_word": false,
      "lstrip": false,
      "rstrip": false,
      "normalized": false,
      "special": true
    },
    {
      "id": 21,
      "content": "<|reserved:14|>",
      "single_word": false,
      "lstrip": false,
      "rstrip": false,
      "normalized": false,
      "special": true
    },
    {
      "id": 22,
      "content": "<|reserved:15|>",
      "single_word": false,
      "lstrip": false,
      "rstrip": false,
      "normalized": false,
      "special": true
    },
    {
      "id": 23,
      "content": "<|reserved:16|>",
      "single_word": false,
      "lstrip": false,
      "rstrip": false,
      "normalized": false,
      "special": true
    },
    {
      "id": 24,
      "content": "<|reserved:17|>",
      "single_word": false,
      "lstrip": false,
      "rstrip": false,
      "normalized": false,
      "special": true
    },
    {
      "id": 25,
      "content": "<|reserved:18|>",
      "single_word": false,
      "lstrip": false,
      "rstrip": false,
      "normalized": false,
      "special": true
    },
    {
      "id": 26,
      "content": "<|reserved:19|>",
      "single_word": false,
      "lstrip": false,
      "rstrip": false,
      "normalized": false,
      "special": true
    },
    {
      "id": 27,
      "content": "<|reserved:20|>",
      "single_word": false,
      "lstrip": false,
      "rstrip": false,
      "normalized": false,
      "special": true
    },
    {
      "id": 28,
      "content": "<|reserved:21|>",
      "single_word": false,
      "lstrip": false,
      "rstrip": false,
      "normalized": false,
      "special": true
    },
    {
      "id": 29,
      "content": "<|reserved:22|>",
      "single_word": false,
      "lstrip": false,
      "rstrip": false,
      "normalized": false,
      "special": true
    },
    {
      "id": 30,
      "content": "<|reserved:23|>",
      "single_word": false,
      "lstrip": false,
      "rstrip": false,
      "normalized": false,
      "special": true
    },
    {
      "id": 31,
      "content": "<|reserved:24|>",
      "single_word": false,
      "lstrip": false,
      "rstrip": false,
      "normalized": false,
      "special": true
    },
    {
      "id": 32,
      "content": "<|reserved:25|>",
      "single_word": false,
      "lstrip": false,
      "rstrip": false,
      "normalized": false,
      "special": true
    },
    {
      "id": 33,
      "content": "<|reserved:26|>",
      "single_word": false,
      "lstrip": false,
      "rstrip": false,
      "normalized": false,
      "special": true
    },
    {
      "id": 34,
      "content": "<|reserved:27|>",
      "single_word": false,
      "lstrip": false,
      "rstrip": false,
      "normalized": false,
      "special": true
    },
    {
      "id": 35,
      "content": "<|reserved:28|>",
      "single_word": false,
      "lstrip": false,
      "rstrip": false,
      "normalized": false,
      "special": true
    },
    {
      "id": 36,
      "content": "<|reserved:29|>",
      "single_word": false,
      "lstrip": false,
      "rstrip": false,
      "normalized": false,
      "special": true
    },
    {
      "id": 37,
      "content": "<|reserved:30|>",
      "single_word": false,
      "lstrip": false,
      "rstrip": false,
      "normalized": false,
      "special": true
    },
    {
      "id": 38,
      "content": "<|reserved:31|>",
      "single_word": false,
      "lstrip": false,
      "rstrip": false,
      "normalized": false,
      "special": true
    },
    {
      "id": 39,
      "content": "<|reserved:32|>",
      "single_word": false,
      "lstrip": false,
      "rstrip": false,
      "normalized": false,
      "special": true
    },
    {
      "id": 40,
      "content": "<|reserved:33|>",
      "single_word": false,
      "lstrip": false,
      "rstrip": false,
      "normalized": false,
      "special": true
    },
    {
      "id": 41,
      "content": "<|reserved:34|>",
      "single_word": false,
      "lstrip": false,
      "rstrip": false,
      "normalized": false,
      "special": true
    },
    {
      "id": 42,
      "content": "<|reserved:35|>",
      "single_word": false,
      "lstrip": false,
      "rstrip": false,
      "normalized": false,
      "special": true
    },
    {
      "id": 43,
      "content": "<|reserved:36|>",
      "single_word": false,
      "lstrip": false,
      "rstrip": false,
      "normalized": false,
      "special": true
    },
    {
      "id": 44,
      "content": "<|reserved:37|>",
      "single_word": false,
      "lstrip": false,
      "rstrip": false,
      "normalized": false,
      "special": true
    },
    {
      "id": 45,
      "content": "<|reserved:38|>",
      "single_word": false,
      "lstrip": false,
      "rstrip": false,
      "normalized": false,
      "special": true
    },
    {
      "id": 46,
      "content": "<|reserved:39|>",
      "single_word": false,
      "lstrip": false,
      "rstrip": false,
      "normalized": false,
      "special": true
    },
    {
      "id": 47,
      "content": "<|reserved:40|>",
      "single_word": false,
      "lstrip": false,
      "rstrip": false,
      "normalized": false,
      "special": true
    },
    {
      "id": 48,
      "content": "<|reserved:41|>",
      "single_word": false,
      "lstrip": false,
      "rstrip": false,
      "normalized": false,
      "special": true
    },
    {
      "id": 49,
      "content": "<|reserved:42|>",
      "single_word": false,
      "lstrip": false,
      "rstrip": false,
      "normalized": false,
      "special": true
    },
    {
      "id": 50,
      "content": "<|reserved:43|>",
      "single_word": false,
      "lstrip": false,
      "rstrip": false,
      "normalized": false,
      "special": true
    },
    {
      "id": 51,
      "content": "<|reserved:44|>",
      "single_word": false,
      "lstrip": false,
      "rstrip": false,
      "normalized": false,
      "special": true
    },
    {
      "id": 52,
      "content": "<|reserved:45|>",
      "single_word": false,
      "lstrip": false,
      "rstrip": false,
      "normalized": false,
      "special": true
    },
    {
      "id": 53,
      "content": "<|reserved:46|>",
      "single_word": false,
      "lstrip": false,
      "rstrip": false,
      "normalized": false,
      "special": true
    },
    {
      "id": 54,
      "content": "<|reserved:47|>",
      "single_word": false,
      "lstrip": false,
      "rstrip": false,
      "normalized": false,
      "special": true
    },
    {
      "id": 55,
      "content": "<|reserved:48|>",
      "single_word": false,
      "lstrip": false,
      "rstrip": false,
      "normalized": false,
      "special": true
    },
    {
      "id": 56,
      "content": "<|reserved:49|>",
      "single_word": false,
      "lstrip": false,
      "rstrip": false,
      "normalized": false,
      "special": true
    },
    {
      "id": 57,
      "content": "<|reserved:50|>",
      "single_word": false,
      "lstrip": false,
      "rstrip": false,
      "normalized": false,
      "special": true
    },
    {
      "id": 58,
      "content": "<|reserved:51|>",
      "single_word": false,
      "lstrip": false,
      "rstrip": false,
      "normalized": false,
      "special": true
    },
    {
      "id": 59,
      "content": "<|reserved:52|>",
      "single_word": false,
      "lstrip": false,
      "rstrip": false,
      "normalized": false,
      "special": true
    },
    {
      "id": 60,
      "content": "<|reserved:53|>",
      "single_word": false,
      "lstrip": false,
      "rstrip": false,
      "normalized": false,
      "special": true
    },
    {
      "id": 61,
      "content": "<|reserved:54|>",
      "single_word": false,
      "lstrip": false,
      "rstrip": false,
      "normalized": false,
      "special": true
    },
    {
      "id": 62,
      "content": "<|reserved:55|>",
      "single_word": false,
      "lstrip": false,
      "rstrip": false,
      "normalized": false,
      "special": true
    },
    {
      "id": 63,
      "content": "<|reserved:56|>",
      "single_word": false,
      "lstrip": false,
      "rstrip": false,
      "normalized": false,
      "special": true
    },
    {
      "id": 64,
      "content": "<|reserved:57|>",
      "single_word": false,
      "lstrip": false,
      "rstrip": false,
      "normalized": false,
      "special": true
    },
    {
      "id": 65,
      "content": "<|reserved:58|>",
      "single_word": false,
      "lstrip": false,
      "rstrip": false,
      "normalized": false,
      "special": true
    },
    {
      "id": 66,
      "content": "<|reserved:59|>",
      "single_word": false,
      "lstrip": false,
      "rstrip": false,
      "normalized": false,
      "special": true
    },
    {
      "id": 67,
      "content": "<|reserved:60|>",
      "single_word": false,
      "lstrip": false,
      "rstrip": false,
      "normalized": false,
      "special": true
    },
    {
      "id": 68,
      "content": "<|reserved:61|>",
      "single_word": false,
      "lstrip": false,
      "rstrip": false,
      "normalized": false,
      "special": true
    },
    {
      "id": 69,
      "content": "<|reserved:62|>",
      "single_word": false,
      "lstrip": false,
      "rstrip": false,
      "normalized": false,
      "special": true
    },
    {
      "id": 70,
      "content": "<|reserved:63|>",
      "single_word": false,
      "lstrip": false,
      "rstrip": false,
      "normalized": false,
      "special": true
    },
    {
      "id": 71,
      "content": "<|reserved:64|>",
      "single_word": false,
      "lstrip": false,
      "rstrip": false,
      "normalized": false,
      "special": true
    },
    {
      "id": 72,
      "content": "<|reserved:65|>",
      "single_word": false,
      "lstrip": false,
      "rstrip": false,
      "normalized": false,
      "special": true
    },
    {
      "id": 73,
      "content": "<|reserved:66|>",
      "single_word": false,
      "lstrip": false,
      "rstrip": false,
      "normalized": false,
      "special": true
    },
    {
      "id": 74,
      "content": "<|reserved:67|>",
      "single_word": false,
      "lstrip": false,
      "rstrip": false,
      "normalized": false,
      "special": true
    },
    {
      "id": 75,
      "content": "<|reserved:68|>",
      "single_word": false,
      "lstrip": false,
      "rstrip": false,
      "normalized": false,
      "special": true
    },
    {
      "id": 76,
      "content": "<|reserved:69|>",
      "single_word": false,
      "lstrip": false,
      "rstrip": false,
      "normalized": false,
      "special": true
    },
    {
      "id": 77,
      "content": "<|reserved:70|>",
      "single_word": false,
      "lstrip": false,
      "rstrip": false,
      "normalized": false,
      "special": true
    },
    {
      "id": 78,
      "content": "<|reserved:71|>",
      "single_word": false,
      "lstrip": false,
      "rstrip": false,
      "normalized": false,
      "special": true
    },
    {
      "id": 79,
      "content": "<|reserved:72|>",
      "single_word": false,
      "lstrip": false,
      "rstrip": false,
      "normalized": false,
      "special": true
    },
    {
      "id": 80,
      "content": "<|reserved:73|>",
      "single_word": false,
      "lstrip": false,
      "rstrip": false,
      "normalized": false,
      "special": true
    },
    {
      "id": 81,
      "content": "<|reserved:74|>",
      "single_word": false,
      "lstrip": false,
      "rstrip": false,
      "normalized": false,
      "special": true
    },
    {
      "id": 82,
      "content": "<|reserved:75|>",
      "single_word": false,
      "lstrip": false,
      "rstrip": false,
      "normalized": false,
      "special": true
    },
    {
      "id": 83,
      "content": "<|reserved:76|>",
      "single_word": false,
      "lstrip": false,
      "rstrip": false,
      "normalized": false,
      "special": true
    },
    {
      "id": 84,
      "content": "<|reserved:77|>",
      "single_word": false,
      "lstrip": false,
      "rstrip": false,
      "normalized": false,
      "special": true
    },
    {
      "id": 85,
      "content": "<|reserved:78|>",
      "single_word": false,
      "lstrip": false,
      "rstrip": false,
      "normalized": false,
      "special": true
    },
    {
      "id": 86,
      "content": "<|reserved:79|>",
      "single_word": false,
      "lstrip": false,
      "rstrip": false,
      "normalized": false,
      "special": true
    },
    {
      "id": 87,
      "content": "<|reserved:80|>",
      "single_word": false,
      "lstrip": false,
      "rstrip": false,
      "normalized": false,
      "special": true
    },
    {
      "id": 88,
      "content": "<|reserved:81|>",
      "single_word": false,
      "lstrip": false,
      "rstrip": false,
      "normalized": false,
      "special": true
    },
    {
      "id": 89,
      "content": "<|reserved:82|>",
      "single_word": false,
      "lstrip": false,
      "rstrip": false,
      "normalized": false,
      "special": true
    },
    {
      "id": 90,
      "content": "<|reserved:83|>",
      "single_word": false,
      "lstrip": false,
      "rstrip": false,
      "normalized": false,
      "special": true
    },
    {
      "id": 91,
      "content": "<|reserved:84|>",
      "single_word": false,
      "lstrip": false,
      "rstrip": false,
      "normalized": false,
      "special": true
    },
    {
      "id": 92,
      "content": "<|reserved:85|>",
      "single_word": false,
      "lstrip": false,
      "rstrip": false,
      "normalized": false,
      "special": true
    },
    {
      "id": 93,
      "content": "<|reserved:86|>",
      "single_word": false,
      "lstrip": false,
      "rstrip": false,
      "normalized": false,
      "special": true
    },
    {
      "id": 94,
      "content": "<|reserved:87|>",
      "single_word": false,
      "lstrip": false,
      "rstrip": false,
      "normalized": false,
      "special": true
    },
    {
      "id": 95,
      "content": "<|reserved:88|>",
      "single_word": false,
      "lstrip": false,
      "rstrip": false,
      "normalized": false,
      "special": true
    },
    {
      "id": 96,
      "content": "<|reserved:89|>",
      "single_word": false,
      "lstrip": false,
      "rstrip": false,
      "normalized": false,
      "special": true
    },
    {
      "id": 97,
      "content": "<|reserved:90|>",
      "single_word": false,
      "lstrip": false,
      "rstrip": false,
      "normalized": false,
      "special": true
    },
    {
      "id": 98,
      "content": "<|reserved:91|>",
      "single_word": false,
      "lstrip": false,
      "rstrip": false,
      "normalized": false,
      "special": true
    },
    {
      "id": 99,
      "content": "<|reserved:92|>",
      "single_word": false,
      "lstrip": false,
      "rstrip": false,
      "normalized": false,
      "special": true
    },
    {
      "id": 100,
      "content": "<|reserved:93|>",
      "single_word": false,
      "lstrip": false,
      "rstrip": false,
      "normalized": false,
      "special": true
    },
    {
      "id": 101,
      "content": "<|reserved:94|>",
      "single_word": false,
      "lstrip": false,
      "rstrip": false,
      "normalized": false,
      "special": true
    },
    {
      "id": 102,
      "content": "<|reserved:95|>",
      "single_word": false,
      "lstrip": false,
      "rstrip": false,
      "normalized": false,
      "special": true
    },
    {
      "id": 103,
      "content": "<|reserved:96|>",
      "single_word": false,
      "lstrip": false,
      "rstrip": false,
      "normalized": false,
      "special": true
    },
    {
      "id": 104,
      "content": "<|reserved:97|>",
      "single_word": false,
      "lstrip": false,
      "rstrip": false,
      "normalized": false,
      "special": true
    },
    {
      "id": 105,
      "content": "<|reserved:98|>",
      "single_word": false,
      "lstrip": false,
      "rstrip": false,
      "normalized": false,
      "special": true
    },
    {
      "id": 106,
      "content": "<|reserved:99|>",
      "single_word": false,
      "lstrip": false,
      "rstrip": false,
      "normalized": false,
      "special": true
    },
    {
      "id": 107,
      "content": "<|reserved:100|>",
      "single_word": false,
      "lstrip": false,
      "rstrip": false,
      "normalized": false,
      "special": true
    },
    {
      "id": 108,
      "content": "<|reserved:101|>",
      "single_word": false,
      "lstrip": false,
      "rstrip": false,
      "normalized": false,
      "special": true
    },
    {
      "id": 109,
      "content": "<|reserved:102|>",
      "single_word": false,
      "lstrip": false,
      "rstrip": false,
      "normalized": false,
      "special": true
    },
    {
      "id": 110,
      "content": "<|reserved:103|>",
      "single_word": false,
      "lstrip": false,
      "rstrip": false,
      "normalized": false,
      "special": true
    },
    {
      "id": 111,
      "content": "<|reserved:104|>",
      "single_word": false,
      "lstrip": false,
      "rstrip": false,
      "normalized": false,
      "special": true
    },
    {
      "id": 112,
      "content": "<|reserved:105|>",
      "single_word": false,
      "lstrip": false,
      "rstrip": false,
      "normalized": false,
      "special": true
    },
    {
      "id": 113,
      "content": "<|reserved:106|>",
      "single_word": false,
      "lstrip": false,
      "rstrip": false,
      "normalized": false,
      "special": true
    },
    {
      "id": 114,
      "content": "<|reserved:107|>",
      "single_word": false,
      "lstrip": false,
      "rstrip": false,
      "normalized": false,
      "special": true
    },
    {
      "id": 115,
      "content": "<|reserved:108|>",
      "single_word": false,
      "lstrip": false,
      "rstrip": false,
      "normalized": false,
      "special": true
    },
    {
      "id": 116,
      "content": "<|reserved:109|>",
      "single_word": false,
      "lstrip": false,
      "rstrip": false,
      "normalized": false,
      "special": true
    },
    {
      "id": 117,
      "content": "<|reserved:110|>",
      "single_word": false,
      "lstrip": false,
      "rstrip": false,
      "normalized": false,
      "special": true
    },
    {
      "id": 118,
      "content": "<|reserved:111|>",
      "single_word": false,
      "lstrip": false,
      "rstrip": false,
      "normalized": false,
      "special": true
    },
    {
      "id": 119,
      "content": "<|reserved:112|>",
      "single_word": false,
      "lstrip": false,
      "rstrip": false,
      "normalized": false,
      "special": true
    },
    {
      "id": 120,
      "content": "<|reserved:113|>",
      "single_word": false,
      "lstrip": false,
      "rstrip": false,
      "normalized": false,
      "special": true
    },
    {
      "id": 121,
      "content": "<|reserved:114|>",
      "single_word": false,
      "lstrip": false,
      "rstrip": false,
      "normalized": false,
      "special": true
    },
    {
      "id": 122,
      "content": "<|reserved:115|>",
      "single_word": false,
      "lstrip": false,
      "rstrip": false,
      "normalized": false,
      "special": true
    },
    {
      "id": 123,
      "content": "<|reserved:116|>",
      "single_word": false,
      "lstrip": false,
      "rstrip": false,
      "normalized": false,
      "special": true
    },
    {
      "id": 124,
      "content": "<|reserved:117|>",
      "single_word": false,
      "lstrip": false,
      "rstrip": false,
      "normalized": false,
      "special": true
    },
    {
      "id": 125,
      "content": "<|reserved:118|>",
      "single_word": false,
      "lstrip": false,
      "rstrip": false,
      "normalized": false,
      "special": true
    },
    {
      "id": 126,
      "content": "<|reserved:119|>",
      "single_word": false,
      "lstrip": false,
      "rstrip": false,
      "normalized": false,
      "special": true
    },
    {
      "id": 127,
      "content": "<|reserved:120|>",
      "single_word": false,
      "lstrip": false,
      "rstrip": false,
      "normalized": false,
      "special": true
    },
    {
      "id": 128,
      "content": "<|reserved:121|>",
      "single_word": false,
      "lstrip": false,
      "rstrip": false,
      "normalized": false,
      "special": true
    },
    {
      "id": 129,
      "content": "<|reserved:122|>",
      "single_word": false,
      "lstrip": false,
      "rstrip": false,
      "normalized": false,
      "special": true
    },
    {
      "id": 130,
      "content": "<|reserved:123|>",
      "single_word": false,
      "lstrip": false,
      "rstrip": false,
      "normalized": false,
      "special": true
    },
    {
      "id": 131,
      "content": "<|reserved:124|>",
      "single_word": false,
      "lstrip": false,
      "rstrip": false,
      "normalized": false,
      "special": true
    },
    {
      "id": 132,
      "content": "<|reserved:125|>",
      "single_word": false,
      "lstrip": false,
      "rstrip": false,
      "normalized": false,
      "special": true
    },
    {
      "id": 133,
      "content": "<|reserved:126|>",
      "single_word": false,
      "lstrip": false,
      "rstrip": false,
      "normalized": false,
      "special": true
    },
    {
      "id": 134,
      "content": "<|reserved:127|>",
      "single_word": false,
      "lstrip": false,
      "rstrip": false,
      "normalized": false,
      "special": true
    }
  ],
  "normalizer": null,
  "pre_tokenizer": null,
  "post_processor": {
    "type": "TemplateProcessing",
    "single": [
      {
        "SpecialToken": {
          "id": "<|start|>",
          "type_id": 0
        }
      },
      {
        "Sequence": {
          "id": "A",
          "type_id": 0
        }
      },
      {
        "SpecialToken": {
          "id": "<|end|>",
          "type_id": 0
        }
      }
    ],
    "pair": [
      {
        "SpecialToken": {
          "id": "<|start|>",
          "type_id": 0
        }
      },
      {
        "Sequence": {
          "id": "A",
          "type_id": 0
        }
      },
      {
        "SpecialToken": {
          "id": "<|sep|>",
          "type_id": 0
        }
      },
      {
        "Sequence": {
          "id": "B",
          "type_id": 0
        }
      },
      {
        "SpecialToken": {
          "id": "<|end|>",
          "type_id": 0
        }
      }
    ],
    "special_tokens": {
      "<|cls|>": {
        "id": "<|cls|>",
        "ids": [
          3
        ],
        "tokens": [
          "<|cls|>"
        ]
      },
      "<|end|>": {
        "id": "<|end|>",
        "ids": [
          1
        ],
        "tokens": [
          "<|end|>"
        ]
      },
      "<|mask|>": {
        "id": "<|mask|>",
        "ids": [
          5
        ],
        "tokens": [
          "<|mask|>"
        ]
      },
      "<|pad|>": {
        "id": "<|pad|>",
        "ids": [
          4
        ],
        "tokens": [
          "<|pad|>"
        ]
      },
      "<|sep|>": {
        "id": "<|sep|>",
        "ids": [
          2
        ],
        "tokens": [
          "<|sep|>"
        ]
      },
      "<|start|>": {
        "id": "<|start|>",
        "ids": [
          0
        ],
        "tokens": [
          "<|start|>"
        ]
      },
      "<|unk|>": {
        "id": "<|unk|>",
        "ids": [
          6
        ],
        "tokens": [
          "<|unk|>"
        ]
      }
    }
  },
  "decoder": null,
  "model": {
    "type": "BPE",
    "dropout": null,
    "unk_token": null,
    "continuing_subword_prefix": null,
    "end_of_word_suffix": null,
    "fuse_unk": false,
    "byte_fallback": false,
    "ignore_merges": false,
    "vocab": {
      "<|start|>": 0,
      "<|end|>": 1,
      "<|sep|>": 2,
      "<|cls|>": 3,
      "<|pad|>": 4,
      "<|mask|>": 5,
      "<|unk|>": 6,
      "<|reserved:0|>": 7,
      "<|reserved:1|>": 8,
      "<|reserved:2|>": 9,
      "<|reserved:3|>": 10,
      "<|reserved:4|>": 11,
      "<|reserved:5|>": 12,
      "<|reserved:6|>": 13,
      "<|reserved:7|>": 14,
      "<|reserved:8|>": 15,
      "<|reserved:9|>": 16,
      "<|reserved:10|>": 17,
      "<|reserved:11|>": 18,
      "<|reserved:12|>": 19,
      "<|reserved:13|>": 20,
      "<|reserved:14|>": 21,
      "<|reserved:15|>": 22,
      "<|reserved:16|>": 23,
      "<|reserved:17|>": 24,
      "<|reserved:18|>": 25,
      "<|reserved:19|>": 26,
      "<|reserved:20|>": 27,
      "<|reserved:21|>": 28,
      "<|reserved:22|>": 29,
      "<|reserved:23|>": 30,
      "<|reserved:24|>": 31,
      "<|reserved:25|>": 32,
      "<|reserved:26|>": 33,
      "<|reserved:27|>": 34,
      "<|reserved:28|>": 35,
      "<|reserved:29|>": 36,
      "<|reserved:30|>": 37,
      "<|reserved:31|>": 38,
      "<|reserved:32|>": 39,
      "<|reserved:33|>": 40,
      "<|reserved:34|>": 41,
      "<|reserved:35|>": 42,
      "<|reserved:36|>": 43,
      "<|reserved:37|>": 44,
      "<|reserved:38|>": 45,
      "<|reserved:39|>": 46,
      "<|reserved:40|>": 47,
      "<|reserved:41|>": 48,
      "<|reserved:42|>": 49,
      "<|reserved:43|>": 50,
      "<|reserved:44|>": 51,
      "<|reserved:45|>": 52,
      "<|reserved:46|>": 53,
      "<|reserved:47|>": 54,
      "<|reserved:48|>": 55,
      "<|reserved:49|>": 56,
      "<|reserved:50|>": 57,
      "<|reserved:51|>": 58,
      "<|reserved:52|>": 59,
      "<|reserved:53|>": 60,
      "<|reserved:54|>": 61,
      "<|reserved:55|>": 62,
      "<|reserved:56|>": 63,
      "<|reserved:57|>": 64,
      "<|reserved:58|>": 65,
      "<|reserved:59|>": 66,
      "<|reserved:60|>": 67,
      "<|reserved:61|>": 68,
      "<|reserved:62|>": 69,
      "<|reserved:63|>": 70,
      "<|reserved:64|>": 71,
      "<|reserved:65|>": 72,
      "<|reserved:66|>": 73,
      "<|reserved:67|>": 74,
      "<|reserved:68|>": 75,
      "<|reserved:69|>": 76,
      "<|reserved:70|>": 77,
      "<|reserved:71|>": 78,
      "<|reserved:72|>": 79,
      "<|reserved:73|>": 80,
      "<|reserved:74|>": 81,
      "<|reserved:75|>": 82,
      "<|reserved:76|>": 83,
      "<|reserved:77|>": 84,
      "<|reserved:78|>": 85,
      "<|reserved:79|>": 86,
      "<|reserved:80|>": 87,
      "<|reserved:81|>": 88,
      "<|reserved:82|>": 89,
      "<|reserved:83|>": 90,
      "<|reserved:84|>": 91,
      "<|reserved:85|>": 92,
      "<|reserved:86|>": 93,
      "<|reserved:87|>": 94,
      "<|reserved:88|>": 95,
      "<|reserved:89|>": 96,
      "<|reserved:90|>": 97,
      "<|reserved:91|>": 98,
      "<|reserved:92|>": 99,
      "<|reserved:93|>": 100,
      "<|reserved:94|>": 101,
      "<|reserved:95|>": 102,
      "<|reserved:96|>": 103,
      "<|reserved:97|>": 104,
      "<|reserved:98|>": 105,
      "<|reserved:99|>": 106,
      "<|reserved:100|>": 107,
      "<|reserved:101|>": 108,
      "<|reserved:102|>": 109,
      "<|reserved:103|>": 110,
      "<|reserved:104|>": 111,
      "<|reserved:105|>": 112,
      "<|reserved:106|>": 113,
      "<|reserved:107|>": 114,
      "<|reserved:108|>": 115,
      "<|reserved:109|>": 116,
      "<|reserved:110|>": 117,
      "<|reserved:111|>": 118,
      "<|reserved:112|>": 119,
      "<|reserved:113|>": 120,
      "<|reserved:114|>": 121,
      "<|reserved:115|>": 122,
      "<|reserved:116|>": 123,
      "<|reserved:117|>": 124,
      "<|reserved:118|>": 125,
      "<|reserved:119|>": 126,
      "<|reserved:120|>": 127,
      "<|reserved:121|>": 128,
      "<|reserved:122|>": 129,
      "<|reserved:123|>": 130,
      "<|reserved:124|>": 131,
      "<|reserved:125|>": 132,
      "<|reserved:126|>": 133,
      "<|reserved:127|>": 134,
      "\u0000": 135,
      "\u0001": 136,
      "\u0002": 137,
      "\u0003": 138,
      "\u0004": 139,
      "\u0005": 140,
      "\u0006": 141,
      "\u0007": 142,
      "\b": 143,
      "\t": 144,
      "\n": 145,
      "\u000b": 146,
      "\f": 147,
      "\r": 148,
      "\u000e": 149,
      "\u000f": 150,
      "\u0010": 151,
      "\u0011": 152,
      "\u0012": 153,
      "\u0013": 154,
      "\u0014": 155,
      "\u0015": 156,
      "\u0016": 157,
      "\u0017": 158,
      "\u0018": 159,
      "\u0019": 160,
      "\u001a": 161,
      "\u001b": 162,
      "\u001c": 163,
      "\u001d": 164,
      "\u001e": 165,
      "\u001f": 166,
      " ": 167,
      "!": 168,
      "\"": 169,
      "#": 170,
      "$": 171,
      "%": 172,
      "&": 173,
      "'": 174,
      "(": 175,
      ")": 176,
      "*": 177,
      "+": 178,
      ",": 179,
      "-": 180,
      ".": 181,
      "/": 182,
      "0": 183,
      "1": 184,
      "2": 185,
      "3": 186,
      "4": 187,
      "5": 188,
      "6": 189,
      "7": 190,
      "8": 191,
      "9": 192,
      ":": 193,
      ";": 194,
      "<": 195,
      "=": 196,
      ">": 197,
      "?": 198,
      "@": 199,
      "A": 200,
      "B": 201,
      "C": 202,
      "D": 203,
      "E": 204,
      "F": 205,
      "G": 206,
      "H": 207,
      "I": 208,
      "J": 209,
      "K": 210,
      "L": 211,
      "M": 212,
      "N": 213,
      "O": 214,
      "P": 215,
      "Q": 216,
      "R": 217,
      "S": 218,
      "T": 219,
      "U": 220,
      "V": 221,
      "W": 222,
      "X": 223,
      "Y": 224,
      "Z": 225,
      "[": 226,
      "\\": 227,
      "]": 228,
      "^": 229,
      "_": 230,
      "`": 231,
      "a": 232,
      "b": 233,
      "c": 234,
      "d": 235,
      "e": 236,
      "f": 237,
      "g": 238,
      "h": 239,
      "i": 240,
      "j": 241,
      "k": 242,
      "l": 243,
      "m": 244,
      "n": 245,
      "o": 246,
      "p": 247,
      "q": 248,
      "r": 249,
      "s": 250,
      "t": 251,
      "u": 252,
      "v": 253,
      "w": 254,
      "x": 255,
      "y": 256,
      "z": 257,
      "{": 258,
      "|": 259,
      "}": 260,
      "~": 261,
      "": 262,
      "": 263,
      "": 264,
      "": 265,
      "": 266,
      "": 267,
      "": 268,
      "": 269,
      "": 270,
      "": 271,
      "": 272,
      "": 273,
      "": 274,
      "": 275,
      "": 276,
      "": 277,
      "": 278,
      "": 279,
      "": 280,
      "": 281,
      "": 282,
      "": 283,
      "": 284,
      "": 285,
      "": 286,
      "": 287,
      "": 288,
      "": 289,
      "": 290,
      "": 291,
      "": 292,
      "": 293,
      "": 294,
      " ": 295,
      "¡": 296,
      "¢": 297,
      "£": 298,
      "¤": 299,
      "¥": 300,
      "¦": 301,
      "§": 302,
      "¨": 303,
      "©": 304,
      "ª": 305,
      "«": 306,
      "¬": 307,
      "­": 308,
      "®": 309,
      "¯": 310,
      "°": 311,
      "±": 312,
      "²": 313,
      "³": 314,
      "´": 315,
      "µ": 316,
      "¶": 317,
      "·": 318,
      "¸": 319,
      "¹": 320,
      "º": 321,
      "»": 322,
      "¼": 323,
      "½": 324,
      "¾": 325,
      "¿": 326,
      "À": 327,
      "Á": 328,
      "Â": 329,
      "Ã": 330,
      "Ä": 331,
      "Å": 332,
      "Æ": 333,
      "Ç": 334,
      "È": 335,
      "É": 336,
      "Ê": 337,
      "Ë": 338,
      "Ì": 339,
      "Í": 340,
      "Î": 341,
      "Ï": 342,
      "Ð": 343,
      "Ñ": 344,
      "Ò": 345,
      "Ó": 346,
      "Ô": 347,
      "Õ": 348,
      "Ö": 349,
      "×": 350,
      "Ø": 351,
      "Ù": 352,
      "Ú": 353,
      "Û": 354,
      "Ü": 355,
      "Ý": 356,
      "Þ": 357,
      "ß": 358,
      "à": 359,
      "á": 360,
      "â": 361,
      "ã": 362,
      "ä": 363,
      "å": 364,
      "æ": 365,
      "ç": 366,
      "è": 367,
      "é": 368,
      "ê": 369,
      "ë": 370,
      "ì": 371,
      "í": 372,
      "î": 373,
      "ï": 374,
      "ð": 375,
      "ñ": 376,
      "ò": 377,
      "ó": 378,
      "ô": 379,
      "õ": 380,
      "ö": 381,
      "÷": 382,
      "ø": 383,
      "ù": 384,
      "ú": 385,
      "û": 386,
      "ü": 387,
      "ý": 388,
      "þ": 389,
      "ÿ": 390,
      "\u0000\u0000": 391,
      "\u0000\u0000\u0000\u0000": 392,
      "ÿÿ": 393,
      "\u0000\u0000\u0000\u0000\u0000\u0000\u0000\u0000": 394,
      "\u0000\u0000\u0000": 395,
      "ÿÿÿÿ": 396,
      "ÌÌ": 397,
      "H": 398,
      "ÿÿÿÿÿÿÿÿ": 399,
      "~~": 400,
      "ÌÌÌÌ": 401,
      "\u0001\u0000": 402,
      "H": 403,
      "\u0002\u0000": 404,
      "H": 405,
      "\u0001\u0000\u0000": 406,
      "\u0003\u0000": 407,
      "\u0001\u0000\u0000\u0000": 408,
      "~~~~": 409,
      "\u0000\u0000\u0000\u0000\u0000": 410,
      "\u0004\u0000": 411,
      "H": 412,
      "@ù": 413,
      "\u0000": 414,
      "D$": 415,
      "ÌÌÌÌÌÌÌÌ": 416,
      " \u0000": 417,
      "ÍÍ": 418,
      "\u000f\u0010": 419,
      "\u0002\u0000\u0000": 420,
      "\u0000\u0000\u0000\u0000\u0000\u0000": 421,
      "L": 422,
      "à\u0003": 423,
      "\u0006\u0000": 424,
      "D\u000f": 425,
      "\b\u0000": 426,
      "  ": 427,
      "I": 428,
      "\u0005\u0000": 429,
      "L": 430,
      "\u0000\u0000\u0000\u0000\u0000\u0000\u0000": 431,
      "A\u000f": 432,
      "ÿÿ\u0017": 433,
      "ÿ": 434,
      "~~~~~~~~": 435,
      "\u0007\u0000": 436,
      "\u0010\u0000": 437,
      "ó\u000f": 438,
      "À": 439,
      "L": 440,
      "ÿÿÿ": 441,
      "@\u0000": 442,
      "\u000f": 443,
      "@¹": 444,
      "\n\u0000": 445,
      "f\u000f": 446,
      "\u0003\u0000\u0000": 447,
      "E\u000f": 448,
      "L$": 449,
      "\u0004\u0000\u0000": 450,
      "\u0003Õ": 451,
      "\\$": 452,
      "R": 453,
      "þÿ": 454,
      "\u000f": 455,
      "\u0000\u0001": 456,
      "ý{": 457,
      "\u0001\u0001": 458,
      "a\u0000": 459,
      "\u0000": 460,
      "\u0000ù": 461,
      "e\u0000": 462,
      "\u0000R": 463,
      "t$": 464,
      "\t\u0000": 465,
      "ÿ\u0015": 466,
      "ÍÍÍÍ": 467,
      "\u000f(": 468,
      "\u000f\u0011": 469,
      "\" ": 470,
      "\u0000 ": 471,
      "$": 472,
      "\u0000H": 473,
      "D": 474,
      "\u000e\u0000": 475,
      "\f\u0000": 476,
      "o\u0000": 477,
      "0\u0000": 478,
      "|$": 479,
      "á\u0003": 480,
      "Ò": 481,
      "HÄ": 482,
      "H": 483,
      "\u0003\u0000ª": 484,
      "`\u0000": 485,
      "\u000f": 486,
      "\u000b\u0000": 487,
      "T$": 488,
      "\u000f\u0000": 489,
      "\u0005\u0000\u0000": 490,
      "t\u0000": 491,
      "ÄA": 492,
      "\u0002\u0000\u0000\u0000": 493,
      "3À": 494,
      "\r\u0000": 495,
      "in": 496,
      "\u0004\u0000\u0000\u0000": 497,
      "d\u0000": 498,
      "\"\u0000": 499,
      "ýÿ": 500,
      "i\u0000": 501,
      "\u0001\u0000\u0000\u0000": 502,
      "\" \u000f": 503,
      "\u000f¶": 504,
      "A": 505,
      "À\u0003": 506,
      "\u0014\u0000": 507,
      "\u0000\u0000": 508,
      "óS": 509,
      "D": 510,
      "\u0013ª": 511,
      "Hì": 512,
      "n\u0000": 513,
      "!\u0001": 514,
      "A\u0000": 515,
      "s\u0000": 516,
      "_\u0000": 517,
      "\u001f\u0000": 518,
      "\u0006\u0000\u0000": 519,
      "I": 520,
      "\u0002\u0002": 521,
      "\u0000\u0000T": 522,
      "ÄÁ": 523,
      "\u0000@": 524,
      "er": 525,
      "\u0000": 526,
      "\b\u0000\u0000": 527,
      "4\u0000": 528,
      "ø": 529,
      "$": 530,
      "_Ö": 531,
      "üÿ": 532,
      "þÿÿ": 533,
      "À\u0003_Ö": 534,
      "\u0003\u0001": 535,
      "1\u0000": 536,
      "c\u0000": 537,
      "\bÀ": 538,
      "r\u0000": 539,
      "    ": 540,
      "@\u0000\u0000\u0000": 541,
      "H;": 542,
      "#\u0003Õ": 543,
      "\u0012\u0000": 544,
      "dd": 545,
      "l$": 546,
      "p\u0000": 547,
      "@9": 548,
      ".\u0000": 549,
      "E\u0000": 550,
      "!\u0000": 551,
      "2\u0000": 552,
      "þ": 553,
      "D\u0000": 554,
      "Ä": 555,
      "H\u0005": 556,
      "\u0000\u0000\u0000H": 557,
      "\u0000q": 558,
      "HD$": 559,
      "\u000fY": 560,
      "\u0003\u0003": 561,
      "E": 562,
      "\u001f ": 563,
      "\u0010\u0000\u0000": 564,
      "\u0000¹": 565,
      "\u0000\u0004": 566,
      "H": 567,
      "\u0003\u0000\u0000\u0000": 568,
      "on": 569,
      "\u000f\u001f": 570,
      "ùù": 571,
      "\u0007\u0000\u0000": 572,
      "ûÿ": 573,
      "\u0014ª": 574,
      "8\u0000": 575,
      "\u0004\u0004": 576,
      "Àt": 577,
      "ý": 578,
      "\u0000H": 579,
      "ÿH": 580,
      " \u0000": 581,
      "\u001f \u0003Õ": 582,
      "â\u0003": 583,
      "\u0000ÿ": 584,
      "re": 585,
      "ÇE": 586,
      "00": 587,
      "\u0011\u0000": 588,
      "àx": 589,
      "\u0002\u0001": 590,
      "õ[": 591,
      "ÇD$": 592,
      "M": 593,
      "AA": 594,
      "ÌÌÌ": 595,
      "\u0005\u0005": 596,
      "¼$": 597,
      "\u0003\u0000": 598,
      "HÁ": 599,
      "\u0000\u0000\u0000\u0000\u0000\u0000\u0000\u0000\u0000": 600,
      "\u001c\u0000": 601,
      "\u0000\u0000\u0000\u0000\u0000\u0000\u0000\u0000\u0000\u0000\u0000": 602,
      "\u0000\u0000\u0000": 603,
      "ó\u000f\u0010": 604,
      "\u0000\u0000H": 605,
      "ÿu": 606,
      "E": 607,
      "at": 608,
      "H\\$": 609,
      "M": 610,
      "$\u0000": 611,
      "à\u0003\u0013ª": 612,
      "A¸": 613,
      "ÍÍÍÍÍÍÍÍ": 614,
      "6\u0000": 615,
      "\b\u0000\u0000\u0000": 616,
      "\u0018\u0000": 617,
      "l\u0000": 618,
      "3Ò": 619,
      "\u0016\u0000": 620,
      "Hÿ": 621,
      "or": 622,
      "P\u0000": 623,
      " %": 624,
      "\u0000ð": 625,
      "\u000f·": 626,
      "ÿT": 627,
      "\u0000(": 628,
      "st": 629,
      "\u0003\u0002": 630,
      "\u0001\u0000\u0000\u0000\u0000": 631,
      "I": 632,
      "\u0001t": 633,
      "\u0001\u0000T": 634,
      "3\u0000": 635,
      "À": 636,
      "À\u0000": 637,
      "H\u0015": 638,
      "\u0010\u0010": 639,
      "-\u0000": 640,
      "A\u000e": 641,
      "u\u0000": 642,
      "\u0015ª": 643,
      "I\u0000": 644,
      "ý\u0003\u0000": 645,
      "$": 646,
      "\u0001 ": 647,
      "j\u0000": 648,
      "\u001a\u0000": 649,
      "\u0001\u0000\u0000\u0000\u0000\u0000": 650,
      "ÿ": 651,
      "\u0001\u0000\u0001\u0000": 652,
      "D$": 653,
      "C\u0000": 654,
      "E3": 655,
      "´$": 656,
      "F\u0000": 657,
      "9\u0000": 658,
      "\t\u0000\u0000": 659,
      "Pè": 660,
      "\u000f)": 661,
      "\u0003\u0000*": 662,
      "Ét": 663,
      "S\u0000": 664,
      "\u0000\u0004\u0000": 665,
      "A©": 666,
      "\u0001\u0004": 667,
      "Hc": 668,
      "úÿ": 669,
      ",\u0000": 670,
      "D\u000f(": 671,
      "\u0013\u0000": 672,
      "\u0005\u0000\u0000\u0000": 673,
      "HË": 674,
      "]Ã": 675,
      "$": 676,
      "ò\u000f": 677,
      "\u0000\u0002": 678,
      "H\u0003": 679,
      "Fù": 680,
      "øÿ": 681,
      "5\u0000": 682,
      "=\u0000": 683,
      "e ": 684,
      "_^": 685,
      " H": 686,
      "_Ã": 687,
      "I": 688,
      "ðÿ": 689,
      "%\u0000": 690,
      "\u0019\u0000": 691,
      "\u0001©": 692,
      "Ïè": 693,
      "B\u0000": 694,
      "ÿ\u000f": 695,
      "HÄ ": 696,
      "ff": 697,
      "\u0000Ò": 698,
      "AV": 699,
      "al": 700,
      "÷c": 701,
      " \n": 702,
      "ùÿ": 703,
      "&\u0000": 704,
      "\u0000\u0000\u0000è": 705,
      "ýÿÿ": 706,
      "\u0001ÿ": 707,
      "en": 708,
      "\n\u0000\u0000": 709,
      "|H": 710,
      "7\u0000": 711,
      "ar": 712,
      "\u0000\u0000\u0000H": 713,
      "t ": 714,
      "H\\$": 715,
      "M\u0000": 716,
      "\u0000\u0000\u0000\u0000\u0000\u0000\u0000\u0000\u0000\u0000\u0000\u0000": 717,
      "\u0015\u0000": 718,
      "\u0003\u0004": 719,
      "T\u0000": 720,
      "\u0016ª": 721,
      "\bH": 722,
      "ð\u0000": 723,
      "\u0002\u0004": 724,
      "\b": 725,
      "óA\u000f": 726,
      "(\u0000": 727,
      "\u0010\u0001": 728,
      "\u0010": 729,
      "L\u0005": 730,
      "Gù": 731,
      "\u0010\u0000\u0000\u0000": 732,
      "ó\u000f\u0011": 733,
      "\u0001u": 734,
      "\u0000\u0000": 735,
      "\b\u0002": 736,
      "@\u0000\u0000": 737,
      "\u000b\u0000\u0000": 738,
      "d ": 739,
      "?\u0000": 740,
      "E": 741,
      "\u000fW": 742,
      "\u001e\u0000": 743,
      "¿#\u0003Õ": 744,
      "m\u0000": 745,
      "A^": 746,
      " è": 747,
      "Aÿ": 748,
      "et": 749,
      "A": 750,
      "A¹": 751,
      "\u0000": 752,
      "\u0017\u0000": 753,
      "\u0001": 754,
      "A": 755,
      "¬$": 756,
      "Îè": 757,
      "÷ÿ": 758,
      "\f\u0000\u0000": 759,
      "H\u000f": 760,
      "\u001f\u0000\u0000": 761,
      "\bH": 762,
      "D\u000fY": 763,
      "g\u0000": 764,
      "s ": 765,
      "an": 766,
      "HÇ": 767,
      " \u0000\u0000\u0000": 768,
      ":\u0000": 769,
      "?#\u0003Õ": 770,
      "ÞÝ": 771,
      "\u0001\u0000\u0000H": 772,
      "\u0004": 773,
      "\u0000": 774,
      "d$": 775,
      "Ð\u0000": 776,
      "/\u0000": 777,
      "E": 778,
      "\u0001\u0000\u0000": 779,
      "AT": 780,
      "R\u0000": 781,
      "*\u0000": 782,
      "à\u0003\u0014ª": 783,
      "M": 784,
      "O\u0000": 785,
      "!\u0001\u0000": 786,
      "öÿ": 787,
      "I;": 788,
      "\u0000\u0000\u0000": 789,
      "[Ã": 790,
      "\u0005\u0001": 791,
      " \u0000\u0000": 792,
      "Èè": 793,
      "<\u0000": 794,
      "D\u000f\u0010": 795,
      "#\u0000": 796,
      "õÿ": 797,
      "v\u0000": 798,
      "óSA©": 799,
      "ó\u000fY": 800,
      "ÿ\u0000": 801,
      "H+": 802,
      "h\u0000": 803,
      "N\u0000": 804,
      "W\u0000": 805,
      "Åø": 806,
      "HM": 807,
      "\r\n": 808,
      "y\u0000": 809,
      ")\u0000": 810,
      "(\n": 811,
      "ti": 812,
      "`\u0006": 813,
      "U": 814,
      "B©": 815,
      "Àu": 816,
      "\u0001\u0000Ò": 817,
      "\u001b\u0000": 818,
      "@@": 819,
      "\u0000\u0000": 820,
      "te": 821,
      "\u0010H": 822,
      "\"\u0001": 823,
      "\u001d\u0000": 824,
      "H\r": 825,
      "ü": 826,
      "H\r": 827,
      "\u000f": 828,
      "\u000fX": 829,
      "HL$": 830,
      "\u0001H": 831,
      "`\u0002": 832,
      " \u0002": 833,
      "\u0001\u0002": 834,
      "L\u0000": 835,
      "\u0006\u0003": 836,
      " \u0000 \u0000": 837,
      "H\u0000": 838,
      "\b\u0000\u0000\u0000\u0000\u0000\u0000\u0000": 839,
      "@\u0001\u0000\u0000\u0000": 840,
      "ro": 841,
      "le": 842,
      "fA\u000f": 843,
      "\u0000\u0000\u0000": 844,
      "ïÿ": 845,
      "?\u0000\u0000": 846,
      "K\u0000": 847,
      "°\u0000": 848,
      "\u0017ª": 849,
      "\u0002©": 850,
      "\u0004": 851,
      "HE": 852,
      "b\u0000": 853,
      "VW": 854,
      "\r\u0000\u0000": 855,
      "ñÀ": 856,
      "Uì": 857,
      "@\u0001": 858,
      "A\\": 859,
      "Áè": 860,
      "nv": 861,
      "\"": 862,
      "]Â": 863,
      "Åx": 864,
      "E\u000fY": 865,
      "\u000f\u0000\u0000": 866,
      "ùk": 867,
      "'\u0000": 868,
      " \u0001": 869,
      ";\u0000": 870,
      "ÿt": 871,
      "ò\u000f\u0010": 872,
      "\" \u000f\bÀ": 873,
      "\u0000\u0000": 874,
      "\u0000": 875,
      "Ç": 876,
      "\u0002\u0000T": 877,
      " \u0000\u0000\u0000": 878,
      "à": 879,
      "0H": 880,
      "ÿ÷": 881,
      "x\u0000": 882,
      "ôÿ": 883,
      "de": 884,
      "\u0001\u0010": 885,
      "H\u0012": 886,
      "WHì": 887,
      "à\u0000": 888,
      "ÌÌÌÌÌÌÌÌÌÌÌÌ": 889,
      "\u0000\u0000\u0001": 890,
      "f\u0000": 891,
      "ó\u0003\u0000ª": 892,
      "üÿÿ": 893,
      "lo": 894,
      "°\u0001": 895,
      "\u000f\u000f": 896,
      "Ïp": 897,
      " \u0002": 898,
      "\u0003\u0001ª": 899,
      "Ïÿ": 900,
      "3É": 901,
      "X\u0000": 902,
      "ÿÿ": 903,
      "\u0000": 904,
      "\u0000\u0000R": 905,
      "}H": 906,
      "1À": 907,
      "\u0006\u0000\u0000\u0000": 908,
      "HI": 909,
      "D\u0000\u0000": 910,
      "E3À": 911,
      "@\u0004": 912,
      "A\u000f(": 913,
      "©ÿ": 914,
      "\u0001\u0000`\u0000": 915,
      "H9": 916,
      "þþ": 917,
      "M": 918,
      "\u0001": 919,
      "\u001f\u0004\u0000": 920,
      "ic": 921,
      "\u0000": 922,
      "h\u001a": 923,
      "f": 924,
      "HÉt": 925,
      "èÿ": 926,
      "\t\u0005": 927,
      "A_": 928,
      "\u0001q": 929,
      "û": 930,
      "óÿ": 931,
      "ñÿ": 932,
      "H3": 933,
      "\u0018ª": 934,
      "k\u0000": 935,
      "am": 936,
      ">\u0000": 937,
      "+\u0000": 938,
      "@\b": 939,
      "\u0010ÿ": 940,
      "ã\u0003": 941,
      "ùùùù": 942,
      "ö": 943,
      "Ìè": 944,
      "A\u000b": 945,
      "\u000f¯": 946,
      "¹": 947,
      "IÁ": 948,
      "\u0000\u0000è": 949,
      "ÓÔ": 950,
      "\u0004\u0000": 951,
      "òÿ": 952,
      "óS\u0001©": 953,
      "ba": 954,
      "å": 955,
      "\u0006\u0006": 956,
      "îÿ": 957,
      "\u0010\u0000\u0000\u0000\u0000\u0000": 958,
      "\u0007\u0000\u0000\u0000": 959,
      "B\u000e": 960,
      "\u0002\u0003": 961,
      "\u0004\u0001": 962,
      "w\u0000": 963,
      "G\u0000": 964,
      "[\u0000": 965,
      "U\u0000": 966,
      "À\u0000\u0000\u0000": 967,
      "!\u0000\u0000\u0000": 968,
      "\bè": 969,
      "\u0002\u0000\u0002\u0000": 970,
      "\u0010H": 971,
      "\u0000è": 972,
      "à\u0003\u0015ª": 973,
      "@": 974,
      " \n\u0005": 975,
      "Iÿ": 976,
      "\u0002 ": 977,
      "\u000f\bÀ": 978,
      "A": 979,
      "ú\u0000": 980,
      "ýý": 981,
      "Á¨": 982,
      "bñ": 983,
      "\u0001\u000f": 984,
      "\u0002\u0005": 985,
      "ÿ": 986,
      "j\u0001": 987,
      "        ": 988,
      "": 989,
      "¤$": 990,
      "ó\u000fX": 991,
      "\\\u0000": 992,
      "\f": 993,
      "Ã@": 994,
      "\u000e\u0000\u0000": 995,
      "un": 996,
      "°\u0000\u0000\u0000": 997,
      "L\u0003": 998,
      "HËè": 999,
      "Q\u0000": 1000,
      "\u0000\u0000\u0000\u0000\u0000": 1001,
      "HT$": 1002,
      "\u0001\u0006": 1003,
      "A\u000f\u0010": 1004,
      ": ": 1005,
      "AU": 1006,
      "\u0013@": 1007,
      "@S": 1008,
      "àÿ": 1009,
      "|\u0011": 1010,
      "L\r": 1011,
      "HÀ": 1012,
      "ø\u0000": 1013,
      "dddd": 1014,
      "ì": 1015,
      "íÿ": 1016,
      "ë\u0003": 1017,
      "Ò": 1018,
      "ü\u0000": 1019,
      "3ÿ": 1020,
      "\u0003ÿ": 1021,
      "\u0014\u0000\u000e": 1022,
      "\f\f": 1023,
      "M": 1024,
      "10": 1025,
      "\u0001\u0000@ù": 1026,
      "ìÿ": 1027,
      "ë\u0002": 1028,
      "HU": 1029,
      "E\u000fX": 1030,
      "ÿÿT": 1031,
      "\u0000": 1032,
      "\u0002@ù": 1033,
      "E\u000f(": 1034,
      "ing": 1035,
      "C©": 1036,
      "©ý\u0003\u0000": 1037,
      ", ": 1038,
      "îî": 1039,
      "\u00020": 1040,
      "L;": 1041,
      "I\u0003": 1042,
      "ec": 1043,
      "\u0004\u0000\u0000\u0000\u0000": 1044,
      "Ht$": 1045,
      "\u0000\u0001ë": 1046,
      "D\u000f\u0011": 1047,
      "\u0006\u0001": 1048,
      "\f\u0000\u0000\u0000": 1049,
      "éÿ": 1050,
      "À": 1051,
      "\u0000\u0000\u0000\u0000\u0000": 1052,
      "ÿÿ": 1053,
      "À\u000f": 1054,
      "\u001aª": 1055,
      "ÆE": 1056,
      "\u0010è": 1057,
      "\u0000": 1058,
      "\u000f": 1059,
      "In": 1060,
      "\u000fÆ": 1061,
      "D\u000fX": 1062,
      "æÿ": 1063,
      "": 1064,
      "as": 1065,
      "\u0000\u0000": 1066,
      "@ ": 1067,
      "\t\u0000\u0000\u0000": 1068,
      "HÀt": 1069,
      "ëÿ": 1070,
      "A]": 1071,
      "b\u0001": 1072,
      "à": 1073,
      "\f\u0002": 1074,
      "É": 1075,
      "\u0000ðFù": 1076,
      "\u001f \u0003Õ\u001f \u0003Õ": 1077,
      "\u0005\u0004": 1078,
      "\u0000\u0000\u0000": 1079,
      "\t\t": 1080,
      "áÿ": 1081,
      "A": 1082,
      "\u0001\b": 1083,
      "ûs": 1084,
      "Y\u0000": 1085,
      "": 1086,
      " ": 1087,
      "ý{Á¨": 1088,
      "{\u0010": 1089,
      "Ç\u0000": 1090,
      "D": 1091,
      "þÿ\u0017": 1092,
      "\u000f": 1093,
      "@\u0010": 1094,
      "\u0003©": 1095,
      "\u0007\u0007": 1096,
      "C\b": 1097,
      "\u0019ª": 1098,
      "\u0001\u0000\u0000\u0000\u0000\u0000\u0000": 1099,
      "ÿÃ": 1100,
      "\u0000\u0000\u0000\u0000\u0000\u0000\u0000\u0000\u0000\u0000\u0000\u0000\u0000\u0000\u0000": 1101,
      "a\u0000\u0000\u0000": 1102,
      "\u000f\u0000\u0000\u0000": 1103,
      "\u0001": 1104,
      "çÿ": 1105,
      "|\u0010": 1106,
      "%ÿ": 1107,
      "__": 1108,
      "\u0000À": 1109,
      "it": 1110,
      "ÿÿH": 1111,
      "Hß": 1112,
      "\u0004$": 1113,
      "ù": 1114,
      "co": 1115,
      "Ëè": 1116,
      "õ[B©": 1117,
      "\u0000\u0000\u0000\u0000\u0000\u0002\u0000": 1118,
      "]\u0000": 1119,
      "\u0004\u0003": 1120,
      " ": 1121,
      "\u0002\u0010": 1122,
      "\bÿ": 1123,
      "ac": 1124,
      "(ÿ": 1125,
      "\u0002": 1126,
      "åÿ": 1127,
      "þO": 1128,
      "êÿ": 1129,
      "?\u0000\u0000\u0000": 1130,
      "üü": 1131,
      "%s": 1132,
      "D$0": 1133,
      "\f": 1134,
      "¨ÿ": 1135,
      "V1": 1136,
      "¿#\u0003ÕÀ\u0003_Ö": 1137,
      "Hø": 1138,
      "HÁ": 1139,
      "\u001a": 1140,
      "\u0003\u0000T": 1141,
      "D$ ": 1142,
      "\u0001\u0001\u0001\u0001": 1143,
      "0\u0000\u0000\u0000": 1144,
      "\b\u0001": 1145,
      "`\u0000\u0000": 1146,
      "`\u0001": 1147,
      "Èÿ": 1148,
      "D\u000f)": 1149,
      "H¸": 1150,
      "E3É": 1151,
      "âÿ": 1152,
      "\u0013@Ñ": 1153,
      "V\u0000": 1154,
      "\u0000\u0001\u0000\u0000": 1155,
      "f\u000f\u001f": 1156,
      ",,": 1157,
      "PP": 1158,
      "\u000f": 1159,
      "Hì": 1160,
      "\u0005ÿ": 1161,
      "\u0006\u0003U": 1162,
      "si": 1163,
      "\u0000\u0000\u0000": 1164,
      " \u0000R": 1165,
      "Ëÿ": 1166,
      "": 1167,
      " ": 1168,
      "AW": 1169,
      "\u000f/": 1170,
      "\u0004ÿ": 1171,
      "y": 1172,
      "Î": 1173,
      "\u0001\u0000\u0000\u0000\u0000\u0000\u0000\u0000": 1174,
      "q\u0000": 1175,
      "@H": 1176,
      "\u0002ÿ": 1177,
      "\u0013*": 1178,
      "â#": 1179,
      "à\u0007": 1180,
      "\u0005è": 1181,
      "þ\u0000": 1182,
      "þÿT": 1183,
      "À\u0001": 1184,
      "ÿ": 1185,
      "\u0004@": 1186,
      "ý\u0000": 1187,
      "@8": 1188,
      " ": 1189,
      "à\u0003\u0016ª": 1190,
      "\u000b@ù": 1191,
      "Ð\u0000\u0000\u0000": 1192,
      "A\u000fY": 1193,
      "\u0000\u0000\u0000\u0000\u0000\u0000\u0002\u0000": 1194,
      "ý{¿": 1195,
      "z\u0000": 1196,
      "\u0011\u0000\u0000": 1197,
      "C\u0010": 1198,
      "à\u0000\u0000\u0000": 1199,
      "H=": 1200,
      "ò\u000f\u0011": 1201,
      "|\u0000": 1202,
      "\u0002\u0000Ò": 1203,
      " \u0000\u0000": 1204,
      "Û": 1205,
      "äÿ": 1206,
      "­\u0000": 1207,
      "¸\u0000": 1208,
      "A\b": 1209,
      "Pÿ": 1210,
      "HÂ": 1211,
      "±\u0000": 1212,
      "$ÿ": 1213,
      "bò": 1214,
      "}\u0000": 1215,
      "\u0003\u0000\u0000\u0000\u0000": 1216,
      "\u0018H": 1217,
      "il": 1218,
      "¤ÿ": 1219,
      "Àÿ": 1220,
      "\u0000\u0000H": 1221,
      "\b\u0010": 1222,
      "\u0014\u0000\u0000\u0000": 1223,
      "M": 1224,
      "\u000f®": 1225,
      " t": 1226,
      "\u0004\u0002": 1227,
      "p\u0001": 1228,
      "à~": 1229,
      "no": 1230,
      "\u0000\u0003": 1231,
      "\u0007ÿ": 1232,
      "\u0002\u0000\u0000\u0000\u0000": 1233,
      "ø\u0003": 1234,
      "o\u0000o\u0000": 1235,
      " ÿ": 1236,
      "ch": 1237,
      "J\u0000": 1238,
      "Z\u0000": 1239,
      "xD": 1240,
      "es": 1241,
      "\u000fWÀ": 1242,
      "\u0000": 1243,
      "à\u0001": 1244,
      "ãÿ": 1245,
      "ù\u0000": 1246,
      "\b\b": 1247,
      "¥ÿ": 1248,
      "ÕÖ": 1249,
      "\u0001": 1250,
      "Äâ": 1251,
      "nvnv": 1252,
      "ûÿÿ": 1253,
      "a\u0000\u0004\u0000": 1254,
      "\u0000": 1255,
      "Åü": 1256,
      "Îÿ": 1257,
      "HM": 1258,
      "b¡": 1259,
      "¨À\u0003_Ö": 1260,
      "ô\u0003\u0000ª": 1261,
      " Ò": 1262,
      "4\u0000\u0014\u0000\u000e": 1263,
      "ð\u0000\u0000\u0000": 1264,
      "\u0000\u0000\b": 1265,
      "H÷": 1266,
      "\u0018H": 1267,
      "\u001bª": 1268,
      "Áà": 1269,
      "\u000f\\": 1270,
      "3Û": 1271,
      "\n\u0000\u0000\u0000": 1272,
      " ÿ": 1273,
      "33": 1274,
      " F": 1275,
      "Ñÿ": 1276,
      "§ÿ": 1277,
      "Áÿ": 1278,
      "\u0002": 1279,
      "\u0010r": 1280,
      "": 1281,
      "a\u0002": 1282,
      "Æÿ": 1283,
      "¦ÿ": 1284,
      "ò": 1285,
      "ÿ": 1286,
      "\u0002t": 1287,
      ")ÿ": 1288,
      "--": 1289,
      "@": 1290,
      "\u0006ÿ": 1291,
      "1ÿ": 1292,
      "\n\u0004": 1293,
      "Ð;": 1294,
      "\u0000\u0000H": 1295,
      "ü\u0003": 1296,
      "di": 1297,
      "\u0002ë": 1298,
      "\u0001\u0003": 1299,
      "\u0001": 1300,
      "¬ÿ": 1301,
      "bá": 1302,
      "\u0002": 1303,
      "D©": 1304,
      "HL$": 1305,
      "\u000e\u000e": 1306,
      "#ÿ": 1307,
      "\u000fº": 1308,
      "HÒ": 1309,
      "12": 1310,
      "H\u0001": 1311,
      "\u0000\u0000\u0000\u0000\u0000\u0000\u0000\u0000\u0000\u0000\u0000\u0000\u0000": 1312,
      "\u0002": 1313,
      "\u0001\u0000\u0000": 1314,
      "À\u0000\u0000": 1315,
      "fE\u000f": 1316,
      "br": 1317,
      "\u0000\u0010": 1318,
      "ú": 1319,
      "ll": 1320,
      "Ðÿ": 1321,
      "\u0000\u0000\u0000\u0000\u0000\u0000\u0000\u0000\u0000\u0000": 1322,
      "á\u0003\u0013ª": 1323,
      "ûû": 1324,
      "Àt": 1325,
      "ð\u000f": 1326,
      "0\u0001": 1327,
      "¨\u0000\u0000\u0000": 1328,
      "\u0006\u0004": 1329,
      "þÿ": 1330,
      "se": 1331,
      "A;": 1332,
      "ýþ": 1333,
      "Þÿ": 1334,
      "0è": 1335,
      "u": 1336,
      "ïîî": 1337,
      "\u001c\u0000\u0012": 1338,
      "\u0004©": 1339,
      "HÛ": 1340,
      "ßÿ": 1341,
      "\u0000\b": 1342,
      "\u0000H": 1343,
      "A_A^": 1344,
      "Á": 1345,
      "@è": 1346,
      "ªÿ": 1347,
      " f": 1348,
      "\n\u0002": 1349,
      " \u0001\u0000": 1350,
      "@\u0000R": 1351,
      "D;": 1352,
      "\u000f\u001f@\u0000": 1353,
      "\u0000\u0000?": 1354,
      "\u0000H;": 1355,
      "\u0005\u0003": 1356,
      "\bH": 1357,
      "\fÿ": 1358,
      " A": 1359,
      "=": 1360,
      "Éÿ": 1361,
      "x\u0010": 1362,
      "&ÿ": 1363,
      "!ð": 1364,
      "\u0007\u0001": 1365,
      "": 1366,
      "A\u0010": 1367,
      "E": 1368,
      ",ÿ": 1369,
      "\u0014\u0000\u0000": 1370,
      "Åú": 1371,
      "U": 1372,
      "ÓÔ\u000e\u0000": 1373,
      "`\n": 1374,
      "3ö": 1375,
      "ex": 1376,
      "À\u000f": 1377,
      "\u0004\u0000\u0004\u0000": 1378,
      "\u0000": 1379,
      "ø\u0001": 1380,
      "Âÿ": 1381,
      "þ\u0001": 1382,
      ",0": 1383,
      "¡ÿ": 1384,
      "!ÿ": 1385,
      "\u0010\u0010\u0010\u0010": 1386,
      "\u0004\u0010": 1387,
      "ó\u000f\\": 1388,
      "ü\u0001": 1389,
      "Úÿ": 1390,
      "ma": 1391,
      "H\u0005": 1392,
      "ä\u0003": 1393,
      "*ÿ": 1394,
      "õ[\u0002©": 1395,
      "tr": 1396,
      "Åÿ": 1397,
      "Êÿ": 1398,
      "\u0000\u0000\u0000é": 1399,
      "\t\u0004": 1400,
      "2À": 1401,
      "ð\u0001": 1402,
      "P\u0001": 1403,
      "\nÞÝ": 1404,
      "HÄ0": 1405,
      "jÿ": 1406,
      "H5": 1407,
      "\b": 1408,
      "\u0018ÿ": 1409,
      "fD\u000f": 1410,
      "\u0000": 1411,
      "D$": 1412,
      " \u0001": 1413,
      "þ÷": 1414,
      "{D": 1415,
      "\u0000\u0000Ò": 1416,
      "'ÿ": 1417,
      "M\u0003": 1418,
      "Tÿ": 1419,
      "@\u0002": 1420,
      "ø": 1421,
      "A": 1422,
      "\u0006@ù": 1423,
      "F": 1424,
      "H": 1425,
      " \u0000\u0001\u0000": 1426,
      "\u0014*": 1427,
      "HL$": 1428,
      "\u0013\u0000\u0000": 1429,
      "Ýÿ": 1430,
      "¥\u0000": 1431,
      "": 1432,
      "Øÿ": 1433,
      "¢ÿ": 1434,
      "$\u0003Õ": 1435,
      "f\u000fo": 1436,
      "\t\u0005": 1437,
      "$\u0000\u0000": 1438,
      "\u000b\u0000\u0000\u0000": 1439,
      "òE\u000f": 1440,
      "\n\n": 1441,
      "@y": 1442,
      "\u000f": 1443,
      "\u0002": 1444,
      "F\u0000\u0000\u0000\u0000\u0000": 1445,
      "\fp": 1446,
      "Üÿ": 1447,
      "\"\u0005": 1448,
      "üþ": 1449,
      "àxàx": 1450,
      "Äb": 1451,
      "\"ÿ": 1452,
      "Ûÿ": 1453,
      "\u0000\u0002\u0000": 1454,
      "\u0004": 1455,
      "mp": 1456,
      "\u0014": 1457,
      "H$": 1458,
      "ñ\u0000": 1459,
      "\bu": 1460,
      "×ÿ": 1461,
      "Ùÿ": 1462,
      "\u0013@ù": 1463,
      "C": 1464,
      "\u000f\u001f\u0000\u0000\u0000\u0000\u0000": 1465,
      "\u0012\u0000\u0000": 1466,
      " \u0004": 1467,
      "£ÿ": 1468,
      "HE": 1469,
      "óE\u000f": 1470,
      "(\u0000\u0000\u0000": 1471,
      "\u0014ÿ": 1472,
      "á\u0003\u0014ª": 1473,
      "°ÿ": 1474,
      "HÏè": 1475,
      "H\u0001": 1476,
      "\u0001è": 1477,
      "«ÿ": 1478,
      "": 1479,
      "ad": 1480,
      "|H(": 1481,
      "è": 1482,
      "Ø\u0000": 1483,
      "­ÿ": 1484,
      "Öÿ": 1485,
      "op": 1486,
      "US": 1487,
      " \u0003": 1488,
      "\u0001\u0000\u0004": 1489,
      "H$": 1490,
      "\u0000": 1491,
      ")": 1492,
      "\n": 1493,
      "\u0005\u0006": 1494,
      "û\u0000": 1495,
      "|@": 1496,
      "HÄ": 1497,
      "0ÿ": 1498,
      "@X": 1499,
      "\u0011ÿ": 1500,
      "  \u000f\bÀ": 1501,
      "Íÿ": 1502,
      "\tÿ": 1503,
      "\u0004\b": 1504,
      "V2": 1505,
      "//": 1506,
      "ÿ": 1507,
      "À\u0002": 1508,
      "ab": 1509,
      "Ïq": 1510,
      "Òÿ": 1511,
      "ÃÌÌÌÌ": 1512,
      "¨\u0001t": 1513,
      "HÉ": 1514,
      "\u0001\u0000\u0000è": 1515,
      "I+": 1516,
      "D9": 1517,
      "!\u0000\u0000": 1518,
      "\u001cÿ": 1519,
      "ut": 1520,
      "\u001eÿ": 1521,
      "á": 1522,
      "A\u0001": 1523,
      "L9": 1524,
      "\u0005\u0002": 1525,
      "Á": 1526,
      "\u0001\u0000R": 1527,
      "\u001dÿ": 1528,
      "\u0000\u0000\u0000\u0000": 1529,
      "¸\u0000\u0000\u0000": 1530,
      "up": 1531,
      "Á\u0000": 1532,
      "À": 1533,
      "G": 1534,
      "Ð;Õ": 1535,
      "+ÿ": 1536,
      "\u0000\u0000\u0000\u0001\u0000\u0000\u0000": 1537,
      "E ": 1538,
      "à\u0002": 1539,
      "F": 1540,
      "Õÿ": 1541,
      "\u000e\u0010": 1542,
      "\u000bÿ": 1543,
      "\u0012ÿ": 1544,
      "$ ": 1545,
      "\u0000": 1546,
      "\f\u0001": 1547,
      "ë\u0005": 1548,
      "f": 1549,
      "B\u0000\u0000": 1550,
      "`\u0006\u0000": 1551,
      "à": 1552,
      "D": 1553,
      "ô\u0000": 1554,
      "¯ÿ": 1555,
      "ý\u0001": 1556,
      "bâ": 1557,
      "\u0014\u0001": 1558,
      "Óÿ": 1559,
      "\u0001": 1560,
      "HÙ": 1561,
      "\nÿ": 1562,
      "ïè": 1563,
      "@\u0003": 1564,
      "}\u0019": 1565,
      "Ôÿ": 1566,
      "Ìÿ": 1567,
      "Íè": 1568,
      "i\u0000n\u0000": 1569,
      "\u0000\u0000\u0000\u0000\u0001\u0000\u0000\u0000": 1570,
      "32": 1571,
      "^\u0000": 1572,
      "A": 1573,
      "\u000f®è": 1574,
      "Ét": 1575,
      "óD\u000f": 1576,
      "@\u0001\u0000\u0000": 1577,
      "è:": 1578,
      "\u000b\u0000ù": 1579,
      "û\u0001": 1580,
      "Re": 1581,
      "G": 1582,
      "\u001fÿ": 1583,
      "\u0000\u0000\u0000\u0000A\u000e": 1584,
      "è\u0000": 1585,
      "H$": 1586,
      " H": 1587,
      "HÄ _Ã": 1588,
      "ûþ": 1589,
      "à\u0003\u0017ª": 1590,
      "ç\u0000": 1591,
      "@ÿ": 1592,
      "\r\r": 1593,
      "\u0004 ": 1594,
      "\u0010\u0002": 1595,
      "H": 1596,
      "ÿÿÿ\u0000": 1597,
      "½\u0000": 1598,
      "úþ": 1599,
      "$\u0003Õ": 1600,
      "\u0000\u0000\u0000\u0000!\u0001": 1601,
      "ý{Â": 1602,
      "L+": 1603,
      "A\u000fX": 1604,
      "¿ÿ": 1605,
      "\u0000\u0000\u0000\u0000\u0000!\u0001": 1606,
      "È\u0000\u0000\u0000": 1607,
      "Äã": 1608,
      "16": 1609,
      "\u0000": 1610,
      "\u0004\n": 1611,
      "HE": 1612,
      "\u0007\b": 1613,
      "é": 1614,
      "@©": 1615,
      "Åû": 1616,
      "\rÿ": 1617,
      "\u0004\u0000T": 1618,
      "bb": 1619,
      "A\u0003": 1620,
      "\u001c\u0000\u0000\u0000": 1621,
      "\u0002\u0000\"": 1622,
      "-ÿ": 1623,
      "D$@": 1624,
      "_^[": 1625,
      "\u0014": 1626,
      "`\u0003": 1627,
      "º\u0000": 1628,
      "®ÿ": 1629,
      "oo": 1630,
      "ÿ": 1631,
      "B\u0001": 1632,
      "\u0007\u0000ù": 1633,
      "ÃA": 1634,
      "Çÿ": 1635,
      "¡\u0000": 1636,
      "\u0016ÿ": 1637,
      "\u000fD": 1638,
      "\u0003\u0005": 1639,
      "H": 1640,
      "ÿ": 1641,
      "ÿ": 1642,
      "\u000fÿ": 1643,
      "\u0007@ù": 1644,
      "\u0017\u0017": 1645,
      "\u000eÿ": 1646,
      "ý{¿©": 1647,
      "HÄ(": 1648,
      "H|$": 1649,
      "ÌÌÌÌÌÌÌÌÌÌÌ": 1650,
      "\u0003\u0002ª": 1651,
      "\u0002\b": 1652,
      "!\u0000R": 1653,
      "á\u0003\u0000ª": 1654,
      "\u001f\u0000\u0000q": 1655,
      "Vè": 1656,
      "\u0001 \u0007": 1657,
      "\u0001": 1658,
      "HK": 1659,
      "ñÀ\" \u000f\bÀ": 1660,
      "\u0018": 1661,
      "h ": 1662,
      "\u0015*": 1663,
      "y ": 1664,
      "Èt": 1665,
      "ÿ": 1666,
      "ÇD$ ": 1667,
      "\u0002": 1668,
      "à\u000f": 1669,
      "A\u0004": 1670,
      "\u0000\u0000\u0002": 1671,
      "Ê ": 1672,
      "üý": 1673,
      "\u0000\u0000": 1674,
      "$0": 1675,
      "a\u0000\u0003\u0000": 1676,
      "\u0018è": 1677,
      "\u0010\u0004": 1678,
      "ð?": 1679,
      "à\u0004": 1680,
      "å]Â": 1681,
      "¸ÿ": 1682,
      "H": 1683,
      "À\u0004": 1684,
      "\u0006\u0000": 1685,
      "Ç\u0005": 1686,
      "úÿÿ": 1687,
      "\u0000": 1688,
      "¶ÿ": 1689,
      "\u0006\b": 1690,
      "È": 1691,
      "ªª": 1692,
      "ÿ": 1693,
      "\u0004\u0000\u0011": 1694,
      "øþ": 1695,
      " \u0001\u0000\u0000": 1696,
      "\f\u0004": 1697,
      "\u0000\u0000\u0000\u0001": 1698,
      "ú\u0003": 1699,
      "Äÿ": 1700,
      "\u0002\u0002\u0002\u0002": 1701,
      "\t\u0001": 1702,
      "¾ÿ": 1703,
      "\u001bÿ": 1704,
      "H\u0010": 1705,
      "\b": 1706,
      "®\u0000": 1707,
      "f\u000f": 1708,
      "\u0002\u0000ù": 1709,
      "\u000fE": 1710,
      "¼ÿ": 1711,
      "¹\u0000": 1712,
      "à\u0000\u0000": 1713,
      "\u0002@": 1714,
      "\u0013ÿ": 1715,
      "½ÿ": 1716,
      "ÿ\u000f\u0000\u0000": 1717,
      "<": 1718,
      "\"": 1719,
      "ò\u0000": 1720,
      "/ÿ": 1721,
      "= ": 1722,
      "Åù": 1723,
      "úú": 1724,
      "Åx\u0011": 1725,
      "\u0000": 1726,
      "ºÿ": 1727,
      "\u0017\u0000\u0000\u0000": 1728,
      "Â\u0000": 1729,
      "º\u0001\u0000\u0000\u0000": 1730,
      "\u0001@": 1731,
      "¤\u0000": 1732,
      "\u001aÿ": 1733,
      "ÿ": 1734,
      "02": 1735,
      "H\f": 1736,
      "×Ø": 1737,
      "{ÿ": 1738,
      "õ\u0000": 1739,
      "\u0010\u0001\u0000\u0000": 1740,
      "\u0002\u0000\u0006": 1741,
      "B\u0000\u0001ë": 1742,
      "Xÿ": 1743,
      "P\u0005\u0005": 1744,
      "}H\u0018": 1745,
      "\u0006\n": 1746,
      "ßø": 1747,
      "\u0003": 1748,
      "?#\u0003Õý{": 1749,
      "}": 1750,
      "pÿ": 1751,
      "D\u000f¶": 1752,
      "ri": 1753,
      "ò\u000fY": 1754,
      "\u0002u": 1755,
      "\u0005": 1756,
      "(F": 1757,
      "¿\u0000": 1758,
      "\u0017ÿ": 1759,
      "Aù": 1760,
      "\u0012\u0000\u0000\u0000": 1761,
      "\u0002\u0000¹": 1762,
      "Ä¡": 1763,
      "\u0015\u0000\u0000": 1764,
      "÷÷": 1765,
      "ÿ": 1766,
      "}": 1767,
      "`": 1768,
      "\u0019ÿ": 1769,
      "çè": 1770,
      "(H": 1771,
      "!": 1772,
      "§\u0000": 1773,
      "B\b": 1774,
      "B": 1775,
      "´ÿ": 1776,
      "|$ ": 1777,
      "\"\u0001\u0000": 1778,
      "M;": 1779,
      "ó\u000f": 1780,
      "üõ": 1781,
      "\u001cª": 1782,
      "ù\u0001": 1783,
      "ø\u0004": 1784,
      "à\u0017": 1785,
      "{\u0000": 1786,
      "Dÿ": 1787,
      "~\u0000": 1788,
      "\u0001\u0000\u0000\u0000": 1789,
      "B\u0010": 1790,
      "Bÿ": 1791,
      "@SHì": 1792,
      "ø\u0002": 1793,
      "\u0000\u0000\u001e": 1794,
      "Ñ\u0000": 1795,
      "á\u0003\u0015ª": 1796,
      "t$ ": 1797,
      "Áé": 1798,
      "óA\u000fY": 1799,
      "\u0016\u0000\u0000": 1800,
      "±ÿ": 1801,
      "û\u0003": 1802,
      "\u000f": 1803,
      "H\\$\bH": 1804,
      "`ÿ": 1805,
      "ïîîïîî": 1806,
      "ú\u0001": 1807,
      "\u0000": 1808,
      "@\u0018": 1809,
      "A\u0000\u0000": 1810,
      "ÿ": 1811,
      "µÿ": 1812,
      "\u0010\u0005": 1813,
      "L$": 1814,
      "sh": 1815,
      "n\u0000t\u0000": 1816,
      "\u0001\u0000 \u0000": 1817,
      "»ÿ": 1818,
      "÷cC©": 1819,
      "$@": 1820,
      "Ã": 1821,
      "ÿ": 1822,
      "\u0015ÿ": 1823,
      "yD": 1824,
      "ý÷": 1825,
      "ùþ": 1826,
      "\u0001\u0000\u0001": 1827,
      "\r\u0000\u0000\u0000": 1828,
      "A\u000f¶": 1829,
      "\u000f": 1830,
      "\b\u0004": 1831,
      "f;": 1832,
      "\u0003\u0000ù": 1833,
      "ú": 1834,
      "\u0005©": 1835,
      "\u0000t": 1836,
      "cÿ": 1837,
      "Ø\u0000\u0000\u0000": 1838,
      "þÿÿÿ": 1839,
      "ø7": 1840,
      "\u0002": 1841,
      "Ãÿ": 1842,
      "¢\u0000": 1843,
      "\u0004r": 1844,
      "F\b": 1845,
      "ûý": 1846,
      "ë\u0007": 1847,
      "ÿ": 1848,
      "\u001e": 1849,
      "RE": 1850,
      "Vÿ": 1851,
      "\u0019\u0000\u0000": 1852,
      "\u0003\u0010": 1853,
      "\\ÿ": 1854,
      "é\u0000": 1855,
      "``": 1856,
      "²ÿ": 1857,
      "þ": 1858,
      "Yÿ": 1859,
      "ÿ": 1860,
      "Åþ": 1861,
      "=ÿ": 1862,
      "\u0004\u0006": 1863,
      "\n\u0001": 1864,
      "el": 1865,
      "\u0018\u0000\u0000": 1866,
      "e\u0000r\u0000": 1867,
      "ÿ": 1868,
      ">â#": 1869,
      "\u0018\u0000\u0000\u0000": 1870,
      " C": 1871,
      "¨\u0000": 1872,
      "Åx\u0010": 1873,
      ".ÿ": 1874,
      "Qÿ": 1875,
      "ÄB": 1876,
      "ÿ": 1877,
      "\u0003ð": 1878,
      "M": 1879,
      "?": 1880,
      "ati": 1881,
      "to": 1882,
      "Æ": 1883,
      "**": 1884,
      "!\u0005": 1885,
      "\u0000": 1886,
      "\u001f\u0004\u0000q": 1887,
      "ÆD$": 1888,
      "à#": 1889,
      "øø": 1890,
      "\u001d": 1891,
      "ID": 1892,
      "@\u0000": 1893,
      "\u0000H\u0000": 1894,
      "4ÿ": 1895,
      "\u0010@": 1896,
      "Æ\u0000": 1897,
      "?ÿ": 1898,
      "P\u0000\u0000": 1899,
      "ÿ": 1900,
      "tion": 1901,
      "ù\u0003": 1902,
      "\u0012\u0001": 1903,
      "\u0003": 1904,
      "2ÿ": 1905,
      "X\u0000\u0000\u0000\u0000\u0000": 1906,
      "\u0011\u0001": 1907,
      "¹ÿ": 1908,
      "\r\u0000\n\u0000": 1909,
      "\u000f\u001f\u0000": 1910,
      "\u0010": 1911,
      "\b\u0000\b\u0000": 1912,
      "ôW": 1913,
      "bA": 1914,
      "\u0007\u0004": 1915,
      "xÿ": 1916,
      "ó\u0003": 1917,
      "\u0000\u0000\u0001\u0000": 1918,
      "\u0000\u0000": 1919,
      "ýÿ": 1920,
      "A\u0000\u0000\u0000": 1921,
      "èè": 1922,
      "\u0001": 1923,
      "E©": 1924,
      "\r\u0001": 1925,
      "\bt": 1926,
      "ý{Ã": 1927,
      "ter": 1928,
      "ô\u0003": 1929,
      "Lc": 1930,
      "·ÿ": 1931,
      "LE": 1932,
      " \u0003": 1933,
      "IN": 1934,
      "¡@": 1935,
      "ö\u0000": 1936,
      "â\u000f": 1937,
      ",00": 1938,
      "³ÿ": 1939,
      "8H": 1940,
      "\u0000": 1941,
      "ÍÌ": 1942,
      "s\u0000.\u0000": 1943,
      "P": 1944,
      "8ÿ": 1945,
      "\u0004": 1946,
      " \u0013@Ñ": 1947,
      "::": 1948,
      "\u0013\u0001": 1949,
      "\u000b\u0001": 1950,
      "\u0013ò": 1951,
      "P\u0010": 1952,
      "bQ": 1953,
      "\u0001\u0000\u0000\u0000": 1954,
      "Ic": 1955,
      "\u0019": 1956,
      "H3Ìè": 1957,
      "í\u0000": 1958,
      "Wÿ": 1959,
      "òA\u000f": 1960,
      "Eÿ": 1961,
      "|H\u0010": 1962,
      "å\u0000": 1963,
      "b!": 1964,
      "\u000e\u0000\u0000\u0000": 1965,
      "\u0002þ": 1966,
      "\u0012": 1967,
      "ver": 1968,
      "\u0005\u0000": 1969,
      "ÄÂ": 1970,
      "\u0004%": 1971,
      "u\u0007": 1972,
      "\u0018\u0001": 1973,
      "G\b": 1974,
      "\fè": 1975,
      "H$": 1976,
      "$\u0000\u0000\u0000": 1977,
      "(è": 1978,
      "à\u0003\u0013*": 1979,
      "\u0001\u0000@\u0000": 1980,
      "\u000b\u000b": 1981,
      "]": 1982,
      "ó\u0003\u0000*": 1983,
      "©p": 1984,
      "úý": 1985,
      "[ÿ": 1986,
      "¿\u0000\u0000": 1987,
      "\u0000(": 1988,
      ">ÿ": 1989,
      "<ÿ": 1990,
      "con": 1991,
      "\u0011\u0002": 1992,
      "A9": 1993,
      "Ç$": 1994,
      "ÿ": 1995,
      "\u0000": 1996,
      "ÿ": 1997,
      "x\u0011": 1998,
      "U": 1999,
      "\u0000": 2000,
      "I÷": 2001,
      "ÿ": 2002,
      "»\u0000": 2003,
      " @": 2004,
      "È\u0000": 2005,
      "ÿ": 2006,
      "\u0010": 2007,
      "µ\u0000": 2008,
      "\u000f\u0010\u000f\u0010": 2009,
      "\b\u0006": 2010,
      "Ç": 2011,
      "ýÿT": 2012,
      "Â": 2013,
      ";ÿ": 2014,
      "ùùùùùùùù": 2015,
      "ÿ": 2016,
      "\u0001\u0000´": 2017,
      "li": 2018,
      "F\u0001": 2019,
      "ÿ": 2020,
      "\u0002r": 2021,
      "÷\u0000": 2022,
      "¦\u0000": 2023,
      "ÿ": 2024,
      "Ø": 2025,
      "\u0001\u00004": 2026,
      "\u0001\u0000\u0000H": 2027,
      "HÏ": 2028,
      "Ï": 2029,
      "\u0005": 2030,
      "BB": 2031,
      "ÿ": 2032,
      "oÿ": 2033,
      "\u0004\u0005": 2034,
      "\u0004\u000b": 2035,
      "ð": 2036,
      "f\u000fn": 2037,
      "E": 2038,
      "Sÿ": 2039,
      "öþ": 2040,
      "\u0001\u0000\u0000\u0000\u0001\u0000\u0000\u0000": 2041,
      "\u0006\u0002": 2042,
      "11": 2043,
      "\u0004\u0007": 2044,
      "\u0000": 2045,
      "u": 2046,
      "ýC": 2047,
      "$": 2048,
      "à\u0003\u0018ª": 2049,
      "Mÿ": 2050,
      "\u0000\u0000À": 2051,
      "\u0000\u0000´": 2052,
      "\u0010H": 2053,
      "hÿ": 2054,
      "\u0004t": 2055,
      "ÿ": 2056,
      "ò\u000fX": 2057,
      "¸\u0001\u0000\u0000\u0000": 2058,
      "øý": 2059,
      "AAAA": 2060,
      "ÿ": 2061,
      "\u0000": 2062,
      "ÿ": 2063,
      "\u0002)": 2064,
      "$\u0001": 2065,
      "D$P": 2066,
      ",\u0000\u0000\u0000": 2067,
      "\u0016\u0001": 2068,
      "bu": 2069,
      " J": 2070,
      "Ä\u0000": 2071,
      "ôþ": 2072,
      "Fÿ": 2073,
      "me": 2074,
      "ve": 2075,
      "á\u0000": 2076,
      "pe": 2077,
      "\u0000\u0000\u0000\u0000\u0001": 2078,
      "3Ä": 2079,
      "]ù": 2080,
      "0\u0000\u0000": 2081,
      "ý{Â¨": 2082,
      "(K": 2083,
      "V": 2084,
      "¾\u0000": 2085,
      "£\u0000": 2086,
      "å\u0003": 2087,
      "E\u000fÆ": 2088,
      "Àu": 2089,
      "9ÿ": 2090,
      "\u0005\u0000T": 2091,
      "\u0011\u0011": 2092,
      "\u0003": 2093,
      "\u0010\u0000\u0000r": 2094,
      "ø": 2095,
      "! ": 2096,
      "\u0000\u0000é": 2097,
      "Uÿ": 2098,
      "\u0007\u0002": 2099,
      "Ý\u0000": 2100,
      "$\u0018": 2101,
      "@\u0000`\u0000": 2102,
      "\u0000\u00004": 2103,
      "\u0000": 2104,
      "bÿ": 2105,
      "\"\u0000 ": 2106,
      "\u0004\u0000\u00004\u0000\u0014\u0000\u000e": 2107,
      "Àè": 2108,
      "A ": 2109,
      "\u0001H": 2110,
      "\u0005þ": 2111,
      ",p": 2112,
      "b±": 2113,
      "fÿ": 2114,
      "ur": 2115,
      "\u0003": 2116,
      "ÇF": 2117,
      "ä\u0000": 2118,
      "HÁ": 2119,
      "Gÿ": 2120,
      "0\u00000\u0000": 2121,
      "x ": 2122,
      "@\\": 2123,
      "Rÿ": 2124,
      "~ÿ": 2125,
      "6ÿ": 2126,
      "\u001b@ù": 2127,
      "õ\u0003\u0000ª": 2128,
      "\b@": 2129,
      "àþ": 2130,
      "ðð": 2131,
      "}ÿ": 2132,
      "lÿ": 2133,
      "+Á": 2134,
      "7ÿ": 2135,
      "B\u0004": 2136,
      "\u0005": 2137,
      "ge": 2138,
      "ñþ": 2139,
      "ª\u0000": 2140,
      "|ÿ": 2141,
      "lu": 2142,
      "\u0000": 2143,
      "0\u0001\u0000\u0000": 2144,
      "0\u0002": 2145,
      "Â": 2146,
      "ïþ": 2147,
      "@U": 2148,
      "aÿ": 2149,
      "\u001c\u0001": 2150,
      "õ\u0003": 2151,
      "rÿ": 2152,
      "ÿ": 2153,
      "Ð": 2154,
      "wÿ": 2155,
      "ë\u0004": 2156,
      "vm": 2157,
      "Zÿ": 2158,
      "5ÿ": 2159,
      ".?": 2160,
      " \u0000\u0000\u0000\u0000\u0000": 2161,
      "1ö": 2162,
      "x": 2163,
      "Ä\u0001": 2164,
      "\"\u0000@ù": 2165,
      "ÿ": 2166,
      "òþ": 2167,
      " (": 2168,
      "¨\u0001": 2169,
      "ap": 2170,
      "Áá": 2171,
      "0H": 2172,
      "Ä\b": 2173,
      "4": 2174,
      "ü\u0002": 2175,
      "Ä\f": 2176,
      "ÃÌ": 2177,
      "?$": 2178,
      "H": 2179,
      "è\u0001": 2180,
      "HT$": 2181,
      "b\u0002": 2182,
      "Ð\u0001": 2183,
      "H\u0004": 2184,
      "óþ": 2185,
      "E": 2186,
      "rt": 2187,
      "\u0000\u0000\u0002\u0000": 2188,
      "ÇC": 2189,
      "4\u0006\u0000": 2190,
      "Lÿ": 2191,
      "D$`": 2192,
      "à\u0005": 2193,
      "\u0000": 2194,
      "Í\u0000": 2195,
      "ÙÚ": 2196,
      "of": 2197,
      "Jÿ": 2198,
      "t\t": 2199,
      "vÿ": 2200,
      "L\u0001": 2201,
      "\r": 2202,
      "dÿ": 2203,
      "\u0000\u0000@": 2204,
      "H\b": 2205,
      "\u001c": 2206,
      "ü÷": 2207,
      "\\$": 2208,
      "ÿ": 2209,
      "\u0005\u0010": 2210,
      "\u0013\u0004": 2211,
      "]ÿ": 2212,
      "t\n": 2213,
      "ö\u0003": 2214,
      ":ÿ": 2215,
      "\u0000\u0000\u0000": 2216,
      "ýH": 2217,
      "õþ": 2218,
      "Å\u0000": 2219,
      "L$": 2220,
      "\u0017\u0000\u0000": 2221,
      "!ðFù": 2222,
      "yÿ": 2223,
      "ðþ": 2224,
      "\u0005\u0007": 2225,
      "sÿ": 2226,
      "=\"": 2227,
      "\b\u0003": 2228,
      "\u0005 ": 2229,
      "\u000f\u000f\u000f\u000f": 2230,
      "ÇA": 2231,
      "Ä": 2232,
      "bÑ": 2233,
      "ÃÌÌÌ": 2234,
      "_ÿ": 2235,
      "ä\u000f": 2236,
      "Hù": 2237,
      "bÁ": 2238,
      "\u000f\u0011E": 2239,
      "ùÿÿ": 2240,
      "¬\u0000": 2241,
      "((": 2242,
      "`\u0004": 2243,
      "P\u0001\u0000\u0000": 2244,
      "Cÿ": 2245,
      "Hßè": 2246,
      "\u0013\u0000ù": 2247,
      "½è": 2248,
      "Ðþ": 2249,
      "ùý": 2250,
      "u\u0005": 2251,
      "mÿ": 2252,
      "HD$ ": 2253,
      "Åý": 2254,
      "a\u0000t\u0000": 2255,
      "A]A\\": 2256,
      "ÿ": 2257,
      "øÿÿ": 2258,
      "ó\u0000": 2259,
      "\u0000": 2260,
      "\u0002\u0000R": 2261,
      "@H": 2262,
      "\u000e\u0001": 2263,
      "â\u0000": 2264,
      "\u0002\u0014": 2265,
      "Kÿ": 2266,
      "ÿÿÿÿ\u0000\u0000\u0000\u0000": 2267,
      "Ç": 2268,
      "Nÿ": 2269,
      "ë\u0000": 2270,
      "D\u0001": 2271,
      "\u0004\u0018": 2272,
      "zÿ": 2273,
      "E\b": 2274,
      "1Ò": 2275,
      "\u0002\u0013": 2276,
      "qÿ": 2277,
      "AVAW": 2278,
      "\u0004F": 2279,
      "%": 2280,
      "i\u0000o\u0000": 2281,
      "\u0006þ": 2282,
      "id": 2283,
      "`\u0000\u0000\u0000": 2284,
      "^ÿ": 2285,
      "iÿ": 2286,
      "j\u0002": 2287,
      "\u0007þ": 2288,
      "Ò\u0000": 2289,
      "\u001a0": 2290,
      "nÿ": 2291,
      "S ": 2292,
      "\"\u0005\u0019": 2293,
      "\u0004è": 2294,
      "\u0001\u0014": 2295,
      "HX": 2296,
      "Ù\u0000": 2297,
      "\u0001Ø": 2298,
      "t\u0005": 2299,
      "ë\b": 2300,
      "\u000f\u001f\u0000\u0000\u0000\u0000": 2301,
      "0000": 2302,
      "[]": 2303,
      "P\b": 2304,
      "\u0002\u0001": 2305,
      "HÃ": 2306,
      "kÿ": 2307,
      "loc": 2308,
      "`\u0001\u0000\u0000": 2309,
      ">\u0000\u0000": 2310,
      "HÄ [Ã": 2311,
      "0F": 2312,
      "\u0000\u0000\u0012": 2313,
      "\u0002H": 2314,
      "\n#": 2315,
      "\u0002\u0000\u0000H": 2316,
      "\u0004þ": 2317,
      "C": 2318,
      "íþ": 2319,
      "á\u0003\u0016ª": 2320,
      "0x": 2321,
      "\u0006\u0005": 2322,
      "\u0001": 2323,
      "ú\u0002": 2324,
      "ï\u0000": 2325,
      "$\u0010": 2326,
      "÷è": 2327,
      "Á\u0001": 2328,
      "t\u0007": 2329,
      "Çè": 2330,
      "\u0000": 2331,
      "óB": 2332,
      "p\u0000o\u0000": 2333,
      "ÌÌÌÌÌ": 2334,
      "Hñ": 2335,
      "\u0001": 2336,
      "\u000f\u0001": 2337,
      "_\u0000\u0000": 2338,
      "¼\u0000": 2339,
      "æ\u0000": 2340,
      "\u0010\u0000\u0000\u0000\u0000": 2341,
      "Ã\u0000": 2342,
      "\u0000": 2343,
      "Oÿ": 2344,
      "Mc": 2345,
      "UU": 2346,
      "$x": 2347,
      "dddddddd": 2348,
      "@(": 2349,
      "Ä\u0004": 2350,
      " %s": 2351,
      "\u0012\u0002": 2352,
      "E": 2353,
      "©\u0000": 2354,
      "gÿ": 2355,
      "\u000f[": 2356,
      "\u0001\n": 2357,
      "\u0010\u0003": 2358,
      "f\u000fY": 2359,
      "«\u0000": 2360,
      "": 2361,
      "eÿ": 2362,
      "\u0005": 2363,
      "ÌÌÌÌÌÌÌ": 2364,
      "\u0000\u0000\u0000\u0000\u0002\u0000": 2365,
      "\u0002ð": 2366,
      "Ht$": 2367,
      "è\u0000\u0000\u0000": 2368,
      "\u0002": 2369,
      "H|$": 2370,
      "p\u0004": 2371,
      "Wè": 2372,
      "L1": 2373,
      "=\u0000\u0000": 2374,
      "ý\u0003": 2375,
      "\u000f": 2376,
      "\u0000": 2377,
      "Hì(": 2378,
      "´\u0000": 2379,
      "\u0011\u0004": 2380,
      "\u0001": 2381,
      " \u0000 \u0000 \u0000 \u0000": 2382,
      "[\u0001": 2383,
      "ûü": 2384,
      "\u0017\u0001": 2385,
      "Ë": 2386,
      "": 2387,
      "\u0016*": 2388,
      "\u0000( \u0002": 2389,
      "\u0005\b": 2390,
      "HÈ": 2391,
      "@D": 2392,
      "b": 2393,
      "ul": 2394,
      "à\u0003\u001aª": 2395,
      " p": 2396,
      "\u0006\t": 2397,
      "\u0001\u0000@ùB\u0000\u0001ë": 2398,
      "d\u0000dd": 2399,
      "!\u0004": 2400,
      "T$": 2401,
      "LÀ": 2402,
      "\f\u0003": 2403,
      "t_": 2404,
      "\u0001À": 2405,
      "H": 2406,
      "û\u0002": 2407,
      "us": 2408,
      "\u001e\u0000\u0000": 2409,
      "\u0000": 2410,
      "¾©": 2411,
      ">\u0000\u0000\u0000": 2412,
      "ë\u0006": 2413,
      " ": 2414,
      "A÷": 2415,
      "\u0007\u0003": 2416,
      "h`": 2417,
      "èþ": 2418,
      "!@": 2419,
      "éþ": 2420,
      "\fþ": 2421,
      "ù\u0002": 2422,
      "È": 2423,
      "64": 2424,
      "th": 2425,
      "HÓ": 2426,
      "ATAU": 2427,
      ")\u0000\u0000\u0000\u0000": 2428,
      "IT": 2429,
      "\u0003\u0001*": 2430,
      "ð\u0003": 2431,
      "!\b": 2432,
      "\u0007": 2433,
      "ÿÿ\u0000\u0000": 2434,
      "0 ": 2435,
      "D\u0003": 2436,
      "Hö": 2437,
      "HÎè": 2438,
      "ôd": 2439,
      "à\u001f": 2440,
      "\u000e ": 2441,
      "8è": 2442,
      "": 2443,
      "ed": 2444,
      "ôý": 2445,
      "ì\u0000": 2446,
      "\u001a\u0000\u0000": 2447,
      "D8": 2448,
      "mo": 2449,
      "öý": 2450,
      "\u0001\u0000\u0000": 2451,
      "AÁ": 2452,
      "@\f": 2453,
      "ß\u0000": 2454,
      "#\u0001": 2455,
      "Àt": 2456,
      "÷\u0003": 2457,
      "òD\u000f": 2458,
      "\r": 2459,
      "ö\u0001": 2460,
      "îþ": 2461,
      "\f\u0006": 2462,
      "\tþ": 2463,
      "\u0012À": 2464,
      "\u0000": 2465,
      "|H\u0011": 2466,
      "ÿC": 2467,
      " \u0010": 2468,
      " s": 2469,
      "\u0006p": 2470,
      "ìþ": 2471,
      "Õ\u0000": 2472,
      "H\u0014": 2473,
      "øü": 2474,
      "um": 2475,
      "]": 2476,
      "\u0000\u0000\u0016": 2477,
      "u\u0004": 2478,
      "Ú\u0000": 2479,
      "\u0004": 2480,
      "\"\"": 2481,
      "óD\u000f\u0010": 2482,
      "\bE": 2483,
      "}": 2484,
      "÷c\u0003©": 2485,
      "\u0000\u0012": 2486,
      "ðè": 2487,
      "\u0010t": 2488,
      "p\u0001\u0000\u0000": 2489,
      "õõ": 2490,
      "is": 2491,
      "çþ": 2492,
      " \u0001\u0000\u0000": 2493,
      "uÿ": 2494,
      "  ": 2495,
      "\u000f\u001fD\u0000\u0000": 2496,
      " \u0005": 2497,
      "_\u00001\u0000": 2498,
      "âþ": 2499,
      "ø\u0000\u0000\u0000": 2500,
      "@\u0000@\u0000": 2501,
      "À\u000f": 2502,
      "D$(": 2503,
      "?Ö": 2504,
      "ñ\u0001": 2505,
      "\u0018\u0002": 2506,
      "i\u0000c\u0000": 2507,
      "@\u0000\u0000\u0000(\n": 2508,
      "t$\u0018": 2509,
      "V3": 2510,
      "f\u000fX": 2511,
      "K": 2512,
      "20": 2513,
      "úü": 2514,
      "à\u0003\u0019ª": 2515,
      "\f\u0010": 2516,
      "`\u0012": 2517,
      "ðÿðÿ": 2518,
      ";Á": 2519,
      "\u0004\u0004\u0004\u0004": 2520,
      "\t\u0002": 2521,
      "fi": 2522,
      "H\u0003": 2523,
      "ce": 2524,
      "@Æ": 2525,
      "è\u0003": 2526,
      "\u0004\u0000": 2527,
      "\u0000\u0004\u0000": 2528,
      "bq": 2529,
      "\u0014\u0014": 2530,
      "Hl$": 2531,
      "\b\u0001\u0000\u0000": 2532,
      "\bþ": 2533,
      "DD": 2534,
      "\u0006\u0000ù": 2535,
      "pp": 2536,
      "$(": 2537,
      "\u000bþ": 2538,
      "H\\$\b": 2539,
      "\u0004\u0011": 2540,
      "ÄC": 2541,
      "ÇEü": 2542,
      "áþ": 2543,
      "à?": 2544,
      "\nþ": 2545,
      "ÿ": 2546,
      "ùü": 2547,
      "H\u0016": 2548,
      "\u0004": 2549,
      "A+": 2550,
      "\rþ": 2551,
      "\u0001Å": 2552,
      "ã\u0000": 2553,
      "HÁ": 2554,
      "ÝÞ": 2555,
      "\u0004\u0000Ð": 2556,
      "\u0005\u0000Ð": 2557,
      "EE": 2558,
      "\n\u0006": 2559,
      "\u0004ð": 2560,
      "b": 2561,
      "ææ": 2562,
      "A": 2563,
      "ãþ": 2564,
      "\u0000\u0000\u0000@": 2565,
      "ê\u0000": 2566,
      "ÛÜ": 2567,
      "öö": 2568,
      "\u0000": 2569,
      "h\u0001": 2570,
      "æþ": 2571,
      "\u0001": 2572,
      "L$0": 2573,
      "o\u0000w\u0000": 2574,
      "î\u0000": 2575,
      "ÃÌÌÌÌÌÌÌÌ": 2576,
      "\u000f¿": 2577,
      "ñý": 2578,
      "Åø\u0011": 2579,
      "T$": 2580,
      " \b": 2581,
      "\u000e\u0000\u0000\u0000\u0000": 2582,
      "\u0003\u0003\u0003\u0003": 2583,
      "óý": 2584,
      "": 2585,
      "Ô\u0000": 2586,
      "ä\u000f\u0000": 2587,
      "E\u0003": 2588,
      "(\u0002": 2589,
      "ëþ": 2590,
      " \u0007": 2591,
      "Ü\u0000": 2592,
      "\u0005\u0000°": 2593,
      "ÄÃ": 2594,
      "\u0000\u0000@ù": 2595,
      "\u0000A\u000e": 2596,
      "\u001f\u0004\u00001": 2597,
      "OP": 2598,
      "\u0015\u0001": 2599,
      "A\u0000R": 2600,
      "ô\u0001": 2601,
      "òò": 2602,
      "PE": 2603,
      "äþ": 2604,
      "\f\u0004\u0000\u0000\u0000": 2605,
      "â": 2606,
      "\u0000 \u0007": 2607,
      "HÇD$": 2608,
      "\u0000\u0000ÿ": 2609,
      "\u0002P": 2610,
      "a\u0002\u0000": 2611,
      "f\u000f\u001f\u0000\u0000\u0000\u0000\u0000": 2612,
      "\u0004;": 2613,
      "ðý": 2614,
      "\u0001\u00005": 2615,
      "À": 2616,
      "p": 2617,
      "æ\u0003": 2618,
      "\u0004\u0000Q": 2619,
      "à\u0006": 2620,
      "\u0005\u0000ð": 2621,
      "õý": 2622,
      "F": 2623,
      "\u0018\u0001\u0000\u0000": 2624,
      "": 2625,
      "HÈè": 2626,
      "ame": 2627,
      "\b\u0000q": 2628,
      "u\n": 2629,
      "\"@": 2630,
      "ÃÌÌ": 2631,
      "\b\n": 2632,
      "\u0012þ": 2633,
      "_S": 2634,
      "\u0004\u0000°": 2635,
      "óA\u000f\u0010": 2636,
      "\u0000\u0000H": 2637,
      "é\u0001": 2638,
      "0\u0004": 2639,
      "÷þ": 2640,
      "y\u000b": 2641,
      "tÿ": 2642,
      "À\b": 2643,
      "ÑÀ": 2644,
      "â\u0003\u0000ª": 2645,
      "\u0010": 2646,
      "Ì\u0000": 2647,
      "êþ": 2648,
      "\u0001\u0001\u0001": 2649,
      "\u0006\u0000\u0011": 2650,
      "­Þ": 2651,
      "1Àè": 2652,
      "ÌÌÌÌÌÌ": 2653,
      "0\t": 2654,
      "ER": 2655,
      "Ðè": 2656,
      "É\u0000": 2657,
      "!\u0002": 2658,
      "\u0017*": 2659,
      "\u0005ð": 2660,
      "\b\u0011": 2661,
      "\u0000\u0000\u0000\u0000\u0000\u0000\u0000\u0000\u0000\u0000\u0000\u0000\u0000\u0000": 2662,
      "\u0003\u0000\u0003\u0000": 2663,
      "H\\$0": 2664,
      "\u0003\u0000": 2665,
      "D": 2666,
      "\u000f\u0012": 2667,
      "@": 2668,
      "NS": 2669,
      "\u0004\u0002\u0000\"": 2670,
      "AL": 2671,
      "!À": 2672,
      "\"\u0000\u0000": 2673,
      "ù": 2674,
      "ent": 2675,
      " \u0000\u0000\u0000\u0000": 2676,
      "u\u0006": 2677,
      "û": 2678,
      "Î\u0000": 2679,
      "¯\u0000": 2680,
      "òý": 2681,
      "ë\u0001": 2682,
      "\u000b\u0002": 2683,
      "ó\u000f^": 2684,
      "\u000eþ": 2685,
      "": 2686,
      "ë\t": 2687,
      "öÿÿ": 2688,
      "ww": 2689,
      " þ": 2690,
      "G\u0010": 2691,
      "Ä!": 2692,
      "\u0007": 2693,
      "\u0001Ñ": 2694,
      "ïý": 2695,
      "": 2696,
      "\u000e\u0000A\u000b": 2697,
      "åþ": 2698,
      "ë\n": 2699,
      "\u0016\u0004": 2700,
      "y)": 2701,
      "Æè": 2702,
      "üÿ": 2703,
      "!\u0010": 2704,
      "C\u0018": 2705,
      ") ": 2706,
      "\u0005@": 2707,
      "\u0016þ": 2708,
      "ation": 2709,
      "\u0002p": 2710,
      "a\u0001": 2711,
      "öt": 2712,
      "\u000bÈ": 2713,
      "\u001f\u0001": 2714,
      "do": 2715,
      "\u001c\u0000\u0000": 2716,
      "=\u0000 \u0000": 2717,
      "\u0001\u0000\u0000": 2718,
      "×\u0000": 2719,
      "\u001fÖ": 2720,
      "å]Ã": 2721,
      "±\u0016": 2722,
      "\u0003þ": 2723,
      "H×": 2724,
      "ññ": 2725,
      "H+Á": 2726,
      "@": 2727,
      "44": 2728,
      "Hú": 2729,
      "\u0005ý": 2730,
      "HÃ": 2731,
      "\u0010": 2732,
      "\u0002\u0000\u0005": 2733,
      "N": 2734,
      "#": 2735,
      "`\f": 2736,
      "ÿÿÿ\u0000ÿÿÿ\u0000": 2737,
      "\b": 2738,
      "\u0002\u0015": 2739,
      "H": 2740,
      "éý": 2741,
      "(\u0001": 2742,
      "\u0001ÿP": 2743,
      "Áþ": 2744,
      "\u0002\u0000\u0000\u0000\u0000\u0000": 2745,
      "D": 2746,
      "òE\u000fÐ": 2747,
      "\u0010ð": 2748,
      "C ": 2749,
      "\u001b\u0000\u0000": 2750,
      "¶\u0000": 2751,
      "Ï\u0000": 2752,
      "ç\u0003": 2753,
      "Û\u0000": 2754,
      "·\u0000": 2755,
      "ÄÁ|\u0011": 2756,
      "Ê\u0000": 2757,
      "\n\u0005": 2758,
      "\u000f": 2759,
      "ÄA|\u0011": 2760,
      "\u0001P": 2761,
      "zD": 2762,
      "Ê!": 2763,
      "ip": 2764,
      "`è": 2765,
      "Ó\u0000": 2766,
      "AP": 2767,
      "HD$(": 2768,
      "Þ\u0000": 2769,
      "\u0006\u0000": 2770,
      "ëë": 2771,
      "ate": 2772,
      "á\u000f": 2773,
      "A\u0002": 2774,
      "öÂ": 2775,
      "8\u0001": 2776,
      "`ø": 2777,
      "": 2778,
      "þ": 2779,
      "HD$": 2780,
      "|$": 2781,
      "©ý": 2782,
      "Ép": 2783,
      "\u0010\f": 2784,
      "01": 2785,
      "\u0002\u0000\u0000\u0000\u0000\u0000\u0000": 2786,
      "`\u000e": 2787,
      "\u0002\u0006": 2788,
      "û÷": 2789,
      "ø6": 2790,
      "\b": 2791,
      "H\\": 2792,
      "`\u0005": 2793,
      "\u001dð": 2794,
      "HÄ@": 2795,
      "³\u0000": 2796,
      "\u0007\u0000": 2797,
      "t$8": 2798,
      "²\u0000": 2799,
      "hd": 2800,
      "\u000f\u0010\u0000": 2801,
      "\u001e\u0001": 2802,
      "D\u000f·": 2803,
      "B ": 2804,
      "©ý\u0003\u0000óS\u0001©": 2805,
      "\u000f¾": 2806,
      "\u0000H3Ä": 2807,
      "H": 2808,
      "À ": 2809,
      "HÿÂ": 2810,
      "a ": 2811,
      "": 2812,
      "ò\u0001": 2813,
      "\n\u000e": 2814,
      "I": 2815,
      "Ë\u0000": 2816,
      "<$": 2817,
      "à~àx": 2818,
      "[a": 2819,
      "ýü": 2820,
      "\u0006\u0000T": 2821,
      "\u0004": 2822,
      "\n\u0000 ": 2823,
      "f": 2824,
      "` ": 2825,
      "X\u0001": 2826,
      "³Þ": 2827,
      "(\"": 2828,
      "Xþ": 2829,
      "\n ": 2830,
      "De": 2831,
      "ha": 2832,
      "A\u000f\u0011": 2833,
      "\u0003\u0000\u0000\u0000\u0000\u0000\u0000": 2834,
      "\u0011þ": 2835,
      "\u0001r": 2836,
      "88": 2837,
      "êê": 2838,
      "\"\u0000": 2839,
      "%x": 2840,
      "\u0000\u0000\u0000\u0000\u0000\"\u0001": 2841,
      "ßþ": 2842,
      "P\u0004": 2843,
      "\f\u000b": 2844,
      "Æþ": 2845,
      "j\u0000j\u0000": 2846,
      "c ": 2847,
      "%\u0000\u0000": 2848,
      "ý{Ã¨": 2849,
      "\u0014þ": 2850,
      "\u001f\u0000\u0000\u0000": 2851,
      "¯þ": 2852,
      "ol": 2853,
      "\u0019\u0001": 2854,
      "%\u0001": 2855,
      "D\u0000A\u0000": 2856,
      "<\u0001": 2857,
      "$P": 2858,
      "ð\u000fÁ": 2859,
      "F\u0010": 2860,
      "u\b": 2861,
      "Îè": 2862,
      "ï\u0003": 2863,
      "÷ÿÿ": 2864,
      "\u0006ð": 2865,
      "\u0007ð": 2866,
      "\u0010d": 2867,
      "\u0004\u0000ð": 2868,
      "åå": 2869,
      "\u0000H\u0012": 2870,
      "\u0003\u0003ª": 2871,
      "\n2": 2872,
      "á": 2873,
      "2\u0000\u0000\u0000": 2874,
      "Bù": 2875,
      "IÎè": 2876,
      "\n@ù": 2877,
      "\\þ": 2878,
      "èý": 2879,
      "\u001b\u0001": 2880,
      "\u000f": 2881,
      "Aø": 2882,
      "é\u0003": 2883,
      ",\u0000\u0004": 2884,
      "\u001a\u0001": 2885,
      "B)": 2886,
      "(\u0012": 2887,
      "ýÿ\u0017": 2888,
      "\u0000\u0000\u0000\u0000\u0000\u0000\u0000\u0001\u0000\u0000\u0000": 2889,
      "{\u0011": 2890,
      "\u0018H": 2891,
      "@": 2892,
      "\u0004\u0000\u0000\u0000\u0000\u0000\u0000": 2893,
      "\u0006": 2894,
      "\u0010": 2895,
      "'\u0001": 2896,
      "\u000fþ": 2897,
      "N": 2898,
      "Ö\u0000": 2899,
      "àà": 2900,
      "_s": 2901,
      "@9\u001f": 2902,
      "à\u0003\u0001": 2903,
      "\t\u0006": 2904,
      "\u001b\u0000ù": 2905,
      "\b\u0012": 2906,
      "@$": 2907,
      "h\"": 2908,
      "Þþ": 2909,
      "Qè": 2910,
      "\fð": 2911,
      "\u0007\u0000T": 2912,
      "¸\u0001\u0000\u0000": 2913,
      "Ñþ": 2914,
      "â\u000f\u0000": 2915,
      "22": 2916,
      ",\u0001": 2917,
      "A\u000f·": 2918,
      "ý\u0002": 2919,
      "Üþ": 2920,
      "\fq": 2921,
      "\u0005R": 2922,
      "\u0000ðFùâ": 2923,
      "\u001c¾": 2924,
      "Úþ": 2925,
      "\u0013\u0002": 2926,
      "â\u0003\u0014ª": 2927,
      "\u0010þ": 2928,
      "ÑÑ": 2929,
      "==": 2930,
      "\u0001": 2931,
      "Sè": 2932,
      "O ": 2933,
      "\u000b\u0004": 2934,
      "À\u000f": 2935,
      "ö_": 2936,
      "la": 2937,
      "Ôþ": 2938,
      "¿þ": 2939,
      "H#": 2940,
      "Ïþ": 2941,
      "Ýþ": 2942,
      "\tè": 2943,
      "HÀ\u000f": 2944,
      "öÁ": 2945,
      "Àþ": 2946,
      "\u0002": 2947,
      "ta": 2948,
      "d\u0000e\u0000": 2949,
      "B\u0003": 2950,
      "Hú\u0000": 2951,
      "\u0018\u0018": 2952,
      "üÿT": 2953,
      "HÎ": 2954,
      "P": 2955,
      "T\u0000o\u0000": 2956,
      "t\f": 2957,
      "à;": 2958,
      "á\u0003\u0017ª": 2959,
      "í\u0001": 2960,
      "ïï": 2961,
      "\u000bð": 2962,
      "\u0000\u0000": 2963,
      "\u0002\u0000": 2964,
      "A\u0018": 2965,
      "øè": 2966,
      "\t\b": 2967,
      "!": 2968,
      "@": 2969,
      "ÕÖÓÔ\u000e\u0000": 2970,
      ";þ": 2971,
      "!\u0001\u0000\u0000\u0000\u0000\u0000\u0000\u0000\u0000\u0000": 2972,
      "_1": 2973,
      "ê\u0001": 2974,
      "p\u0002": 2975,
      "?\u0000\u0000\u0000\u0000": 2976,
      "Yþ": 2977,
      " ": 2978,
      "=": 2979,
      "óó": 2980,
      "\u0007ý": 2981,
      "Iã": 2982,
      "\bC": 2983,
      "¸\u0001": 2984,
      "Mü": 2985,
      "\u0013þ": 2986,
      "÷\u0001": 2987,
      "\t\u0003": 2988,
      "6\u0001": 2989,
      "\u0010\u0000\u0010\u0000": 2990,
      "\" \u000fF": 2991,
      "Øþ": 2992,
      "õ\u0001": 2993,
      "Ûþ": 2994,
      "àý": 2995,
      "a\u0000c\u0000": 2996,
      "\f\u0011": 2997,
      "HÂ'": 2998,
      "óSA©õ[B©": 2999,
      "Hø\u001f": 3000,
      "\u0000\u0000\u0000\u0000\u0000\u0001\u0000\u0000": 3001,
      "\u0004u": 3002,
      "\u0010 ": 3003,
      "ì": 3004,
      "¾þ": 3005,
      "&\u0001": 3006,
      "àC": 3007,
      "ub": 3008,
      "t\u000e": 3009,
      "\u0002\u0000\u00062": 3010,
      "\r\u0003": 3011,
      "\u0004": 3012,
      "Ò": 3013,
      "AB": 3014,
      "ç\u0001": 3015,
      "HÀ": 3016,
      "H\u0005": 3017,
      "|>": 3018,
      "\u001bh": 3019,
      "p\u0003": 3020,
      "é\u0002": 3021,
      "\u001f\u0003": 3022,
      "M+": 3023,
      "Ùþ": 3024,
      "Eù": 3025,
      "llvm": 3026,
      ";È": 3027,
      "ct": 3028,
      "f.": 3029,
      "ùkD©": 3030,
      "@¸": 3031,
      "\u0004\u0014": 3032,
      "\u0000\u0000\u0014": 3033,
      "4\u0001": 3034,
      "\u0003": 3035,
      "c\b": 3036,
      "úû": 3037,
      "â\u0003\u0013ª": 3038,
      "éé": 3039,
      "G": 3040,
      "\u0018þ": 3041,
      "\u0002\u0000ë": 3042,
      "\n\b": 3043,
      "4\u0000\u0000\u0000": 3044,
      "T\u0001": 3045,
      "I9": 3046,
      "\u0007\u0000ð": 3047,
      "\u0006": 3048,
      "ôô": 3049,
      "\t": 3050,
      "\u0006©": 3051,
      "HÇ": 3052,
      "E\b": 3053,
      "Ç": 3054,
      "ó\u0001": 3055,
      "F\u0004": 3056,
      "&": 3057,
      "ù": 3058,
      "\u0002ª": 3059,
      "\tð": 3060,
      "Hl$": 3061,
      "H\u0004": 3062,
      "o ": 3063,
      "+\u0006": 3064,
      "res": 3065,
      "?\u0001": 3066,
      "ëý": 3067,
      "üû": 3068,
      "¨þ": 3069,
      "\u0003\u0000Ò": 3070,
      "¼þ": 3071,
      "°þ": 3072,
      "H": 3073,
      "@!": 3074,
      "\r\u0002": 3075,
      "¸þ": 3076,
      "\u001d\u0001": 3077,
      "\\$": 3078,
      "HÐ": 3079,
      "G\u0000\u0000\u0000": 3080,
      "Ç": 3081,
      "8\u0000\u0000\u0000": 3082,
      "I[": 3083,
      "¿\u0000\u0000": 3084,
      "\u0011\u0000\u0000\u0000": 3085,
      "ø\u0001": 3086,
      "\u0007": 3087,
      "t\u0006": 3088,
      "@¹\u001f": 3089,
      "Aþ": 3090,
      "}": 3091,
      "ig": 3092,
      "\u0002è": 3093,
      "ó\u000b@ù": 3094,
      "I\u0001": 3095,
      "ë\u000b": 3096,
      "u ": 3097,
      "3í": 3098,
      "`\u001a": 3099,
      "M\u0001": 3100,
      "HT$": 3101,
      "Áê": 3102,
      "H": 3103,
      "Óþ": 3104,
      "ËE": 3105,
      "V4": 3106,
      "\u0003": 3107,
      "Òþ": 3108,
      "(\u0001\u0000\u0000": 3109,
      "â\u0004": 3110,
      "à\u0003\u0014*": 3111,
      "$8": 3112,
      "á\u0001": 3113,
      "½þ": 3114,
      "C\u0001": 3115,
      "\u0006\u0007": 3116,
      "3Å": 3117,
      "\u0019þ": 3118,
      "LÃ": 3119,
      "#\u0000": 3120,
      "k ": 3121,
      "": 3122,
      "H": 3123,
      "\u000f\u0016": 3124,
      "D\u0000\u0000\u0000": 3125,
      "x\u0001": 3126,
      "f\u000f(": 3127,
      "0\u0003": 3128,
      "ï\u0001": 3129,
      "c\u0000\u0002ë": 3130,
      "B": 3131,
      "×þ": 3132,
      "Ç\u0001": 3133,
      "\u0000": 3134,
      "\u0002\u0000\u0000\u0000\u0000\u0000\u0000\u0000": 3135,
      "bó": 3136,
      "@ø": 3137,
      "j\u0004": 3138,
      "B\u000e\u0010": 3139,
      "o\u0000o\u0000o\u0000o\u0000": 3140,
      "\u0005F": 3141,
      "A,": 3142,
      "\u0001": 3143,
      "íý": 3144,
      "ra": 3145,
      "AC": 3146,
      "ìì": 3147,
      "e\u0000n\u0000": 3148,
      "à ": 3149,
      "z\u0010": 3150,
      "`þ": 3151,
      "\u001cþ": 3152,
      "#": 3153,
      "@\u0014": 3154,
      "Âþ": 3155,
      "O": 3156,
      "ë\r": 3157,
      "à\b": 3158,
      "L$ ": 3159,
      "`\b": 3160,
      "\u0001": 3161,
      "for": 3162,
      "Á": 3163,
      "EP": 3164,
      "Ït": 3165,
      "ð\u0002": 3166,
      "ìý": 3167,
      "AVA": 3168,
      "\u0005\n": 3169,
      "þ": 3170,
      "À\u0001\u0000\u0000": 3171,
      "Çþ": 3172,
      "ô\u0003\u0000*": 3173,
      "WR": 3174,
      "Õþ": 3175,
      "G\u0001": 3176,
      "\u0019*": 3177,
      "Äþ": 3178,
      "ÇD": 3179,
      "Ð\u0003": 3180,
      "\"": 3181,
      "HÑ": 3182,
      "éð": 3183,
      "+Â": 3184,
      "Èþ": 3185,
      "îý": 3186,
      "\u0004": 3187,
      "Ç": 3188,
      "Öþ": 3189,
      "\r\b": 3190,
      "øû": 3191,
      "Ê": 3192,
      "½©": 3193,
      "\u0018\u0003": 3194,
      "\"\u0002": 3195,
      "HU": 3196,
      "\u000e\u0004": 3197,
      "o\u0000r\u0000": 3198,
      "»þ": 3199,
      "@Y": 3200,
      "?þ": 3201,
      "\u0006\u0010": 3202,
      "tt": 3203,
      "DE": 3204,
      "_p": 3205,
      "\u0003": 3206,
      "\u0002ù": 3207,
      "(\u0000\u0000": 3208,
      "\\ù": 3209,
      "òB": 3210,
      "|\u0001": 3211,
      "\rð": 3212,
      "\u0006ý": 3213,
      "$": 3214,
      "@þ": 3215,
      "Íþ": 3216,
      "CO": 3217,
      "À\u0005": 3218,
      "\u0000\u0000\u0000\u0000": 3219,
      "\u001dþ": 3220,
      "T_": 3221,
      "Hÿt": 3222,
      "t$0": 3223,
      "$þ": 3224,
      "\u0017þ": 3225,
      "D$8": 3226,
      ",0,0": 3227,
      "ý{Ä": 3228,
      "u\u0010": 3229,
      " þ": 3230,
      "HÛt": 3231,
      "±\u0001": 3232,
      "\u0007\u0005": 3233,
      "Éþ": 3234,
      "pþ": 3235,
      "Y\u0000\u0000\u0000\u0000\u0000": 3236,
      "!þ": 3237,
      "\u001aþ": 3238,
      "$H": 3239,
      "\u0014\u0002": 3240,
      "\u0004": 3241,
      "A,": 3242,
      "\u0005": 3243,
      "\u001c\u0002": 3244,
      "xx": 3245,
      "0þ": 3246,
      "L2": 3247,
      "òD\u000f\u0010": 3248,
      "P\u0005": 3249,
      "|(": 3250,
      "P ": 3251,
      "! ": 3252,
      "Ìþ": 3253,
      "\u0006": 3254,
      "u\f": 3255,
      "ø\b": 3256,
      "â\u0003\u0015ª": 3257,
      "0": 3258,
      "\u0003\b": 3259,
      "¿\u0001": 3260,
      "vic": 3261,
      "è\u0002": 3262,
      "<|": 3263,
      "q\u0001": 3264,
      "¤þ": 3265,
      "öü": 3266,
      "N": 3267,
      "Ît": 3268,
      "ºþ": 3269,
      "\u0001\u0000@ùB\u0000\u0001ë\u0001\u0000Ò": 3270,
      "ä\u0001": 3271,
      "±þ": 3272,
      "A¸\u0001\u0000\u0000\u0000": 3273,
      "HÄ": 3274,
      "\u0002": 3275,
      "oþ": 3276,
      "$$": 3277,
      "P": 3278,
      "=þ": 3279,
      "UVW": 3280,
      "<\u0000\u0000\u0000": 3281,
      "ÇG": 3282,
      "«þ": 3283,
      "ép": 3284,
      "X\u0001\u0000\u0000": 3285,
      "\u0010p": 3286,
      "0\n": 3287,
      "HÖ": 3288,
      "D$(": 3289,
      "\u0000\u0002\u0000\u0000": 3290,
      "\u0000\u0000t": 3291,
      "\f\u0014": 3292,
      "J\u0001": 3293,
      "\u0007\u0000°": 3294,
      "ÿ\u000f\u0000\u0000\u0000\u0000\u0000\u0000": 3295,
      "e\u0000s\u0000": 3296,
      "¨*": 3297,
      "þ": 3298,
      "ú÷": 3299,
      "\u0002": 3300,
      "à'": 3301,
      "2 ": 3302,
      ">þ": 3303,
      "u\t": 3304,
      "\u0003": 3305,
      "\u0010\u000f": 3306,
      "A0": 3307,
      "1\u000b": 3308,
      "u\u0000t\u0000": 3309,
      "?\u0000\u0000\u0000\u0000\u0000": 3310,
      "@\u0000\u0000": 3311,
      "ùû": 3312,
      "Ó": 3313,
      "/þ": 3314,
      "8\u0000\u0000": 3315,
      "\u001bþ": 3316,
      "\tý": 3317,
      "þ": 3318,
      "@ð": 3319,
      "\u0018*": 3320,
      "\u0007\u0000Ð": 3321,
      "ÿÿé": 3322,
      "\u0005\u000b": 3323,
      "íí": 3324,
      "ó¤": 3325,
      "ü\u0004": 3326,
      "8þ": 3327,
      "Ø×": 3328,
      "HØ": 3329,
      "C\f": 3330,
      "$\u0002": 3331,
      "HK": 3332,
      "î\u0001": 3333,
      "´þ": 3334,
      "\u001c\u0004": 3335,
      "à+": 3336,
      "Êþ": 3337,
      "kÀ": 3338,
      ".?AV": 3339,
      "E\u0000\u0000\u0000\u0000\u0000": 3340,
      "C\u0004": 3341,
      "Ðý": 3342,
      "H": 3343,
      "õ\u0013@ù": 3344,
      "¬þ": 3345,
      "`8": 3346,
      "HÀu": 3347,
      "E;": 3348,
      "Îþ": 3349,
      "Ïr": 3350,
      "³þ": 3351,
      "þ": 3352,
      "Ëþ": 3353,
      "`\u001e": 3354,
      "Bþ": 3355,
      "\u001fþ": 3356,
      "æý": 3357,
      "\n\u0003": 3358,
      "\u001eú": 3359,
      "þ": 3360,
      "\u0006": 3361,
      ">b": 3362,
      "pè": 3363,
      "ë\f": 3364,
      "­þ": 3365,
      "\u0010h": 3366,
      "E1": 3367,
      "ø÷": 3368,
      "Æ": 3369,
      "à3": 3370,
      "\u0012\u0012": 3371,
      "\u001f\u0000\u0001ë": 3372,
      "µþ": 3373,
      "HK": 3374,
      "ãã": 3375,
      "p ": 3376,
      "\u0017@ù": 3377,
      "\"þ": 3378,
      "ö\u0003\u0000ª": 3379,
      "P\u0000\u0000\u0000": 3380,
      "¡þ": 3381,
      "\u0002*": 3382,
      "@\u0000\u0000T": 3383,
      "H\u0001H": 3384,
      "¦þ": 3385,
      "sy": 3386,
      "u\u0000d\u0000": 3387,
      "f\u000f\u001fD\u0000\u0000": 3388,
      "\u0006\u0000°": 3389,
      "êý": 3390,
      "<": 3391,
      "çý": 3392,
      "\u0000\u0000": 3393,
      "X\u0000\u0000\u0000": 3394,
      "E": 3395,
      "$`": 3396,
      "\u0000\u0000\u0000\u0000A\u000e\u0010": 3397,
      "\u0016\u0000\u0000\u0000": 3398,
      "\u000bp": 3399,
      "is ": 3400,
      "<þ": 3401,
      ",þ": 3402,
      "\u0015þ": 3403,
      "ãý": 3404,
      " \t": 3405,
      "ÿÿ\u0017$\u0003Õ": 3406,
      "K¹": 3407,
      "WHì ": 3408,
      "\u0000\u0000\u0000\u0000a": 3409,
      "\u001eþ": 3410,
      "þ": 3411,
      "\u000b\b": 3412,
      "À!": 3413,
      "Ch": 3414,
      "\u0004\u000f": 3415,
      "þ": 3416,
      "I\u000f": 3417,
      "\u0012\u0003": 3418,
      "+þ": 3419,
      "\u0001\u0000\u0000\u0000\u0000\u0000\u0002\u0000": 3420,
      "Åø\u0010": 3421,
      "\u0002\u0018": 3422,
      " \u0002\u0000": 3423,
      "@z": 3424,
      "áá": 3425,
      "\u0003\u0000ð": 3426,
      ")\u0001": 3427,
      "¥þ": 3428,
      "þ": 3429,
      "nþ": 3430,
      "\fý": 3431,
      "\br": 3432,
      "8\u0001\u0000\u0000": 3433,
      "x": 3434,
      "d\u0000\u0000": 3435,
      "EN": 3436,
      "\u0014\u0003": 3437,
      "\u0005ù": 3438,
      "[a": 3439,
      "\u0010é": 3440,
      "Pþ": 3441,
      "j\u0003": 3442,
      "Ïè": 3443,
      "Ä ": 3444,
      "LÇ": 3445,
      "\u0000\u0000\u0000": 3446,
      "ne": 3447,
      "@0": 3448,
      "@\u0000\u0000\u0000\u0000\u0000": 3449,
      "A\u0000\u0000": 3450,
      "§þ": 3451,
      "\u0005": 3452,
      "u\r": 3453,
      "(þ": 3454,
      "HÿÀ": 3455,
      "\u0006": 3456,
      "\u0010\u0000": 3457,
      "±Å": 3458,
      "·þ": 3459,
      "ûÿ": 3460,
      "E_": 3461,
      "Ld$": 3462,
      "þ": 3463,
      "\u000e\u0018": 3464,
      "ú\u0004": 3465,
      "³ÞW": 3466,
      "\u0010\u0000": 3467,
      "¶þ": 3468,
      "Ç\u0006": 3469,
      "t\r": 3470,
      "\u0003\u0004\u0000\u0000\u0000\u0000\u0000\u0000": 3471,
      "lin": 3472,
      "t\u000b": 3473,
      "+\u0001": 3474,
      "F©": 3475,
      "à": 3476,
      "end": 3477,
      "p\b": 3478,
      "HH": 3479,
      "hþ": 3480,
      "\u0010\n": 3481,
      "@\u0005": 3482,
      "\u0011\u0003": 3483,
      "à\u000e": 3484,
      "¢þ": 3485,
      "ò\u0003": 3486,
      "ý\u0003\u0000óS\u0001©": 3487,
      "por": 3488,
      "1\u0001": 3489,
      "9þ": 3490,
      "H": 3491,
      "\u0003\u0000°": 3492,
      "}Ó": 3493,
      "\u0010\u0010\u0010\u0010\u0010\u0010\u0010\u0010": 3494,
      "h\u0001\u0000\u0000": 3495,
      "8F": 3496,
      "Ö": 3497,
      "ë\u000e": 3498,
      "âý": 3499,
      "Co": 3500,
      "ï¾": 3501,
      "$": 3502,
      "19": 3503,
      "": 3504,
      "\f": 3505,
      "IO": 3506,
      "\u000f\u0000\u0000\u0000\u0000\u0000": 3507,
      "È\u0001": 3508,
      "`\u0000\u0000\u0000\u0000\u0000": 3509,
      "  ": 3510,
      "°\u0001\u0000\u0000": 3511,
      "\u0004\u0000\n": 3512,
      "#þ": 3513,
      "": 3514,
      "%þ": 3515,
      "\u0002\f": 3516,
      "..": 3517,
      "SVW": 3518,
      "ú": 3519,
      "&þ": 3520,
      "á\u0003\u0018ª": 3521,
      "St": 3522,
      "IÎ": 3523,
      "ÿÿÿ": 3524,
      "ö\u0005": 3525,
      "]Â\u0004\u0000": 3526,
      "åý": 3527,
      "D$p": 3528,
      "×": 3529,
      "\u0000\u0001k": 3530,
      "`*": 3531,
      "®þ": 3532,
      "xþ": 3533,
      "áý": 3534,
      "\u0000\u0000\u0000\u0000P": 3535,
      "\u0002\u000f": 3536,
      "$X": 3537,
      "Eü": 3538,
      "£þ": 3539,
      " ": 3540,
      "   ": 3541,
      "\u0010Ç": 3542,
      "Eð": 3543,
      "â\u0001": 3544,
      "\nð": 3545,
      "HÁè": 3546,
      "\u0007\u0006": 3547,
      "\f\r": 3548,
      "\u0007\u0010": 3549,
      "[]A\\": 3550,
      "\u0000\u0000 Ò": 3551,
      "\u0014\u0010": 3552,
      "L7": 3553,
      "}\u0018": 3554,
      "ôü": 3555,
      "Ex": 3556,
      "¹é": 3557,
      "äý": 3558,
      "Q\u0001": 3559,
      "7@ù": 3560,
      "\u001d\u0000\u0000": 3561,
      "@ö": 3562,
      "H\u0007": 3563,
      "Ó": 3564,
      "\u000b\u0003": 3565,
      "à\u0001\u0000\u0000": 3566,
      "ªþ": 3567,
      "43": 3568,
      "A(": 3569,
      "HÆ": 3570,
      "A8": 3571,
      "-þ": 3572,
      "SS": 3573,
      "\n\t": 3574,
      "ó\u0003\u0001ª": 3575,
      "com": 3576,
      "Hè": 3577,
      "zþ": 3578,
      "þ": 3579,
      "|þ": 3580,
      "C\u0000\u0000": 3581,
      "\u0004ñ": 3582,
      "ý": 3583,
      "à\u0003\u001bª": 3584,
      "\b": 3585,
      ")\u0004\u0000\u0000\u0000": 3586,
      "d\u0000\u0000\u0000": 3587,
      "'þ": 3588,
      "þ": 3589,
      "ì\u0001": 3590,
      "@\u0002\u0000\u0000": 3591,
      "t\u0012": 3592,
      "º\u0001": 3593,
      "4þ": 3594,
      "can": 3595,
      ", %": 3596,
      "}þ": 3597,
      ")þ": 3598,
      ")\u0000\u0000": 3599,
      "\n": 3600,
      "þ": 3601,
      "#\u0006": 3602,
      "÷Ø": 3603,
      "I\u0011": 3604,
      "þ": 3605,
      "ue": 3606,
      "t$\u0010": 3607,
      "H\u0005": 3608,
      "~þ": 3609,
      "òü": 3610,
      "\bð": 3611,
      "\t\u0010": 3612,
      "²þ": 3613,
      "@\u0006": 3614,
      "õü": 3615,
      "lþ": 3616,
      "#r": 3617,
      "\b\u0000T": 3618,
      "Dþ": 3619,
      "fD": 3620,
      "jþ": 3621,
      "sþ": 3622,
      "\rý": 3623,
      "\u001e\u0000\u0000\u0000\u0000": 3624,
      "\u0002": 3625,
      "!¸": 3626,
      "\u0011\u0010": 3627,
      " \u0006": 3628,
      "d\u0001": 3629,
      "'\u0000\u0000": 3630,
      ");": 3631,
      "L|$": 3632,
      "C\u000f\u0010": 3633,
      "þ": 3634,
      "Æ\u0005": 3635,
      " \"": 3636,
      "1þ": 3637,
      "'": 3638,
      "ÄÁ|\u0010": 3639,
      "H\u0001": 3640,
      "\u0010ÿ\u000f\u0000\u0000": 3641,
      "û\u0004": 3642,
      "ù\u0004": 3643,
      "Gþ": 3644,
      "\u0004\u0000Ñ": 3645,
      "ÇD$(": 3646,
      "j ": 3647,
      "\u0017\b": 3648,
      "\u0005\u0000\u0005\u0000": 3649,
      "\u0000\u0001\u0000": 3650,
      "\u0000\u0004\u0000\u0011": 3651,
      "I\u0010": 3652,
      "H3Ä": 3653,
      "À\u000f": 3654,
      "l.": 3655,
      "¹þ": 3656,
      "ñü": 3657,
      "\u0019\u0002": 3658,
      "_8": 3659,
      "\u0001": 3660,
      "fff": 3661,
      "G": 3662,
      "*þ": 3663,
      "¢\n": 3664,
      "\u0003": 3665,
      "Lþ": 3666,
      "Ç@": 3667,
      "y\u0010": 3668,
      "þ": 3669,
      "%\u0002": 3670,
      "þ": 3671,
      "þ": 3672,
      "\bë": 3673,
      "þ": 3674,
      "á\u0002": 3675,
      "@\u0000\u0000\u0000\u0000": 3676,
      "\u0005\u000f": 3677,
      "]þ": 3678,
      "e\u0000\u0000\u0000": 3679,
      "b\"": 3680,
      "þ": 3681,
      "þ": 3682,
      "þ": 3683,
      "\u000bý": 3684,
      "_\u00002\u0000": 3685,
      "#\u0002": 3686,
      "\n\u0000ù": 3687,
      "\u0000 ": 3688,
      "E\u0001": 3689,
      "~\u0001": 3690,
      "\u000e\u0002": 3691,
      ",,,,": 3692,
      "\u001b\u0002": 3693,
      "  \u000f": 3694,
      "3þ": 3695,
      "Zþ": 3696,
      "ÌÌÌÌÌÌÌÌÌÌÌÌÌ": 3697,
      "\b\u0000°": 3698,
      "óA\u000f\u0011": 3699,
      "æ\u0001": 3700,
      "\b\u0000Ð": 3701,
      "\f\u0007": 3702,
      "H\u0003": 3703,
      "Q\b": 3704,
      "Ã\u0010": 3705,
      "A_A^A]A\\": 3706,
      "55": 3707,
      "%\u0000\u0000\u0000\u0000": 3708,
      "\u0004": 3709,
      "ÖÕ": 3710,
      "HI\u0018": 3711,
      "F\u0002": 3712,
      "dþ": 3713,
      "÷ý": 3714,
      "9\u0001": 3715,
      "(\u001a": 3716,
      "ø\u0006": 3717,
      ":þ": 3718,
      "\u0000\u0000": 3719,
      "\u0000( \u0002\u0000( \u0002": 3720,
      "É\u0010": 3721,
      "±\u0012": 3722,
      "Eþ": 3723,
      "6þ": 3724,
      "ò\u000fÐ": 3725,
      "\u0000\u0000ë": 3726,
      "\u0001\u0000\u0000\u0000\u0000\u0000\u0000\u0000\u0000\u0000\u0000\u0000": 3727,
      "\"\u0004": 3728,
      "\u0001": 3729,
      "y": 3730,
      "2þ": 3731,
      "R\u0010": 3732,
      "\u0000ÿ\u0015": 3733,
      " b": 3734,
      "Lp": 3735,
      "Xè": 3736,
      "þ": 3737,
      "\u000b": 3738,
      "å\u0001": 3739,
      "\f$": 3740,
      "{": 3741,
      ",\"": 3742,
      "(\u001e": 3743,
      "øù": 3744,
      "þ": 3745,
      "\u0001\u0000\u0000\u0000": 3746,
      "þ": 3747,
      "\u0001\u0000\b": 3748,
      "H": 3749,
      "pr": 3750,
      "í": 3751,
      "&\u0002": 3752,
      " \u0002\u0000\u0000": 3753,
      "þ": 3754,
      "'\u0002": 3755,
      "HD": 3756,
      "þ": 3757,
      "Hì H": 3758,
      "aþ": 3759,
      "bò}H\u0018": 3760,
      "Aö": 3761,
      "P\u0002": 3762,
      "þ": 3763,
      "@¨": 3764,
      "x\u0013": 3765,
      "üõ": 3766,
      "t\b": 3767,
      "yþ": 3768,
      "HD$0": 3769,
      "Mþ": 3770,
      "Bð": 3771,
      "W\u0000i\u0000n\u0000": 3772,
      "y\u000bN": 3773,
      "C0": 3774,
      "òE": 3775,
      "A\f": 3776,
      "\u001fü": 3777,
      ",\u0000\u0000": 3778,
      "mþ": 3779,
      "\u0014\u0004": 3780,
      "|$": 3781,
      "\u0005ü": 3782,
      "get": 3783,
      "wþ": 3784,
      ":%": 3785,
      "Uþ": 3786,
      "B\u0002": 3787,
      "": 3788,
      "vþ": 3789,
      "H\u0018": 3790,
      "à4": 3791,
      "=\u0004": 3792,
      "ó\u000f\u0012": 3793,
      "\u0007ù": 3794,
      "\u0000": 3795,
      "gþ": 3796,
      "Qþ": 3797,
      "C(": 3798,
      "7þ": 3799,
      "H©": 3800,
      "\u0001\u0006\u0002\u0000\u00062": 3801,
      "IÖ": 3802,
      "Wþ": 3803,
      "H ": 3804,
      "ã\u0001": 3805,
      "\r\u0004": 3806,
      "HÇE": 3807,
      "\u0014$": 3808,
      "\u0010\b": 3809,
      "\u0013\u0013": 3810,
      "óü": 3811,
      "ïü": 3812,
      "A#": 3813,
      "_þ": 3814,
      "ë\u0011": 3815,
      "fþ": 3816,
      "ó\u000b\u0000ù": 3817,
      "}": 3818,
      "04": 3819,
      "K\u0001": 3820,
      "Ù": 3821,
      "A": 3822,
      "": 3823,
      "H": 3824,
      "Ñ\u0001": 3825,
      "not ": 3826,
      "`\u0007": 3827,
      "p\u0000\u0000\u0000": 3828,
      "á\u0004": 3829,
      "^þ": 3830,
      "\bé": 3831,
      "Q\u0010": 3832,
      "ßè": 3833,
      "Ýý": 3834,
      "ÿè": 3835,
      "ze": 3836,
      "\u0005": 3837,
      "\u0007ü": 3838,
      " \u0000": 3839,
      "\ný": 3840,
      "\u0001": 3841,
      "@\u0016": 3842,
      "\r\u0010": 3843,
      "\u0000\u0000\u0000\u0002\u0000": 3844,
      "÷\u0002": 3845,
      "ò\u0002": 3846,
      ".þ": 3847,
      "\u001bÀ": 3848,
      ">\u0001": 3849,
      "d\u0000o\u0000w\u0000": 3850,
      "t.": 3851,
      "LM": 3852,
      "RO": 3853,
      "©þ": 3854,
      "þ": 3855,
      "*\u0001": 3856,
      "á\u001f": 3857,
      "\rñ": 3858,
      "C\u0000": 3859,
      "!\u0003": 3860,
      "Rþ": 3861,
      "\u0001\u0000\u0000\u0000è": 3862,
      "": 3863,
      ",\n": 3864,
      "\u0010x": 3865,
      "\u0001": 3866,
      "\u0007è": 3867,
      "ê\u0003": 3868,
      "\u0011\b": 3869,
      "kþ": 3870,
      "Fþ": 3871,
      "\u0000\u0000": 3872,
      "Ã¸": 3873,
      "úù": 3874,
      "à\f": 3875,
      "5þ": 3876,
      "Á@": 3877,
      "|$": 3878,
      "Ð\u0002": 3879,
      "ó\u000f\u0016": 3880,
      "%": 3881,
      "\u0014è": 3882,
      "àxàxàxàx": 3883,
      "D+": 3884,
      "\u0001\u0000@9": 3885,
      "H\u000f¯": 3886,
      "\u0001": 3887,
      "À\u0000Q": 3888,
      "66": 3889,
      "Vþ": 3890,
      "t\u0004": 3891,
      "\u0015\u0015": 3892,
      "\u000eý": 3893,
      "@\u0000\u0000": 3894,
      "ø\u0005": 3895,
      "\u000f\u0002": 3896,
      "ñ\u0003": 3897,
      "\u0004\u0000q": 3898,
      "\u000fÀ": 3899,
      "PE": 3900,
      "\b;": 3901,
      "cþ": 3902,
      " \u0004": 3903,
      "fC": 3904,
      "\u001f\u0004": 3905,
      "\r\u0006": 3906,
      "$\u0000q": 3907,
      "@\u0000\u0000\u0000\u0004\u0002\u0000\"": 3908,
      "": 3909,
      "ßý": 3910,
      "b¢": 3911,
      "\f\b": 3912,
      "\u000bÐ": 3913,
      "\u0000\u0000L": 3914,
      "@": 3915,
      "\f\f\f\f": 3916,
      "ô\u0003\u0001ª": 3917,
      "iþ": 3918,
      "\né": 3919,
      "[þ": 3920,
      "t\u0003": 3921,
      "àü": 3922,
      "2\u0001": 3923,
      "\u0005\u0018": 3924,
      "Ò\u0001": 3925,
      "\u0002": 3926,
      "\u0002\u0000\u0000è": 3927,
      "Nþ": 3928,
      "\u0011r": 3929,
      "$À": 3930,
      "HX": 3931,
      "à\u0013": 3932,
      "s\f": 3933,
      "\u000fZ": 3934,
      "I": 3935,
      "\u0000\u0000\u0010": 3936,
      "\u0003Á": 3937,
      "Jþ": 3938,
      "ââ": 3939,
      "\u0012\u0004": 3940,
      "t\u0013": 3941,
      "\u0007©": 3942,
      "1\u0000": 3943,
      "Sþ": 3944,
      ".\u0001": 3945,
      "n ": 3946,
      "\u0005\t": 3947,
      "14": 3948,
      "ÒÒ": 3949,
      "J\u0010": 3950,
      "Üý": 3951,
      "Iþ": 3952,
      "$\b": 3953,
      "ô\u0002": 3954,
      "²\u0001": 3955,
      "`\u0010": 3956,
      "\u0014ð": 3957,
      "CH": 3958,
      "\u0015\b": 3959,
      "Ëè": 3960,
      "\u0002\u0000´": 3961,
      "\u0002": 3962,
      "\u0000\u0000\u0000ÿ": 3963,
      "\u000e\u0003": 3964,
      "\u0001\u0000`\u0000\"": 3965,
      "=\u0001": 3966,
      "ø\u0007": 3967,
      "@#": 3968,
      "Hø": 3969,
      "`\u0016": 3970,
      "t\u0011": 3971,
      "??": 3972,
      "¸ý": 3973,
      "Uìì": 3974,
      "\u001c\u0003": 3975,
      "üÿ\u0017": 3976,
      "ÃB": 3977,
      "int": 3978,
      "4": 3979,
      "\u0000\u0000\u0001\u0000\u0000": 3980,
      "99": 3981,
      "H\u0001\u0000\u0000": 3982,
      "Ñè": 3983,
      "Äc": 3984,
      "O": 3985,
      "eþ": 3986,
      "&&": 3987,
      "-\u0001": 3988,
      "\u0004\u0000\u0000\u0000\u0000\u0000\u0000\u0000": 3989,
      "Ãþ": 3990,
      "G©": 3991,
      "F ": 3992,
      "Ø\u0001": 3993,
      " ý": 3994,
      "80": 3995,
      "àè": 3996,
      "*": 3997,
      "ý{¿©ý\u0003\u0000": 3998,
      "E\u0010": 3999,
      "ÿt": 4000,
      "ð ": 4001,
      "Áâ": 4002,
      "»": 4003,
      "Kþ": 4004,
      "@\u0007": 4005,
      "rþ": 4006,
      "": 4007,
      "Â\u0001": 4008,
      "Ô\u0001": 4009,
      "øú": 4010,
      "Á\u0002": 4011,
      "\u0014p": 4012,
      "þ": 4013,
      "l_": 4014,
      "\u0005û": 4015,
      "\u0012ý": 4016,
      "\u001dù": 4017,
      "@\"": 4018,
      "0": 4019,
      "bþ": 4020,
      "\u0000\u0000T": 4021,
      "AR": 4022,
      "ää": 4023,
      "/\u0001": 4024,
      "\u0001\u0000": 4025,
      "\u0007": 4026,
      "%%": 4027,
      "Æ": 4028,
      "4\b\u0000": 4029,
      "2": 4030,
      "t$": 4031,
      " r": 4032,
      "\u0000\u0014\u0000\u000e": 4033,
      "ss": 4034,
      "Lt$": 4035,
      "\u0015": 4036,
      "\u0010Ht$\u0018": 4037,
      "Eü": 4038,
      "a\u0000$\u0000": 4039,
      "#\u0000\u0000": 4040,
      "@¬": 4041,
      "\" \u000fG": 4042,
      "Dù": 4043,
      "\bý": 4044,
      "\u0003ª": 4045,
      "Hl$": 4046,
      "\u001e\u001e": 4047,
      "\u0003\u0002*": 4048,
      "6\u0002": 4049,
      "öû": 4050,
      "25": 4051,
      "H)": 4052,
      "PK": 4053,
      "\u0005\u0001\u0000": 4054,
      "\b©": 4055,
      "B": 4056,
      "¿#\u0003ÕÀ\u0003_Ö?#\u0003Õ": 4057,
      "->": 4058,
      "\u0002": 4059,
      "\n\u0010": 4060,
      "\u0000\u00005": 4061,
      "7\u0001": 4062,
      "ty": 4063,
      "\u0013\u0010": 4064,
      "AM": 4065,
      "\u0012\u0010": 4066,
      "@ý": 4067,
      "LÆ": 4068,
      "`\"": 4069,
      "½ý": 4070,
      "\u0002\u0000": 4071,
      "%\u0004": 4072,
      "É\u0001": 4073,
      "d\u0000ddd\u0000dd": 4074,
      "A\u000f\\": 4075,
      "Æý": 4076,
      "ù#": 4077,
      "": 4078,
      "k\u0001": 4079,
      "à\u000b": 4080,
      "HÀø": 4081,
      "Oþ": 4082,
      "Y\u0001": 4083,
      "\u0004ý": 4084,
      "Oð": 4085,
      "á": 4086,
      "ting": 4087,
      "@\u0000 \u0000": 4088,
      "\r": 4089,
      "S": 4090,
      "ÚÙ": 4091,
      "\u001a": 4092,
      " \u0000\u0000T": 4093,
      "Þý": 4094,
      "³\u0001": 4095,
      "\"\u0010": 4096,
      "ßß": 4097,
      "ÍÌL": 4098,
      "f\u000f\\": 4099,
      "K\u0010": 4100,
      "pu": 4101,
      "÷ñ": 4102,
      "\u000f\u0013": 4103,
      "\u0000é": 4104,
      "\u0005\u0005\u0005\u0005": 4105,
      "\u0003 ": 4106,
      "X¸": 4107,
      "f\u000fs": 4108,
      "¨\u0002": 4109,
      "õÿÿ": 4110,
      "PH": 4111,
      "F\f": 4112,
      "@¹\u0000": 4113,
      ",%": 4114,
      "_\u0001": 4115,
      "p\u0007": 4116,
      "@À": 4117,
      "\u000f\b": 4118,
      "e\u0001": 4119,
      "\u0002": 4120,
      "O\b": 4121,
      "\u0017\r": 4122,
      "E": 4123,
      "\f\u0005": 4124,
      "$\u0000\u0000\u0000\u0000": 4125,
      "Àé": 4126,
      "Xý": 4127,
      "y¹": 4128,
      "Ùý": 4129,
      "Àý": 4130,
      "Àu": 4131,
      "A¿": 4132,
      "Ap": 4133,
      "Ûý": 4134,
      ".c": 4135,
      "ÌÌÌÌÌÌÌÌÌ": 4136,
      "Mic": 4137,
      "''": 4138,
      "ü\u001c": 4139,
      "\u0006\u0000Ð": 4140,
      "N\b": 4141,
      "ë\u000f": 4142,
      "L3": 4143,
      "+@ù": 4144,
      "ke": 4145,
      "\u0016ý": 4146,
      "\\\u0001": 4147,
      "ûú": 4148,
      "P\u0003": 4149,
      "\u0002\u00004": 4150,
      "#[a": 4151,
      "ç\u0004": 4152,
      "A]A^": 4153,
      "Úý": 4154,
      "\u0012\u0000\"": 4155,
      "ðH": 4156,
      "¾ý": 4157,
      "3\u0001": 4158,
      "Áý": 4159,
      "\u0002\u0000q": 4160,
      "\u000e0": 4161,
      "ý{Á¨À\u0003_Ö": 4162,
      "\u0013\u0000\u0000\u0000": 4163,
      "ag": 4164,
      "WHì H": 4165,
      "°ý": 4166,
      "ñ\u0007": 4167,
      "z\u0011": 4168,
      "ë\u0010": 4169,
      "!\u0005\u0002\u0000\u0005": 4170,
      "Øè": 4171,
      "\u0001": 4172,
      "¤\u0001": 4173,
      "À\u0007": 4174,
      ">>": 4175,
      "\u0007\u0000": 4176,
      "5\u0001": 4177,
      "LL": 4178,
      "1\u0000\u0000": 4179,
      "\u0001\u0000\u0000H": 4180,
      "ë\u0013": 4181,
      "ù÷": 4182,
      "\u0005": 4183,
      "m ": 4184,
      ".": 4185,
      "ÿÿ\u0017ý{": 4186,
      "\u0006ü": 4187,
      "ð\u0007": 4188,
      "ùk\u0004©": 4189,
      "A@": 4190,
      "ó\u0004": 4191,
      ")\u0000\u0000\u0000": 4192,
      "\u0002": 4193,
      "a\u0003": 4194,
      "@ò": 4195,
      "{þ": 4196,
      "ûÿT": 4197,
      "Ñý": 4198,
      "\rÐ": 4199,
      "ö\u0002": 4200,
      "t\u001e": 4201,
      "kÉ": 4202,
      "\u0000\u0000\u0000\u0000\u0000\u0000\u0000\u0000\u0001\u0000\u0000\u0000": 4203,
      "A": 4204,
      "øg": 4205,
      "â": 4206,
      "fo": 4207,
      "\u000f¶À": 4208,
      "Íý": 4209,
      "\u0004": 4210,
      "\f\u000f": 4211,
      "À": 4212,
      "Cþ": 4213,
      "O\u0010": 4214,
      "´\u0001": 4215,
      "?\u0003": 4216,
      "HÄ0_Ã": 4217,
      "Òý": 4218,
      "à\t": 4219,
      "ø\u0001u": 4220,
      "`E": 4221,
      "¿ý": 4222,
      "": 4223,
      "Õý": 4224,
      "ðü": 4225,
      "or ": 4226,
      "\fü": 4227,
      "\u0000\u0000\u0000f": 4228,
      "\n": 4229,
      "HÆ": 4230,
      "\u0003\u0000Ð": 4231,
      "qþ": 4232,
      "ÐÐ": 4233,
      "À\u0006": 4234,
      "+È": 4235,
      "¹\u0001": 4236,
      "ñ\u0002": 4237,
      "\u0011ý": 4238,
      "Øý": 4239,
      "çç": 4240,
      "ÆEü": 4241,
      "\u0003": 4242,
      "R\u0001": 4243,
      "è": 4244,
      " \u0000=\u0000 \u0000": 4245,
      "\u0000\u0000 ": 4246,
      "¥\u0001": 4247,
      "Q\u0004": 4248,
      "Ïý": 4249,
      "öÃ": 4250,
      "Hï": 4251,
      "LO": 4252,
      "": 4253,
      "H\t": 4254,
      "ØØ": 4255,
      "add": 4256,
      "V5": 4257,
      "\u0005ô": 4258,
      ";\u0001": 4259,
      "E\u000f\\": 4260,
      ":\u0001": 4261,
      "Öý": 4262,
      "\u0012": 4263,
      "fA": 4264,
      "\u0000\u0013ò": 4265,
      "úÿ": 4266,
      "òA\u000f\u0010": 4267,
      "ñ": 4268,
      "â\u0003\u0016ª": 4269,
      "\"\u0003": 4270,
      "HxD": 4271,
      "N\u0001": 4272,
      "\u0001": 4273,
      "\u0004": 4274,
      ">\u0000\u0000": 4275,
      "î\u0003": 4276,
      "^\u0001": 4277,
      "Âý": 4278,
      "Ãè": 4279,
      "u\u000b": 4280,
      "!x": 4281,
      "U": 4282,
      "\n$": 4283,
      "t\u000f": 4284,
      "S\u0001": 4285,
      "\u000eð": 4286,
      "û": 4287,
      "nvnvnvnv": 4288,
      "\u000b\u0010": 4289,
      "ì": 4290,
      "Ìý": 4291,
      "\tü": 4292,
      "H$": 4293,
      "2\u0000\u0000": 4294,
      "\u001c\u001c": 4295,
      "str": 4296,
      "ã\u0004": 4297,
      "ùú": 4298,
      "\u0014ý": 4299,
      "\u0013\b": 4300,
      "B0": 4301,
      "": 4302,
      "D ": 4303,
      "\u001a\u0002": 4304,
      "E3ö": 4305,
      "¼ý": 4306,
      "à/": 4307,
      "\u0003ë": 4308,
      "YY": 4309,
      "\u0000\u0000\u0000\u0001\u0000": 4310,
      "\u001f\u0002": 4311,
      "L$": 4312,
      "\u0001\u0000µ": 4313,
      "1\u0002": 4314,
      "b\u0011": 4315,
      "=%": 4316,
      "\n×": 4317,
      "\u0006\u0000ð": 4318,
      "\u0002": 4319,
      "Äý": 4320,
      "LD$": 4321,
      "fD\u000fY": 4322,
      "\u0013ý": 4323,
      "Ð\u0001\u0000\u0000": 4324,
      "C8": 4325,
      "HÂ": 4326,
      "1": 4327,
      "IS": 4328,
      " \u0006": 4329,
      "¸": 4330,
      "h\u0002": 4331,
      "H\\$0H": 4332,
      "Ôý": 4333,
      "\u0005": 4334,
      "Åû\u0010": 4335,
      "N": 4336,
      "\u0010\u0001\u0000": 4337,
      "if": 4338,
      "ß\u0001": 4339,
      "Óý": 4340,
      "\u000e\b": 4341,
      "17": 4342,
      "B@": 4343,
      "K\b": 4344,
      "$p": 4345,
      "%0": 4346,
      "õ\u0002": 4347,
      "\u001cù": 4348,
      "\u0006\u0005": 4349,
      "\u0000": 4350,
      "PH": 4351,
      "\u0018\u0004": 4352,
      "set": 4353,
      "l ": 4354,
      "ó\u000f~": 4355,
      "à\u0003\u0001ª": 4356,
      "ÜÜ": 4357,
      "\u0001": 4358,
      "Æàx": 4359,
      "WÀ": 4360,
      "\b\u0000ð": 4361,
      "îü": 4362,
      "4 ": 4363,
      "\u000e@ù": 4364,
      "T\u0000o\u0000p\u0000o\u0000": 4365,
      " \f": 4366,
      "Ä": 4367,
      "\u000fð": 4368,
      "@)": 4369,
      ": %": 4370,
      "¨ý": 4371,
      "\u001fD\u0000\u0000": 4372,
      "W\u0010": 4373,
      "bB": 4374,
      "L¼$": 4375,
      ",\u0004": 4376,
      "\u0000\u0000\u0000\u0000\u0001\u0000": 4377,
      "÷ü": 4378,
      "ÿÿ\u0017?#\u0003Õ": 4379,
      "ÌÌÌÌÌÌÌÌÌÌ": 4380,
      "_f": 4381,
      "\t\u0000T": 4382,
      "Û\u0001": 4383,
      " \b": 4384,
      "G\u0004": 4385,
      "\u0001": 4386,
      "á\u0007": 4387,
      "!ü": 4388,
      "ø\u0010": 4389,
      "¯ý": 4390,
      "\u0007\u0000": 4391,
      "çü": 4392,
      "c\u0000\u0002ë\u0002\u0000Ò": 4393,
      "\nÀ": 4394,
      "ù": 4395,
      "\\ý": 4396,
      "þ": 4397,
      "\u0011è": 4398,
      "ý": 4399,
      "\n\f": 4400,
      "H": 4401,
      "ÌÌÌÌH": 4402,
      "RT": 4403,
      "\u001a\u001a": 4404,
      "à\u0007@ù": 4405,
      "\b": 4406,
      "\t\u0000ð": 4407,
      "×ý": 4408,
      "e\u0000d\u0000": 4409,
      "ý{Á¨¿#\u0003Õ": 4410,
      "$\u0003": 4411,
      "Wa": 4412,
      "¿\u0000\u0000¿\u0000\u0000": 4413,
      "\f": 4414,
      " ": 4415,
      "\u0006è": 4416,
      "\u0012ð": 4417,
      "@%": 4418,
      "r\u0000o\u0000": 4419,
      "\t©": 4420,
      "À\u0010": 4421,
      "\u0016": 4422,
      "Ó\u0001": 4423,
      "ôÿÿ": 4424,
      "\u0004ë": 4425,
      "\u0000\u0000 ": 4426,
      "ÿÿÿ\u000f": 4427,
      "\u0003\u0000´": 4428,
      "I\u0000n\u0000t\u0000": 4429,
      "i\u0000o\u0000n\u0000": 4430,
      "t\u0010": 4431,
      "Éý": 4432,
      "\u0004\u0000\u0000\u0000\u0000\u0000": 4433,
      "Tþ": 4434,
      ")\u0002": 4435,
      "V6": 4436,
      "Z\u0001": 4437,
      "°\u0002": 4438,
      "fE\u000fY": 4439,
      "÷\u0003\u0000ª": 4440,
      "ºý": 4441,
      "\u001a\u0000\u001a\u0000": 4442,
      "\u000bü": 4443,
      "\u0014ë": 4444,
      "\u001e\u0001\u0000\u0001\u0000": 4445,
      "\nü": 4446,
      "Ïu": 4447,
      "!F": 4448,
      "Ä ": 4449,
      "L ": 4450,
      "ú\u0006": 4451,
      "13": 4452,
      "\r": 4453,
      "Åü\u0010": 4454,
      "L$@": 4455,
      "{": 4456,
      "IF": 4457,
      "\u0019\u0004": 4458,
      "×è": 4459,
      "sp": 4460,
      "!!": 4461,
      "\u0006*": 4462,
      "âü": 4463,
      "z\u0001": 4464,
      "\u0016\u0003": 4465,
      "à\u0003\u0015*": 4466,
      "Ú\u0001": 4467,
      "15": 4468,
      "ùø": 4469,
      "ý": 4470,
      "\u001a*": 4471,
      "\u0000\u0000\u0000\u0002": 4472,
      "CA": 4473,
      "û\u0007": 4474,
      "\u001dy\u000bN": 4475,
      "S\u0010": 4476,
      "\u0015\u0002": 4477,
      "\u0016\u0002": 4478,
      "P@": 4479,
      "y\u0018": 4480,
      "\u0012": 4481,
      "Hú\u0000\u0010\u0000\u0000r": 4482,
      "##": 4483,
      "\u0010\u0000\u0000\u0001": 4484,
      "l\u0001": 4485,
      "¾\u0001": 4486,
      "\u001c*": 4487,
      "4$": 4488,
      "b1": 4489,
      "}\u0010": 4490,
      "\u000e\u000e\u000e\u000e": 4491,
      "íü": 4492,
      "Q\u0002": 4493,
      "\u0011\u0006": 4494,
      "Yý": 4495,
      "\u0003\u0000R": 4496,
      "\u0000\u0000\u0000": 4497,
      "\r\u0001 \u0007": 4498,
      "\u0004*": 4499,
      "ç\u0002": 4500,
      "Hïè": 4501,
      "!`": 4502,
      "¬ý": 4503,
      "oc": 4504,
      "\u0005$": 4505,
      "Hû": 4506,
      "g\u0001": 4507,
      "\u0018ý": 4508,
      "HM": 4509,
      "Îÿ\u0015": 4510,
      "D$0": 4511,
      "HÄ8": 4512,
      "f\u000fÆ": 4513,
      "<\u0000<\u0000": 4514,
      ")\u0003\u0000\u0000\u0000": 4515,
      "\"\u0000\r\u0000\n\u0000": 4516,
      "ø\u000f": 4517,
      "\u0003r": 4518,
      "*H": 4519,
      "½": 4520,
      "á\u0003\u0000*": 4521,
      "@V": 4522,
      "Þ\u0001": 4523,
      "Ã@\u0000": 4524,
      "u\u000e": 4525,
      "\u0005ò": 4526,
      "~\b": 4527,
      "ì\u0003": 4528,
      "ë\u0015": 4529,
      "J©": 4530,
      "ú\u0007": 4531,
      "Èý": 4532,
      "Îý": 4533,
      "H\t": 4534,
      "°\u0003": 4535,
      "@\bÿ\u0015": 4536,
      "8@": 4537,
      "hè": 4538,
      "ú": 4539,
      "\u001b": 4540,
      "`": 4541,
      "H\u0000\u0000\u0000": 4542,
      "Æ\u0001": 4543,
      "Ì\u0001": 4544,
      "à\n": 4545,
      "D\u000fW": 4546,
      "e\u0000g\u0000": 4547,
      "Çý": 4548,
      "æü": 4549,
      "\rü": 4550,
      "\u0001": 4551,
      "": 4552,
      "49": 4553,
      "éü": 4554,
      "\u0000\u0000\u0001\u0000\u0000\u0000": 4555,
      "9¹": 4556,
      "\u0005\"": 4557,
      "\u0004\u0000Ò": 4558,
      "\u0002\u0000 ": 4559,
      "c\u0001": 4560,
      "û\b": 4561,
      "B\f": 4562,
      "}\u0001": 4563,
      "H$": 4564,
      "\u000fd": 4565,
      "B\u000e\u0018": 4566,
      "Ã\u0001": 4567,
      "\u001e\u0002": 4568,
      "|\u0003": 4569,
      "0": 4570,
      "Ëý": 4571,
      "í#": 4572,
      "!\u0004\u0000": 4573,
      "ôWA©": 4574,
      "AUAT": 4575,
      "Ñ": 4576,
      "Æ@": 4577,
      "Lçè": 4578,
      "\u0015\u0003": 4579,
      "A¾": 4580,
      "\u0017\u0002": 4581,
      "0\u0010": 4582,
      "óA\u000fX": 4583,
      "\t\u0000Ð": 4584,
      "ile": 4585,
      "áü": 4586,
      "\u0018ð": 4587,
      "²ý": 4588,
      "t\u0015": 4589,
      "\"": 4590,
      "<<": 4591,
      "\u0010ý": 4592,
      "\u000fý": 4593,
      "77": 4594,
      "s\u0002": 4595,
      "ò\u000f\\": 4596,
      "\u0017ý": 4597,
      "\u0013\u0003": 4598,
      "H\u0004%": 4599,
      "Îÿ\u0015": 4600,
      "ÿà": 4601,
      "Ý\u0001": 4602,
      "\u0000p": 4603,
      "\u0000`": 4604,
      "\u0019ý": 4605,
      "Â\u0002": 4606,
      "\u0002": 4607,
      "\u000f\u0014": 4608,
      "ãü": 4609,
      "¹": 4610,
      "t$": 4611,
      "\u0001": 4612,
      "bÒ": 4613,
      "í\u0003": 4614,
      "ûù": 4615,
      "HY": 4616,
      "\u0000@9": 4617,
      "\u0001": 4618,
      "18": 4619,
      "ÞÝ\u000e\u0000\u0000\u0000\u0000": 4620,
      "Hþ": 4621,
      " '": 4622,
      "³ý": 4623,
      "D": 4624,
      "val": 4625,
      "L´$": 4626,
      "\u0000\u0000ð": 4627,
      "8\u0004": 4628,
      "\u001b*": 4629,
      "`B": 4630,
      "y\u0001": 4631,
      "\u0015\u0004": 4632,
      "H": 4633,
      "\u0000\u0000T": 4634,
      "\u0012\u0000 ": 4635,
      "@F": 4636,
      "\b\u0000": 4637,
      "W\u0001": 4638,
      "b": 4639,
      "(\u0000¢\n": 4640,
      "\t\n": 4641,
      "SU": 4642,
      "Êý": 4643,
      "H$": 4644,
      "1F": 4645,
      "\u001cý": 4646,
      "Õ\u0001": 4647,
      "ìü": 4648,
      "Mo": 4649,
      "â\u0002": 4650,
      "a\u0000\u0000": 4651,
      "J": 4652,
      "âÃ": 4653,
      "¡\u0001": 4654,
      "\n©": 4655,
      "AÐ;Õ": 4656,
      "ö÷": 4657,
      "â\u001f": 4658,
      "?ý": 4659,
      "¢\u0001": 4660,
      "`\u0002\u0000\u0000": 4661,
      "able": 4662,
      "\u0001": 4663,
      "ÄA|\u0010": 4664,
      "\u0006ª": 4665,
      "59": 4666,
      "H": 4667,
      "`¸": 4668,
      "\u000f\u0010\u0005": 4669,
      "C_": 4670,
      "L\u000f": 4671,
      "/": 4672,
      "s_": 4673,
      "é\u0004": 4674,
      "óD\u000fY": 4675,
      "H\u0002": 4676,
      "he": 4677,
      "¿": 4678,
      "\u0002": 4679,
      ";Ð": 4680,
      "G\u0018": 4681,
      "æ\u0004": 4682,
      "®\u0000\u0000\u0000\u0000\u0000": 4683,
      "ÔÓ": 4684,
      "\u0002": 4685,
      "O\u0001": 4686,
      "\u0003À": 4687,
      "ñÀ\" ": 4688,
      "\u0001\u0000@ùá": 4689,
      "_^]Ã": 4690,
      "f\u000fÖ": 4691,
      "1É": 4692,
      "En": 4693,
      "=ý": 4694,
      "EÐ": 4695,
      "V\u0001": 4696,
      "AD": 4697,
      "_Z": 4698,
      ",00,00": 4699,
      "0ý": 4700,
      "p\u0010": 4701,
      "x\b": 4702,
      "\u0018\b": 4703,
      "t\u0016": 4704,
      "(s": 4705,
      "0\f": 4706,
      "\u0004\u0000ù": 4707,
      "`ý": 4708,
      "\u0002": 4709,
      "Ã@\u0000\u0000": 4710,
      "48": 4711,
      "\u000f\u001f\u0000": 4712,
      ",\u0002": 4713,
      "pro": 4714,
      "HÑ": 4715,
      "õ\u0013\u0000ù": 4716,
      " \f": 4717,
      "Ü\u0001": 4718,
      "`&": 4719,
      "@+": 4720,
      "t\u0001": 4721,
      "\u0000ù\u0001\u0000Ò": 4722,
      "Å\u0001": 4723,
      "V\u0002\u0000": 4724,
      "\u0001": 4725,
      "èû": 4726,
      "MP": 4727,
      "!": 4728,
      "\u0005\f": 4729,
      "ÔÔ": 4730,
      "ë\u0012": 4731,
      "[é": 4732,
      "a\u0004": 4733,
      "ôW\u0001©": 4734,
      " \u001f": 4735,
      "b²": 4736,
      "øñ": 4737,
      "è\u000f": 4738,
      "\u0000\u0000\u0000\u0000\u0000\u0000\u0001\u0000\u0000\u0000": 4739,
      "\u0007ò": 4740,
      "<\u0010": 4741,
      "Ù\u0001": 4742,
      "Pý": 4743,
      "u\u0018": 4744,
      "u\u0003": 4745,
      "em": 4746,
      "¶ý": 4747,
      "\u000f2": 4748,
      "(ý": 4749,
      "¤\u0000\u0000\u0000": 4750,
      "@¼": 4751,
      "1\u0010": 4752,
      "·\u0001": 4753,
      "|\b": 4754,
      "ôû": 4755,
      "ä\u0002": 4756,
      "ù\b": 4757,
      ",q": 4758,
      "IÏè": 4759,
      "~@": 4760,
      "@SHì H": 4761,
      "øH": 4762,
      "@ï": 4763,
      "U\u0001": 4764,
      "Con": 4765,
      "ó\u0002": 4766,
      " \u0005": 4767,
      "Î\u0001": 4768,
      "¦ý": 4769,
      "¤ý": 4770,
      "ý": 4771,
      "Ít": 4772,
      "8\u0002": 4773,
      "\u0018": 4774,
      "´ý": 4775,
      "¨\u0002t": 4776,
      "ó\u000fo": 4777,
      "\u0001": 4778,
      "\u0001": 4779,
      "\u0003\u0000¹": 4780,
      "\u0007": 4781,
      "Is": 4782,
      "FF": 4783,
      "%\u0010": 4784,
      "\u0002\u0000°": 4785,
      "\u001dý": 4786,
      "\u0003ý": 4787,
      "õû": 4788,
      "Ph": 4789,
      "f\u0001": 4790,
      "K{D": 4791,
      "\u0015ý": 4792,
      "ù\u0006": 4793,
      " ": 4794,
      "\u0000\u0000µ": 4795,
      "\u0004!": 4796,
      "I©": 4797,
      "EÀ": 4798,
      "\u0002\u0000\u0000": 4799,
      "8`": 4800,
      "\u0001\u0000\u0000Ô": 4801,
      "z\u0012": 4802,
      "ine": 4803,
      "Hï": 4804,
      "ø\f": 4805,
      "ë\u0014": 4806,
      "Ç\u0002": 4807,
      "1 ": 4808,
      "u\u0011": 4809,
      "L¤$": 4810,
      "\u0005\u000e": 4811,
      "\u001aý": 4812,
      "ý": 4813,
      "k\u0002": 4814,
      "u\u0012": 4815,
      "Ø": 4816,
      "?\u0002": 4817,
      "AÆ": 4818,
      "<\u0002": 4819,
      "G ": 4820,
      "8H": 4821,
      "£\u0001": 4822,
      "?\u0000\u0000ë": 4823,
      "X": 4824,
      "`\u0002@ù": 4825,
      "óA": 4826,
      "\u0000\u0000\n": 4827,
      "z\u0016": 4828,
      "­ý": 4829,
      "à\u0010": 4830,
      "ê\u0002": 4831,
      "_è": 4832,
      "\u0010ÿÖ": 4833,
      "ì ": 4834,
      "4": 4835,
      "I": 4836,
      "\r\u0018": 4837,
      "\u001fS": 4838,
      "ùÿ": 4839,
      "ËF": 4840,
      "0": 4841,
      "\t": 4842,
      "éû": 4843,
      "lp": 4844,
      "¿\u0002": 4845,
      "\r\t": 4846,
      "£ý": 4847,
      "WW": 4848,
      "\u0000\u0000!\u0001": 4849,
      "\u0005r": 4850,
      "\u000f\u0003": 4851,
      "t\u0017": 4852,
      "Óè": 4853,
      "Ll$": 4854,
      "tþ": 4855,
      "\u0019": 4856,
      "uþ": 4857,
      "»ý": 4858,
      "\u0015\u0000\u0000\u0000": 4859,
      "\u0019\u0019": 4860,
      "86": 4861,
      "äü": 4862,
      "(\u0004": 4863,
      "f9": 4864,
      "i\u0001": 4865,
      "E\u0000_\u0000": 4866,
      "Èè": 4867,
      "\u0003": 4868,
      "¶\u0001": 4869,
      "@\u000f": 4870,
      "\u0017\u0004": 4871,
      "ý": 4872,
      "AF": 4873,
      "¥ý": 4874,
      "x\u0001\u0000\u0000": 4875,
      "\u0001": 4876,
      "\u0011\u0000\u0000\u0000\u0000\u0000": 4877,
      "à\u0003\u001cª": 4878,
      "l$": 4879,
      "¢ý": 4880,
      "§ý": 4881,
      "\u00140": 4882,
      "No": 4883,
      "r\u0000e\u0000": 4884,
      "\u0002\u0000Ð": 4885,
      "H;\u0005": 4886,
      "ú\u0005": 4887,
      ";ý": 4888,
      "¹ý": 4889,
      "ï\u0002": 4890,
      "hb": 4891,
      "\u0003": 4892,
      "oý": 4893,
      "\n\u0000\n\u0000": 4894,
      "â ": 4895,
      "À\"": 4896,
      "&\u0000\u0000": 4897,
      "\u0013ð": 4898,
      "\u001d\u0002": 4899,
      "\u001c": 4900,
      "A)": 4901,
      "s\u0001": 4902,
      ":": 4903,
      "\r\u0005": 4904,
      ">ý": 4905,
      "µý": 4906,
      "J\u0004": 4907,
      "A": 4908,
      "er ": 4909,
      "r\u0001": 4910,
      "®ý": 4911,
      "\u0018\u0010": 4912,
      "»\u0001": 4913,
      "H": 4914,
      "H": 4915,
      "Ê\u0001": 4916,
      "H(": 4917,
      "$\u0004": 4918,
      "¸\u0005": 4919,
      "ð\u0001\u0000\u0000": 4920,
      "$": 4921,
      "\u000b\u0005": 4922,
      ")F": 4923,
      "\u0000\u0000\b\u0000\u0000\u0000\u0000\u0000\u0000\u0000\u0000\u0000": 4924,
      "\u0011ü": 4925,
      "ST": 4926,
      "<\u0003": 4927,
      "%u": 4928,
      "@\u001a": 4929,
      "f\u0002": 4930,
      "\u0011\f": 4931,
      "sc": 4932,
      "\u000eü": 4933,
      "L$": 4934,
      "ëü": 4935,
      "óÿÿ": 4936,
      "{\u0001": 4937,
      "b": 4938,
      "\u0002\u00005": 4939,
      "\u001d\u001d": 4940,
      "½\u0001": 4941,
      "@ú": 4942,
      "/ý": 4943,
      "!ø": 4944,
      ">\u0002": 4945,
      "u\u0001": 4946,
      "ý": 4947,
      "/\u0000\u0000": 4948,
      "õ\u0003\u0001ª": 4949,
      " \u0007": 4950,
      "ý": 4951,
      "Óà": 4952,
      "óû": 4953,
      "AVHì": 4954,
      "Ø\b": 4955,
      "«\u0001": 4956,
      "À\u000f": 4957,
      "A-": 4958,
      "HÞ": 4959,
      "\u0017\u0017\u0017\u0017": 4960,
      "«ý": 4961,
      "L$P": 4962,
      "\t\u0000": 4963,
      "ïû": 4964,
      "\n\u0000T": 4965,
      "t\u0014": 4966,
      "@\u0000\u0000\u0000@": 4967,
      "\u0000\u0000\u0000\u0000ÿÿÿÿ": 4968,
      "3È": 4969,
      "\u0007\n": 4970,
      "\u0004\u0003": 4971,
      ",\u0001\u0000\u0000": 4972,
      "*\u0004": 4973,
      "]\u0001": 4974,
      "\u00062": 4975,
      "Ç\u0003": 4976,
      "\u001bý": 4977,
      "40": 4978,
      "ô\u0004": 4979,
      "\"": 4980,
      "u\u0015": 4981,
      "Lç": 4982,
      "Ï\u0001": 4983,
      "øò": 4984,
      "\u0003\u0004ª": 4985,
      "ñè": 4986,
      "\u0001": 4987,
      "ªý": 4988,
      "ø": 4989,
      "\u000fWÉ": 4990,
      "¬\u0001": 4991,
      "!": 4992,
      "êü": 4993,
      "\u0019x": 4994,
      "pý": 4995,
      "à!": 4996,
      "\u0015ð": 4997,
      "Ã\u0000": 4998,
      "Ö\u0001": 4999,
      "ñû": 5000,
      "\u000f": 5001,
      "À=": 5002,
      "\u0006ò": 5003,
      "¡ý": 5004,
      "\u0001\u0000\u0002\u0000": 5005,
      "±ý": 5006,
      "HO": 5007,
      "$": 5008,
      "Æ": 5009,
      "·ý": 5010,
      "ÿ?": 5011,
      "¼\u0001": 5012,
      "ow": 5013,
      "gn": 5014,
      "Åè": 5015,
      "_P": 5016,
      "\u0000\u0000°": 5017,
      "P\u0018": 5018,
      "7\f": 5019,
      "\u0013": 5020,
      "H\\$@": 5021,
      "õ÷": 5022,
      "$r": 5023,
      " \u000f": 5024,
      "WRIT": 5025,
      "\u0004\f": 5026,
      "\u001f": 5027,
      "(\u0003": 5028,
      "åü": 5029,
      "\u0003": 5030,
      "(": 5031,
      "d_": 5032,
      "L5": 5033,
      "`!": 5034,
      "î\u0002": 5035,
      "@SH": 5036,
      "N\u0010": 5037,
      "BÀ": 5038,
      "\u001f\b": 5039,
      "\u0005\u0014": 5040,
      "½": 5041,
      ".s": 5042,
      "\u001f\u0000\u0000ñ": 5043,
      "ing ": 5044,
      "j\b": 5045,
      "ace": 5046,
      "Ä\u0010": 5047,
      "h\u0000\u0000\u0000": 5048,
      "Ê": 5049,
      "@\u001c": 5050,
      "\u0006\u000b": 5051,
      "ú\b": 5052,
      "E\u0002": 5053,
      "\u0000\u0000\u0000": 5054,
      "\u0004À": 5055,
      "$ý": 5056,
      "\u001fý": 5057,
      "Ày": 5058,
      "Ä\u0003": 5059,
      "+ý": 5060,
      "øó": 5061,
      "èü": 5062,
      "\u0001\u0000\u0000": 5063,
      "M9": 5064,
      "­\u0001": 5065,
      " \u0018": 5066,
      "\"\u0000R": 5067,
      "qu": 5068,
      " À": 5069,
      "ý": 5070,
      "\u0013": 5071,
      "45": 5072,
      "AÀ": 5073,
      "\tò": 5074,
      "ã\u000f": 5075,
      "sý": 5076,
      " !": 5077,
      "\u0014\b": 5078,
      "<ý": 5079,
      "`0": 5080,
      "Ñø": 5081,
      "Ç\u0004": 5082,
      "4\u0002": 5083,
      "fÇE": 5084,
      "\u0013\u0000Ò": 5085,
      "?\u0000\u0000k": 5086,
      "J\b": 5087,
      "fa": 5088,
      "I\u0018": 5089,
      "ö\u0007": 5090,
      "": 5091,
      "\r\nHK": 5092,
      " ý": 5093,
      "t(": 5094,
      "à\u001b": 5095,
      "?ô": 5096,
      "\u0002\u0000ð": 5097,
      "õ\u0003\u0000*": 5098,
      "\u0005ª": 5099,
      "ý": 5100,
      "ÿÿÿè": 5101,
      "D3": 5102,
      "§\u0001": 5103,
      "ý": 5104,
      "\u001fø": 5105,
      "23": 5106,
      "ò\u000f\u0012": 5107,
      "ã\u0002": 5108,
      "\u0004ª": 5109,
      "ïîîïîîïîîïîî": 5110,
      "4ý": 5111,
      "\u0000\u0000L": 5112,
      "¦\u0001": 5113,
      "\u0000\u0000\u0000\u0000\u0000!\u0001\u0000": 5114,
      "Àx": 5115,
      "A\u001c": 5116,
      "\t\u0000°": 5117,
      "\u0004": 5118,
      "a\u0000n\u0000": 5119,
      " \u0003\u0000\u0000": 5120,
      "\u0000\u0000\u0000\u0000\u0002": 5121,
      "\u0001\u0000\u0016": 5122,
      "\u000bÁ": 5123,
      "' ": 5124,
      "Dý": 5125,
      "¡\u0000\u0000T": 5126,
      "\u0004\u0004\u0000\u0000\u0000\u0000\u0000\u0000": 5127,
      "))": 5128,
      "%ý": 5129,
      "\u0011\t": 5130,
      "I": 5131,
      "$h": 5132,
      "Í\u0001": 5133,
      "D\u000f\\": 5134,
      "Ë\u0001": 5135,
      "ë\u0016": 5136,
      "`@": 5137,
      "t\u0019": 5138,
      "ect": 5139,
      "_ø": 5140,
      "ý": 5141,
      "u\u000f": 5142,
      "½": 5143,
      "\u0000\u0000\u0000!\u0001": 5144,
      "ÚÚ": 5145,
      " \u0002\u0000\u0000": 5146,
      "Aý": 5147,
      "v\u0001": 5148,
      "\f\n": 5149,
      "AE": 5150,
      "à\u0001": 5151,
      "\u0006": 5152,
      "ÿ`": 5153,
      "¹©": 5154,
      "\u0010\u0002\u0000\u0000": 5155,
      "µ\u0001": 5156,
      "ó\u0007": 5157,
      "\\$0": 5158,
      "#\u0004": 5159,
      "á\u0003\u0019ª": 5160,
      "âÂ": 5161,
      "\u0017\u0003": 5162,
      "#ý": 5163,
      "ì H": 5164,
      "ý": 5165,
      "0\r": 5166,
      "hý": 5167,
      "": 5168,
      "x\u0004": 5169,
      "pl": 5170,
      "mm": 5171,
      "\u0013ë": 5172,
      "\u001d\u0003": 5173,
      "\u0000\u0000\u0000\u0000\u0001\u0000\u0001\u0000": 5174,
      "Ð\u0004": 5175,
      "cl": 5176,
      "\u0001\u0000\u0000": 5177,
      "\u0006": 5178,
      "nt": 5179,
      "\u001b\u001b": 5180,
      "H\u000fD": 5181,
      "ý": 5182,
      "F\u0018": 5183,
      "\u00054": 5184,
      "òû": 5185,
      "\u0012ü": 5186,
      "ø\u0002": 5187,
      "\u0010P": 5188,
      "!": 5189,
      " è": 5190,
      "`H": 5191,
      "Û": 5192,
      "": 5193,
      "-": 5194,
      "ÏÿÖ": 5195,
      "Bü": 5196,
      "ï¾­Þ": 5197,
      "+": 5198,
      "Gý": 5199,
      "ý": 5200,
      "are": 5201,
      ";ð": 5202,
      "ÖÖ": 5203,
      "ÞÞ": 5204,
      "ý": 5205,
      "í\u0002": 5206,
      ">": 5207,
      "L$": 5208,
      "\u0006r": 5209,
      "%r": 5210,
      "\nÝÞ": 5211,
      "÷û": 5212,
      "³ÞW#[a": 5213,
      "¸\u0003": 5214,
      "ý": 5215,
      "\u001e": 5216,
      ".\u0000\u0000": 5217,
      "Ùè": 5218,
      "-ý": 5219,
      "Æé": 5220,
      "x\u0018": 5221,
      "HC": 5222,
      "øð": 5223,
      "\u001a0": 5224,
      "Lt$": 5225,
      "IÏ": 5226,
      "ÃÌÌÌÌÌÌÌÌÌÌÌÌ": 5227,
      "IÇ": 5228,
      "ý": 5229,
      "ý": 5230,
      "\u0001\u0000è": 5231,
      "H": 5232,
      "\f": 5233,
      "\u0006û": 5234,
      "½èð": 5235,
      "6\u0003": 5236,
      "\u001eý": 5237,
      "ù\u0007": 5238,
      "`\u0000\u0000T": 5239,
      "t\u001a": 5240,
      "\u000f\u0004": 5241,
      ",ý": 5242,
      "|$0": 5243,
      "AVAWHì": 5244,
      "  ": 5245,
      "!ý": 5246,
      "\u0011\u0005": 5247,
      "Ø\u0002": 5248,
      "\u0003": 5249,
      "¡\u0013@Ñ": 5250,
      "~ý": 5251,
      ".ý": 5252,
      "t\u0000e\u0000": 5253,
      "": 5254,
      ";\u0000\u0000": 5255,
      "ý": 5256,
      "ud": 5257,
      "ù\u0005": 5258,
      "=": 5259,
      "¡\u0002": 5260,
      "\u0007à": 5261,
      "\u0019": 5262,
      "\u0004\u0003": 5263,
      "ý": 5264,
      "ó\u000f\u001eú": 5265,
      "03": 5266,
      "%\u0004\u0000\u0000\u0000\u0000": 5267,
      "W ": 5268,
      ";Â": 5269,
      "'ý": 5270,
      "0\u0000\u0000\u0000H": 5271,
      "\u0016ë": 5272,
      "vý": 5273,
      "(": 5274,
      "@\u0004\u0000": 5275,
      "ý": 5276,
      "\u0006\u0000q": 5277,
      "A\u0000M\u0000": 5278,
      "SP": 5279,
      "t2": 5280,
      "ÿÿµ": 5281,
      "°,": 5282,
      "EX": 5283,
      "ÜÛ": 5284,
      "u\u0014": 5285,
      "\u0010\"": 5286,
      "&": 5287,
      "\u0011ð": 5288,
      "s\n": 5289,
      "e": 5290,
      "Ò ": 5291,
      "t\"": 5292,
      "ú?": 5293,
      "t\u001b": 5294,
      "[\u0000\u0000": 5295,
      "»": 5296,
      "HÚ": 5297,
      "E3ä": 5298,
      "0": 5299,
      "\u0006F": 5300,
      "\u000bò": 5301,
      "øö": 5302,
      "K\u0000S\u0000": 5303,
      "\u0000\u0018": 5304,
      "ý": 5305,
      "ûsE©": 5306,
      "0\u0002\u0000\u0000": 5307,
      "HËH": 5308,
      "D\u0002": 5309,
      "û": 5310,
      "v\b": 5311,
      "Oô": 5312,
      "": 5313,
      "&ý": 5314,
      "SV": 5315,
      "ý": 5316,
      " !": 5317,
      "\u000bè": 5318,
      "PU": 5319,
      ">\u0004": 5320,
      "\u0006\u0000\u0006\u0000": 5321,
      "^[": 5322,
      "\u0003\u0000\u0000è": 5323,
      "Lý": 5324,
      "\u000eè": 5325,
      "b\u0012": 5326,
      "\u0000@D": 5327,
      "t\u0018": 5328,
      "L½": 5329,
      "EL": 5330,
      "ÏpÀ": 5331,
      "\u0013": 5332,
      "and": 5333,
      "Á\u0010": 5334,
      "×\u0001": 5335,
      ";ø": 5336,
      "Ð\u0007": 5337,
      "@p": 5338,
      "\u0000\u0000\u0003": 5339,
      "¨\u0001\u0000\u0000": 5340,
      ")ý": 5341,
      "\b\u0007": 5342,
      "A": 5343,
      "vi": 5344,
      "HIø": 5345,
      "a\u0000\u0000T": 5346,
      "\u0005": 5347,
      "1\u000b0\t": 5348,
      "\u0001": 5349,
      "ý": 5350,
      "Name": 5351,
      "Læ": 5352,
      "ý": 5353,
      ",\u0000\u0004\u0000@D": 5354,
      "\u0012x": 5355,
      "\"ý": 5356,
      ")\u0004": 5357,
      "\u0000\u0000\u0000H": 5358,
      " \n": 5359,
      " ü": 5360,
      "ã\u0003\u0000ª": 5361,
      "vice": 5362,
      "\u0005\u0000\u0000\u0000\u0000\u0000": 5363,
      "Ãý": 5364,
      "óE\u000f\u0012": 5365,
      "I\u000f¯": 5366,
      "]é": 5367,
      "àxñÀ\" \u000f\bÀ": 5368,
      "art": 5369,
      "\u001f\u001f": 5370,
      "@,": 5371,
      "õ\u0007": 5372,
      "\rò": 5373,
      "_\u0000D\u0000": 5374,
      "~\u0016": 5375,
      "D$ è": 5376,
      "\u0010\u0000q": 5377,
      "\u0001\u0000°": 5378,
      "¼\u0000\u0000\u0000": 5379,
      "ð": 5380,
      "#\u0003": 5381,
      "Â\u0003": 5382,
      "P\u0002\u0000\u0000": 5383,
      "8 ": 5384,
      "\u0004\t": 5385,
      "(\u0000q": 5386,
      "\u000f\bÀ": 5387,
      "}\b": 5388,
      "Ð\u0006": 5389,
      "H\\$\bHl$": 5390,
      "å\u0002": 5391,
      "ý": 5392,
      "¾": 5393,
      "\u0000\u0000\u0000": 5394,
      "3Á": 5395,
      "þý": 5396,
      "_\u00004\u0000": 5397,
      "\u0000\u0000@¹": 5398,
      "D\u0004": 5399,
      "Th": 5400,
      "fE\u000fX": 5401,
      "</": 5402,
      "\u0000\u0000`": 5403,
      "@­": 5404,
      "?": 5405,
      "L\u0000\u0000\u0000": 5406,
      "Fr": 5407,
      "â\u0007": 5408,
      "Rè": 5409,
      "2ý": 5410,
      "\u0000\u0000(": 5411,
      "HD$8": 5412,
      "8ý": 5413,
      "0\b": 5414,
      "|\u0002": 5415,
      "+\u0006\u0001\u0004": 5416,
      "Sý": 5417,
      "Hi": 5418,
      "ÿÀ": 5419,
      "\u0000ÿ¿": 5420,
      "÷\r": 5421,
      "\u001b\u0003": 5422,
      "á?": 5423,
      "w\u0001": 5424,
      "Â\u0000\u0000": 5425,
      "\u0019\u0003": 5426,
      "úø": 5427,
      " ": 5428,
      "¨\u0003": 5429,
      "3ý": 5430,
      "\u0003": 5431,
      "Á\b": 5432,
      " -": 5433,
      "t!": 5434,
      "@ ": 5435,
      "E\u0000\u0000": 5436,
      "I\b": 5437,
      "ø": 5438,
      "óE\u000f\u0016": 5439,
      "fA\u000fY": 5440,
      "Ê\"": 5441,
      "0\u0014": 5442,
      "W\u0000i\u0000n\u0000d\u0000o\u0000w\u0000": 5443,
      "HÉ\u000f": 5444,
      "\u0004l": 5445,
      "\u000f[À": 5446,
      "À<": 5447,
      "\u001c$": 5448,
      "\u0006\u0005": 5449,
      "s\u0006\u0000": 5450,
      "\u000fÐ": 5451,
      "ÍÌÌ": 5452,
      "­p": 5453,
      "Á\u0003": 5454,
      "Ñ\u0003": 5455,
      "|ý": 5456,
      "AWAV": 5457,
      "V\u0002": 5458,
      "av": 5459,
      "A_Ã": 5460,
      "\u0005\u0012": 5461,
      "ý{Ä¨": 5462,
      "V8": 5463,
      "\u0000\u0000": 5464,
      "\np": 5465,
      "\u0000!\u0001": 5466,
      "}ý": 5467,
      "°\u0000\u0000": 5468,
      "ñ?": 5469,
      "++": 5470,
      "=\u0002": 5471,
      "ö\u0004": 5472,
      "\f\u000b": 5473,
      "K0": 5474,
      "Rý": 5475,
      "\u0002": 5476,
      "\u0017": 5477,
      "É": 5478,
      "Hÿ": 5479,
      "D\u000e": 5480,
      "a\u0000l\u0000": 5481,
      "'t ": 5482,
      "\u0014": 5483,
      "ì\u0002": 5484,
      "\nè": 5485,
      "á#": 5486,
      "\u0006ô": 5487,
      "AN": 5488,
      "b\u0003": 5489,
      "ö±": 5490,
      "xý": 5491,
      "\u0001\u0000`": 5492,
      "\f": 5493,
      "µ\u0002": 5494,
      "æ\u0002": 5495,
      "\u0005*": 5496,
      "\r\u000b": 5497,
      " *": 5498,
      "\u0005!": 5499,
      "H¨": 5500,
      "\u0001\u0000\u0002": 5501,
      "t\u001c": 5502,
      "fA\u000fX": 5503,
      "ó÷": 5504,
      "Ð\u0000\u0000": 5505,
      "\u0007": 5506,
      "b\u0000\u0000": 5507,
      "Bý": 5508,
      "\u001f8": 5509,
      "D$ ": 5510,
      "HH": 5511,
      "\bW": 5512,
      "\u0015\u0010": 5513,
      "1ý": 5514,
      "x\u0002": 5515,
      "\u0007û": 5516,
      "õú": 5517,
      "\u0000\u0000\u0000\u0000\u0001\u0000\u0000": 5518,
      "\u0006H": 5519,
      "y\u0011": 5520,
      "¿": 5521,
      "\n": 5522,
      "@¶": 5523,
      "?ü": 5524,
      "\u0007\t": 5525,
      "38": 5526,
      "\u0000ÿ\u0000": 5527,
      "h\u001e": 5528,
      "Ðü": 5529,
      "ATAUAVAW": 5530,
      "ý": 5531,
      "N\u0004": 5532,
      "\u0001": 5533,
      "5ý": 5534,
      "¸\u0002": 5535,
      "\u0007\u0000\u0011": 5536,
      "òñ": 5537,
      "\u0001\u0000": 5538,
      "@¦": 5539,
      "po": 5540,
      "\u0014ü": 5541,
      "ô÷": 5542,
      "|I\u0011": 5543,
      "¡\u0003": 5544,
      "¹\u0001\u0000\u0000\u0000": 5545,
      "Eø": 5546,
      "\u001f\b\u0000q": 5547,
      "lý": 5548,
      "*ý": 5549,
      "\u000b\u0000T": 5550,
      "ðû": 5551,
      "îÿÿ": 5552,
      "\u0001\u0001\u0001\u0001\u0001\u0001\u0001\u0001": 5553,
      "\u000f": 5554,
      "9ý": 5555,
      "^ý": 5556,
      "\u0005\u0013": 5557,
      "ý": 5558,
      "*À": 5559,
      "öú": 5560,
      "F\u0003": 5561,
      "\u0014": 5562,
      ".0": 5563,
      "ý": 5564,
      "yý": 5565,
      "\b\u000f": 5566,
      "}o": 5567,
      "\u0001\u0000ð": 5568,
      "\u001a\u0003": 5569,
      "I\u0004": 5570,
      "a\u0000r\u0000": 5571,
      "fD": 5572,
      "gro": 5573,
      "\fÀ": 5574,
      "\u0003": 5575,
      "#\u0010": 5576,
      "u\u0017": 5577,
      "ú": 5578,
      "]ý": 5579,
      "\u0016\u0016": 5580,
      "\u0001\u000b": 5581,
      "\u0004\u0000\u0000H": 5582,
      "y\u0000\u0000\u0000": 5583,
      "\u0002\u0000\u0001\u0000": 5584,
      "C\u0000\u0000\u0000": 5585,
      "\b": 5586,
      "\u0003": 5587,
      "J": 5588,
      "\t\u0004": 5589,
      "v\u0003": 5590,
      "â\u0005": 5591,
      "\u0013\n": 5592,
      "ho": 5593,
      "÷Ù": 5594,
      "\u001d\u0012": 5595,
      "Åô": 5596,
      "È\u000f": 5597,
      "á\u0003\u001aª": 5598,
      "\u0019\u0000\u0000\u0000": 5599,
      "\"À": 5600,
      "\u000b©": 5601,
      "ò?": 5602,
      "^è": 5603,
      "Lq": 5604,
      "ÁA": 5605,
      "\b\t": 5606,
      "P0": 5607,
      "òF": 5608,
      "< ": 5609,
      "V7": 5610,
      "á\u0017": 5611,
      "im": 5612,
      " À": 5613,
      "wý": 5614,
      "÷?": 5615,
      "\u000f\u000f\u000f\u000f\u000f\u000f\u000f\u000f": 5616,
      "ø\u000b": 5617,
      "mý": 5618,
      "Aü": 5619,
      "àc": 5620,
      "K\u0002": 5621,
      "\u0006\u0000\u0000\u0000\u0000": 5622,
      "Oð\u0000": 5623,
      "iý": 5624,
      "m\u0001": 5625,
      "Æ\u0004": 5626,
      "\u00000": 5627,
      "aý": 5628,
      "\u0002": 5629,
      "\bü": 5630,
      "ÿ\u0001": 5631,
      "è": 5632,
      "\u0002": 5633,
      "HF": 5634,
      "ð\u0004": 5635,
      "öù": 5636,
      "AÀ": 5637,
      "\u001f\u0004@": 5638,
      "C\u0000o\u0000": 5639,
      "\u0011\u000f": 5640,
      "HC": 5641,
      "L÷": 5642,
      "*\u0000\u0000": 5643,
      ".p": 5644,
      "t\u001d": 5645,
      "\u0006\u000f": 5646,
      "\u0007\u0000\u0007\u0000": 5647,
      "'@ù": 5648,
      "o\u0001": 5649,
      "Ã": 5650,
      "\n¸": 5651,
      "\u0005x": 5652,
      "\u0013\u0007": 5653,
      "%\u0003": 5654,
      "Q": 5655,
      "øõ": 5656,
      "a\u001a": 5657,
      "j\u0010": 5658,
      "T ": 5659,
      "B\u000f": 5660,
      "n\u0001": 5661,
      "ÆC": 5662,
      "îè": 5663,
      "í±": 5664,
      "bÂ": 5665,
      "h\u0010": 5666,
      "UH": 5667,
      "ïÿÿ": 5668,
      "P(": 5669,
      "_ý": 5670,
      "ø?": 5671,
      "_T": 5672,
      ";;": 5673,
      "I ": 5674,
      "!8": 5675,
      ">": 5676,
      "¬\u0000\u0000\u0000": 5677,
      "zý": 5678,
      "L$`": 5679,
      "H": 5680,
      "\u0004": 5681,
      "Mý": 5682,
      "v\u0005": 5683,
      "©q": 5684,
      "fý": 5685,
      "àã": 5686,
      "\b\u0007": 5687,
      "óô": 5688,
      "\u0001\u0004\u0001\u0000\u0004": 5689,
      ":ý": 5690,
      "eý": 5691,
      "÷cC©ùkD©": 5692,
      "\u0000\u0000\u0000\u0000è": 5693,
      "\u000fÀ": 5694,
      "p\u0002\u0000\u0000": 5695,
      "\b\u0000\u0000\u0000\u0000": 5696,
      "Zý": 5697,
      "ö\u000f": 5698,
      "9": 5699,
      "à\u0014": 5700,
      "\u001e\u0002\u0000\u0002\u0000": 5701,
      "v\u0007": 5702,
      "\u0016ü": 5703,
      "Ld$": 5704,
      "cý": 5705,
      "\u0000P": 5706,
      "\u0001\u0000 Ò": 5707,
      "_D": 5708,
      "K©": 5709,
      "Hí": 5710,
      "06": 5711,
      "Á\u001c": 5712,
      "rý": 5713,
      ",À": 5714,
      "ÅÜ": 5715,
      "ò÷": 5716,
      "ðé": 5717,
      "½ü": 5718,
      "ÏÏ": 5719,
      "L": 5720,
      "\u0000\u0000\u0000 ": 5721,
      "HO": 5722,
      "_^[Ã": 5723,
      "Ó": 5724,
      "\b@\u0000": 5725,
      "î#": 5726,
      "}H\u0004": 5727,
      "¯\u0001": 5728,
      "Wý": 5729,
      "ù?": 5730,
      "@": 5731,
      "Qý": 5732,
      "C\u0002": 5733,
      "\u001c": 5734,
      "HÀøHø\u001f": 5735,
      "Á": 5736,
      "\b\u0005": 5737,
      "9\u0003": 5738,
      "\u0010A": 5739,
      "\u0011 ": 5740,
      "H": 5741,
      "\u0011\u0014": 5742,
      "I\u0002": 5743,
      "\u000b\t": 5744,
      "D\u0000H\u0000": 5745,
      "Hÿ%": 5746,
      "\u0011\n": 5747,
      "\u0007ª": 5748,
      "": 5749,
      "ë\u0017": 5750,
      "Eà": 5751,
      "dý": 5752,
      "ý": 5753,
      "\u000f(Æ": 5754,
      "XX": 5755,
      "\u0006\f": 5756,
      "4\u0003": 5757,
      "Á": 5758,
      "&\u0000\u0000\u0000": 5759,
      "Eý": 5760,
      "H¬": 5761,
      "ù\u0010": 5762,
      "\u0001": 5763,
      "Å\u0004": 5764,
      "\u0000\u0004\u0000Q": 5765,
      "ÿÿ5": 5766,
      "gi": 5767,
      "L¬$": 5768,
      "\rû": 5769,
      "I×": 5770,
      "Mü": 5771,
      "07": 5772,
      "@": 5773,
      "@A": 5774,
      "fD\u000fX": 5775,
      "jý": 5776,
      "àû": 5777,
      "X\u0002": 5778,
      "\u001a": 5779,
      "@&": 5780,
      "Fý": 5781,
      "L¼$": 5782,
      "Iø": 5783,
      "K ": 5784,
      "ø\t": 5785,
      "+\u0002": 5786,
      "I0": 5787,
      " \u0000=\u0000 \u0000\"\u0000": 5788,
      "all": 5789,
      "\u0015": 5790,
      "\u0000Ø": 5791,
      "¾": 5792,
      "L\u000f¯": 5793,
      "\u0010": 5794,
      "\u0019\b": 5795,
      "\u001a\u0004": 5796,
      "\u0006 ": 5797,
      "$\u0007": 5798,
      " \u0002\u001fÖ": 5799,
      "yp": 5800,
      "*\u0002": 5801,
      "\u0004": 5802,
      "HD$ è": 5803,
      "ò": 5804,
      "ÇD$0": 5805,
      "3\u0002": 5806,
      "\u0000\u0000\u0000\u0000Y": 5807,
      "e\u0000t\u0000": 5808,
      "\u0018º": 5809,
      "\u001e\u0003": 5810,
      "(H": 5811,
      "Åì": 5812,
      ":!": 5813,
      "Iü": 5814,
      "7ý": 5815,
      "H\u001d": 5816,
      "ÿÿÿÿ\u0000\u0000\u0000\u0000@\u0000\u0000\u0000": 5817,
      "\u0000": 5818,
      "8\u0003": 5819,
      "\u0005÷": 5820,
      "s/": 5821,
      "H;Èt": 5822,
      "yn": 5823,
      "e\u0000c\u0000": 5824,
      "óE": 5825,
      "[ý": 5826,
      "A¼": 5827,
      "\u000f(Á": 5828,
      "\bF": 5829,
      "`\u0000R": 5830,
      "\u0012è": 5831,
      "ÿÿ\u0000": 5832,
      "P": 5833,
      "\u0001\u0006\u0002\u0000\u00062\u00020": 5834,
      "\u000bû": 5835,
      "Ó\u0003": 5836,
      "à\"": 5837,
      "\u0002": 5838,
      "\u000e\u0000\u0000\u0000\u0000\u0000": 5839,
      "\\\\": 5840,
      "ný": 5841,
      "\u0018\u0000\u0000\u0000\u0000": 5842,
      "\b\u0016": 5843,
      "(u": 5844,
      "GU": 5845,
      "Ö\u0002": 5846,
      "\bò": 5847,
      "ôú": 5848,
      "4\u0000\u0000": 5849,
      "bý": 5850,
      "_é": 5851,
      "\u0011": 5852,
      "#": 5853,
      "àø": 5854,
      "õ\u0004": 5855,
      "\fò": 5856,
      "à\r": 5857,
      "\u0000@\u0000\u0000\u0000\u0000\u0000\u0000": 5858,
      "gý": 5859,
      "\u000f(Â": 5860,
      "Ð\u0005": 5861,
      "ñ\u0004": 5862,
      "Á\u0004": 5863,
      "\u0007 ": 5864,
      "Ýü": 5865,
      "É\u000f": 5866,
      "\u0006\u0000Q": 5867,
      "Pro": 5868,
      " \u0000\u0001\u0000\u0004\u0000\u00004\u0000\u0014\u0000\u000e": 5869,
      "ÓÔ\u000e\u0000A\u000b": 5870,
      "ÌÌÌÌÌÌÌÌÌÌÌé": 5871,
      "\u0010": 5872,
      "8": 5873,
      "L\u0002": 5874,
      "ÿH\r": 5875,
      "ª\u0001": 5876,
      "\t": 5877,
      "Hñ¹": 5878,
      "s\u0000\u0000\u0000": 5879,
      "\u001ap": 5880,
      "ký": 5881,
      "s\u0010": 5882,
      "à7": 5883,
      "á\u0005": 5884,
      "\u000b\u0000": 5885,
      "AX": 5886,
      "`\u000b": 5887,
      "á\u0003\u001bª": 5888,
      "A½": 5889,
      "ÃÌÌÌÌÌ": 5890,
      "`\"\u0000 ": 5891,
      ">R": 5892,
      "\f\u0016": 5893,
      "\b\u0007": 5894,
      "\u0002": 5895,
      "\u0000\u0000?\u0000\u0000?": 5896,
      "Ný": 5897,
      "ßü": 5898,
      "D$X": 5899,
      "\n": 5900,
      "ÿ\u0003\u0002": 5901,
      "j\u0000ÿ": 5902,
      "fE": 5903,
      "U ": 5904,
      "º\u0002\u0000\u0000\u0000": 5905,
      "\u0000": 5906,
      "\u0005ë": 5907,
      "e\u0000 \u0000": 5908,
      ",": 5909,
      "`\u0012\u0000": 5910,
      "À%": 5911,
      "6\u0000\u0000": 5912,
      "dat": 5913,
      "h\u0006": 5914,
      "àG": 5915,
      "HÄP": 5916,
      "\u001b\u0004": 5917,
      "ffff": 5918,
      "\u001f\u0010": 5919,
      "\u0015": 5920,
      "`\u0002@¹": 5921,
      "\u0018ë": 5922,
      "HÃ": 5923,
      "¼\u0000q": 5924,
      "LM": 5925,
      "\u0007": 5926,
      "'": 5927,
      "Q": 5928,
      "°è": 5929,
      "Eè": 5930,
      "\f\t": 5931,
      "@\n": 5932,
      "@\u0000": 5933,
      "[\u0000\u0004\u0000": 5934,
      "\u0015ü": 5935,
      "@`": 5936,
      "¿\u0003": 5937,
      "\u0013ü": 5938,
      "\u0011": 5939,
      "Uý": 5940,
      "@\u0012": 5941,
      "Å{\u0010": 5942,
      "@2": 5943,
      ")\u0003": 5944,
      "\u0001": 5945,
      "R\b": 5946,
      "øÿ": 5947,
      "ø\n": 5948,
      "ü\u0000ü\u0000": 5949,
      "îû": 5950,
      "0\u0005": 5951,
      "à£": 5952,
      "\u0000\u0000\b\u0000": 5953,
      "$ð": 5954,
      "HcÈ": 5955,
      "ø\u0018": 5956,
      "W\u0000\u0000\u0000": 5957,
      "P": 5958,
      "Môd": 5959,
      "s.": 5960,
      "3Éè": 5961,
      "Ký": 5962,
      " \u0010": 5963,
      "Jý": 5964,
      "q ": 5965,
      "@\r": 5966,
      "ý{Ã¨À\u0003_Ö": 5967,
      "E3ÿ": 5968,
      "t-": 5969,
      "´\u0000\u0000\u0000": 5970,
      "#": 5971,
      "Vý": 5972,
      "\u0000(Gù": 5973,
      "©\u0001": 5974,
      "\u0002\u0000\u0002": 5975,
      "\u0018\u0002\u0000\u0000": 5976,
      "ñ÷": 5977,
      "etting": 5978,
      "@\u0001R": 5979,
      "\u001f \u0003Õý{": 5980,
      "@\u0003\u0000\u0000": 5981,
      "<\u0000\u0000": 5982,
      "\u000e": 5983,
      "\u000b": 5984,
      "E\u000f¶": 5985,
      "öè": 5986,
      ",1": 5987,
      "Àò": 5988,
      "ê": 5989,
      "\tû": 5990,
      "½": 5991,
      "L|$": 5992,
      "\u000f\u0010\u000f\u0010\u000f\u0010\u000f\u0010": 5993,
      "ir": 5994,
      "\fû": 5995,
      "uø": 5996,
      "t:": 5997,
      "ç\u0005": 5998,
      " \u0002\u0004": 5999,
      "+\u0000ù": 6000,
      "}\u0011": 6001,
      "¨\u0000\u0000": 6002,
      "%d": 6003,
      "\f\u0000\u0000\u0000\u0000": 6004,
      "OR": 6005,
      "ùè": 6006,
      "ß\u0002": 6007,
      "aø": 6008,
      "ô\u0007": 6009,
      "Ç": 6010,
      "ð÷": 6011,
      "À~": 6012,
      "Hú": 6013,
      " B": 6014,
      "!\u001c": 6015,
      "ûÿ\u0017": 6016,
      "_M": 6017,
      "÷\u001b@ù": 6018,
      "}(": 6019,
      ">": 6020,
      "\u0019\u0010": 6021,
      "\u0005\u0000\u0000\u0000\u0000": 6022,
      "_^]": 6023,
      "ó?": 6024,
      "ÃÌÌÌÌÌÌÌ": 6025,
      "\"\u0000\u0000\u0000": 6026,
      "h\u0003": 6027,
      "ì|": 6028,
      "íû": 6029,
      "A\u000e0": 6030,
      "L6": 6031,
      "H¼": 6032,
      "ÿ\u0000\u0000\u0000": 6033,
      "L$": 6034,
      "Op": 6035,
      "\u000fè": 6036,
      "\u0002": 6037,
      "`\n@ù": 6038,
      "p:": 6039,
      "\u000f": 6040,
      "j\n": 6041,
      "tex": 6042,
      ";÷": 6043,
      "\u0016": 6044,
      "\b": 6045,
      "/": 6046,
      "\u0011\u0012": 6047,
      "!": 6048,
      "f\u000fï": 6049,
      "29": 6050,
      "Iý": 6051,
      "î\u0004": 6052,
      "¢\u0002": 6053,
      "±\u001a": 6054,
      "] ": 6055,
      "PQ": 6056,
      "3Èè": 6057,
      "üú": 6058,
      "ïÿÿ\u0017": 6059,
      "\u0000\f": 6060,
      "MÆ": 6061,
      "t\u0002": 6062,
      "B(": 6063,
      "\t\u0000\t\u0000": 6064,
      "g ": 6065,
      "Hò": 6066,
      "PS": 6067,
      "Tý": 6068,
      "": 6069,
      " ": 6070,
      "ìû": 6071,
      "ð\b": 6072,
      ",\u0003": 6073,
      "\u0005Ñ": 6074,
      "@'": 6075,
      "¾ü": 6076,
      "D$H": 6077,
      "ÆÆ": 6078,
      "\u0000\u0000\u0000\u0000A\u000e\u0010\u0002\u0001": 6079,
      "{ý": 6080,
      "!(": 6081,
      "\u0006÷": 6082,
      "H": 6083,
      "¼©": 6084,
      "\t": 6085,
      "\u0007\u000b": 6086,
      "\u0010": 6087,
      "w.": 6088,
      "\u0016\u0000p": 6089,
      "\r\u0000\u0000\u0000\u0000\u0000": 6090,
      "6ý": 6091,
      "²\u0002": 6092,
      "\u0006\u0006\u0006\u0006": 6093,
      "c\u0000\u0000": 6094,
      "ö\u000f": 6095,
      "\u0000\u0000\u0000\u0000\b\u0000\u0000\u0000\u0000\u0000\u0000\u0000": 6096,
      "<@": 6097,
      "B\u0018": 6098,
      "inte": 6099,
      "D\u0000\u0000\u0000\u0000\u0000": 6100,
      "Åä": 6101,
      "À\u0002\u0000\u0000": 6102,
      "K\u0004": 6103,
      "@ü": 6104,
      "\u0001\u0000": 6105,
      "ô\u0001\u0000\u0000": 6106,
      "ïú": 6107,
      "`\u0004\u0000": 6108,
      "+\u0000\u0000": 6109,
      "Ô\u0003": 6110,
      "ÝÝ": 6111,
      "\nò": 6112,
      "\b\u0000\u0000\u0000\u0000": 6113,
      "E\u0018": 6114,
      "L÷è": 6115,
      "E\f": 6116,
      "\u0010\u0006": 6117,
      "|\u0000|\u0000": 6118,
      "\u001e": 6119,
      "ÅÄ": 6120,
      "T": 6121,
      "\u0015 ": 6122,
      "\u0003": 6123,
      "7": 6124,
      "ï\u0004": 6125,
      "in ": 6126,
      "ÌÌÌÌUì": 6127,
      "_i": 6128,
      "\u0005\u0011": 6129,
      "\f": 6130,
      "I\u0000D\u0000": 6131,
      "\u0015ë": 6132,
      "å\u0004": 6133,
      "Í\u0003": 6134,
      "Ò\u0003": 6135,
      "HS": 6136,
      "ñù": 6137,
      "\u0006": 6138,
      "\f÷": 6139,
      "%\u0000\u0000\u0000": 6140,
      "K\u0000\u0000\u0000": 6141,
      " \u000f": 6142,
      "i\u0000\u0000\u0000\u0000\u0000": 6143,
      "F": 6144,
      "BÐ;Õ": 6145,
      "\u001c\b": 6146,
      "\u0000\u0000\u0000": 6147,
      "PA": 6148,
      "à\u0003\u0000": 6149,
      " /": 6150,
      "À±": 6151,
      "\r©": 6152,
      "\u0005ú": 6153,
      "\u0003\u0001": 6154,
      "\u0010\u0000\u0000\u0000\u0000\u0000a\u0000\u0004\u0000": 6155,
      "\u0006ù": 6156,
      "\u0018": 6157,
      "Ð\n": 6158,
      "CC": 6159,
      "2\u0002": 6160,
      "z": 6161,
      "W\b": 6162,
      "\u000e": 6163,
      ":\u0002": 6164,
      " ¢": 6165,
      "óD": 6166,
      "óú": 6167,
      "\u0004\u0000 \n\u0005": 6168,
      "ø\u001f": 6169,
      "4@": 6170,
      "ñú": 6171,
      "a\u0000\u0000\u0000 J": 6172,
      "~": 6173,
      "\u001a": 6174,
      "òÿÿ": 6175,
      "\u0017\u0010": 6176,
      "b2": 6177,
      "?\u0000\u0002": 6178,
      "\u0019ü": 6179,
      "\u0007\u000f": 6180,
      "\f©": 6181,
      "\tô": 6182,
      "\u0005?": 6183,
      "=\u0000\u0000\u0000": 6184,
      "Ôü": 6185,
      "õù": 6186,
      ">\n": 6187,
      ".h": 6188,
      "\u0000\u0000 Ò\u0000\u0013ò": 6189,
      "p": 6190,
      "è÷": 6191,
      "3\u0000\u0000": 6192,
      "\u0000\b\u0000\u0000\u0000\u0000": 6193,
      "a\u0000\u0000": 6194,
      "M\u0010": 6195,
      "w\b": 6196,
      "Ð\u000f": 6197,
      "Àü": 6198,
      "cr": 6199,
      "ÀZ": 6200,
      "\u0018ü": 6201,
      "\u0018\u0014": 6202,
      "\u0010d¡": 6203,
      "­\u0002": 6204,
      "\u0017ü": 6205,
      "!\f": 6206,
      "\u0002\u0002\u0002": 6207,
      "0\u0006": 6208,
      "\u0000à": 6209,
      "\n%": 6210,
      "|": 6211,
      "áÅ": 6212,
      "\u001a": 6213,
      "L´$": 6214,
      "----": 6215,
      "H": 6216,
      "t,": 6217,
      "\u001b2": 6218,
      ")": 6219,
      "Êâ": 6220,
      "È\u0001\u0000\u0000": 6221,
      "sion": 6222,
      "D$": 6223,
      "@\t": 6224,
      "À/": 6225,
      "H$": 6226,
      "\bª": 6227,
      "08": 6228,
      "t\u001f": 6229,
      "A\u0014": 6230,
      "\u0010\u0000*": 6231,
      "\r\u0007": 6232,
      "\nû": 6233,
      "<\u0004": 6234,
      "\u0004\u0000\u00004": 6235,
      ";": 6236,
      "G\f": 6237,
      "è": 6238,
      "\u0003\u0000\u0000\u0000\u0000\u0000\u0000\u0000": 6239,
      "â?": 6240,
      "-éð": 6241,
      "¨ ": 6242,
      "@P": 6243,
      "Üü": 6244,
      "\u0000\u0000@9": 6245,
      "-\u0000\u0000": 6246,
      "\u000e(": 6247,
      "\u001e\u0004": 6248,
      "øô": 6249,
      "ÀH": 6250,
      "\b": 6251,
      "®\u0001": 6252,
      "\u0010ü": 6253,
      "}\u0004": 6254,
      "3 ": 6255,
      "å]Â\b\u0000": 6256,
      "\u0010ñ": 6257,
      "u\u0016": 6258,
      "öõ": 6259,
      "Ïs": 6260,
      "i\u0000s\u0000": 6261,
      "ø\u001f": 6262,
      "Ç\u0007": 6263,
      "u\u0000t\u0000.\u0000": 6264,
      "\u000bÂ": 6265,
      "R\u0002": 6266,
      "~Ó": 6267,
      "\u0001\u0000\u0000\u0001": 6268,
      "`\u0006@ù": 6269,
      "±ÄA": 6270,
      "AÓ": 6271,
      "?\u0000\u0000": 6272,
      "MM": 6273,
      "Oý": 6274,
      "U\u0010": 6275,
      "~": 6276,
      "t\u0005è": 6277,
      "O\u0004": 6278,
      "\u0006ë": 6279,
      "ò\u0004": 6280,
      "5\u0002": 6281,
      "\n# ": 6282,
      "qý": 6283,
      "ÅÅ": 6284,
      "\u0005ñ": 6285,
      "std": 6286,
      "Æü": 6287,
      "09": 6288,
      "`": 6289,
      "@v": 6290,
      "\u000f": 6291,
      "V\b": 6292,
      "V9": 6293,
      "p\u0018": 6294,
      "tý": 6295,
      "&\u0003": 6296,
      "ê\u0004": 6297,
      "\u0016": 6298,
      "E\f": 6299,
      "æ?": 6300,
      "\" \u000fE": 6301,
      "t)": 6302,
      "øë": 6303,
      "\u0012\b": 6304,
      "÷Ð": 6305,
      "¨!": 6306,
      " th": 6307,
      "\u0014\u0007": 6308,
      "\r2": 6309,
      "L¤$": 6310,
      "\u000bú": 6311,
      "éq": 6312,
      "¸": 6313,
      "Tÿ\u001dy\u000bN": 6314,
      "HÄ ]Ã": 6315,
      "H0": 6316,
      "G\u0002": 6317,
      "P\u0006": 6318,
      "ÿu\f": 6319,
      "\u000eû": 6320,
      "\f\u0000q": 6321,
      "Ø\u0003": 6322,
      "÷ù": 6323,
      "\u0014d": 6324,
      "Li": 6325,
      "Az": 6326,
      "ÿ\u0003": 6327,
      "B\u000b": 6328,
      "à\u0012": 6329,
      "Øü": 6330,
      "\u0007": 6331,
      "F\u0000\u0000": 6332,
      "\u000f ": 6333,
      "B\u0000\u0000\u0000": 6334,
      "À#": 6335,
      "½\u0003": 6336,
      "!\n": 6337,
      "s:": 6338,
      "ô?": 6339,
      "\u0005l": 6340,
      "\u0002\u0004\u0000\u0000": 6341,
      "\r ": 6342,
      "\u000fB": 6343,
      "%\b": 6344,
      "E\u0004": 6345,
      "Ç": 6346,
      "R": 6347,
      "è\u0007": 6348,
      "¾©ý\u0003\u0000": 6349,
      "á\u0006": 6350,
      "1\u0000\u0000\u0000": 6351,
      "d\u0000d": 6352,
      "gr": 6353,
      "Eü": 6354,
      "\u0000\u0000": 6355,
      "Þü": 6356,
      "ý{Æ": 6357,
      "Xü": 6358,
      "\u001cü": 6359,
      "`6": 6360,
      "\u0002\u0000k": 6361,
      "@\u000b": 6362,
      "@\u0000\u0000\u0000\u0000\u0000\u0000": 6363,
      "H\\$\u0010H": 6364,
      "Ã\u0002": 6365,
      "05": 6366,
      "\u0000@\u0000\u0000\u0000": 6367,
      "ö?": 6368,
      "\u0001\u0000Ð": 6369,
      "~\u0012": 6370,
      "a\u0011": 6371,
      "\u0001\u000f": 6372,
      "ã\u0007": 6373,
      "u\u0013": 6374,
      "\"\u0000@ùc\u0000\u0002ë\u0002\u0000Ò": 6375,
      "H]": 6376,
      "\n2\u0006p": 6377,
      "1\u0016": 6378,
      "D\u0000e\u0000": 6379,
      "\u0006\u0000Ñ": 6380,
      "\u0018¹": 6381,
      "\u0012": 6382,
      "\u001f4": 6383,
      "ÿÿè": 6384,
      "0_": 6385,
      "\u0014\u000b": 6386,
      "A°": 6387,
      "µ": 6388,
      "K": 6389,
      "Ûü": 6390,
      "\u001a\u0000\u0000\u0000": 6391,
      "\u001d\u0004": 6392,
      "Hú\u0010r": 6393,
      "\u0003Ñ": 6394,
      "t%": 6395,
      " \"": 6396,
      "9\u0002": 6397,
      "\u0005\r": 6398,
      "\u0003\u0000\u0000\u0000\u0000\u0000": 6399,
      "\f\u0018": 6400,
      "Yü": 6401,
      "\u000fo": 6402,
      "-\u0002": 6403,
      "Å¨": 6404,
      "\t\u0007": 6405,
      "\u0002": 6406,
      "M ": 6407,
      "\u0004": 6408,
      "\u0000\u0000\u0000H": 6409,
      "úo": 6410,
      "by": 6411,
      "\u0010": 6412,
      "PPPP": 6413,
      "ES": 6414,
      "3@ù": 6415,
      "PF": 6416,
      "é\b": 6417,
      "3Ìè": 6418,
      "\n\u0000\u0000\u0000\u0000\u0000": 6419,
      "LÂ": 6420,
      "é\u0001t": 6421,
      "äÂ": 6422,
      "\u0001\u0000H": 6423,
      "óù": 6424,
      "@?": 6425,
      "\u0015\u0018": 6426,
      "?": 6427,
      "\u0000\u0001\u000b": 6428,
      "ôù": 6429,
      "R\u0004": 6430,
      "d$": 6431,
      "<": 6432,
      "{ ": 6433,
      "¯¯": 6434,
      "!r": 6435,
      "^Ã": 6436,
      "º\u0002": 6437,
      "U\u0002": 6438,
      "\u0010": 6439,
      "Àë": 6440,
      "À>": 6441,
      " \u0004\u0000": 6442,
      "A\u0006": 6443,
      "H": 6444,
      ":\u0000 ": 6445,
      "öE": 6446,
      "ca": 6447,
      "ÐH": 6448,
      "\u0000\u0000": 6449,
      "0I": 6450,
      "÷\u0007": 6451,
      "ðFù": 6452,
      "T$ ": 6453,
      "\u0010": 6454,
      "á\u0000\u0000": 6455,
      "ôÿ": 6456,
      ">ü": 6457,
      " ü": 6458,
      "Êè": 6459,
      "\\ü": 6460,
      "LÜ": 6461,
      "9F": 6462,
      "¬": 6463,
      "\u00130": 6464,
      "5\u0004": 6465,
      "\u0000\u0006": 6466,
      "v\u0004": 6467,
      "×ü": 6468,
      "\u001bü": 6469,
      "Ñü": 6470,
      "Á\u0000\u0000T": 6471,
      "Ôø": 6472,
      "ñ\b": 6473,
      "4\u0004": 6474,
      "Ã\r": 6475,
      "\u0001\u0000\u0000\u0000\u0000!\u0001": 6476,
      "ov": 6477,
      "\t\t\t\t": 6478,
      "p\u0000\u0000": 6479,
      "H;Á": 6480,
      "WH": 6481,
      "Ï\u0003": 6482,
      "\u0006à": 6483,
      "Cý": 6484,
      "24": 6485,
      "Æ\u0002": 6486,
      "\n\t": 6487,
      " 0": 6488,
      "c/": 6489,
      "º\u0010": 6490,
      " ": 6491,
      "read": 6492,
      "HÿÁ": 6493,
      "À\u000e": 6494,
      "Öü": 6495,
      "\" \u000f\u0000\u0001": 6496,
      "à\u0007\u0000ù": 6497,
      "@": 6498,
      "\u000b¹": 6499,
      "_m": 6500,
      "¸ü": 6501,
      "\u0003\u00004": 6502,
      "ë!": 6503,
      "s\b": 6504,
      "\u0002": 6505,
      "ä\u0004": 6506,
      "\u0003\u00005": 6507,
      "2\u0004": 6508,
      "Æ$": 6509,
      "Jü": 6510,
      "3Òè": 6511,
      "¿ü": 6512,
      "À\n": 6513,
      "\u0005\u0015": 6514,
      "`\u0002\u0000": 6515,
      "ïù": 6516,
      "Ò±": 6517,
      "N ": 6518,
      "Mä": 6519,
      "0ü": 6520,
      "\u0004": 6521,
      "bj": 6522,
      "E3Ò": 6523,
      "\u0005T": 6524,
      "`H": 6525,
      "]Â\b\u0000": 6526,
      "\u001b\u0000\u0000\u0000": 6527,
      "@UHì H": 6528,
      "\u0003": 6529,
      "w\u0003": 6530,
      "////": 6531,
      "\f\u000e": 6532,
      "(¿": 6533,
      "ø\u0003": 6534,
      "òú": 6535,
      "CR": 6536,
      "F\u0005": 6537,
      "=": 6538,
      "3\u0000\u0000\u0000": 6539,
      "Æâ": 6540,
      "°\u0004": 6541,
      "è\u0004": 6542,
      "rtk": 6543,
      "t>": 6544,
      "y\u0004": 6545,
      "\n\u000b": 6546,
      "1Û": 6547,
      "h ¸": 6548,
      "QQ": 6549,
      "¨ü": 6550,
      "\u0010\u0007": 6551,
      "H\u0012\u0000": 6552,
      "\u0010I": 6553,
      "é÷": 6554,
      "@q": 6555,
      "brM": 6556,
      "AS": 6557,
      "!\u0014": 6558,
      "\u001dü": 6559,
      "\u000f\u001f": 6560,
      "h\u0004": 6561,
      "ZÀ": 6562,
      "}}": 6563,
      "@*": 6564,
      "\r\u000e": 6565,
      "@": 6566,
      "t;": 6567,
      "Î\u0003": 6568,
      "Q ": 6569,
      "U\b": 6570,
      "Hd$": 6571,
      "\u0002\u0000\b": 6572,
      "ÿÿ\u0000\u0000\u0000\u0000": 6573,
      "\t\u000f": 6574,
      "$è": 6575,
      "D\u000b": 6576,
      ">\u0003": 6577,
      "áû": 6578,
      "H": 6579,
      "bR": 6580,
      "\u0000\u0001\u0000\u0000\u0000": 6581,
      "A\u000f¯": 6582,
      "3Í": 6583,
      "\u0005\u0016": 6584,
      "r ": 6585,
      "`\u001a\u0000": 6586,
      "\b\"": 6587,
      "@\u0001\u0000": 6588,
      "å]Â\u0004\u0000": 6589,
      "\u0002": 6590,
      " ¨": 6591,
      "÷\u0004": 6592,
      "\u0006ú": 6593,
      "\u000eà": 6594,
      "Bu": 6595,
      "\u0001\u0000\u0000\u0000ÿ\u000f\u0000\u0000\u0000\u0000\u0000\u0000": 6596,
      "æÀ": 6597,
      "\u0010": 6598,
      "1\u0004": 6599,
      "Dv": 6600,
      "\u000b\u0000\u000b\u0000": 6601,
      "Eô": 6602,
      "øÿÿÿ": 6603,
      "": 6604,
      "@\u000e": 6605,
      "H\f": 6606,
      "d\u0002": 6607,
      "\u0013\u0000R": 6608,
      "ype": 6609,
      "ø": 6610,
      "Óü": 6611,
      "ñò": 6612,
      "Úü": 6613,
      "Òü": 6614,
      "Uü": 6615,
      "B9": 6616,
      "26": 6617,
      "\u000f\u0011": 6618,
      "\u0012\u001f": 6619,
      "\u0019\n": 6620,
      "\u0005#": 6621,
      "Ô\u0001\u0000\u0000\u0000\u0000\u0000": 6622,
      "\f ": 6623,
      "\u0000ÿ?": 6624,
      "T\u0002": 6625,
      "Õ\u0001\u0000\u0000\u0000\u0000\u0000": 6626,
      "\u0007R": 6627,
      "0\u001c": 6628,
      "Û±": 6629,
      "HÂ": 6630,
      "\u0003\u0003\u0003": 6631,
      "(O": 6632,
      "H\u001c": 6633,
      "ck": 6634,
      "¢\u0003": 6635,
      ",\u0000 \u0000": 6636,
      "\rô": 6637,
      "EØ": 6638,
      "`.": 6639,
      "@SHì ": 6640,
      "ý": 6641,
      "\u001f\u0004\u0000±": 6642,
      "21": 6643,
      "Ú½": 6644,
      "%,": 6645,
      "@²": 6646,
      "è'": 6647,
      "L$": 6648,
      "2\u0010": 6649,
      "Õü": 6650,
      "M\b": 6651,
      "Ñ\u0002": 6652,
      "ë\u001a": 6653,
      "t?": 6654,
      "@\u0019": 6655,
      "E : ": 6656,
      "/\u0002": 6657,
      "ÅÌ": 6658,
      "Åð": 6659,
      "p\u0006": 6660,
      "äø": 6661,
      "óD\u000f\u0016": 6662,
      "º\u0004\u0000\u0000\u0000": 6663,
      "à\u0002\u0000\u0000": 6664,
      "è#": 6665,
      "\u0014T": 6666,
      "\u0018I": 6667,
      "H": 6668,
      "s\u0000\u0000": 6669,
      "\u0014\u0016": 6670,
      "è£": 6671,
      "À\t": 6672,
      "\u0001\u0000 \u0000": 6673,
      "°ü": 6674,
      "óD\u000fX": 6675,
      "¾\u0002": 6676,
      "òA\u000fÐ": 6677,
      "t+": 6678,
      "\b": 6679,
      "\u0010": 6680,
      "ü": 6681,
      "\u0000@\u0001\u0000\u0000\u0000": 6682,
      "\u001d\b": 6683,
      "=ü": 6684,
      "E@": 6685,
      "Íü": 6686,
      "Lñ": 6687,
      "\u0006Ø": 6688,
      "\u0000$\u0000\u0000": 6689,
      "C\u0003": 6690,
      "õ?": 6691,
      "\u0005(": 6692,
      "_\u0003": 6693,
      "H´$": 6694,
      "\u001aü": 6695,
      "du": 6696,
      "sr": 6697,
      "CL": 6698,
      "\b": 6699,
      "ÈH": 6700,
      "ãû": 6701,
      "à÷": 6702,
      "Å|\u0010": 6703,
      "8M": 6704,
      "\r\r\r\r": 6705,
      "\u0011\u0007": 6706,
      "ñÿÿ": 6707,
      "¬\u0002": 6708,
      "[\b": 6709,
      "`": 6710,
      "ñð": 6711,
      "\u0014\u0006": 6712,
      "È\u0002": 6713,
      "Ïv": 6714,
      "\u00050": 6715,
      "H¼$": 6716,
      "\u0019ð": 6717,
      "\u0000@\u0000\u0000": 6718,
      "r\u0003": 6719,
      "\u000e\u0007": 6720,
      "°\u0002\u0000\u0000": 6721,
      "\u0000\u0000\u0001\u0000\u0000À\u0000": 6722,
      "è\u000b": 6723,
      "è?": 6724,
      "u\u001a": 6725,
      "\u0014\u0000Ò": 6726,
      "F\n": 6727,
      "\u0012\f": 6728,
      "\u0002\u0000\u0000": 6729,
      "I\u0006": 6730,
      "t*": 6731,
      "ED": 6732,
      "\u0014\n": 6733,
      "ÃC": 6734,
      "89": 6735,
      "2\u0003": 6736,
      "¼ü": 6737,
      "[[": 6738,
      "\u0010U": 6739,
      "A3": 6740,
      "\u0002\u0002\u0002\u0002\u0002\u0002\u0002\u0002": 6741,
      "è;": 6742,
      ".f": 6743,
      "id ": 6744,
      "!$": 6745,
      "T?": 6746,
      "_F": 6747,
      "I\u0000n\u0000": 6748,
      "EH¸": 6749,
      "\u0014 ": 6750,
      "â": 6751,
      "é\u0006": 6752,
      "\u0013\t": 6753,
      "Ïü": 6754,
      "\u0005ø": 6755,
      "\\\u0000\u0000\u0000": 6756,
      "\u000fü": 6757,
      "çû": 6758,
      "¹)": 6759,
      "\u0000$": 6760,
      "- ": 6761,
      "tY": 6762,
      "Â\u0004": 6763,
      "Àî": 6764,
      "X\u0002\u0000\u0000": 6765,
      "ÙÚ×Ø": 6766,
      "H\u000b": 6767,
      "\u0000\u0000\u0000\u0000": 6768,
      "H¼$": 6769,
      "\u0006\u0005": 6770,
      ".\u0002": 6771,
      "(\u0010": 6772,
      "a_": 6773,
      "z\u0002": 6774,
      "\u0002": 6775,
      "À": 6776,
      "ä±": 6777,
      "\u0015û": 6778,
      "&\u0004": 6779,
      "J\u0002": 6780,
      "Ù\u0002": 6781,
      "D": 6782,
      "¨\u0004": 6783,
      "0ð": 6784,
      "I\u0000\u0000\u0000\u0000\u0000": 6785,
      "=\u0003": 6786,
      "+\u0006\u0001\u0004\u0001": 6787,
      "a8": 6788,
      "=ð": 6789,
      "H»": 6790,
      "òù": 6791,
      "\u0017ë": 6792,
      "àO": 6793,
      "Ñé": 6794,
      "V\u0010": 6795,
      "\u0013\u000b": 6796,
      "\u00144": 6797,
      "\t": 6798,
      "Õ": 6799,
      "i\u0002": 6800,
      "\u0001": 6801,
      "1\u000b0\t\u0006\u0003U": 6802,
      "\u0003": 6803,
      "ðÿðÿðÿðÿ": 6804,
      ")\u0010": 6805,
      "ø\u0000\u0000": 6806,
      "¥\u0002": 6807,
      "\t\u000b": 6808,
      "MÀt": 6809,
      "E ": 6810,
      "\u0018¿": 6811,
      "Un": 6812,
      "óE\u000fX": 6813,
      "HD$@": 6814,
      "\b\u0000": 6815,
      "!à": 6816,
      "h\n": 6817,
      "Ð\b": 6818,
      "\u000fû": 6819,
      "è\u001b": 6820,
      "ö\u0006": 6821,
      "ï÷": 6822,
      "IP": 6823,
      "á": 6824,
      "¡À": 6825,
      "ÆD": 6826,
      "tin": 6827,
      "(é": 6828,
      "?\u0004": 6829,
      "Éq": 6830,
      "öñ": 6831,
      "\u0016ð": 6832,
      "µ": 6833,
      "Å\b": 6834,
      "í\u0004": 6835,
      "êû": 6836,
      "\r\f": 6837,
      "ÃÌÌÌÌÌÌ": 6838,
      "|É\u0010": 6839,
      "¯ü": 6840,
      "\u001f$\u0000q": 6841,
      "óÿÿ\u0017": 6842,
      "3": 6843,
      "a\u0000m\u0000": 6844,
      "Hk": 6845,
      " \u0000\u0000\u0000\u0000\u0000\u0000": 6846,
      "à\u000b@ù": 6847,
      "\u001e\u0000p": 6848,
      "`2": 6849,
      "\u000eò": 6850,
      "ïî": 6851,
      "WH": 6852,
      "âû": 6853,
      ":+": 6854,
      "íÿÿ\u0017": 6855,
      "\u000b\u0000ð": 6856,
      "ÅÔ": 6857,
      "u÷": 6858,
      "\rù": 6859,
      "\rú": 6860,
      "D\u0000A\u0000O\u0000": 6861,
      "\u0015\t": 6862,
      "\u000f.": 6863,
      "\u001c\u0007": 6864,
      "uý": 6865,
      "H\u0001ÿP": 6866,
      "!0": 6867,
      "Áü": 6868,
      "}ü": 6869,
      "\u0000L": 6870,
      "$": 6871,
      "H|$": 6872,
      "\u0004": 6873,
      "y\u0002": 6874,
      "óC": 6875,
      "\nô": 6876,
      "N3": 6877,
      "*Gù": 6878,
      "tc": 6879,
      "ë\u0019": 6880,
      "E8": 6881,
      "ÿÿH": 6882,
      "1\u0003": 6883,
      "Ùü": 6884,
      "øé": 6885,
      "3\u0000ù": 6886,
      "ax": 6887,
      "0\u0007": 6888,
      "!Ð": 6889,
      "'%s": 6890,
      "PC": 6891,
      "DÇ": 6892,
      ":\u0000\u0000": 6893,
      "ø\u0011": 6894,
      "hc": 6895,
      "ýH\u0019": 6896,
      "\rè": 6897,
      "a\u0010": 6898,
      "\b": 6899,
      "\u0000\u0000\u0000\u0000": 6900,
      "Ì\u0000\u0000\u0000": 6901,
      "\u001b\b": 6902,
      "PM": 6903,
      "X\u0005": 6904,
      "\u0001\u0000\u001e": 6905,
      "ÛÛ": 6906,
      "ack": 6907,
      "\u001f@ù": 6908,
      "]ü": 6909,
      "9\u0010": 6910,
      "e\u0002": 6911,
      "\u0001\u0000\u0000\u0002\u0000": 6912,
      "()": 6913,
      "!ðFùã": 6914,
      "l\u0000\u0000\u0000": 6915,
      "Å\u0002": 6916,
      "+Ê": 6917,
      "Ì1": 6918,
      "\u0014÷": 6919,
      "c\u0002": 6920,
      "L4": 6921,
      "xè": 6922,
      "é\u0010": 6923,
      "e\u0000l\u0000": 6924,
      "\r\u0000\u0017\u0000\u0000\u0000": 6925,
      "'\u0003": 6926,
      "½\u0002": 6927,
      "À?": 6928,
      " $": 6929,
      "´\u0000q": 6930,
      "T\u0000\u0000\u0000": 6931,
      "AG": 6932,
      ";\u0002": 6933,
      "\u001f¸": 6934,
      "È\u0003": 6935,
      "\"\f": 6936,
      "äû": 6937,
      "À\f": 6938,
      "Á": 6939,
      "\u001c\t": 6940,
      "àð": 6941,
      "": 6942,
      "\n": 6943,
      "1\u0000`": 6944,
      "Hì8": 6945,
      "t&": 6946,
      "Óâ": 6947,
      "rr": 6948,
      "××": 6949,
      "0$": 6950,
      "K(": 6951,
      "\u0003": 6952,
      "à\u0003@ù": 6953,
      "3\u0003": 6954,
      "7\u0002": 6955,
      "ÿ%": 6956,
      "\u0002": 6957,
      "IØ": 6958,
      "T": 6959,
      "ö\b": 6960,
      "mi": 6961,
      "'\u0004": 6962,
      "õ\b": 6963,
      "D\u0010": 6964,
      ".\u0000\u0000\u0000": 6965,
      "(ü": 6966,
      "ß\u0003": 6967,
      "¸\u0004": 6968,
      "Îü": 6969,
      "\u0007ô": 6970,
      "æû": 6971,
      "UP": 6972,
      "\u0000\u0000\u0000\u0000ÇE": 6973,
      "\u000b": 6974,
      "S\b": 6975,
      "t$@": 6976,
      "\u0001\u0000\u0001\u0000\u0001\u0000\u0001\u0000": 6977,
      "ùð": 6978,
      "HL$ è": 6979,
      "=?": 6980,
      "\u0012\u0006": 6981,
      "»ü": 6982,
      "âø": 6983,
      "\u000b\u0006": 6984,
      "ëû": 6985,
      "!\u0018": 6986,
      "Mð": 6987,
      "\u000e\n": 6988,
      "Dd$": 6989,
      "èç": 6990,
      "\u0010": 6991,
      "$4": 6992,
      "": 6993,
      "Get": 6994,
      "âØ": 6995,
      "\u0015k": 6996,
      "Èü": 6997,
      "-\u0003": 6998,
      "°\b": 6999,
      "t\u0000\u0000\u0000": 7000,
      "ë": 7001,
      "\u001a ": 7002,
      "\u0015&": 7003,
      "\u0005\u001b": 7004,
      "B": 7005,
      "¥ü": 7006,
      "Ú": 7007,
      "\u0011": 7008,
      ">?": 7009,
      "TO ": 7010,
      "`\t": 7011,
      "\u0014\u000f": 7012,
      "c\u0010": 7013,
      "FX": 7014,
      "\u000e\u0006": 7015,
      "Âü": 7016,
      "hh": 7017,
      "è§": 7018,
      "½½": 7019,
      "F0": 7020,
      "ô": 7021,
      "P\f": 7022,
      ";Ø": 7023,
      "w\u0010": 7024,
      "ÿÿÿÿÿÿ": 7025,
      "!": 7026,
      "T$0": 7027,
      "²\u0004": 7028,
      "G\u000f\u0010": 7029,
      "@x": 7030,
      "º\u0003": 7031,
      "pH": 7032,
      "\u0003\u0003*": 7033,
      "Ó\r": 7034,
      "\u0016\u0010": 7035,
      "wr": 7036,
      "Äü": 7037,
      "7\u0004": 7038,
      "ë\u0018": 7039,
      ">r": 7040,
      "u%": 7041,
      "\u0010\u0000\u0000\u0000ó¤": 7042,
      "úÿT": 7043,
      "N\u0000A\u0000M\u0000": 7044,
      "\u0007\u0007\u0007\u0007": 7045,
      "\f\u0000T": 7046,
      "\u001c\u0010": 7047,
      "é\u0007": 7048,
      "\\$`": 7049,
      "\b": 7050,
      "\u0000ùÿ": 7051,
      "º©": 7052,
      "g\u0003": 7053,
      "\u0003": 7054,
      "\u000e\u0005": 7055,
      "I@": 7056,
      "¥À": 7057,
      "ÂÂ": 7058,
      "C@": 7059,
      "\u0012û": 7060,
      "Aø": 7061,
      ";Æ": 7062,
      "h\b": 7063,
      "IÔ": 7064,
      "óSA©ý{Â¨": 7065,
      "s\u0003": 7066,
      "\fô": 7067,
      "\u0000H": 7068,
      "\u001cè": 7069,
      "t#": 7070,
      "a\u0012": 7071,
      "w\u0004": 7072,
      "||": 7073,
      "òB\u000f\u0010": 7074,
      "b\u0010": 7075,
      "H¦": 7076,
      "u\u001b": 7077,
      "ò\u0007": 7078,
      "Æ\b": 7079,
      "Å\u0010": 7080,
      "\u0011û": 7081,
      ";Ê": 7082,
      "V\u0004": 7083,
      "÷ÿ": 7084,
      "HA": 7085,
      "\u0001þ": 7086,
      "\u0000\u0000\u0000\u0001\u0000\u0000\u0000 \u0000\u0000\u0000": 7087,
      "\u0000\u0001\u0000\u0000\u0000": 7088,
      "M\b": 7089,
      "û": 7090,
      "\u0000H;Èt": 7091,
      "LÁ": 7092,
      "HÁà\u0004": 7093,
      "\u0007": 7094,
      "`Ó": 7095,
      "ã\u0005": 7096,
      "\u001að": 7097,
      "7\u0000\u0000": 7098,
      "h\u0018": 7099,
      "H;Ê": 7100,
      "¢U": 7101,
      "R,": 7102,
      "\u0003\u0000\u0000H": 7103,
      "ÌÌÌÌÌÌÌÌÌÌÌÌÌÌ": 7104,
      "HD": 7105,
      "\u001cð": 7106,
      "â\u0017": 7107,
      "°\u0010": 7108,
      "-4": 7109,
      "ùõ": 7110,
      "i\u0000t\u0000": 7111,
      "Ð\u0002\u0000\u0000": 7112,
      "ý{\u0001©": 7113,
      "¢\u0000R": 7114,
      "æ\u0005": 7115,
      "ET": 7116,
      "ýC\u0000": 7117,
      "ÀÀ": 7118,
      "Ëü": 7119,
      "ÿÿ": 7120,
      "\u0013è": 7121,
      "0p": 7122,
      "\u001b\u0010": 7123,
      "lib": 7124,
      "+\u0003": 7125,
      "Éü": 7126,
      "G(": 7127,
      "y": 7128,
      "Êü": 7129,
      "uð": 7130,
      "\u001c\u0012": 7131,
      "\u0000\u0000f": 7132,
      "u\u0002": 7133,
      "\u0013\f": 7134,
      "Ô\u0000\u0000\u0000": 7135,
      "Â\u0010": 7136,
      "Pü": 7137,
      " %s ": 7138,
      ":": 7139,
      "|)": 7140,
      "X\u0004": 7141,
      "B": 7142,
      "t'": 7143,
      "\u0007": 7144,
      "¡\u0004": 7145,
      "Ìü": 7146,
      "PY": 7147,
      "[\u0010": 7148,
      "fE\u000fÆ": 7149,
      "{\b": 7150,
      "ÕÖÓÔ\u000e\u0000A\u000b": 7151,
      "\u0004": 7152,
      " x": 7153,
      "à\u0017\u001a": 7154,
      "`x": 7155,
      "\u0000\u0000\b\u0000\u0000\u0000\u0000\u0000\u0000\u0000": 7156,
      "\u0017ð": 7157,
      "5": 7158,
      "4\u0010": 7159,
      "v\u0010": 7160,
      "\u0001\u0000\u0001\u0000\u0000\u0000": 7161,
      "à": 7162,
      "÷\u0006": 7163,
      "Ô\u0002": 7164,
      "`j": 7165,
      "MI": 7166,
      "_\u00008\u0000": 7167,
      "P@\u0001\u0000\u0000\u0000": 7168,
      "RR": 7169,
      "úõ": 7170,
      "¼\u0002": 7171,
      "Ðû": 7172,
      "pC": 7173,
      "é\u0005": 7174,
      "v\n": 7175,
      "Õ\u0003": 7176,
      "a \u0000\u0000": 7177,
      "\u0014": 7178,
      "ú\t": 7179,
      "úO": 7180,
      "0\u000f": 7181,
      "\rõ": 7182,
      "óò": 7183,
      "\u001eü": 7184,
      "¢À": 7185,
      "Ê#": 7186,
      ":?": 7187,
      "\u0000L": 7188,
      "\u0004Ñ": 7189,
      "%-": 7190,
      "úò": 7191,
      "ïð": 7192,
      "@h": 7193,
      "ôd£": 7194,
      "6\u0000\u0000\u0000": 7195,
      "\n\u0007": 7196,
      "\u001cø": 7197,
      ";Ç": 7198,
      "Ä\u0002": 7199,
      "åû": 7200,
      "fA\u000f\\": 7201,
      " \t": 7202,
      "àò": 7203,
      "\u0003": 7204,
      "\r\u000f": 7205,
      "ºü": 7206,
      "D\b": 7207,
      "i\u0000l\u0000": 7208,
      "L©": 7209,
      "Ù\u0003": 7210,
      "÷ö": 7211,
      "\u0011\"": 7212,
      "\u0002\u0000ñ": 7213,
      "uc": 7214,
      "Ã\u0001": 7215,
      "Rt": 7216,
      "\u0004": 7217,
      "\u0000Hc": 7218,
      "\u001d\u0010": 7219,
      "W": 7220,
      "\u0000\u0005": 7221,
      " <": 7222,
      "\u0010\u0000\u0001": 7223,
      " \u0002\u0005": 7224,
      "óB\u000f\u0010": 7225,
      "8Í": 7226,
      "bP": 7227,
      "EC": 7228,
      "27": 7229,
      "\u0018": 7230,
      "ë\u001e": 7231,
      "hdas": 7232,
      "ë\u001b": 7233,
      "è«": 7234,
      "\u0014\"": 7235,
      "#\b": 7236,
      "â\u0003\u0017ª": 7237,
      "HÇ": 7238,
      "t0": 7239,
      ";ü": 7240,
      "\u0000\u0000\u0000\u0000`": 7241,
      "ld": 7242,
      "ùô": 7243,
      "\fr": 7244,
      "\u0014û": 7245,
      "îÿÿ\u0017": 7246,
      "p½": 7247,
      "x\u0003": 7248,
      "6": 7249,
      "þÿ5": 7250,
      "#Á": 7251,
      "ï¾­Þï¾­Þ": 7252,
      "\u0012à": 7253,
      "a\u0006": 7254,
      "<ü": 7255,
      "\u0005\u0000\t\u0005": 7256,
      "ø\u0003\u0000ª": 7257,
      "eH\u0004%": 7258,
      "/ ": 7259,
      "f\u000f\u001f\u0000": 7260,
      "_c": 7261,
      "W\u0000i\u0000": 7262,
      "`z": 7263,
      "s\u0004": 7264,
      "* ": 7265,
      " \u000b": 7266,
      "a¸": 7267,
      "\u0004": 7268,
      "\u0002ý": 7269,
      "ON": 7270,
      "è\u001f": 7271,
      "DÆ": 7272,
      "@L": 7273,
      "\u0000\u0000p": 7274,
      "H\\$\bHt$\u0010": 7275,
      "Ø\u0001\u0000\u0000": 7276,
      "%\u0018": 7277,
      "\u0015\u0000R": 7278,
      "?7": 7279,
      "\u0014\t": 7280,
      "H": 7281,
      "\u0015\u000b": 7282,
      "Åú\u0010": 7283,
      "%\\": 7284,
      "ðÿÿ\u0017": 7285,
      "\u0000x": 7286,
      "\u000e\u000f": 7287,
      "Ðà": 7288,
      "\u0001\u0001\u0000": 7289,
      "\u0017\f": 7290,
      "Lÿ": 7291,
      "Â": 7292,
      "Æ\u0003": 7293,
      "\nr": 7294,
      "À\u0000 ": 7295,
      "a\u0000\u0000\u0000 \n": 7296,
      "ê\u0005": 7297,
      "G0": 7298,
      "Ø\u0004": 7299,
      "óD\u000f\u0011": 7300,
      "ë\u001c": 7301,
      "â\u0003\u0018ª": 7302,
      "D\n": 7303,
      " \u0018": 7304,
      "öÿÿ\u0017": 7305,
      "\u0005\u0000\u0004\u0000\u0000\u0000": 7306,
      "L8": 7307,
      "!\u0004\u0000\u0011": 7308,
      "Lï": 7309,
      "IÀ": 7310,
      "ÌÌÌÌH\\$": 7311,
      "t=": 7312,
      ",": 7313,
      ",4": 7314,
      "\u0014\u0012": 7315,
      "nn": 7316,
      "A,¨\u0001t": 7317,
      "v\u0002": 7318,
      "\u0004": 7319,
      "Ü\u0002": 7320,
      "éø": 7321,
      "\"\b": 7322,
      "/ü": 7323,
      "\u0015÷": 7324,
      "} ": 7325,
      "H\u0001ÿ": 7326,
      "(\u0000¢\n(\u0000¢\n": 7327,
      "\u0014%": 7328,
      "Cð": 7329,
      "éú": 7330,
      "cü": 7331,
      "_\u00001\u00006\u0000": 7332,
      "Ë\u0002": 7333,
      "¬ü": 7334,
      "±\u0003": 7335,
      "5?": 7336,
      "u\u001c": 7337,
      " &": 7338,
      "\u0006\u0000\u0000\u0000\u0000\u0000\u0000": 7339,
      "À$": 7340,
      "@\u0000 \u0000": 7341,
      "â ": 7342,
      "à\u0003\u0002ª": 7343,
      "Ð\u0010": 7344,
      " \u000e": 7345,
      "s@": 7346,
      "ö\t": 7347,
      "0>": 7348,
      "\u0001\f": 7349,
      "À\u0003_Ö?#\u0003Õ": 7350,
      "B\u000e ": 7351,
      "\u0014\u0000R": 7352,
      "$ü": 7353,
      "£ü": 7354,
      "ü": 7355,
      "\u0007x": 7356,
      "\u0005k": 7357,
      "ì\b": 7358,
      "\u001e\u0010": 7359,
      "\u0000h": 7360,
      "ë ": 7361,
      "`/": 7362,
      "\u0002\u0000": 7363,
      "Çü": 7364,
      "äð": 7365,
      "\u000e": 7366,
      "\u0010ÏÿÖ": 7367,
      "w ": 7368,
      "à:\u0000": 7369,
      "è\u0013": 7370,
      "$z": 7371,
      "Ev": 7372,
      "\u000b\u0007": 7373,
      "H\\$0HÄ _Ã": 7374,
      "E0": 7375,
      "Ç@\u0004": 7376,
      "f.\u000f\u001f\u0000\u0000\u0000\u0000\u0000": 7377,
      "Hý": 7378,
      "Ý\u0002": 7379,
      " @": 7380,
      ";û": 7381,
      "À\u0012": 7382,
      "l$8": 7383,
      "_v": 7384,
      "¤\u0002": 7385,
      "D$\u0018": 7386,
      "HÁ": 7387,
      "\nT": 7388,
      "Ä\u0000\u0000\u0000": 7389,
      "\u001e\u0000\u0000\u0000": 7390,
      "J\u0004": 7391,
      "óø": 7392,
      "s(": 7393,
      "L": 7394,
      "\u000bô": 7395,
      "p\u0000l\u0000": 7396,
      "èC": 7397,
      "¿#\u0003ÕÀ\u0003_Ö?#\u0003Õý{": 7398,
      " &": 7399,
      "0": 7400,
      "`\u0018": 7401,
      "?\u0000\u0000q": 7402,
      "#ð": 7403,
      "ë\u001d": 7404,
      "ÿ\u000f": 7405,
      "`F": 7406,
      "Ú\u0003": 7407,
      "u\u0019": 7408,
      "Ü\u0003": 7409,
      "X\b": 7410,
      "A\u000b\u0000": 7411,
      "`:": 7412,
      "\u0010": 7413,
      "HÕ": 7414,
      "Þ\u0002": 7415,
      "à%": 7416,
      "T": 7417,
      "à": 7418,
      "LL$": 7419,
      "QP": 7420,
      "\u0004": 7421,
      "Me": 7422,
      "p": 7423,
      " ": 7424,
      "è+": 7425,
      "DÃ": 7426,
      "~\u0004": 7427,
      "UN": 7428,
      "â\u0006": 7429,
      "\u0000\u0000\u0000\u0000\u0010": 7430,
      "start": 7431,
      "L¬$": 7432,
      "á\u0013": 7433,
      "TY": 7434,
      "t1": 7435,
      "`#": 7436,
      "E3Û": 7437,
      "\u0015\u0005": 7438,
      "XÃ": 7439,
      "ð\u0000\u0000": 7440,
      "óõ": 7441,
      "R ": 7442,
      "` ": 7443,
      "OX": 7444,
      "H": 7445,
      "Bø": 7446,
      "\u001a\u0012": 7447,
      "HÇ": 7448,
      "b\u0004": 7449,
      "\\$@": 7450,
      "Æ\u0010": 7451,
      "\u000eô": 7452,
      "E": 7453,
      "\u0000º": 7454,
      "\f": 7455,
      "\u0004": 7456,
      "}\u0002": 7457,
      "ü": 7458,
      "à\u0000\u0000T": 7459,
      "\u0000\u0000\u0000\u0000@\u0000\u0000\u0000": 7460,
      "X ": 7461,
      "group": 7462,
      "ðÿÿ": 7463,
      "D\u0011": 7464,
      "àK": 7465,
      "À\u000f": 7466,
      "d2": 7467,
      "À\r": 7468,
      "\u0019\u0003\u0000": 7469,
      "´ü": 7470,
      "¡ü": 7471,
      ",ü": 7472,
      "1í": 7473,
      "C\u001c": 7474,
      "\u0018\u0019": 7475,
      "S\u0002": 7476,
      "wü": 7477,
      "HÿÃ": 7478,
      "\nÞÝ\u000e\u0000A\u000b": 7479,
      "\tÐ": 7480,
      "char": 7481,
      "\u000f\u0000\u000f\u0000": 7482,
      "\r÷": 7483,
      "þ": 7484,
      "\fù": 7485,
      "\t ": 7486,
      "­ü": 7487,
      "\u0010\u0000\u0000\u0002": 7488,
      "~\u0002": 7489,
      "+ø": 7490,
      "`Â": 7491,
      "èó": 7492,
      "ðH": 7493,
      "\u0013\u0006": 7494,
      "f\u000fþ": 7495,
      "\u0000\u0000\u0000": 7496,
      "Oðÿ": 7497,
      "&": 7498,
      "ÀÅ": 7499,
      "òD\u000fÐ": 7500,
      ", %r": 7501,
      "\fø": 7502,
      "+Ð": 7503,
      "\u0013\u0005": 7504,
      "\u0002\u0000\u0002\u0000\u0002\u0000\u0002\u0000": 7505,
      "áø": 7506,
      "(v": 7507,
      "\u001c4": 7508,
      "xÿÿÿ": 7509,
      "ã#": 7510,
      ")ü": 7511,
      "r\u0004": 7512,
      "¹\u0003": 7513,
      "\u0006\u0003U\u001d": 7514,
      "0\u0003\u0000\u0000": 7515,
      "Â\b": 7516,
      "q\b": 7517,
      "ð\u0006": 7518,
      "µü": 7519,
      "ü": 7520,
      "¹ ": 7521,
      "à\u000f@ù": 7522,
      "8": 7523,
      "\u0000\u0000\u0000\u0000\u0004": 7524,
      "HA": 7525,
      "Àt\né": 7526,
      "à\u0011": 7527,
      "À\u000f": 7528,
      "\fú": 7529,
      "Ä0": 7530,
      "\u001e\u0012": 7531,
      "öò": 7532,
      "ËG": 7533,
      "N\u0000\u0000\u0000": 7534,
      "HÇ$": 7535,
      "/>": 7536,
      "*H": 7537,
      "\f\u0012": 7538,
      "\u000b\n": 7539,
      "·ü": 7540,
      "$": 7541,
      "¡A": 7542,
      "IL": 7543,
      "\u0003": 7544,
      "@-": 7545,
      "ñø": 7546,
      "": 7547,
      "Ý\u0003": 7548,
      "uü": 7549,
      "1ü": 7550,
      "t8": 7551,
      "\"ü": 7552,
      "oü": 7553,
      "íõ": 7554,
      "¤\u0003": 7555,
      "`(": 7556,
      "Ð?": 7557,
      "****": 7558,
      "û": 7559,
      "0\u000e": 7560,
      "\u0007*": 7561,
      "ÒÒÓ": 7562,
      "ng": 7563,
      "\u0014\u0011": 7564,
      "ì÷": 7565,
      "c\u0000": 7566,
      "|z": 7567,
      "Þ\u0003": 7568,
      "¸\u0010": 7569,
      "\u0000": 7570,
      "AÇ": 7571,
      "Yø": 7572,
      "\"\u0006": 7573,
      "lock": 7574,
      "S_": 7575,
      "á\u000b": 7576,
      "-\u0000-\u0000": 7577,
      "ú\u0000": 7578,
      "¨\u0010": 7579,
      "xp": 7580,
      "¶ü": 7581,
      "u.": 7582,
      "D$h": 7583,
      "<?": 7584,
      "À\u000b": 7585,
      "ùò": 7586,
      "Ýé": 7587,
      "E°": 7588,
      "-ü": 7589,
      " \u0012": 7590,
      "(*": 7591,
      "Ú\u0002": 7592,
      "¬²": 7593,
      "q\u0004": 7594,
      "\u000f4": 7595,
      "\u0016û": 7596,
      "ìÿÿ\u0017": 7597,
      "ïÿ": 7598,
      "ü": 7599,
      "ï\u0007": 7600,
[...]
