{
  "version": "1.0",
  "truncation": null,
  "padding": null,
  "added_tokens": [
    {
      "id": 0,
      "content": "<|start|>",
      "single_word": false,
      "lstrip": false,
      "rstrip": false,
      "normalized": false,
      "special": true
    },
    {
      "id": 1,
      "content": "<|end|>",
      "single_word": false,
      "lstrip": false,
      "rstrip": false,
      "normalized": false,
      "special": true
    },
    {
      "id": 2,
      "content": "<|sep|>",
      "single_word": false,
      "lstrip": false,
      "rstrip": false,
      "normalized": false,
      "special": true
    },
    {
      "id": 3,
      "content": "<|cls|>",
      "single_word": false,
      "lstrip": false,
      "rstrip": false,
      "normalized": false,
      "special": true
    },
    {
      "id": 4,
      "content": "<|pad|>",
      "single_word": false,
      "lstrip": false,
      "rstrip": false,
      "normalized": false,
      "special": true
    },
    {
      "id": 5,
      "content": "<|mask|>",
      "single_word": false,
      "lstrip": false,
      "rstrip": false,
      "normalized": false,
      "special": true
    },
    {
      "id": 6,
      "content": "<|unk|>",
      "single_word": false,
      "lstrip": false,
      "rstrip": false,
      "normalized": false,
      "special": true
    },
    {
      "id": 7,
      "content": "<|reserved:0|>",
      "single_word": false,
      "lstrip": false,
      "rstrip": false,
      "normalized": false,
      "special": true
    },
    {
      "id": 8,
      "content": "<|reserved:1|>",
      "single_word": false,
      "lstrip": false,
      "rstrip": false,
      "normalized": false,
      "special": true
    },
    {
      "id": 9,
      "content": "<|reserved:2|>",
      "single_word": false,
      "lstrip": false,
      "rstrip": false,
      "normalized": false,
      "special": true
    },
    {
      "id": 10,
      "content": "<|reserved:3|>",
      "single_word": false,
      "lstrip": false,
      "rstrip": false,
      "normalized": false,
      "special": true
    },
    {
      "id": 11,
      "content": "<|reserved:4|>",
      "single_word": false,
      "lstrip": false,
      "rstrip": false,
      "normalized": false,
      "special": true
    },
    {
      "id": 12,
      "content": "<|reserved:5|>",
      "single_word": false,
      "lstrip": false,
      "rstrip": false,
      "normalized": false,
      "special": true
    },
    {
      "id": 13,
      "content": "<|reserved:6|>",
      "single_word": false,
      "lstrip": false,
      "rstrip": false,
      "normalized": false,
      "special": true
    },
    {
      "id": 14,
      "content": "<|reserved:7|>",
      "single_word": false,
      "lstrip": false,
      "rstrip": false,
      "normalized": false,
      "special": true
    },
    {
      "id": 15,
      "content": "<|reserved:8|>",
      "single_word": false,
      "lstrip": false,
      "rstrip": false,
      "normalized": false,
      "special": true
    },
    {
      "id": 16,
      "content": "<|reserved:9|>",
      "single_word": false,
      "lstrip": false,
      "rstrip": false,
      "normalized": false,
      "special": true
    },
    {
      "id": 17,
      "content": "<|reserved:10|>",
      "single_word": false,
      "lstrip": false,
      "rstrip": false,
      "normalized": false,
      "special": true
    },
    {
      "id": 18,
      "content": "<|reserved:11|>",
      "single_word": false,
      "lstrip": false,
      "rstrip": false,
      "normalized": false,
      "special": true
    },
    {
      "id": 19,
      "content": "<|reserved:12|>",
      "single_word": false,
      "lstrip": false,
      "rstrip": false,
      "normalized": false,
      "special": true
    },
    {
      "id": 20,
      "content": "<|reserved:13|>",
      "single_word": false,
      "lstrip": false,
      "rstrip": false,
      "normalized": false,
      "special": true
    },
    {
      "id": 21,
      "content": "<|reserved:14|>",
      "single_word": false,
      "lstrip": false,
      "rstrip": false,
      "normalized": false,
      "special": true
    },
    {
      "id": 22,
      "content": "<|reserved:15|>",
      "single_word": false,
      "lstrip": false,
      "rstrip": false,
      "normalized": false,
      "special": true
    },
    {
      "id": 23,
      "content": "<|reserved:16|>",
      "single_word": false,
      "lstrip": false,
      "rstrip": false,
      "normalized": false,
      "special": true
    },
    {
      "id": 24,
      "content": "<|reserved:17|>",
      "single_word": false,
      "lstrip": false,
      "rstrip": false,
      "normalized": false,
      "special": true
    },
    {
      "id": 25,
      "content": "<|reserved:18|>",
      "single_word": false,
      "lstrip": false,
      "rstrip": false,
      "normalized": false,
      "special": true
    },
    {
      "id": 26,
      "content": "<|reserved:19|>",
      "single_word": false,
      "lstrip": false,
      "rstrip": false,
      "normalized": false,
      "special": true
    },
    {
      "id": 27,
      "content": "<|reserved:20|>",
      "single_word": false,
      "lstrip": false,
      "rstrip": false,
      "normalized": false,
      "special": true
    },
    {
      "id": 28,
      "content": "<|reserved:21|>",
      "single_word": false,
      "lstrip": false,
      "rstrip": false,
      "normalized": false,
      "special": true
    },
    {
      "id": 29,
      "content": "<|reserved:22|>",
      "single_word": false,
      "lstrip": false,
      "rstrip": false,
      "normalized": false,
      "special": true
    },
    {
      "id": 30,
      "content": "<|reserved:23|>",
      "single_word": false,
      "lstrip": false,
      "rstrip": false,
      "normalized": false,
      "special": true
    },
    {
      "id": 31,
      "content": "<|reserved:24|>",
      "single_word": false,
      "lstrip": false,
      "rstrip": false,
      "normalized": false,
      "special": true
    },
    {
      "id": 32,
      "content": "<|reserved:25|>",
      "single_word": false,
      "lstrip": false,
      "rstrip": false,
      "normalized": false,
      "special": true
    },
    {
      "id": 33,
      "content": "<|reserved:26|>",
      "single_word": false,
      "lstrip": false,
      "rstrip": false,
      "normalized": false,
      "special": true
    },
    {
      "id": 34,
      "content": "<|reserved:27|>",
      "single_word": false,
      "lstrip": false,
      "rstrip": false,
      "normalized": false,
      "special": true
    },
    {
      "id": 35,
      "content": "<|reserved:28|>",
      "single_word": false,
      "lstrip": false,
      "rstrip": false,
      "normalized": false,
      "special": true
    },
    {
      "id": 36,
      "content": "<|reserved:29|>",
      "single_word": false,
      "lstrip": false,
      "rstrip": false,
      "normalized": false,
      "special": true
    },
    {
      "id": 37,
      "content": "<|reserved:30|>",
      "single_word": false,
      "lstrip": false,
      "rstrip": false,
      "normalized": false,
      "special": true
    },
    {
      "id": 38,
      "content": "<|reserved:31|>",
      "single_word": false,
      "lstrip": false,
      "rstrip": false,
      "normalized": false,
      "special": true
    },
    {
      "id": 39,
      "content": "<|reserved:32|>",
      "single_word": false,
      "lstrip": false,
      "rstrip": false,
      "normalized": false,
      "special": true
    },
    {
      "id": 40,
      "content": "<|reserved:33|>",
      "single_word": false,
      "lstrip": false,
      "rstrip": false,
      "normalized": false,
      "special": true
    },
    {
      "id": 41,
      "content": "<|reserved:34|>",
      "single_word": false,
      "lstrip": false,
      "rstrip": false,
      "normalized": false,
      "special": true
    },
    {
      "id": 42,
      "content": "<|reserved:35|>",
      "single_word": false,
      "lstrip": false,
      "rstrip": false,
      "normalized": false,
      "special": true
    },
    {
      "id": 43,
      "content": "<|reserved:36|>",
      "single_word": false,
      "lstrip": false,
      "rstrip": false,
      "normalized": false,
      "special": true
    },
    {
      "id": 44,
      "content": "<|reserved:37|>",
      "single_word": false,
      "lstrip": false,
      "rstrip": false,
      "normalized": false,
      "special": true
    },
    {
      "id": 45,
      "content": "<|reserved:38|>",
      "single_word": false,
      "lstrip": false,
      "rstrip": false,
      "normalized": false,
      "special": true
    },
    {
      "id": 46,
      "content": "<|reserved:39|>",
      "single_word": false,
      "lstrip": false,
      "rstrip": false,
      "normalized": false,
      "special": true
    },
    {
      "id": 47,
      "content": "<|reserved:40|>",
      "single_word": false,
      "lstrip": false,
      "rstrip": false,
      "normalized": false,
      "special": true
    },
    {
      "id": 48,
      "content": "<|reserved:41|>",
      "single_word": false,
      "lstrip": false,
      "rstrip": false,
      "normalized": false,
      "special": true
    },
    {
      "id": 49,
      "content": "<|reserved:42|>",
      "single_word": false,
      "lstrip": false,
      "rstrip": false,
      "normalized": false,
      "special": true
    },
    {
      "id": 50,
      "content": "<|reserved:43|>",
      "single_word": false,
      "lstrip": false,
      "rstrip": false,
      "normalized": false,
      "special": true
    },
    {
      "id": 51,
      "content": "<|reserved:44|>",
      "single_word": false,
      "lstrip": false,
      "rstrip": false,
      "normalized": false,
      "special": true
    },
    {
      "id": 52,
      "content": "<|reserved:45|>",
      "single_word": false,
      "lstrip": false,
      "rstrip": false,
      "normalized": false,
      "special": true
    },
    {
      "id": 53,
      "content": "<|reserved:46|>",
      "single_word": false,
      "lstrip": false,
      "rstrip": false,
      "normalized": false,
      "special": true
    },
    {
      "id": 54,
      "content": "<|reserved:47|>",
      "single_word": false,
      "lstrip": false,
      "rstrip": false,
      "normalized": false,
      "special": true
    },
    {
      "id": 55,
      "content": "<|reserved:48|>",
      "single_word": false,
      "lstrip": false,
      "rstrip": false,
      "normalized": false,
      "special": true
    },
    {
      "id": 56,
      "content": "<|reserved:49|>",
      "single_word": false,
      "lstrip": false,
      "rstrip": false,
      "normalized": false,
      "special": true
    },
    {
      "id": 57,
      "content": "<|reserved:50|>",
      "single_word": false,
      "lstrip": false,
      "rstrip": false,
      "normalized": false,
      "special": true
    },
    {
      "id": 58,
      "content": "<|reserved:51|>",
      "single_word": false,
      "lstrip": false,
      "rstrip": false,
      "normalized": false,
      "special": true
    },
    {
      "id": 59,
      "content": "<|reserved:52|>",
      "single_word": false,
      "lstrip": false,
      "rstrip": false,
      "normalized": false,
      "special": true
    },
    {
      "id": 60,
      "content": "<|reserved:53|>",
      "single_word": false,
      "lstrip": false,
      "rstrip": false,
      "normalized": false,
      "special": true
    },
    {
      "id": 61,
      "content": "<|reserved:54|>",
      "single_word": false,
      "lstrip": false,
      "rstrip": false,
      "normalized": false,
      "special": true
    },
    {
      "id": 62,
      "content": "<|reserved:55|>",
      "single_word": false,
      "lstrip": false,
      "rstrip": false,
      "normalized": false,
      "special": true
    },
    {
      "id": 63,
      "content": "<|reserved:56|>",
      "single_word": false,
      "lstrip": false,
      "rstrip": false,
      "normalized": false,
      "special": true
    },
    {
      "id": 64,
      "content": "<|reserved:57|>",
      "single_word": false,
      "lstrip": false,
      "rstrip": false,
      "normalized": false,
      "special": true
    },
    {
      "id": 65,
      "content": "<|reserved:58|>",
      "single_word": false,
      "lstrip": false,
      "rstrip": false,
      "normalized": false,
      "special": true
    },
    {
      "id": 66,
      "content": "<|reserved:59|>",
      "single_word": false,
      "lstrip": false,
      "rstrip": false,
      "normalized": false,
      "special": true
    },
    {
      "id": 67,
      "content": "<|reserved:60|>",
      "single_word": false,
      "lstrip": false,
      "rstrip": false,
      "normalized": false,
      "special": true
    },
    {
      "id": 68,
      "content": "<|reserved:61|>",
      "single_word": false,
      "lstrip": false,
      "rstrip": false,
      "normalized": false,
      "special": true
    },
    {
      "id": 69,
      "content": "<|reserved:62|>",
      "single_word": false,
      "lstrip": false,
      "rstrip": false,
      "normalized": false,
      "special": true
    },
    {
      "id": 70,
      "content": "<|reserved:63|>",
      "single_word": false,
      "lstrip": false,
      "rstrip": false,
      "normalized": false,
      "special": true
    },
    {
      "id": 71,
      "content": "<|reserved:64|>",
      "single_word": false,
      "lstrip": false,
      "rstrip": false,
      "normalized": false,
      "special": true
    },
    {
      "id": 72,
      "content": "<|reserved:65|>",
      "single_word": false,
      "lstrip": false,
      "rstrip": false,
      "normalized": false,
      "special": true
    },
    {
      "id": 73,
      "content": "<|reserved:66|>",
      "single_word": false,
      "lstrip": false,
      "rstrip": false,
      "normalized": false,
      "special": true
    },
    {
      "id": 74,
      "content": "<|reserved:67|>",
      "single_word": false,
      "lstrip": false,
      "rstrip": false,
      "normalized": false,
      "special": true
    },
    {
      "id": 75,
      "content": "<|reserved:68|>",
      "single_word": false,
      "lstrip": false,
      "rstrip": false,
      "normalized": false,
      "special": true
    },
    {
      "id": 76,
      "content": "<|reserved:69|>",
      "single_word": false,
      "lstrip": false,
      "rstrip": false,
      "normalized": false,
      "special": true
    },
    {
      "id": 77,
      "content": "<|reserved:70|>",
      "single_word": false,
      "lstrip": false,
      "rstrip": false,
      "normalized": false,
      "special": true
    },
    {
      "id": 78,
      "content": "<|reserved:71|>",
      "single_word": false,
      "lstrip": false,
      "rstrip": false,
      "normalized": false,
      "special": true
    },
    {
      "id": 79,
      "content": "<|reserved:72|>",
      "single_word": false,
      "lstrip": false,
      "rstrip": false,
      "normalized": false,
      "special": true
    },
    {
      "id": 80,
      "content": "<|reserved:73|>",
      "single_word": false,
      "lstrip": false,
      "rstrip": false,
      "normalized": false,
      "special": true
    },
    {
      "id": 81,
      "content": "<|reserved:74|>",
      "single_word": false,
      "lstrip": false,
      "rstrip": false,
      "normalized": false,
      "special": true
    },
    {
      "id": 82,
      "content": "<|reserved:75|>",
      "single_word": false,
      "lstrip": false,
      "rstrip": false,
      "normalized": false,
      "special": true
    },
    {
      "id": 83,
      "content": "<|reserved:76|>",
      "single_word": false,
      "lstrip": false,
      "rstrip": false,
      "normalized": false,
      "special": true
    },
    {
      "id": 84,
      "content": "<|reserved:77|>",
      "single_word": false,
      "lstrip": false,
      "rstrip": false,
      "normalized": false,
      "special": true
    },
    {
      "id": 85,
      "content": "<|reserved:78|>",
      "single_word": false,
      "lstrip": false,
      "rstrip": false,
      "normalized": false,
      "special": true
    },
    {
      "id": 86,
      "content": "<|reserved:79|>",
      "single_word": false,
      "lstrip": false,
      "rstrip": false,
      "normalized": false,
      "special": true
    },
    {
      "id": 87,
      "content": "<|reserved:80|>",
      "single_word": false,
      "lstrip": false,
      "rstrip": false,
      "normalized": false,
      "special": true
    },
    {
      "id": 88,
      "content": "<|reserved:81|>",
      "single_word": false,
      "lstrip": false,
      "rstrip": false,
      "normalized": false,
      "special": true
    },
    {
      "id": 89,
      "content": "<|reserved:82|>",
      "single_word": false,
      "lstrip": false,
      "rstrip": false,
      "normalized": false,
      "special": true
    },
    {
      "id": 90,
      "content": "<|reserved:83|>",
      "single_word": false,
      "lstrip": false,
      "rstrip": false,
      "normalized": false,
      "special": true
    },
    {
      "id": 91,
      "content": "<|reserved:84|>",
      "single_word": false,
      "lstrip": false,
      "rstrip": false,
      "normalized": false,
      "special": true
    },
    {
      "id": 92,
      "content": "<|reserved:85|>",
      "single_word": false,
      "lstrip": false,
      "rstrip": false,
      "normalized": false,
      "special": true
    },
    {
      "id": 93,
      "content": "<|reserved:86|>",
      "single_word": false,
      "lstrip": false,
      "rstrip": false,
      "normalized": false,
      "special": true
    },
    {
      "id": 94,
      "content": "<|reserved:87|>",
      "single_word": false,
      "lstrip": false,
      "rstrip": false,
      "normalized": false,
      "special": true
    },
    {
      "id": 95,
      "content": "<|reserved:88|>",
      "single_word": false,
      "lstrip": false,
      "rstrip": false,
      "normalized": false,
      "special": true
    },
    {
      "id": 96,
      "content": "<|reserved:89|>",
      "single_word": false,
      "lstrip": false,
      "rstrip": false,
      "normalized": false,
      "special": true
    },
    {
      "id": 97,
      "content": "<|reserved:90|>",
      "single_word": false,
      "lstrip": false,
      "rstrip": false,
      "normalized": false,
      "special": true
    },
    {
      "id": 98,
      "content": "<|reserved:91|>",
      "single_word": false,
      "lstrip": false,
      "rstrip": false,
      "normalized": false,
      "special": true
    },
    {
      "id": 99,
      "content": "<|reserved:92|>",
      "single_word": false,
      "lstrip": false,
      "rstrip": false,
      "normalized": false,
      "special": true
    },
    {
      "id": 100,
      "content": "<|reserved:93|>",
      "single_word": false,
      "lstrip": false,
      "rstrip": false,
      "normalized": false,
      "special": true
    },
    {
      "id": 101,
      "content": "<|reserved:94|>",
      "single_word": false,
      "lstrip": false,
      "rstrip": false,
      "normalized": false,
      "special": true
    },
    {
      "id": 102,
      "content": "<|reserved:95|>",
      "single_word": false,
      "lstrip": false,
      "rstrip": false,
      "normalized": false,
      "special": true
    },
    {
      "id": 103,
      "content": "<|reserved:96|>",
      "single_word": false,
      "lstrip": false,
      "rstrip": false,
      "normalized": false,
      "special": true
    },
    {
      "id": 104,
      "content": "<|reserved:97|>",
      "single_word": false,
      "lstrip": false,
      "rstrip": false,
      "normalized": false,
      "special": true
    },
    {
      "id": 105,
      "content": "<|reserved:98|>",
      "single_word": false,
      "lstrip": false,
      "rstrip": false,
      "normalized": false,
      "special": true
    },
    {
      "id": 106,
      "content": "<|reserved:99|>",
      "single_word": false,
      "lstrip": false,
      "rstrip": false,
      "normalized": false,
      "special": true
    },
    {
      "id": 107,
      "content": "<|reserved:100|>",
      "single_word": false,
      "lstrip": false,
      "rstrip": false,
      "normalized": false,
      "special": true
    },
    {
      "id": 108,
      "content": "<|reserved:101|>",
      "single_word": false,
      "lstrip": false,
      "rstrip": false,
      "normalized": false,
      "special": true
    },
    {
      "id": 109,
      "content": "<|reserved:102|>",
      "single_word": false,
      "lstrip": false,
      "rstrip": false,
      "normalized": false,
      "special": true
    },
    {
      "id": 110,
      "content": "<|reserved:103|>",
      "single_word": false,
      "lstrip": false,
      "rstrip": false,
      "normalized": false,
      "special": true
    },
    {
      "id": 111,
      "content": "<|reserved:104|>",
      "single_word": false,
      "lstrip": false,
      "rstrip": false,
      "normalized": false,
      "special": true
    },
    {
      "id": 112,
      "content": "<|reserved:105|>",
      "single_word": false,
      "lstrip": false,
      "rstrip": false,
      "normalized": false,
      "special": true
    },
    {
      "id": 113,
      "content": "<|reserved:106|>",
      "single_word": false,
      "lstrip": false,
      "rstrip": false,
      "normalized": false,
      "special": true
    },
    {
      "id": 114,
      "content": "<|reserved:107|>",
      "single_word": false,
      "lstrip": false,
      "rstrip": false,
      "normalized": false,
      "special": true
    },
    {
      "id": 115,
      "content": "<|reserved:108|>",
      "single_word": false,
      "lstrip": false,
      "rstrip": false,
      "normalized": false,
      "special": true
    },
    {
      "id": 116,
      "content": "<|reserved:109|>",
      "single_word": false,
      "lstrip": false,
      "rstrip": false,
      "normalized": false,
      "special": true
    },
    {
      "id": 117,
      "content": "<|reserved:110|>",
      "single_word": false,
      "lstrip": false,
      "rstrip": false,
      "normalized": false,
      "special": true
    },
    {
      "id": 118,
      "content": "<|reserved:111|>",
      "single_word": false,
      "lstrip": false,
      "rstrip": false,
      "normalized": false,
      "special": true
    },
    {
      "id": 119,
      "content": "<|reserved:112|>",
      "single_word": false,
      "lstrip": false,
      "rstrip": false,
      "normalized": false,
      "special": true
    },
    {
      "id": 120,
      "content": "<|reserved:113|>",
      "single_word": false,
      "lstrip": false,
      "rstrip": false,
      "normalized": false,
      "special": true
    },
    {
      "id": 121,
      "content": "<|reserved:114|>",
      "single_word": false,
      "lstrip": false,
      "rstrip": false,
      "normalized": false,
      "special": true
    },
    {
      "id": 122,
      "content": "<|reserved:115|>",
      "single_word": false,
      "lstrip": false,
      "rstrip": false,
      "normalized": false,
      "special": true
    },
    {
      "id": 123,
      "content": "<|reserved:116|>",
      "single_word": false,
      "lstrip": false,
      "rstrip": false,
      "normalized": false,
      "special": true
    },
    {
      "id": 124,
      "content": "<|reserved:117|>",
      "single_word": false,
      "lstrip": false,
      "rstrip": false,
      "normalized": false,
      "special": true
    },
    {
      "id": 125,
      "content": "<|reserved:118|>",
      "single_word": false,
      "lstrip": false,
      "rstrip": false,
      "normalized": false,
      "special": true
    },
    {
      "id": 126,
      "content": "<|reserved:119|>",
      "single_word": false,
      "lstrip": false,
      "rstrip": false,
      "normalized": false,
      "special": true
    },
    {
      "id": 127,
      "content": "<|reserved:120|>",
      "single_word": false,
      "lstrip": false,
      "rstrip": false,
      "normalized": false,
      "special": true
    },
    {
      "id": 128,
      "content": "<|reserved:121|>",
      "single_word": false,
      "lstrip": false,
      "rstrip": false,
      "normalized": false,
      "special": true
    },
    {
      "id": 129,
      "content": "<|reserved:122|>",
      "single_word": false,
      "lstrip": false,
      "rstrip": false,
      "normalized": false,
      "special": true
    },
    {
      "id": 130,
      "content": "<|reserved:123|>",
      "single_word": false,
      "lstrip": false,
      "rstrip": false,
      "normalized": false,
      "special": true
    },
    {
      "id": 131,
      "content": "<|reserved:124|>",
      "single_word": false,
      "lstrip": false,
      "rstrip": false,
      "normalized": false,
      "special": true
    },
    {
      "id": 132,
      "content": "<|reserved:125|>",
      "single_word": false,
      "lstrip": false,
      "rstrip": false,
      "normalized": false,
      "special": true
    },
    {
      "id": 133,
      "content": "<|reserved:126|>",
      "single_word": false,
      "lstrip": false,
      "rstrip": false,
      "normalized": false,
      "special": true
    },
    {
      "id": 134,
      "content": "<|reserved:127|>",
      "single_word": false,
      "lstrip": false,
      "rstrip": false,
      "normalized": false,
      "special": true
    }
  ],
  "normalizer": null,
  "pre_tokenizer": null,
  "post_processor": {
    "type": "TemplateProcessing",
    "single": [
      {
        "SpecialToken": {
          "id": "<|start|>",
          "type_id": 0
        }
      },
      {
        "Sequence": {
          "id": "A",
          "type_id": 0
        }
      },
      {
        "SpecialToken": {
          "id": "<|end|>",
          "type_id": 0
        }
      }
    ],
    "pair": [
      {
        "SpecialToken": {
          "id": "<|start|>",
          "type_id": 0
        }
      },
      {
        "Sequence": {
          "id": "A",
          "type_id": 0
        }
      },
      {
        "SpecialToken": {
          "id": "<|sep|>",
          "type_id": 0
        }
      },
      {
        "Sequence": {
          "id": "B",
          "type_id": 0
        }
      },
      {
        "SpecialToken": {
          "id": "<|end|>",
          "type_id": 0
        }
      }
    ],
    "special_tokens": {
      "<|cls|>": {
        "id": "<|cls|>",
        "ids": [
          3
        ],
        "tokens": [
          "<|cls|>"
        ]
      },
      "<|end|>": {
        "id": "<|end|>",
        "ids": [
          1
        ],
        "tokens": [
          "<|end|>"
        ]
      },
      "<|mask|>": {
        "id": "<|mask|>",
        "ids": [
          5
        ],
        "tokens": [
          "<|mask|>"
        ]
      },
      "<|pad|>": {
        "id": "<|pad|>",
        "ids": [
          4
        ],
        "tokens": [
          "<|pad|>"
        ]
      },
      "<|sep|>": {
        "id": "<|sep|>",
        "ids": [
          2
        ],
        "tokens": [
          "<|sep|>"
        ]
      },
      "<|start|>": {
        "id": "<|start|>",
        "ids": [
          0
        ],
        "tokens": [
          "<|start|>"
        ]
      },
      "<|unk|>": {
        "id": "<|unk|>",
        "ids": [
          6
        ],
        "tokens": [
          "<|unk|>"
        ]
      }
    }
  },
  "decoder": null,
  "model": {
    "type": "BPE",
    "dropout": null,
    "unk_token": null,
    "continuing_subword_prefix": null,
    "end_of_word_suffix": null,
    "fuse_unk": false,
    "byte_fallback": false,
    "ignore_merges": false,
    "vocab": {
      "<|start|>": 0,
      "<|end|>": 1,
      "<|sep|>": 2,
      "<|cls|>": 3,
      "<|pad|>": 4,
      "<|mask|>": 5,
      "<|unk|>": 6,
      "<|reserved:0|>": 7,
      "<|reserved:1|>": 8,
      "<|reserved:2|>": 9,
      "<|reserved:3|>": 10,
      "<|reserved:4|>": 11,
      "<|reserved:5|>": 12,
      "<|reserved:6|>": 13,
      "<|reserved:7|>": 14,
      "<|reserved:8|>": 15,
      "<|reserved:9|>": 16,
      "<|reserved:10|>": 17,
      "<|reserved:11|>": 18,
      "<|reserved:12|>": 19,
      "<|reserved:13|>": 20,
      "<|reserved:14|>": 21,
      "<|reserved:15|>": 22,
      "<|reserved:16|>": 23,
      "<|reserved:17|>": 24,
      "<|reserved:18|>": 25,
      "<|reserved:19|>": 26,
      "<|reserved:20|>": 27,
      "<|reserved:21|>": 28,
      "<|reserved:22|>": 29,
      "<|reserved:23|>": 30,
      "<|reserved:24|>": 31,
      "<|reserved:25|>": 32,
      "<|reserved:26|>": 33,
      "<|reserved:27|>": 34,
      "<|reserved:28|>": 35,
      "<|reserved:29|>": 36,
      "<|reserved:30|>": 37,
      "<|reserved:31|>": 38,
      "<|reserved:32|>": 39,
      "<|reserved:33|>": 40,
      "<|reserved:34|>": 41,
      "<|reserved:35|>": 42,
      "<|reserved:36|>": 43,
      "<|reserved:37|>": 44,
      "<|reserved:38|>": 45,
      "<|reserved:39|>": 46,
      "<|reserved:40|>": 47,
      "<|reserved:41|>": 48,
      "<|reserved:42|>": 49,
      "<|reserved:43|>": 50,
      "<|reserved:44|>": 51,
      "<|reserved:45|>": 52,
      "<|reserved:46|>": 53,
      "<|reserved:47|>": 54,
      "<|reserved:48|>": 55,
      "<|reserved:49|>": 56,
      "<|reserved:50|>": 57,
      "<|reserved:51|>": 58,
      "<|reserved:52|>": 59,
      "<|reserved:53|>": 60,
      "<|reserved:54|>": 61,
      "<|reserved:55|>": 62,
      "<|reserved:56|>": 63,
      "<|reserved:57|>": 64,
      "<|reserved:58|>": 65,
      "<|reserved:59|>": 66,
      "<|reserved:60|>": 67,
      "<|reserved:61|>": 68,
      "<|reserved:62|>": 69,
      "<|reserved:63|>": 70,
      "<|reserved:64|>": 71,
      "<|reserved:65|>": 72,
      "<|reserved:66|>": 73,
      "<|reserved:67|>": 74,
      "<|reserved:68|>": 75,
      "<|reserved:69|>": 76,
      "<|reserved:70|>": 77,
      "<|reserved:71|>": 78,
      "<|reserved:72|>": 79,
      "<|reserved:73|>": 80,
      "<|reserved:74|>": 81,
      "<|reserved:75|>": 82,
      "<|reserved:76|>": 83,
      "<|reserved:77|>": 84,
      "<|reserved:78|>": 85,
      "<|reserved:79|>": 86,
      "<|reserved:80|>": 87,
      "<|reserved:81|>": 88,
      "<|reserved:82|>": 89,
      "<|reserved:83|>": 90,
      "<|reserved:84|>": 91,
      "<|reserved:85|>": 92,
      "<|reserved:86|>": 93,
      "<|reserved:87|>": 94,
      "<|reserved:88|>": 95,
      "<|reserved:89|>": 96,
      "<|reserved:90|>": 97,
      "<|reserved:91|>": 98,
      "<|reserved:92|>": 99,
      "<|reserved:93|>": 100,
      "<|reserved:94|>": 101,
      "<|reserved:95|>": 102,
      "<|reserved:96|>": 103,
      "<|reserved:97|>": 104,
      "<|reserved:98|>": 105,
      "<|reserved:99|>": 106,
      "<|reserved:100|>": 107,
      "<|reserved:101|>": 108,
      "<|reserved:102|>": 109,
      "<|reserved:103|>": 110,
      "<|reserved:104|>": 111,
      "<|reserved:105|>": 112,
      "<|reserved:106|>": 113,
      "<|reserved:107|>": 114,
      "<|reserved:108|>": 115,
      "<|reserved:109|>": 116,
      "<|reserved:110|>": 117,
      "<|reserved:111|>": 118,
      "<|reserved:112|>": 119,
      "<|reserved:113|>": 120,
      "<|reserved:114|>": 121,
      "<|reserved:115|>": 122,
      "<|reserved:116|>": 123,
      "<|reserved:117|>": 124,
      "<|reserved:118|>": 125,
      "<|reserved:119|>": 126,
      "<|reserved:120|>": 127,
      "<|reserved:121|>": 128,
      "<|reserved:122|>": 129,
      "<|reserved:123|>": 130,
      "<|reserved:124|>": 131,
      "<|reserved:125|>": 132,
      "<|reserved:126|>": 133,
      "<|reserved:127|>": 134,
      "\u0000": 135,
      "\u0001": 136,
      "\u0002": 137,
      "\u0003": 138,
      "\u0004": 139,
      "\u0005": 140,
      "\u0006": 141,
      "\u0007": 142,
      "\b": 143,
      "\t": 144,
      "\n": 145,
      "\u000b": 146,
      "\f": 147,
      "\r": 148,
      "\u000e": 149,
      "\u000f": 150,
      "\u0010": 151,
      "\u0011": 152,
      "\u0012": 153,
      "\u0013": 154,
      "\u0014": 155,
      "\u0015": 156,
      "\u0016": 157,
      "\u0017": 158,
      "\u0018": 159,
      "\u0019": 160,
      "\u001a": 161,
      "\u001b": 162,
      "\u001c": 163,
      "\u001d": 164,
      "\u001e": 165,
      "\u001f": 166,
      " ": 167,
      "!": 168,
      "\"": 169,
      "#": 170,
      "$": 171,
      "%": 172,
      "&": 173,
      "'": 174,
      "(": 175,
      ")": 176,
      "*": 177,
      "+": 178,
      ",": 179,
      "-": 180,
      ".": 181,
      "/": 182,
      "0": 183,
      "1": 184,
      "2": 185,
      "3": 186,
      "4": 187,
      "5": 188,
      "6": 189,
      "7": 190,
      "8": 191,
      "9": 192,
      ":": 193,
      ";": 194,
      "<": 195,
      "=": 196,
      ">": 197,
      "?": 198,
      "@": 199,
      "A": 200,
      "B": 201,
      "C": 202,
      "D": 203,
      "E": 204,
      "F": 205,
      "G": 206,
      "H": 207,
      "I": 208,
      "J": 209,
      "K": 210,
      "L": 211,
      "M": 212,
      "N": 213,
      "O": 214,
      "P": 215,
      "Q": 216,
      "R": 217,
      "S": 218,
      "T": 219,
      "U": 220,
      "V": 221,
      "W": 222,
      "X": 223,
      "Y": 224,
      "Z": 225,
      "[": 226,
      "\\": 227,
      "]": 228,
      "^": 229,
      "_": 230,
      "`": 231,
      "a": 232,
      "b": 233,
      "c": 234,
      "d": 235,
      "e": 236,
      "f": 237,
      "g": 238,
      "h": 239,
      "i": 240,
      "j": 241,
      "k": 242,
      "l": 243,
      "m": 244,
      "n": 245,
      "o": 246,
      "p": 247,
      "q": 248,
      "r": 249,
      "s": 250,
      "t": 251,
      "u": 252,
      "v": 253,
      "w": 254,
      "x": 255,
      "y": 256,
      "z": 257,
      "{": 258,
      "|": 259,
      "}": 260,
      "~": 261,
      "": 262,
      "": 263,
      "": 264,
      "": 265,
      "": 266,
      "": 267,
      "": 268,
      "": 269,
      "": 270,
      "": 271,
      "": 272,
      "": 273,
      "": 274,
      "": 275,
      "": 276,
      "": 277,
      "": 278,
      "": 279,
      "": 280,
      "": 281,
      "": 282,
      "": 283,
      "": 284,
      "": 285,
      "": 286,
      "": 287,
      "": 288,
      "": 289,
      "": 290,
      "": 291,
      "": 292,
      "": 293,
      "": 294,
      " ": 295,
      "¡": 296,
      "¢": 297,
      "£": 298,
      "¤": 299,
      "¥": 300,
      "¦": 301,
      "§": 302,
      "¨": 303,
      "©": 304,
      "ª": 305,
      "«": 306,
      "¬": 307,
      "­": 308,
      "®": 309,
      "¯": 310,
      "°": 311,
      "±": 312,
      "²": 313,
      "³": 314,
      "´": 315,
      "µ": 316,
      "¶": 317,
      "·": 318,
      "¸": 319,
      "¹": 320,
      "º": 321,
      "»": 322,
      "¼": 323,
      "½": 324,
      "¾": 325,
      "¿": 326,
      "À": 327,
      "Á": 328,
      "Â": 329,
      "Ã": 330,
      "Ä": 331,
      "Å": 332,
      "Æ": 333,
      "Ç": 334,
      "È": 335,
      "É": 336,
      "Ê": 337,
      "Ë": 338,
      "Ì": 339,
      "Í": 340,
      "Î": 341,
      "Ï": 342,
      "Ð": 343,
      "Ñ": 344,
      "Ò": 345,
      "Ó": 346,
      "Ô": 347,
      "Õ": 348,
      "Ö": 349,
      "×": 350,
      "Ø": 351,
      "Ù": 352,
      "Ú": 353,
      "Û": 354,
      "Ü": 355,
      "Ý": 356,
      "Þ": 357,
      "ß": 358,
      "à": 359,
      "á": 360,
      "â": 361,
      "ã": 362,
      "ä": 363,
      "å": 364,
      "æ": 365,
      "ç": 366,
      "è": 367,
      "é": 368,
      "ê": 369,
      "ë": 370,
      "ì": 371,
      "í": 372,
      "î": 373,
      "ï": 374,
      "ð": 375,
      "ñ": 376,
      "ò": 377,
      "ó": 378,
      "ô": 379,
      "õ": 380,
      "ö": 381,
      "÷": 382,
      "ø": 383,
      "ù": 384,
      "ú": 385,
      "û": 386,
      "ü": 387,
      "ý": 388,
      "þ": 389,
      "ÿ": 390,
      "\u0000\u0000": 391,
      "\u0000\u0000\u0000\u0000": 392,
      "ÿÿ": 393,
      "\u0000\u0000\u0000\u0000\u0000\u0000\u0000\u0000": 394,
      "\u0000\u0000\u0000": 395,
      "ÿÿÿÿ": 396,
      "ÌÌ": 397,
      "\u0000\u0000\u0000\u0000\u0000\u0000\u0000\u0000\u0000\u0000\u0000\u0000\u0000\u0000\u0000\u0000": 398,
      "H": 399,
      "ÿÿÿÿÿÿÿÿ": 400,
      "ÌÌÌÌ": 401,
      "~~": 402,
      "\u0001\u0000": 403,
      "H": 404,
      "H": 405,
      "\u0002\u0000": 406,
      "\u0001\u0000\u0000": 407,
      "ÿÿÿÿÿÿÿÿÿÿÿÿÿÿÿÿ": 408,
      "\u0000\u0000\u0000\u0000\u0000": 409,
      "\u0001\u0000\u0000\u0000": 410,
      "\u0003\u0000": 411,
      "~~~~": 412,
      "\u0004\u0000": 413,
      "H": 414,
      "ÌÌÌÌÌÌÌÌ": 415,
      "@ù": 416,
      "D$": 417,
      "\u0000": 418,
      "\u0000\u0000\u0000\u0000\u0000\u0000": 419,
      " \u0000": 420,
      "ÍÍ": 421,
      "\u000f\u0010": 422,
      "\u0002\u0000\u0000": 423,
      "L": 424,
      "à\u0003": 425,
      "~~~~~~~~": 426,
      "\u0006\u0000": 427,
      "D\u000f": 428,
      "  ": 429,
      "I": 430,
      "\u0000\u0000\u0000\u0000\u0000\u0000\u0000": 431,
      "\b\u0000": 432,
      "L": 433,
      "\u0005\u0000": 434,
      "A\u000f": 435,
      "ÿÿ\u0017": 436,
      "ÿ": 437,
      "\u0007\u0000": 438,
      "À": 439,
      "ÿÿÿ": 440,
      "ó\u000f": 441,
      "L": 442,
      "\u0010\u0000": 443,
      "\u000f": 444,
      "f\u000f": 445,
      "@\u0000": 446,
      "\u0003\u0000\u0000": 447,
      "@¹": 448,
      "\n\u0000": 449,
      "E\u000f": 450,
      "L$": 451,
      "\u0004\u0000\u0000": 452,
      "\\$": 453,
      "\u0003Õ": 454,
      "R": 455,
      "þÿ": 456,
      "\u0001\u0001": 457,
      "\u000f": 458,
      "ý{": 459,
      "a\u0000": 460,
      "t$": 461,
      "ÍÍÍÍ": 462,
      "\u0000\u0001": 463,
      "\u0000ù": 464,
      "e\u0000": 465,
      "\u0000": 466,
      "ÿ\u0015": 467,
      "\u0000R": 468,
      "ÌÌÌÌÌÌÌÌÌÌÌÌÌÌÌÌ": 469,
      "\t\u0000": 470,
      "\u000f(": 471,
      "\u000f\u0011": 472,
      "$": 473,
      "\" ": 474,
      "HÄ": 475,
      "\u0000 ": 476,
      "D": 477,
      "~~~~~~~~~~~~~~~~": 478,
      "|$": 479,
      "H": 480,
      "\u000e\u0000": 481,
      "`\u0000": 482,
      "0\u0000": 483,
      "\f\u0000": 484,
      "o\u0000": 485,
      "á\u0003": 486,
      "Ò": 487,
      "\u000f": 488,
      "\u0001\u0000\u0000\u0000": 489,
      "T$": 490,
      "\u0003\u0000ª": 491,
      "\u0005\u0000\u0000": 492,
      "\u000b\u0000": 493,
      "ÄA": 494,
      "\u000f\u0000": 495,
      "t\u0000": 496,
      "\u0002\u0000\u0000\u0000": 497,
      "\u0004\u0000\u0000\u0000": 498,
      "\" \u000f": 499,
      "3À": 500,
      "in": 501,
      "Hì": 502,
      "\r\u0000": 503,
      "\"\u0000": 504,
      "A": 505,
      "d\u0000": 506,
      "H;": 507,
      "\u000f¶": 508,
      "ýÿ": 509,
      "i\u0000": 510,
      "D": 511,
      "À\u0003": 512,
      "\u0000\u0000": 513,
      "!\u0001": 514,
      "\u0014\u0000": 515,
      "óS": 516,
      "\u0013ª": 517,
      "s\u0000": 518,
      "n\u0000": 519,
      "I": 520,
      "4\u0000": 521,
      "\u0006\u0000\u0000": 522,
      "A\u0000": 523,
      "\u001f\u0000": 524,
      "ÄÁ": 525,
      "_\u0000": 526,
      "\u0000\u0000\u0000H": 527,
      "\u0002\u0002": 528,
      "þÿÿ": 529,
      "er": 530,
      "    ": 531,
      "\b\u0000\u0000": 532,
      "\u0000\u0000T": 533,
      "$": 534,
      "c\u0000": 535,
      "ø": 536,
      "@\u0000\u0000\u0000": 537,
      "HD$": 538,
      "1\u0000": 539,
      "\u0000\u0000\u0000\u0000\u0000\u0000\u0000\u0000\u0000": 540,
      "üÿ": 541,
      "_Ö": 542,
      "\u0012\u0000": 543,
      "\u0003\u0001": 544,
      "dd": 545,
      "@9": 546,
      "À\u0003_Ö": 547,
      "l$": 548,
      "r\u0000": 549,
      "\bÀ": 550,
      "H\u0005": 551,
      "!\u0000": 552,
      "p\u0000": 553,
      "D\u0000": 554,
      ".\u0000": 555,
      "2\u0000": 556,
      "#\u0003Õ": 557,
      "E\u0000": 558,
      "H": 559,
      "þ": 560,
      "\u0000": 561,
      "Àt": 562,
      "\u0000\u0000\u0000\u0000\u0000\u0000\u0000\u0000\u0000\u0000\u0000": 563,
      "\u0003\u0000\u0000\u0000": 564,
      "E": 565,
      "\u0003\u0003": 566,
      "\u0000q": 567,
      "\u0010\u0000\u0000": 568,
      "on": 569,
      "ùù": 570,
      "\u0007\u0000\u0000": 571,
      "ÿH": 572,
      "\u0004\u0004": 573,
      "ÍÍÍÍÍÍÍÍ": 574,
      "8\u0000": 575,
      "\u001f ": 576,
      "\u0000@": 577,
      "Ä": 578,
      "HÇ": 579,
      "\u0000¹": 580,
      " \u0000": 581,
      "\u000f\u001f": 582,
      "\u0014ª": 583,
      "00": 584,
      "re": 585,
      "\u0011\u0000": 586,
      "ý": 587,
      "\u0000\u0000\u0000": 588,
      "ûÿ": 589,
      "\u000fY": 590,
      "â\u0003": 591,
      "\u001f \u0003Õ": 592,
      "\u0002\u0001": 593,
      "M": 594,
      "ó\u000f\u0010": 595,
      "AA": 596,
      "àx": 597,
      "\u0000\u0004": 598,
      "HÁ": 599,
      "ÿu": 600,
      "\u0005\u0005": 601,
      "\u0001\u0000\u0000\u0000\u0000": 602,
      "¼$": 603,
      "õ[": 604,
      "\u001c\u0000": 605,
      "at": 606,
      "ÌÌÌ": 607,
      "H\\$": 608,
      "\u0001\u0000\u0000\u0000\u0000\u0000": 609,
      "\u0000ÿ": 610,
      "\u0003\u0000": 611,
      "Hÿ": 612,
      "A¸": 613,
      "$\u0000": 614,
      "E": 615,
      "6\u0000": 616,
      "M": 617,
      "\u0018\u0000": 618,
      "3Ò": 619,
      "\u0016\u0000": 620,
      "ÇE": 621,
      "or": 622,
      " %": 623,
      "H\u0015": 624,
      "à\u0003\u0013ª": 625,
      "P\u0000": 626,
      "l\u0000": 627,
      "HË": 628,
      "\u000f·": 629,
      "\u0000(": 630,
      "\u0001t": 631,
      "st": 632,
      "À": 633,
      "ÿT": 634,
      "I": 635,
      "3\u0000": 636,
      "-\u0000": 637,
      "j\u0000": 638,
      "\u0003\u0002": 639,
      "\u0000\u0000H": 640,
      "\u0010\u0010": 641,
      "\u0000ð": 642,
      "A\u000e": 643,
      "À\u0000": 644,
      "\u0001\u0000\u0001\u0000": 645,
      "$": 646,
      "Hc": 647,
      "\u0001\u0000T": 648,
      "u\u0000": 649,
      "\u001a\u0000": 650,
      "I\u0000": 651,
      "D\u000f(": 652,
      "\b\u0000\u0000\u0000": 653,
      "H\u0003": 654,
      "\u0001 ": 655,
      "\u0015ª": 656,
      "´$": 657,
      "ý\u0003\u0000": 658,
      "D$ ": 659,
      "9\u0000": 660,
      "Pè": 661,
      "C\u0000": 662,
      "HÄ ": 663,
      "H\\$": 664,
      "\t\u0000\u0000": 665,
      "Ét": 666,
      "E3": 667,
      "ÿ": 668,
      "\u0005\u0000\u0000\u0000": 669,
      "\u000f)": 670,
      "]Ã": 671,
      "\u0001\u0004": 672,
      ",\u0000": 673,
      "\u0013\u0000": 674,
      "\u0000\u0000\u0000è": 675,
      "S\u0000": 676,
      "\u0003\u0000*": 677,
      "$": 678,
      "5\u0000": 679,
      "úÿ": 680,
      "A©": 681,
      "F\u0000": 682,
      "=\u0000": 683,
      "_^": 684,
      "e ": 685,
      "ýÿÿ": 686,
      "_Ã": 687,
      "\u0019\u0000": 688,
      "I": 689,
      "%\u0000": 690,
      "Ïè": 691,
      "øÿ": 692,
      "al": 693,
      "Fù": 694,
      "&\u0000": 695,
      "H\u0000": 696,
      "\u0000\u0000\u0000\u0000\u0000\u0001\u0000": 697,
      "AV": 698,
      "ò\u000f": 699,
      "ðÿ": 700,
      "\u0001\u0000\u0000H": 701,
      " H": 702,
      "B\u0000": 703,
      "ð\u0000": 704,
      "|H": 705,
      "\u0001©": 706,
      "7\u0000": 707,
      "T\u0000": 708,
      "\u0001ÿ": 709,
      "\n\u0000\u0000": 710,
      "ff": 711,
      "ùÿ": 712,
      "\u0003\u0004": 713,
      "L\u0005": 714,
      "óA\u000f": 715,
      "ó\u000f\u0011": 716,
      "\u0000Ò": 717,
      "\bH": 718,
      "?\u0000": 719,
      " \n": 720,
      "\u0000\u0000": 721,
      "en": 722,
      "\u0015\u0000": 723,
      "÷c": 724,
      "t ": 725,
      "M\u0000": 726,
      "\u0002\u0004": 727,
      "(\u0000": 728,
      "ar": 729,
      "\b": 730,
      "ÿ\u000f": 731,
      "\u0001u": 732,
      "\u0010": 733,
      "H\u000f": 734,
      "\u0016ª": 735,
      "\u001e\u0000": 736,
      "d ": 737,
      "\u0000\u0004\u0000": 738,
      "D$": 739,
      "\u0010\u0000\u0000\u0000": 740,
      "\bH": 741,
      "D\u000fY": 742,
      "A^": 743,
      "\u000b\u0000\u0000": 744,
      "\u000fW": 745,
      "et": 746,
      "A": 747,
      "\u0010\u0001": 748,
      "Gù": 749,
      "A": 750,
      "\b\u0002": 751,
      "Aÿ": 752,
      "Îè": 753,
      "\u0017\u0000": 754,
      "A¹": 755,
      "H\u0012": 756,
      "m\u0000": 757,
      "E": 758,
      "¬$": 759,
      "H3": 760,
      "\b\u0000\u0000\u0000\u0000\u0000\u0000\u0000": 761,
      "\u0000\u0000\u0000": 762,
      "@\u0000\u0000": 763,
      "¿#\u0003Õ": 764,
      "@\u0001\u0000\u0000\u0000": 765,
      ":\u0000": 766,
      "\f\u0000\u0000": 767,
      "Ð\u0000": 768,
      "÷ÿ": 769,
      "an": 770,
      "\u0001": 771,
      "s ": 772,
      "\u0000": 773,
      "*\u0000": 774,
      "d$": 775,
      "D\u000f\u0010": 776,
      "ÞÝ": 777,
      "!\u0001\u0000": 778,
      "ÌÌÌÌÌÌÌÌÌÌÌÌ": 779,
      "\u001f\u0000\u0000": 780,
      "g\u0000": 781,
      "ÇD$": 782,
      "HL$": 783,
      "/\u0000": 784,
      "ó\u000fY": 785,
      "E": 786,
      "#\u0000": 787,
      "\u0004": 788,
      "H\r": 789,
      "AT": 790,
      "\" \u000f\bÀ": 791,
      "H+": 792,
      "HM": 793,
      "M": 794,
      "?#\u0003Õ": 795,
      "I;": 796,
      "\u0000\u0000\u0000": 797,
      "WHì": 798,
      "R\u0000": 799,
      "[Ã": 800,
      "Àu": 801,
      "Èè": 802,
      " \u0000\u0000\u0000": 803,
      "<\u0000": 804,
      "\u0005\u0001": 805,
      "O\u0000": 806,
      "öÿ": 807,
      "H\r": 808,
      "à\u0003\u0014ª": 809,
      "ÿ\u0000": 810,
      "v\u0000": 811,
      "Åø": 812,
      "\u0010H": 813,
      "@@": 814,
      " \u0000 \u0000": 815,
      "fA\u000f": 816,
      "\u001b\u0000": 817,
      "õÿ": 818,
      "\r\n": 819,
      "\u0001H": 820,
      "h\u0000": 821,
      ")\u0000": 822,
      "\u001d\u0000": 823,
      "\u0000": 824,
      "N\u0000": 825,
      " \u0000\u0000\u0000": 826,
      "y\u0000": 827,
      "óSA©": 828,
      "W\u0000": 829,
      "(\n": 830,
      "HE": 831,
      " \u0000\u0000": 832,
      "\u000f": 833,
      "`\u0006": 834,
      "U": 835,
      "°\u0000": 836,
      "ti": 837,
      " è": 838,
      "\"\u0001": 839,
      "B©": 840,
      "E\u000fY": 841,
      "\u0001\u0000Ò": 842,
      "\u0006\u0003": 843,
      "ü": 844,
      "ò\u000f\u0010": 845,
      "te": 846,
      "\u0001\u0002": 847,
      "ro": 848,
      "HÉt": 849,
      "L\u0000": 850,
      "\u0004": 851,
      "\r\u0000\u0000": 852,
      "le": 853,
      "`\u0002": 854,
      "K\u0000": 855,
      "b\u0000": 856,
      "0H": 857,
      " \u0002": 858,
      "ÍÍÍÍÍÍÍÍÍÍÍÍÍÍÍÍ": 859,
      "A\\": 860,
      "\u0000": 861,
      "\u0010\u0000\u0000\u0000\u0000\u0000": 862,
      "]Â": 863,
      "'\u0000": 864,
      "ïÿ": 865,
      "Åx": 866,
      "\u0002©": 867,
      "?\u0000\u0000": 868,
      "@\u0001": 869,
      "\u0017ª": 870,
      "        ": 871,
      "Uì": 872,
      "HI": 873,
      "Áè": 874,
      ";\u0000": 875,
      "H9": 876,
      "üÿÿ": 877,
      "ñÀ": 878,
      "ÿt": 879,
      "VW": 880,
      "E3À": 881,
      "\u0000\u0000\u0000\u0000\u0000\u0000\u0000\u0000\u0000\u0000\u0000\u0000": 882,
      "HËè": 883,
      "©ÿ": 884,
      "nv": 885,
      "A\u000f(": 886,
      "\"": 887,
      "Ç": 888,
      "à": 889,
      "x\u0000": 890,
      "\u000f\u0000\u0000": 891,
      "\u0001": 892,
      "de": 893,
      "ùk": 894,
      " \u0001": 895,
      "ÿ÷": 896,
      "\u000f\u000f": 897,
      "\u0000\u0000\u0000\u0000\u0000": 898,
      "lo": 899,
      "\u0002\u0000T": 900,
      "ôÿ": 901,
      "1À": 902,
      "}H": 903,
      "D\u0000\u0000": 904,
      "°\u0001": 905,
      "À\u0000\u0000\u0000": 906,
      "f\u0000": 907,
      "ùùùù": 908,
      "\u0001\u0010": 909,
      "à\u0000": 910,
      "\u0006\u0000\u0000\u0000": 911,
      " \u0002": 912,
      "¨À\u0003_Ö": 913,
      "ic": 914,
      "þþ": 915,
      "Ïÿ": 916,
      "@\u0004": 917,
      "ó\u0003\u0000ª": 918,
      "+\u0000": 919,
      "\u0000\u0000\u0001": 920,
      "Ïp": 921,
      "HÀt": 922,
      "\u0003\u0001ª": 923,
      "f": 924,
      "ÿÿ": 925,
      "3É": 926,
      "A_": 927,
      "\u0000\u0000\u0000\u0000\u0000\u0000\u0000\u0000\u0000\u0000\u0000\u0000\u0000\u0000\u0000": 928,
      "\u0000\u0000R": 929,
      "°\u0000\u0000\u0000": 930,
      "k\u0000": 931,
      "å": 932,
      "©ý\u0003\u0000": 933,
      "\t\u0005": 934,
      "am": 935,
      "\u000fX": 936,
      "h\u001a": 937,
      "@\b": 938,
      "\u0000\u0000": 939,
      "HT$": 940,
      "\u001f\u0004\u0000": 941,
      "Ìè": 942,
      "A\u000b": 943,
      ">\u0000": 944,
      "\u0001q": 945,
      "\u0010H": 946,
      "ñÿ": 947,
      "IÁ": 948,
      "¹": 949,
      "û": 950,
      "\u0006\u0006": 951,
      "óÿ": 952,
      "ÓÔ": 953,
      "èÿ": 954,
      "\u0000\u0000\u0000\u0000\u0000\u0000\u0002\u0000": 955,
      "\u0004\u0000\u0000\u0000\u0000": 956,
      "\u0001\u0000\u0000\u0000\u0000\u0000\u0000": 957,
      "\u0010ÿ": 958,
      "\u0002\u0003": 959,
      "\u0018ª": 960,
      "ba": 961,
      "\u0004\u0000": 962,
      "G\u0000": 963,
      "\u0002\u0000\u0002\u0000": 964,
      "B\u000e": 965,
      "\u0002 ": 966,
      "ó\u000fX": 967,
      "M": 968,
      "ã\u0003": 969,
      "M": 970,
      "U\u0000": 971,
      "\u001f \u0003Õ\u001f \u0003Õ": 972,
      "\u0007\u0000\u0000\u0000": 973,
      "\u0000\u0000\u0000\u0000\u0000\u0002\u0000": 974,
      "\u000f¯": 975,
      "\bè": 976,
      "òÿ": 977,
      "A\u000f\u0010": 978,
      "\u0002\u0005": 979,
      "HÀ": 980,
      "Ht$": 981,
      "X\u0000": 982,
      "w\u0000": 983,
      "ýý": 984,
      "dddd": 985,
      "ú\u0000": 986,
      "óS\u0001©": 987,
      "¨¿#\u0003Õ": 988,
      "îÿ": 989,
      "bñ": 990,
      "L\r": 991,
      "[\u0000": 992,
      "\u000e\u0000\u0000": 993,
      "À\u000f": 994,
      "ü\u0000": 995,
      "Iÿ": 996,
      "Q\u0000": 997,
      " \n\u0005": 998,
      "A": 999,
      "0\u0000\u0000\u0000": 1000,
      "!\u0000\u0000\u0000": 1001,
      "\u0000\u0000\u0000": 1002,
      "¤$": 1003,
      "j\u0001": 1004,
      "E\u000fX": 1005,
      "un": 1006,
      "E\u000f(": 1007,
      "HU": 1008,
      "\f": 1009,
      "@": 1010,
      "": 1011,
      "\u0004\u0001": 1012,
      "\u0000": 1013,
      "ing": 1014,
      "L\u0003": 1015,
      "à\u0003\u0015ª": 1016,
      "\\\u0000": 1017,
      "ø\u0000": 1018,
      "ë\u0003": 1019,
      "|\u0011": 1020,
      "D\u000f\u0011": 1021,
      "AU": 1022,
      "\u0000\u0000": 1023,
      ": ": 1024,
      "@S": 1025,
      "M": 1026,
      "\f\f": 1027,
      "ë\u0002": 1028,
      "D\u000fX": 1029,
      "10": 1030,
      "f\u000f\u001f": 1031,
      "3ÿ": 1032,
      "\u0003ÿ": 1033,
      "àÿ": 1034,
      "íÿ": 1035,
      "\u0001\u0006": 1036,
      "\u0013@": 1037,
      "\u0001\u000f": 1038,
      "L;": 1039,
      ", ": 1040,
      "?\u0000\u0000\u0000": 1041,
      "\u0014\u0000\u000e": 1042,
      "\u0000": 1043,
      "I\u0003": 1044,
      "\u000f\u0000\u0000\u0000": 1045,
      "îî": 1046,
      "ìÿ": 1047,
      "Ã@": 1048,
      "ec": 1049,
      "\u0001\u0000@ù": 1050,
      "In": 1051,
      "\u00020": 1052,
      "ÆE": 1053,
      "?#\u0003Õý{": 1054,
      "ÿÿ": 1055,
      "\u0010è": 1056,
      "\u0002@ù": 1057,
      "\u000f": 1058,
      "ÿ": 1059,
      "\u0000\u0000\u0000": 1060,
      "": 1061,
      "A]": 1062,
      "ÿÿH": 1063,
      "éÿ": 1064,
      "\f\u0000\u0000\u0000": 1065,
      "A": 1066,
      "as": 1067,
      "Ç\u0000": 1068,
      "C©": 1069,
      "\u0006\u0001": 1070,
      "ÿÿT": 1071,
      "\t\u0000\u0000\u0000": 1072,
      "  \u000f": 1073,
      "Hß": 1074,
      "\u0000": 1075,
      "{\u0010": 1076,
      "E": 1077,
      "b\u0001": 1078,
      "\t\t": 1079,
      "\u0000\u0001ë": 1080,
      "D": 1081,
      "\u0005\u0004": 1082,
      "\u0001\u0001\u0001\u0001": 1083,
      "@ ": 1084,
      " ": 1085,
      "\u0000\u0000è": 1086,
      "ì": 1087,
      "@\u0010": 1088,
      "\u001aª": 1089,
      "\f\u0002": 1090,
      "D$0": 1091,
      "\u000f": 1092,
      "æÿ": 1093,
      "\u0001\b": 1094,
      "ëÿ": 1095,
      "\u0003\u0000\u0000\u0000\u0000": 1096,
      "C\b": 1097,
      "\u0007\u0007": 1098,
      "HÁ": 1099,
      "Hø": 1100,
      "Ð\u0000\u0000\u0000": 1101,
      "áÿ": 1102,
      "à\u0000\u0000\u0000": 1103,
      "|\u0010": 1104,
      "\u0001": 1105,
      "E3É": 1106,
      "ûs": 1107,
      "\u0000ðFù": 1108,
      "À": 1109,
      "\u0004$": 1110,
      "": 1111,
      "D\u000f)": 1112,
      "a\u0000\u0000\u0000": 1113,
      "__": 1114,
      "\u0000": 1115,
      "ý{Á": 1116,
      "\u000fÆ": 1117,
      "H¸": 1118,
      "\u0006\u0003U": 1119,
      "à": 1120,
      "\u0003©": 1121,
      "Hì": 1122,
      "ac": 1123,
      "\u0019ª": 1124,
      "]\u0000": 1125,
      "çÿ": 1126,
      "\u0002\u0010": 1127,
      "þÿ\u0017": 1128,
      "it": 1129,
      "4\u0000\u0014\u0000\u000e": 1130,
      "%ÿ": 1131,
      "üü": 1132,
      "\u0002\u0000\u0000\u0000\u0000": 1133,
      "ù": 1134,
      "\u0001\u0000\u0000": 1135,
      "\bÿ": 1136,
      "HL$": 1137,
      "\u0002ë": 1138,
      "H": 1139,
      "co": 1140,
      "þ\u0000": 1141,
      "þO": 1142,
      "¨ÿ": 1143,
      "(ÿ": 1144,
      "V1": 1145,
      "\u0004\u0003": 1146,
      "Y\u0000": 1147,
      "q\u0000": 1148,
      "\u0001\u0000\u0000": 1149,
      "ò\u000f\u0011": 1150,
      "åÿ": 1151,
      "õ[B©": 1152,
      "\u000f": 1153,
      "H=": 1154,
      "\u0002ÿ": 1155,
      "ý\u0000": 1156,
      "HÂ": 1157,
      "êÿ": 1158,
      "%s": 1159,
      " ": 1160,
      "V\u0000": 1161,
      ",,": 1162,
      "ÿÃ": 1163,
      "ù\u0000": 1164,
      "si": 1165,
      "y": 1166,
      "@H": 1167,
      "PP": 1168,
      "}\u0000": 1169,
      "Òt": 1170,
      "\u0002": 1171,
      " ": 1172,
      "\u0005è": 1173,
      "\f": 1174,
      "Èÿ": 1175,
      "": 1176,
      "ð\u0000\u0000\u0000": 1177,
      "\u0000\u0000\u0000\u0000\u0000\u0000\u0000\u0000\u0000\u0000\u0000\u0000\u0000": 1178,
      "HM": 1179,
      "`\u0000\u0000": 1180,
      "\u001a": 1181,
      "â#": 1182,
      "\u0005ÿ": 1183,
      "|\u0000": 1184,
      "Ëÿ": 1185,
      "\u0003\u0000T": 1186,
      "âÿ": 1187,
      "­\u0000": 1188,
      "\u000f/": 1189,
      "`\u0001": 1190,
      "\u0004ÿ": 1191,
      "\u0013@Ñ": 1192,
      "H$": 1193,
      "A\u000fY": 1194,
      "o\u0000o\u0000": 1195,
      "nvnv": 1196,
      " \u0000R": 1197,
      "À\u0001": 1198,
      "\b\u0001": 1199,
      "\u0004@": 1200,
      "z\u0000": 1201,
      "bò": 1202,
      "¨\u0000\u0000\u0000": 1203,
      "à\u0007": 1204,
      "@8": 1205,
      "\u0000": 1206,
      "\u000fWÀ": 1207,
      "\u0011\u0000\u0000": 1208,
      "C\u0010": 1209,
      "\u0000": 1210,
      "¸\u0000": 1211,
      " ": 1212,
      "\u0013*": 1213,
      "A\b": 1214,
      "F\u0000\u0000\u0000\u0000\u0000": 1215,
      "Àÿ": 1216,
      "J\u0000": 1217,
      "\u000f®": 1218,
      "\b\u0010": 1219,
      "$ÿ": 1220,
      "\u000b@ù": 1221,
      "H÷": 1222,
      "\u0000\u0000\u0000\u0000\u0000\u0000\u0000\u0000\u0000\u0000": 1223,
      "HÛ": 1224,
      "à\u0003\u0016ª": 1225,
      "ûÿÿ": 1226,
      "A_A^": 1227,
      "il": 1228,
      "no": 1229,
      "HL$": 1230,
      "\n\u0004": 1231,
      "¤ÿ": 1232,
      "þÿT": 1233,
      "\u0014\u0000\u0000\u0000": 1234,
      "äÿ": 1235,
      "\u0002\u0000Ò": 1236,
      "H$": 1237,
      "Îÿ": 1238,
      "to": 1239,
      "M": 1240,
      "\u0001\u0000`\u0000": 1241,
      "p\u0001": 1242,
      "Pÿ": 1243,
      "AW": 1244,
      "Z\u0000": 1245,
      "ÕÖ": 1246,
      "Äâ": 1247,
      "ÌÌÌÌÌÌÌÌÌÌÌ": 1248,
      "\u0000\u0000\b": 1249,
      "±\u0000": 1250,
      "ch": 1251,
      "Åü": 1252,
      "\u0007ÿ": 1253,
      "\u0001\u0000\u0000\u0000\u0000\u0000\u0000\u0000": 1254,
      "À\u000f": 1255,
      "ø\u0003": 1256,
      "b¡": 1257,
      "\b\b": 1258,
      "à~": 1259,
      "\u0000\u0000": 1260,
      "\u0002t": 1261,
      "\u0000\u0000\u0000\u0000\u0000!\u0001": 1262,
      "Àt": 1263,
      "¥ÿ": 1264,
      "ÓÔ\u000e\u0000": 1265,
      " ÿ": 1266,
      "\u0001": 1267,
      "  \u000f\bÀ": 1268,
      "HÄ0": 1269,
      "ãÿ": 1270,
      "xD": 1271,
      "HÄ _Ã": 1272,
      "3Û": 1273,
      "\u0018H": 1274,
      "HÏè": 1275,
      "HÄ": 1276,
      "a\u0000\u0004\u0000": 1277,
      "\u000e\u000e": 1278,
      "H\u0001": 1279,
      "ö": 1280,
      "Ñÿ": 1281,
      "\n\u0000\u0000\u0000": 1282,
      "es": 1283,
      "33": 1284,
      "\u0002": 1285,
      "H\u0005": 1286,
      "¥\u0000": 1287,
      "fE\u000f": 1288,
      "": 1289,
      " ÿ": 1290,
      "\u0010r": 1291,
      "@": 1292,
      "H": 1293,
      ")ÿ": 1294,
      "--": 1295,
      "§ÿ": 1296,
      "ïîî": 1297,
      "ô\u0003\u0000ª": 1298,
      "¦ÿ": 1299,
      "\u0000\u0000\u0000\u0000A\u000e": 1300,
      "à\u0001": 1301,
      "1ÿ": 1302,
      "\u0001\u0000\u0000è": 1303,
      "bá": 1304,
      "di": 1305,
      " Ò": 1306,
      "\u0006ÿ": 1307,
      "Æÿ": 1308,
      "\u0006\u0004": 1309,
      "\u0002@": 1310,
      "ü\u0003": 1311,
      "br": 1312,
      " \u0000\u0000": 1313,
      "\u001bª": 1314,
      "Áÿ": 1315,
      "\u0000\u0000?": 1316,
      "\u0002": 1317,
      "ó\u000f\\": 1318,
      "¬ÿ": 1319,
      "12": 1320,
      "ñ\u0000": 1321,
      "Áà": 1322,
      "ÿ": 1323,
      "ò": 1324,
      "ûû": 1325,
      "#ÿ": 1326,
      "ð\u0001": 1327,
      "\u0004\u0000\u0004\u0000": 1328,
      "A;": 1329,
      "D$@": 1330,
      "Ð;": 1331,
      "ð\u000f": 1332,
      "HÙ": 1333,
      "0è": 1334,
      " F": 1335,
      "\u0001\u0000\u0004": 1336,
      "H5": 1337,
      "þ\u0001": 1338,
      "\u0000": 1339,
      "\u0010\u0010\u0010\u0010": 1340,
      "\u0001": 1341,
      "\u000fº": 1342,
      "u": 1343,
      "D;": 1344,
      "\u000f\u001f@\u0000": 1345,
      "\nÞÝ": 1346,
      "¸\u0000\u0000\u0000": 1347,
      "\u0004\u0002": 1348,
      "f\u000fo": 1349,
      "a\u0002": 1350,
      "ll": 1351,
      "Ðÿ": 1352,
      "E": 1353,
      "fD\u000f": 1354,
      "ªÿ": 1355,
      "\u0018H": 1356,
      "D©": 1357,
      "Åú": 1358,
      "þÿ": 1359,
      "À\u0000\u0000": 1360,
      "á\u0003\u0013ª": 1361,
      "ú": 1362,
      "\u0000\u0000\u0000\u0000\u0000": 1363,
      "Þÿ": 1364,
      "àxàx": 1365,
      "A\u0010": 1366,
      "\u0014\u0000\u0000": 1367,
      "\u0001@": 1368,
      "3ö": 1369,
      "ßÿ": 1370,
      "(\u0000\u0000\u0000": 1371,
      "&ÿ": 1372,
      "se": 1373,
      "\u0001è": 1374,
      "\u0000\u0000\u0000\u0000": 1375,
      "\u0002": 1376,
      ",ÿ": 1377,
      "jÿ": 1378,
      "òE\u000f": 1379,
      "|H(": 1380,
      "HE": 1381,
      "ýþ": 1382,
      "\u000f\u001f\u0000\u0000\u0000\u0000\u0000": 1383,
      "ex": 1384,
      "\u0004©": 1385,
      "0\u0001": 1386,
      "\fÿ": 1387,
      "ñÀ\" \u000f\bÀ": 1388,
      "i\u0000n\u0000": 1389,
      "Éÿ": 1390,
      "tr": 1391,
      "\u001c\u0000\u0012": 1392,
      "\u0001 \u0007": 1393,
      "A": 1394,
      " \u0001\u0000": 1395,
      "\u0000\u0000\u0000\u0001\u0000\u0000\u0000": 1396,
      "": 1397,
      "@\u0000R": 1398,
      "¡ÿ": 1399,
      "ø": 1400,
      "Ëè": 1401,
      "2À": 1402,
      "A\u0000\u0000": 1403,
      "=": 1404,
      "\u0013\u0000\u0000": 1405,
      "H$": 1406,
      "!ð": 1407,
      "!ÿ": 1408,
      "\u0003\u0005": 1409,
      "Tÿ": 1410,
      "*ÿ": 1411,
      "M\u0003": 1412,
      "û\u0000": 1413,
      "È\u0000\u0000\u0000": 1414,
      "\b": 1415,
      "þ÷": 1416,
      "\t\u0004": 1417,
      "U": 1418,
      "x\u0010": 1419,
      "Âÿ": 1420,
      "ø\u0001": 1421,
      "\u0000\u0000\u0000\u0000!\u0001": 1422,
      "\n": 1423,
      "óE\u000f": 1424,
      "\u0007\u0001": 1425,
      ",0": 1426,
      "`\n": 1427,
      "ü\u0001": 1428,
      " \u0000\u0001\u0000": 1429,
      "\t\u0005": 1430,
      "ÿ": 1431,
      "Î": 1432,
      "¨\u0001t": 1433,
      "\u0000": 1434,
      "Úÿ": 1435,
      "Äb": 1436,
      "\u0004\u0010": 1437,
      "y ": 1438,
      "\u0012\u0000\u0000": 1439,
      "'ÿ": 1440,
      "\u0000\u0000\u0000\u0000\u0000\u0001\u0000\u0000": 1441,
      "ma": 1442,
      "\u000f": 1443,
      "\n\n": 1444,
      "Êÿ": 1445,
      "è\u0000": 1446,
      "HE": 1447,
      "Åÿ": 1448,
      "º\u0000": 1449,
      "Á": 1450,
      "\u0018ÿ": 1451,
      "õ[\u0002©": 1452,
      "º\u0001\u0000\u0000\u0000": 1453,
      "Ýÿ": 1454,
      "F": 1455,
      "ïîîïîî": 1456,
      "\u0004": 1457,
      "å]Â": 1458,
      "mp": 1459,
      "¢ÿ": 1460,
      "@SHì": 1461,
      "Á\u0000": 1462,
      "üþ": 1463,
      "\"ÿ": 1464,
      "{D": 1465,
      "ä\u0003": 1466,
      "HÄ(": 1467,
      "Øÿ": 1468,
      "\u0006@ù": 1469,
      "H|$": 1470,
      "\u0014*": 1471,
      "\fp": 1472,
      "HK": 1473,
      "\u0000\u0000Ò": 1474,
      "Üÿ": 1475,
      "\"\u0005": 1476,
      "ô\u0000": 1477,
      "P\u0001": 1478,
      "H3Ä": 1479,
      "US": 1480,
      "\u000f®è": 1481,
      "½\u0000": 1482,
      "$\u0003Õ": 1483,
      "Ûÿ": 1484,
      "\bu": 1485,
      "H3Ìè": 1486,
      "@X": 1487,
      "£ÿ": 1488,
      " \u0001": 1489,
      " \u0004": 1490,
      "\u0014ÿ": 1491,
      "\u0000": 1492,
      "H": 1493,
      "Ø\u0000": 1494,
      "ad": 1495,
      "": 1496,
      "\u000b\u0000\u0000\u0000": 1497,
      "\u0001\u0000\u0000H": 1498,
      "°ÿ": 1499,
      "I+": 1500,
      "@è": 1501,
      "$\u0000\u0000": 1502,
      "«ÿ": 1503,
      "\u0002": 1504,
      "V2": 1505,
      "ab": 1506,
      "×ÿ": 1507,
      "//": 1508,
      "H\\$\bH": 1509,
      "\u0004\n": 1510,
      "D9": 1511,
      "¨¿#\u0003ÕÀ\u0003_Ö": 1512,
      "\u0004\b": 1513,
      "\u0001\u0000\u0000\u0000": 1514,
      " f": 1515,
      "­ÿ": 1516,
      "ç\u0000": 1517,
      "Ùÿ": 1518,
      "\u0005\u0003": 1519,
      "L9": 1520,
      "á\u0003\u0014ª": 1521,
      "C": 1522,
      "Öÿ": 1523,
      "bâ": 1524,
      "": 1525,
      "\u0013@ù": 1526,
      "¹\u0000": 1527,
      "ë\u0005": 1528,
      "\u0011ÿ": 1529,
      "\u001eÿ": 1530,
      "th": 1531,
      "D": 1532,
      "up": 1533,
      "\tÿ": 1534,
      "Íÿ": 1535,
      "\u000f\\": 1536,
      "\u0000\u0000\u0000\u0000\u0000\u0000\u0000\u0000\u0000\u0000\u0000\u0000\u0000\u0000\u0000\u0000\u0000\u0000\u0000": 1537,
      "¿©": 1538,
      "ý\u0001": 1539,
      "A": 1540,
      "\u0002\u0000\"": 1541,
      "0ÿ": 1542,
      "\u0014": 1543,
      "è": 1544,
      "á": 1545,
      "@y": 1546,
      "É": 1547,
      "\u001cÿ": 1548,
      "H\u0001": 1549,
      "Òÿ": 1550,
      "@\u0001\u0000\u0000": 1551,
      ")": 1552,
      "\u0000": 1553,
      "ïè": 1554,
      "^\u0000": 1555,
      "A\u0001": 1556,
      "\u0005\u0006": 1557,
      "}\u0019": 1558,
      "|@": 1559,
      "`\u0006\u0000": 1560,
      "\u0002\u0000\u0006": 1561,
      "Íè": 1562,
      "+ÿ": 1563,
      "\u001dÿ": 1564,
      "_^[": 1565,
      "HÉ": 1566,
      "ÿ": 1567,
      "À": 1568,
      "\u0002\b": 1569,
      "\u0012ÿ": 1570,
      "D$": 1571,
      "A\u000fX": 1572,
      "Ïq": 1573,
      "\u000bÿ": 1574,
      "32": 1575,
      "\u0001\u0000R": 1576,
      "\f\u0001": 1577,
      " \u0003": 1578,
      "¿\u0000": 1579,
      "Õÿ": 1580,
      "G": 1581,
      "\u0014\u0001": 1582,
      "À\u0002": 1583,
      "A\u0003": 1584,
      "B\u0000\u0000": 1585,
      "\u0010\u0004": 1586,
      "Re": 1587,
      "f": 1588,
      "û\u0001": 1589,
      "¯ÿ": 1590,
      "¡\u0000": 1591,
      "!\u0000\u0000": 1592,
      "\u001c\u0000\u0000\u0000": 1593,
      "L+": 1594,
      "\r\r": 1595,
      "Ø\u0000\u0000\u0000": 1596,
      "\u0002\u0002\u0002\u0002": 1597,
      "\u0001\u0000\u0000\u0000\u0001\u0000\u0000\u0000": 1598,
      "A\u0000\u0000\u0000": 1599,
      "\u0001": 1600,
      "Óÿ": 1601,
      "bb": 1602,
      "Ôÿ": 1603,
      "Ð;Õ": 1604,
      "Ìÿ": 1605,
      "\nÿ": 1606,
      "Äã": 1607,
      "\u001fÿ": 1608,
      "E ": 1609,
      "Åû": 1610,
      "óD\u000f": 1611,
      "f\u000f": 1612,
      "16": 1613,
      "F": 1614,
      "op": 1615,
      "ûþ": 1616,
      "è:": 1617,
      "ò\u0000": 1618,
      "óA\u000fY": 1619,
      "à": 1620,
      "à\u0002": 1621,
      "\u0017\u0017": 1622,
      "\b": 1623,
      "\u0004 ": 1624,
      "ÿÿÿ\u0000": 1625,
      "\u000b\u0000ù": 1626,
      "úþ": 1627,
      "ÿ": 1628,
      " \u0001\u0000\u0000": 1629,
      "X\u0000\u0000\u0000\u0000\u0000": 1630,
      "\u0005\u0002": 1631,
      "H\f": 1632,
      "}H\u0018": 1633,
      "\u0001\u0003": 1634,
      "Åx\u0011": 1635,
      "é": 1636,
      "Û": 1637,
      "¿ÿ": 1638,
      "\n\u0002": 1639,
      "D\u000f¶": 1640,
      "@\u0002": 1641,
      "\u0000\u0000": 1642,
      "à\u0003\u0017ª": 1643,
      "Vè": 1644,
      "úÿÿ": 1645,
      "G": 1646,
      "\u0010\u0002": 1647,
      "\u0016ÿ": 1648,
      "t$ ": 1649,
      "\u0007\b": 1650,
      "\u0001": 1651,
      "ò\u000fY": 1652,
      "õ\u0000": 1653,
      "H": 1654,
      "-ÿ": 1655,
      "$\u0003Õ": 1656,
      "\u0014": 1657,
      "\rÿ": 1658,
      "ùùùùùùùù": 1659,
      "`\u0003": 1660,
      "ý{Â": 1661,
      "Èt": 1662,
      "\u0018è": 1663,
      "|$ ": 1664,
      "à\u0004": 1665,
      "a\u0000\u0003\u0000": 1666,
      "\u0010\u0001\u0000\u0000": 1667,
      "\u0018": 1668,
      "®ÿ": 1669,
      "Á": 1670,
      "ÿ": 1671,
      "@\u0003": 1672,
      "Çÿ": 1673,
      "= ": 1674,
      "ªª": 1675,
      "Â\u0000": 1676,
      "Ê ": 1677,
      "ó\u000f": 1678,
      "Hk": 1679,
      "\u0002u": 1680,
      "\u0001\u0000\u0000\u0000": 1681,
      "À\u0004": 1682,
      "B\u0001": 1683,
      "ÿ": 1684,
      "úú": 1685,
      "\u0004\u0000T": 1686,
      "\u000eÿ": 1687,
      "ð?": 1688,
      "þÿÿÿ": 1689,
      "\u000fÿ": 1690,
      "h ": 1691,
      "¤\u0000": 1692,
      "(H": 1693,
      "\u0004\u0000\u0011": 1694,
      "üý": 1695,
      "A\u0004": 1696,
      "\u0006\b": 1697,
      "@©": 1698,
      "\u0015\u0000\u0000": 1699,
      "\u0007@ù": 1700,
      "@ÿ": 1701,
      "ÿ": 1702,
      "Åù": 1703,
      "\u001e\u0000\u0000\u0000\u0000": 1704,
      "\u0000\u0000\u0000\u0001": 1705,
      "!\u0000R": 1706,
      "×Ø": 1707,
      "ÿ": 1708,
      "\u0003\u0002ª": 1709,
      "\u0007\u0000ù": 1710,
      "á\u0003\u0000ª": 1711,
      "\u001bÿ": 1712,
      "02": 1713,
      "\u0000": 1714,
      "Ñ\u0000": 1715,
      "H$": 1716,
      "\u0002": 1717,
      "é\u0000": 1718,
      "\"\u0001\u0000": 1719,
      "\u0004\u0000\u00004\u0000\u0014\u0000\u000e": 1720,
      "A\u000f¶": 1721,
      "\u0015*": 1722,
      "ú\u0003": 1723,
      "ÌÌÌÌÌ": 1724,
      "\u001f\u0000\u0000q": 1725,
      "¾ÿ": 1726,
      "ut": 1727,
      "\u000e\u0010": 1728,
      "\u0006\n": 1729,
      "§\u0000": 1730,
      "n\u0000t\u0000": 1731,
      "{ÿ": 1732,
      "øþ": 1733,
      "\u000fD": 1734,
      "¸ÿ": 1735,
      "~\u0000": 1736,
      "\u0000": 1737,
      "½ÿ": 1738,
      "\"": 1739,
      "Åx\u0010": 1740,
      "\u0013ÿ": 1741,
      "ø\u0004": 1742,
      "¶ÿ": 1743,
      "B\b": 1744,
      "\u0017\u0000\u0000\u0000": 1745,
      "ºÿ": 1746,
      "Ä¡": 1747,
      "Äÿ": 1748,
      ">â#": 1749,
      "\t\u0001": 1750,
      "/ÿ": 1751,
      "f\u000f\u001f\u0000\u0000\u0000\u0000\u0000": 1752,
      "çè": 1753,
      "F\b": 1754,
      "à\u000f": 1755,
      "tion": 1756,
      "ÿ": 1757,
      "ù\u0001": 1758,
      "\u0006\u0000": 1759,
      "\u001aÿ": 1760,
      "\u0000\u0000\u0000é": 1761,
      "<": 1762,
      "¼ÿ": 1763,
      "e\u0000r\u0000": 1764,
      "M;": 1765,
      "÷÷": 1766,
      "\u0017ÿ": 1767,
      "}": 1768,
      "\u0005": 1769,
      "{\u0000": 1770,
      "¢\u0000": 1771,
      "ati": 1772,
      "\u000f\u0010\u000f\u0010": 1773,
      "¸\u0001\u0000\u0000\u0000": 1774,
      "}": 1775,
      "Æ\u0000": 1776,
      "H\u0010": 1777,
      "P\u0005\u0005": 1778,
      "D$P": 1779,
      "\f\u0004": 1780,
      "\u0016\u0000\u0000": 1781,
      "\u0002\u0000ù": 1782,
      "HD$ ": 1783,
      "üõ": 1784,
      "`": 1785,
      "\u0000": 1786,
      "|H\u0010": 1787,
      "\u0000": 1788,
      "!\u0001\u0000\u0000\u0000\u0000\u0000\u0000\u0000\u0000\u0000": 1789,
      "\b\u0000\b\u0000": 1790,
      "\u0019ÿ": 1791,
      "å\u0000": 1792,
      "ÿ": 1793,
      "Xÿ": 1794,
      "\u000fE": 1795,
      "\u000f\u001f\u0000": 1796,
      "@\u0000`\u0000": 1797,
      "ÃA": 1798,
      "\r\u0000\n\u0000": 1799,
      "B\u0000\u0001ë": 1800,
      "B\u0010": 1801,
      "?": 1802,
      "@\u0018": 1803,
      "ter": 1804,
      ",00": 1805,
      "pÿ": 1806,
      "\u0003": 1807,
      "sh": 1808,
      "Ç\u0005": 1809,
      "\u000f": 1810,
      "ö\u0000": 1811,
      "ÿ": 1812,
      "\u0004r": 1813,
      "f;": 1814,
      "µ\u0000": 1815,
      "»\u0000": 1816,
      "B": 1817,
      "ý÷": 1818,
      "Áé": 1819,
      "\u0002\u0000¹": 1820,
      "\u000f": 1821,
      "LE": 1822,
      "!": 1823,
      "´ÿ": 1824,
      "û\u0003": 1825,
      "øø": 1826,
      "Bÿ": 1827,
      "à\u0017": 1828,
      "ë\u0007": 1829,
      "ri": 1830,
      "ver": 1831,
      "HÄ [Ã": 1832,
      "\u0010\u0000\u0000r": 1833,
      "Ò": 1834,
      "H": 1835,
      "``": 1836,
      "\u0000": 1837,
      "ÿ": 1838,
      "\b\u0004": 1839,
      "\u0019\u0000\u0000": 1840,
      "\u001cª": 1841,
      "Dÿ": 1842,
      "±ÿ": 1843,
      "ßø": 1844,
      "\u0003\u0010": 1845,
      "\u0002þ": 1846,
      "ú\u0001": 1847,
      "RE": 1848,
      "ÄB": 1849,
      "»ÿ": 1850,
      "µÿ": 1851,
      "\u0000": 1852,
      "`ÿ": 1853,
      "Aù": 1854,
      "\u0000": 1855,
      "(F": 1856,
      "\u0002": 1857,
      "á\u0003\u0015ª": 1858,
      "\u000f\u001f\u0000\u0000\u0000\u0000": 1859,
      "ùþ": 1860,
      "®\u0000": 1861,
      "\u0010": 1862,
      "\u0000\u0000´": 1863,
      "\u0000(": 1864,
      "í\u0000": 1865,
      " C": 1866,
      "ûý": 1867,
      "\u0000\u0000\u0000\u0000\u0000\u0001\u0000`\u0000": 1868,
      "Åþ": 1869,
      "\u0010@": 1870,
      "cÿ": 1871,
      "\u0018\u0000\u0000": 1872,
      "¨\u0000": 1873,
      "\u0015ÿ": 1874,
      "ID": 1875,
      "=ÿ": 1876,
      "\u0000\u0000\u0000\u0000\u0000\u0000\u0000\u0001\u0000\u0000\u0000": 1877,
      "ú": 1878,
      "\u0000\u0000\u0000\u0000\u0001": 1879,
      "con": 1880,
      "ø\u0002": 1881,
      "Àu": 1882,
      "©ý\u0003\u0000óS\u0001©": 1883,
      "÷cC©": 1884,
      "\u0000\u00004": 1885,
      "@\u0000\u0000\u0000(\n": 1886,
      "ÆD$": 1887,
      "èè": 1888,
      "G\b": 1889,
      "Yÿ": 1890,
      "AAAA": 1891,
      "H\u0005": 1892,
      "yD": 1893,
      "ÇD$ ": 1894,
      "\\ÿ": 1895,
      "Vÿ": 1896,
      "ÿ": 1897,
      ".ÿ": 1898,
      "ÿ": 1899,
      "÷\u0000": 1900,
      "oo": 1901,
      "\n\u0001": 1902,
      "Qÿ": 1903,
      "ÿ": 1904,
      "\u0002r": 1905,
      "?ÿ": 1906,
      "HÀ\u000f": 1907,
      " \u0000 \u0000 \u0000 \u0000": 1908,
      "²ÿ": 1909,
      "bA": 1910,
      "IN": 1911,
      "\u0004\u0006": 1912,
      "f\u000fn": 1913,
      "Lc": 1914,
      "Ãÿ": 1915,
      "\u001d": 1916,
      "ù\u0003": 1917,
      "\u0012\u0001": 1918,
      "È": 1919,
      "ÿ": 1920,
      "\bt": 1921,
      "\u0000": 1922,
      "HT$": 1923,
      "!\u0005": 1924,
      "**": 1925,
      "\u0013\u0001": 1926,
      "ø7": 1927,
      " @": 1928,
      "dddddddd": 1929,
      "ÿ": 1930,
      "à#": 1931,
      "bQ": 1932,
      "\u0003\u0000ù": 1933,
      "ò\u000fX": 1934,
      "HÏ": 1935,
      "2ÿ": 1936,
      "\u0000": 1937,
      "4ÿ": 1938,
      "Ic": 1939,
      "0\u00000\u0000": 1940,
      "D$`": 1941,
      "¾\u0000": 1942,
      "\u0002P": 1943,
      "\r\u0000\u0000\u0000": 1944,
      "(è": 1945,
      "þ": 1946,
      "¦\u0000": 1947,
      "b!": 1948,
      "¹ÿ": 1949,
      "ó\u0003": 1950,
      "\u0004%": 1951,
      "el": 1952,
      "ÄÂ": 1953,
      "©ý": 1954,
      "ô\u0003": 1955,
      "á\u0000": 1956,
      "\u000b\u000b": 1957,
      "ÍÌ": 1958,
      "ÿ": 1959,
      "0\u0001\u0000\u0000": 1960,
      "\u001f\u0004\u0000q": 1961,
      "@\\": 1962,
      "\u0000": 1963,
      "\u0007\u0004": 1964,
      "H\u0000": 1965,
      "::": 1966,
      "s\u0000.\u0000": 1967,
      "òA\u000f": 1968,
      "HÁ": 1969,
      " \u0003": 1970,
      "ôW": 1971,
      "\u0010": 1972,
      "\fè": 1973,
      "â\u000f": 1974,
      "¡@": 1975,
      "P": 1976,
      "\u0001\u0000\u0001": 1977,
      "Ä\u0000": 1978,
      "\u0011\u0001": 1979,
      "A]A\\": 1980,
      "]": 1981,
      "·ÿ": 1982,
      "I÷": 1983,
      "Hßè": 1984,
      "ýÿ": 1985,
      "³ÿ": 1986,
      "ý{Ã": 1987,
      "\u0000\u0000\u0002": 1988,
      "P\u0010": 1989,
      "\u000f\u001fD\u0000\u0000": 1990,
      "8ÿ": 1991,
      "¿\u0000\u0000": 1992,
      "\r\u0001": 1993,
      "\u0012\u0000\u0000\u0000": 1994,
      "úý": 1995,
      "È\u0000": 1996,
      "\u0011\u0002": 1997,
      "\u0000( \u0002": 1998,
      "Ã": 1999,
      "\u0001\u0000@ùB\u0000\u0001ë": 2000,
      "A9": 2001,
      "xÿ": 2002,
      "Eÿ": 2003,
      "L$": 2004,
      "E\u000fÆ": 2005,
      "\u0003ð": 2006,
      "ÿÿÿÿ\u0000\u0000\u0000\u0000": 2007,
      "\u0019": 2008,
      "E": 2009,
      "ÌÌÌÌÌÌÌ": 2010,
      "A ": 2011,
      "Wÿ": 2012,
      "ë\u0000": 2013,
      ")\u0000\u0000\u0000\u0000": 2014,
      "x ": 2015,
      ">ÿ": 2016,
      "\u000b\u0001": 2017,
      "Ý\u0000": 2018,
      "\b@": 2019,
      " \u0013@Ñ": 2020,
      "d\u0000dd": 2021,
      "£\u0000": 2022,
      "BB": 2023,
      "\u0001": 2024,
      "ä\u0000": 2025,
      "\u0013ò": 2026,
      "[ÿ": 2027,
      "V": 2028,
      "\u000e\u0000\u0000\u0000": 2029,
      "Ç$": 2030,
      "<ÿ": 2031,
      "Hù": 2032,
      "U": 2033,
      "F\u0001": 2034,
      "\u0004": 2035,
      "\b\u0006": 2036,
      "E©": 2037,
      "\u0000\u0000À": 2038,
      "©p": 2039,
      "Ä\f": 2040,
      "ÿ": 2041,
      "\u0004t": 2042,
      "HÎè": 2043,
      "ÌÌÌÌÌÌ": 2044,
      "bu": 2045,
      "à\u0003\u0013*": 2046,
      ";ÿ": 2047,
      "! ": 2048,
      "\u0003": 2049,
      "": 2050,
      "11": 2051,
      "ÿ": 2052,
      "H|$": 2053,
      "ÿ": 2054,
      "\u0000": 2055,
      "\u0001\u0000\u0000L": 2056,
      "ó\u0003\u0000*": 2057,
      "\u0004\u000b": 2058,
      "HÃ": 2059,
      "\u0003": 2060,
      "\u0005@": 2061,
      "ÿ": 2062,
      "\u0011\u0011": 2063,
      "ÿ": 2064,
      "öþ": 2065,
      "è\u0000\u0000\u0000": 2066,
      "\u0004\u0007": 2067,
      "Ä\b": 2068,
      "oÿ": 2069,
      "\u0001\u0000´": 2070,
      "Sÿ": 2071,
      "\u0012": 2072,
      "\u000f\u000f\u000f\u000f": 2073,
      "ap": 2074,
      "ðð": 2075,
      "ÿ": 2076,
      "øý": 2077,
      "0000": 2078,
      "b±": 2079,
      "\u0016\u0001": 2080,
      "\u0000\u0000": 2081,
      "\u0005þ": 2082,
      "Æ": 2083,
      "ôþ": 2084,
      "Mÿ": 2085,
      "t\u0000i\u0000": 2086,
      "Å\u0000": 2087,
      "ÿ": 2088,
      "\u0000\u0000H": 2089,
      "\u0000": 2090,
      " J": 2091,
      "ÿ": 2092,
      "ÿ": 2093,
      "ª\u0000": 2094,
      "\u0002)": 2095,
      "\u0001\u00004": 2096,
      "\u0010\u0000\u0000\u0000\u0000": 2097,
      "?\u0000\u0000\u0000\u0000\u0000": 2098,
      "u\u0007": 2099,
      "H\\$0": 2100,
      "\u0000\u0000\u0000\u0000\u0000\u0000\u0000\u0000\u0000\u0000\u0000\u0000\u0000\u0000\u0000\u0000\u0000\u0000\u0000\u0000\u0000\u0000\u0000\u0000": 2101,
      "\u000f\u0011E": 2102,
      "ýÿT": 2103,
      "9ÿ": 2104,
      "\u0006\u0002": 2105,
      "HÈè": 2106,
      "ÿ": 2107,
      "yp": 2108,
      "\u0010\u0005": 2109,
      "Fÿ": 2110,
      "x": 2111,
      "(K": 2112,
      "Í\u0000": 2113,
      "$\u0000\u0000\u0000": 2114,
      "ur": 2115,
      "\u0018\u0000\u0000\u0000": 2116,
      "Cÿ": 2117,
      "à\u0003\u0018ª": 2118,
      "vm": 2119,
      ",\u0000\u0000\u0000": 2120,
      "Uÿ": 2121,
      "\"\u0000 ": 2122,
      "hÿ": 2123,
      "ë\u0004": 2124,
      "?$": 2125,
      "ÇF": 2126,
      "\u0018\u0001": 2127,
      "u": 2128,
      "\u0007\u0002": 2129,
      "ùÿÿ": 2130,
      "x\u0011": 2131,
      "â\u0000": 2132,
      "H\\$\b": 2133,
      "ó\u0000": 2134,
      "H\u0004": 2135,
      "öt": 2136,
      "bÿ": 2137,
      "\u0017\u0000\u0000": 2138,
      "fÿ": 2139,
      "HÃ": 2140,
      "1ö": 2141,
      "\u0005\u0000": 2142,
      "\u0005 ": 2143,
      "Ht$": 2144,
      "H": 2145,
      "\u0003\u0000\u0000\u0000\u0000\u0000\u0000": 2146,
      ",p": 2147,
      "B\u0004": 2148,
      "H\b": 2149,
      "loc": 2150,
      "Rÿ": 2151,
      "$\u0001": 2152,
      "HÈ": 2153,
      "å\u0003": 2154,
      "Gÿ": 2155,
      "àþ": 2156,
      "lu": 2157,
      "ñþ": 2158,
      "S ": 2159,
      "Hñ": 2160,
      "Ä\u0001": 2161,
      "òE\u000fÐ": 2162,
      "Â": 2163,
      "D$8": 2164,
      "7ÿ": 2165,
      "ÙÚ": 2166,
      "=\u0000\u0000": 2167,
      "6ÿ": 2168,
      "\u0005\u0000T": 2169,
      "Àè": 2170,
      "=\"": 2171,
      "of": 2172,
      "}ÿ": 2173,
      "~ÿ": 2174,
      "@U": 2175,
      "\u0000": 2176,
      "HÓ": 2177,
      "bÑ": 2178,
      "Hl$": 2179,
      "P\u0001\u0000\u0000": 2180,
      "\u001b@ù": 2181,
      "p\u0000o\u0000": 2182,
      "5ÿ": 2183,
      "ÿ\u000f\u0000\u0000": 2184,
      "øÿÿ": 2185,
      "ø\u0000\u0000\u0000": 2186,
      "wÿ": 2187,
      "ïþ": 2188,
      "ü÷": 2189,
      "\u0000\u0000\u0000\u0000\u0000\u0000\u0000\u0000\u0000\u0000\u0000\u0000\u0000\u0000\u0000\u0000\u0000\u0000\u0000\u0000": 2190,
      "b\u0002": 2191,
      "òþ": 2192,
      "ÿ": 2193,
      "Ø": 2194,
      "ï\u0000": 2195,
      "õ\u0003": 2196,
      "Zÿ": 2197,
      "lÿ": 2198,
      "\u0002ð": 2199,
      "aÿ": 2200,
      "ÿ": 2201,
      "bÁ": 2202,
      "\u0002\u0000\u0000\u0000\u0000\u0000\u0000": 2203,
      "õ\u0003\u0000ª": 2204,
      "\u0005©": 2205,
      "f\u000fY": 2206,
      "rÿ": 2207,
      "|ÿ": 2208,
      ">\u0000\u0000": 2209,
      "ë\b": 2210,
      "¬\u0000": 2211,
      "¼\u0000": 2212,
      "\u0010t": 2213,
      "\u0013\u0004": 2214,
      ">\u0000\u0000\u0000": 2215,
      "Ò\u0000": 2216,
      "\u0001\u0000@ùB\u0000\u0001ë\u0001\u0000Ò": 2217,
      "((": 2218,
      "\u001c\u0001": 2219,
      "´\u0000": 2220,
      "`\u0001\u0000\u0000": 2221,
      "ge": 2222,
      "Ù\u0000": 2223,
      "óþ": 2224,
      "ð": 2225,
      "Ä": 2226,
      "à\u0005": 2227,
      "D$(": 2228,
      "1Ò": 2229,
      "li": 2230,
      "!": 2231,
      "Ä\u0004": 2232,
      "H\u0003": 2233,
      "Lÿ": 2234,
      "\f\u0004\u0000\u0000\u0000": 2235,
      "yÿ": 2236,
      "\"\u0000@ù": 2237,
      "$": 2238,
      "\u0000": 2239,
      "Ð\u0001": 2240,
      "óD\u000f\u0010": 2241,
      "\u0002\u0014": 2242,
      ".?": 2243,
      "4": 2244,
      "\u0002\u0013": 2245,
      "HX": 2246,
      "Ç": 2247,
      "\u000e\u0000\u0000\u0000\u0000": 2248,
      "0\u0000\u0000": 2249,
      "©\u0000": 2250,
      "Jÿ": 2251,
      "ÿ": 2252,
      "\u0000": 2253,
      ":ÿ": 2254,
      "@D": 2255,
      "\u0004\u0005": 2256,
      "HÁ": 2257,
      "Åý": 2258,
      " %s": 2259,
      "B\u000f\u0010": 2260,
      "ve": 2261,
      "\u0006\u0005": 2262,
      " A": 2263,
      "dÿ": 2264,
      "Ét": 2265,
      "P\u0000\u0000": 2266,
      "õþ": 2267,
      "ö\u0003": 2268,
      "]ÿ": 2269,
      "\u0007þ": 2270,
      "\u001a0": 2271,
      "vÿ": 2272,
      "\u001c": 2273,
      "æ\u0000": 2274,
      "Ã\u0000": 2275,
      "Áá": 2276,
      " (": 2277,
      "\u0000\u0000\u0000\u0000\u0000\"\u0001": 2278,
      "\u0000 \u0007": 2279,
      "ü\u0002": 2280,
      "ùý": 2281,
      "_ÿ": 2282,
      "rt": 2283,
      "\u0004è": 2284,
      "E\b": 2285,
      "sÿ": 2286,
      "\u001e": 2287,
      "ß\u0000": 2288,
      "ÌÌÌÌÌÌÌÌÌÌÌÌÌ": 2289,
      "HÐ": 2290,
      "4\u0006\u0000": 2291,
      "|H\u0011": 2292,
      "Çè": 2293,
      "mÿ": 2294,
      "ð!": 2295,
      "id": 2296,
      "\u0001Ø": 2297,
      "½è": 2298,
      "me": 2299,
      "!ðFù": 2300,
      "ÿ": 2301,
      "\b\u0003": 2302,
      "Kÿ": 2303,
      "ÇC": 2304,
      "\u0006þ": 2305,
      "Á\u0001": 2306,
      "HÄ(Ã": 2307,
      "%": 2308,
      "÷è": 2309,
      "ATAU": 2310,
      "+Á": 2311,
      "\u0013\u0000ù": 2312,
      "qÿ": 2313,
      "[]": 2314,
      "ðþ": 2315,
      "C\u0000": 2316,
      "ä\u000f": 2317,
      "zÿ": 2318,
      "E": 2319,
      "`\u0004": 2320,
      "P\b": 2321,
      "ÇEü": 2322,
      "^ÿ": 2323,
      "\u000e\u0001": 2324,
      "UU": 2325,
      "Nÿ": 2326,
      "ÇA": 2327,
      "iÿ": 2328,
      "\u0002\u0001": 2329,
      "\u0002\u0000R": 2330,
      "\u0005\u0010": 2331,
      "ation": 2332,
      "\u0000": 2333,
      "0x": 2334,
      "j\u0002": 2335,
      "\u0004\u0018": 2336,
      "\n#": 2337,
      "\r": 2338,
      "nÿ": 2339,
      "_\u00001\u0000": 2340,
      "Mc": 2341,
      "@(": 2342,
      "u\u0005": 2343,
      "ú\u0002": 2344,
      "\u0003": 2345,
      "\"\u0005\u0019": 2346,
      "H\u0014": 2347,
      "ýH": 2348,
      "\u0004\u0004\u0004\u0004": 2349,
      "AVAW": 2350,
      "Ð": 2351,
      "è\u0001": 2352,
      "Ç": 2353,
      "\u0004\u0000\u0000\u0000\u0000\u0000\u0000": 2354,
      "f\u000fX": 2355,
      "\u000f": 2356,
      "¿#\u0003ÕÀ\u0003_Ö": 2357,
      "íþ": 2358,
      "[\u0001": 2359,
      "]ù": 2360,
      "\u0001": 2361,
      "0F": 2362,
      "èþ": 2363,
      "kÿ": 2364,
      "«\u0000": 2365,
      " \u0000\u0000\u0000\u0000\u0000": 2366,
      "\u0005": 2367,
      "\u0004F": 2368,
      "\u0004þ": 2369,
      "\\$": 2370,
      "\u0000\u0000\u0012": 2371,
      " ": 2372,
      "ul": 2373,
      "\u000f[": 2374,
      "ë\u0006": 2375,
      "D\u0001": 2376,
      "å]Ã": 2377,
      "ñ\u0001": 2378,
      "\u0000( \u0002\u0000( \u0002": 2379,
      "HÒ": 2380,
      "b": 2381,
      "HÀu": 2382,
      "HD$(": 2383,
      "\u0003þ": 2384,
      "Ï": 2385,
      "\u0001\u0000\u0000": 2386,
      "\u0002`": 2387,
      "¨\u0001": 2388,
      "Â": 2389,
      "á\u0003\u0016ª": 2390,
      "\u0000\u0000\u0016": 2391,
      " p": 2392,
      "Wè": 2393,
      "Oÿ": 2394,
      "ÿÿÿ\u0000ÿÿÿ\u0000": 2395,
      "": 2396,
      "\u0001": 2397,
      "L1": 2398,
      "L$0": 2399,
      "\u001a\u0000\u0000": 2400,
      "\u0002": 2401,
      "Ú\u0000": 2402,
      "A÷": 2403,
      "\u0002\u0000\u0005": 2404,
      "\u0002\u0000\u0000H": 2405,
      "ÿÿ\u0000\u0000": 2406,
      "ûü": 2407,
      "LÀ": 2408,
      "gÿ": 2409,
      "Õ\u0000": 2410,
      "\u0005\u0007": 2411,
      "\u0000": 2412,
      "\u0010\u0003": 2413,
      "p\u0004": 2414,
      "eÿ": 2415,
      "óA\u000f\u0010": 2416,
      "\u0017\u0001": 2417,
      "IT": 2418,
      "\u0006\t": 2419,
      "\u000f\u0001": 2420,
      "û\u0002": 2421,
      "t\t": 2422,
      "ù\u0002": 2423,
      "\u001e\u0000\u0000": 2424,
      "ôd": 2425,
      "!\u0004": 2426,
      "ì\u0000": 2427,
      "ðÿðÿ": 2428,
      "\u0000": 2429,
      "ø": 2430,
      "um": 2431,
      "HT$": 2432,
      "\u0012\u0002": 2433,
      "\u0003\u0003\u0003\u0003": 2434,
      "D8": 2435,
      "t_": 2436,
      "ÌÌÌÌÌÌÌÌÌÌ": 2437,
      "ú\u0000\u0010\u0000\u0000r": 2438,
      "us": 2439,
      "ÕÖÓÔ\u000e\u0000": 2440,
      "64": 2441,
      "\u0004\u0011": 2442,
      "@Æ": 2443,
      "@\f": 2444,
      "0 ": 2445,
      "Åø\u0011": 2446,
      "C ": 2447,
      "ö\u0001": 2448,
      "@9\u001f": 2449,
      "L\u0001": 2450,
      "\u0000": 2451,
      "ôý": 2452,
      "p\u0001\u0000\u0000": 2453,
      "éþ": 2454,
      "\u0002\u0000\u0000\u0000\u0000\u0000": 2455,
      "\u0001\u0000\u0000\u0000\u0000\u0000\u0002\u0000": 2456,
      "õõ": 2457,
      "\fþ": 2458,
      "\u0000\u0000\u001e": 2459,
      "t\u0007": 2460,
      "\u0016*": 2461,
      "\u0003\b": 2462,
      "8è": 2463,
      "à\u0003\u001aª": 2464,
      "öý": 2465,
      "                ": 2466,
      "ðè": 2467,
      "PE": 2468,
      "ê\u0000": 2469,
      "H×": 2470,
      "ã\u0000": 2471,
      "_\u0000\u0000": 2472,
      "h`": 2473,
      "mo": 2474,
      "\b\u0000\u0000\u0000\u0000\u0000\u0000\u0000\u0000\u0000": 2475,
      "pp": 2476,
      " \u0005": 2477,
      "o\u0000n\u0000": 2478,
      "D\u0003": 2479,
      "\b\u0001\u0000\u0000": 2480,
      "": 2481,
      "#\u0001": 2482,
      " \u0010": 2483,
      "ÄA|\u0011": 2484,
      "\"\"": 2485,
      "\tþ": 2486,
      "AÁ": 2487,
      "T$": 2488,
      "\u0000ðFùâ": 2489,
      "î\u0000": 2490,
      "\u000f\u0010\u0000": 2491,
      "H\u0016": 2492,
      "\u0010Ht$": 2493,
      "@\u0000@\u0000": 2494,
      "\u0001": 2495,
      "V3": 2496,
      "HÒt": 2497,
      "Hi": 2498,
      "ame": 2499,
      "à\u001f": 2500,
      "ÄC": 2501,
      "\u0005": 2502,
      "ÄÁ|\u0011": 2503,
      "\nþ": 2504,
      "1Àè": 2505,
      "?Ö": 2506,
      "øü": 2507,
      "\u0004;": 2508,
      "ÌÌÌÌÌÌÌÌÌ": 2509,
      "j\u0000j\u0000": 2510,
      "\bþ": 2511,
      "ate": 2512,
      "\u0018\u0001\u0000\u0000": 2513,
      "bq": 2514,
      "\f\u0006": 2515,
      "\f\u0003": 2516,
      "]": 2517,
      "C\u0001": 2518,
      "C\u0018": 2519,
      "a\u0002\u0000": 2520,
      "": 2521,
      "\u0007": 2522,
      "îþ": 2523,
      "\u0000": 2524,
      " \u0001\u0000\u0000": 2525,
      "öö": 2526,
      "\u0004": 2527,
      "\u0003\u0001*": 2528,
      "sp": 2529,
      "!\b": 2530,
      "ùü": 2531,
      "HÄ@": 2532,
      "È": 2533,
      "ìþ": 2534,
      "\u0014\u0014": 2535,
      "@$": 2536,
      "\n\u0000 ": 2537,
      "ÛÜ": 2538,
      "úü": 2539,
      "Ô\u0000": 2540,
      "\u0001À": 2541,
      "óSA©õ[B©": 2542,
      "H+Á": 2543,
      "\f\u0010": 2544,
      "@": 2545,
      "A+": 2546,
      "DD": 2547,
      "Ü\u0000": 2548,
      "8\u0000\u0000\u0000": 2549,
      "fi": 2550,
      "y)": 2551,
      "\u0000\u0012": 2552,
      "âþ": 2553,
      "òD\u000f": 2554,
      "$\u0018": 2555,
      "\u0004ð": 2556,
      "\u0001\u0014": 2557,
      "ÝÞ": 2558,
      "\u0010": 2559,
      "çþ": 2560,
      "b": 2561,
      "HU": 2562,
      "É\u0000": 2563,
      "\u0002\u0000\u00062": 2564,
      "Hì(": 2565,
      "\r": 2566,
      "À\b": 2567,
      "\" \u000fF": 2568,
      "20": 2569,
      "\u0000\u0000é": 2570,
      "\u0005\b": 2571,
      "\n\u000e": 2572,
      "\u000bþ": 2573,
      "}": 2574,
      "uÿ": 2575,
      "OP": 2576,
      "ó\u000f^": 2577,
      "IÎè": 2578,
      "ææ": 2579,
      "HÛt": 2580,
      "H#": 2581,
      "áþ": 2582,
      "÷\u0003": 2583,
      "\rþ": 2584,
      "\t\u0002": 2585,
      "ÄÃ": 2586,
      "u\u0004": 2587,
      "EE": 2588,
      "ñý": 2589,
      "÷c\u0003©": 2590,
      "À ": 2591,
      "Hú": 2592,
      "óý": 2593,
      "\u0000\u0000\u0000\u0000A\u000e\u0010": 2594,
      "\u0001r": 2595,
      "¯\u0000": 2596,
      "@¹\u001f": 2597,
      "\u0007\u0003": 2598,
      "D$ ": 2599,
      "=\u0000 \u0000": 2600,
      "H": 2601,
      "à\u0003\u0019ª": 2602,
      "\u0001\u0001\u0001": 2603,
      "H\u0005": 2604,
      "A_A^A]A\\": 2605,
      "_S": 2606,
      "\u0006p": 2607,
      "\u0004\u0002\u0000\"": 2608,
      "E\u0003": 2609,
      "òò": 2610,
      " t": 2611,
      "\n\u0006": 2612,
      "ent": 2613,
      "Ðþ": 2614,
      "\u0002p": 2615,
      "A¸\u0001\u0000\u0000\u0000": 2616,
      "\b\u0011": 2617,
      "ãþ": 2618,
      "\u0004\u0000Q": 2619,
      "ð\u0003": 2620,
      "H\u0001ÿ": 2621,
      "Ó\u0000": 2622,
      "à\u0000\u0000": 2623,
      "\u000f¿": 2624,
      "L$": 2625,
      "\u0004": 2626,
      "D\u000f·": 2627,
      "ce": 2628,
      "\u0001Å": 2629,
      "\u0002\u0000\u0000\u0000\u0000\u0000\u0000\u0000": 2630,
      "Ì\u0000": 2631,
      "\u0006\u0000ù": 2632,
      "æþ": 2633,
      "\u0004\u0000": 2634,
      "ER": 2635,
      "À\u000f": 2636,
      "p": 2637,
      "y\u000b": 2638,
      "a ": 2639,
      "à\u0006": 2640,
      ") ": 2641,
      "@": 2642,
      "o\u0000w\u0000": 2643,
      "õý": 2644,
      "k ": 2645,
      "@\u0000\u0000": 2646,
      "\u0001`": 2647,
      "ëþ": 2648,
      "i\u0000c\u0000": 2649,
      "\b\n": 2650,
      "øHø": 2651,
      "o\u0000o\u0000o\u0000o\u0000": 2652,
      "ðý": 2653,
      "\u0002\u0006": 2654,
      "0\t": 2655,
      "ÿ": 2656,
      "HÿÂ": 2657,
      "\bH": 2658,
      "\u0001\u0000\u0000": 2659,
      "\u0003\u0000\u0003\u0000": 2660,
      "G\u0010": 2661,
      "\u000f": 2662,
      "\u0002\u0015": 2663,
      "Ð!": 2664,
      "öÿÿ": 2665,
      "ww": 2666,
      "Ä!": 2667,
      "AL": 2668,
      ";Á": 2669,
      "ô\u0001": 2670,
      "\u0002H": 2671,
      "t$8": 2672,
      "â": 2673,
      "C": 2674,
      "ÑÀ": 2675,
      "\u001f\u0000\u0000\u0000": 2676,
      "@!": 2677,
      "AWHì": 2678,
      "0\u0004": 2679,
      "ë\t": 2680,
      "F\u0010": 2681,
      "äþ": 2682,
      "t\u0005": 2683,
      "f\u000f\u001fD\u0000\u0000": 2684,
      "d\u0000ddd\u0000dd": 2685,
      "\u0012þ": 2686,
      "NS": 2687,
      "À!": 2688,
      "\u0001\u0000\u0000\u0000\u0000\u0000\u0000\u0000\u0000\u0000\u0000\u0000": 2689,
      "  ": 2690,
      "h\u0001": 2691,
      "Æè": 2692,
      "A\u0000R": 2693,
      "Û\u0000": 2694,
      "ÿà": 2695,
      "HÂ'": 2696,
      "·\u0000": 2697,
      "×\u0000": 2698,
      "\u0000\u0000\u0000\u0000": 2699,
      "ë\u0001": 2700,
      "ip": 2701,
      "¶\u0000": 2702,
      "ä\u000f\u0000": 2703,
      "\u0000\u0000@ù": 2704,
      "öÂ": 2705,
      "\u0011\u0004": 2706,
      "AP": 2707,
      "ë\n": 2708,
      "HØ": 2709,
      "\u0016": 2710,
      "D\u0000A\u0000": 2711,
      "ð\u000fÁ": 2712,
      " \b": 2713,
      "\u0018\u0002": 2714,
      "\u0015\u0001": 2715,
      "û÷": 2716,
      "ïý": 2717,
      "òý": 2718,
      "tÿ": 2719,
      "Ë\u0000": 2720,
      "êþ": 2721,
      "ññ": 2722,
      "\u001b\u0000\u0000": 2723,
      "é\u0001": 2724,
      "#": 2725,
      "T$": 2726,
      "À": 2727,
      "H\u0001H": 2728,
      "\u001f\u0004\u00001": 2729,
      "\u0000\u0000\u0000": 2730,
      "Ê\u0000": 2731,
      "\u0001\u00005": 2732,
      "\u0007": 2733,
      " \u0000\u0000\u0000\u0000": 2734,
      "Ï\u0000": 2735,
      "\u0000\u0000\b\u0000\u0000\u0000\u0000\u0000\u0000\u0000\u0000\u0000": 2736,
      "\u000bÈ": 2737,
      "\u0003\u0000": 2738,
      "u\u0006": 2739,
      "\b\u0000q": 2740,
      "Þ\u0000": 2741,
      "\n\u0005": 2742,
      "do": 2743,
      "%\u0000\u0000": 2744,
      "\u001c\u0000\u0000": 2745,
      "³\u0000": 2746,
      "D$p": 2747,
      "éý": 2748,
      "HÀ": 2749,
      "u\n": 2750,
      "HÑ": 2751,
      "\"\u0000\u0000": 2752,
      "t\n": 2753,
      "²\u0000": 2754,
      "": 2755,
      "Y\u0000\u0000\u0000\u0000\u0000": 2756,
      "<$": 2757,
      "åþ": 2758,
      "â\u0003\u0000ª": 2759,
      "Î\u0000": 2760,
      "\u0010ð": 2761,
      "Hl$": 2762,
      "Hÿt": 2763,
      "û": 2764,
      "ÿ\u000f\u0000\u0000\u0000\u0000\u0000\u0000": 2765,
      "°!": 2766,
      "44": 2767,
      "`è": 2768,
      "H;Èt": 2769,
      "øHø\u001f": 2770,
      "H\\$\bWHì": 2771,
      "H\\": 2772,
      "\u0017*": 2773,
      "d\u0000e\u0000": 2774,
      "0\u0002": 2775,
      "A": 2776,
      "æ\u0003": 2777,
      "\bE": 2778,
      "\u000eþ": 2779,
      "HÇE": 2780,
      "\u0005ý": 2781,
      "­Þ": 2782,
      "F\u0004": 2783,
      "\f\u000b": 2784,
      "A\u000f·": 2785,
      "h\"": 2786,
      "\u0006\u0000\u0011": 2787,
      "\u0016\u0004": 2788,
      "\u000f": 2789,
      "\u0016þ": 2790,
      "ò\u0001": 2791,
      "¾©": 2792,
      "01": 2793,
      "Ë": 2794,
      "\b": 2795,
      "ù": 2796,
      "T\u0000o\u0000": 2797,
      "êê": 2798,
      "\u0005ð": 2799,
      "\u0002è": 2800,
      "'\u0001": 2801,
      "³Þ": 2802,
      "hd": 2803,
      " þ": 2804,
      "@": 2805,
      "\f\u0014": 2806,
      "Mü": 2807,
      "\n\u0004\u0000": 2808,
      "[a": 2809,
      "H\t": 2810,
      "÷ÿÿ": 2811,
      "\u0001P": 2812,
      "Ö\u0000": 2813,
      "B ": 2814,
      "åå": 2815,
      "\u001dð": 2816,
      "ed": 2817,
      "(\"": 2818,
      "ÿÿ\u0017$\u0003Õ": 2819,
      "(\u0012": 2820,
      "H\u0004": 2821,
      "$x": 2822,
      "ëë": 2823,
      "HÎ": 2824,
      "à": 2825,
      "\u0001": 2826,
      "a\u0001": 2827,
      "\b\u0012": 2828,
      ",0,0": 2829,
      "Iã": 2830,
      "\u0000\u0000(": 2831,
      "\u001fÖ": 2832,
      "$ ": 2833,
      "èý": 2834,
      "`\u0000\u0000\u0000": 2835,
      "2\u0000\u0000\u0000": 2836,
      "a\u0000c\u0000": 2837,
      "Ê!": 2838,
      "@": 2839,
      "HÁè": 2840,
      "\u001f\u0001": 2841,
      "Ép": 2842,
      "Áþ": 2843,
      "ol": 2844,
      "ÌÌÌÌÌÌÌÌÌÌÌé": 2845,
      "zD": 2846,
      "`\u0005": 2847,
      "\u0007ý": 2848,
      "\u000e ": 2849,
      "á": 2850,
      "or ": 2851,
      "àà": 2852,
      "Qè": 2853,
      "\u0003\u0004\u0000\u0000\u0000\u0000\u0000\u0000": 2854,
      "÷þ": 2855,
      "": 2856,
      "(\u0002": 2857,
      "à~àx": 2858,
      "\u000f": 2859,
      "\u0010 ": 2860,
      "ÑÑ": 2861,
      "De": 2862,
      "@\u0000\u0000\u0000\u0004\u0002\u0000\"": 2863,
      "HÇ": 2864,
      "E\b": 2865,
      "A\u000f\u0011": 2866,
      "\u001e\u0001": 2867,
      "þ": 2868,
      "(\u0001": 2869,
      "K": 2870,
      "ø6": 2871,
      "\u0006": 2872,
      "88": 2873,
      "\u0001\u0000 \u0000": 2874,
      "": 2875,
      "\b": 2876,
      "`\u000e": 2877,
      "`ø": 2878,
      "\u000b\u0002": 2879,
      "\u000f¾": 2880,
      "T\u0001": 2881,
      "N": 2882,
      "N": 2883,
      "ç\u0003": 2884,
      "Hø": 2885,
      ",\u0000\u0004": 2886,
      "\u0007\u0000": 2887,
      "\u000f\u0000\u0000\u0000\u0000\u0000": 2888,
      "\u0010d": 2889,
      "\u0010þ": 2890,
      "c ": 2891,
      "%\u0001": 2892,
      "\u000e\u0000A\u000b": 2893,
      "\u0011þ": 2894,
      "\u0003@": 2895,
      "óó": 2896,
      "HD$0": 2897,
      "O ": 2898,
      "f\u000f(": 2899,
      "!": 2900,
      "òD\u000f\u0010": 2901,
      "Æþ": 2902,
      "\u0006\u0000": 2903,
      "öÁ": 2904,
      "\u0019\u0001": 2905,
      "%x": 2906,
      "I[": 2907,
      "A\u0002": 2908,
      "üÿ": 2909,
      "ßþ": 2910,
      "¯þ": 2911,
      "=": 2912,
      "\u0006ý": 2913,
      "\n2": 2914,
      "P\u0004": 2915,
      "\u0014þ": 2916,
      "P ": 2917,
      "Àþ": 2918,
      "ss": 2919,
      "{\u0011": 2920,
      "\u001b\u0001": 2921,
      "\u0007ð": 2922,
      "\u0010\f": 2923,
      "Sè": 2924,
      "\u0006\u0000T": 2925,
      "!\u0002": 2926,
      "L$ ": 2927,
      "ÃÌ": 2928,
      "\u0010\u0010\u0010\u0010\u0010\u0010\u0010\u0010": 2929,
      "\\þ": 2930,
      "\u0010\u0000\u0010\u0000": 2931,
      "": 2932,
      "\u0003": 2933,
      "llvm": 2934,
      "\bC": 2935,
      "À\u0005": 2936,
      "\u000b\u0004": 2937,
      "f": 2938,
      "` ": 2939,
      "\u001a\u0001": 2940,
      "á\u000f": 2941,
      "<\u0001": 2942,
      "HÖ": 2943,
      "\t\u0006": 2944,
      "sy": 2945,
      "22": 2946,
      "éé": 2947,
      "í\u0001": 2948,
      "Xþ": 2949,
      "A\u0018": 2950,
      "LÃ": 2951,
      "ï\u0003": 2952,
      "+\u0006": 2953,
      "\u0013\u0002": 2954,
      "Ñþ": 2955,
      "@Y": 2956,
      ")\u0004\u0000\u0000\u0000": 2957,
      "ý{¿©": 2958,
      "\u0007": 2959,
      "P\u0000\u0000\u0000": 2960,
      "\u0003\u0003ª": 2961,
      "¿þ": 2962,
      "\u0004": 2963,
      "ç\u0001": 2964,
      "\fð": 2965,
      "u ": 2966,
      "@¸": 2967,
      "\f\u0011": 2968,
      "Þþ": 2969,
      "Ðè": 2970,
      "\n ": 2971,
      "H": 2972,
      "\fq": 2973,
      "üû": 2974,
      "@¹\u0000": 2975,
      "ý\u0003": 2976,
      "Bù": 2977,
      "à\u0003\u0001": 2978,
      "\u0004\u0000Ð": 2979,
      "ub": 2980,
      "ïï": 2981,
      "\u0018\u0018": 2982,
      "A,": 2983,
      "Ýþ": 2984,
      "M+": 2985,
      "%\u0000\u0000\u0000\u0000": 2986,
      "\n@ù": 2987,
      "\u0006ð": 2988,
      "H\\$0H": 2989,
      "\u000bð": 2990,
      "r\u0000e\u0000": 2991,
      "\t": 2992,
      "AB": 2993,
      "6\u0001": 2994,
      "Üþ": 2995,
      "Ïþ": 2996,
      "B)": 2997,
      "8\u0001": 2998,
      "Úþ": 2999,
      "HK": 3000,
      "\u001b\u0000ù": 3001,
      "\u0000\u0000ÿ": 3002,
      "==": 3003,
      "\t\b": 3004,
      "Ç": 3005,
      "B\u0003": 3006,
      "¾þ": 3007,
      "÷\u0001": 3008,
      "ê\u0001": 3009,
      "I9": 3010,
      " ": 3011,
      "Ld$": 3012,
      "\n\b": 3013,
      "à?": 3014,
      "ìì": 3015,
      "D": 3016,
      "ö_": 3017,
      "C\u0004": 3018,
      "vic": 3019,
      "t$0": 3020,
      "\u0007\u0000T": 3021,
      "&\u0001": 3022,
      "õ\u0001": 3023,
      "ôô": 3024,
      "úû": 3025,
      "\u0002\u0018": 3026,
      "Ôþ": 3027,
      "bò}H\u0018": 3028,
      "ýÿ\u0017": 3029,
      "V4": 3030,
      "H": 3031,
      "â\u000f\u0000": 3032,
      "è\u0003": 3033,
      ",\u0001": 3034,
      "!\u0010": 3035,
      "(\u0001\u0000\u0000": 3036,
      "t$\u0010": 3037,
      "\u0013þ": 3038,
      "\u0004": 3039,
      "H\u0001": 3040,
      "á\u0003\u0017ª": 3041,
      "ha": 3042,
      "â\u0003\u0014ª": 3043,
      "\u0000\u0000\u0000\u0000\u0000\u0000\u0000\u0000\u0000\u0000\u0000\u0000\u0000\u0000": 3044,
      "À\u0010": 3045,
      "bó": 3046,
      "F": 3047,
      "}": 3048,
      "_1": 3049,
      "\u0000\u0000": 3050,
      "Hú\u0000\u0010\u0000\u0000r": 3051,
      "`\u0012": 3052,
      "X\u0001": 3053,
      "H": 3054,
      "\u000fþ": 3055,
      "3Å": 3056,
      "ag": 3057,
      "W\u0000i\u0000n\u0000": 3058,
      "é\u0003": 3059,
      "B\u000e\u0010": 3060,
      "\u0002ª": 3061,
      "Øþ": 3062,
      "àý": 3063,
      "\"\u0000": 3064,
      "\u001c¾": 3065,
      "Ûþ": 3066,
      "@\u0014": 3067,
      "\u0002": 3068,
      "ë\r": 3069,
      "ë\u000b": 3070,
      "ó\u0001": 3071,
      "?\u0001": 3072,
      "\u0007": 3073,
      "\t\u0003": 3074,
      ";þ": 3075,
      "\u0002\u0000": 3076,
      "A8": 3077,
      "ëý": 3078,
      "[]A\\": 3079,
      "I\u0001": 3080,
      "c\b": 3081,
      "\u0000": 3082,
      "z\u0010": 3083,
      "HI\u0018": 3084,
      "u\b": 3085,
      "\u0011\u0000\u0000\u0000": 3086,
      "\u0001\u0000\u0000\u0000": 3087,
      "\u001f\u0003": 3088,
      "4\u0001": 3089,
      "â\u0004": 3090,
      "é\u0002": 3091,
      "p\u0003": 3092,
      "HÿÀ": 3093,
      "Ùþ": 3094,
      "\u0004\u0000°": 3095,
      "À\u0001\u0000\u0000": 3096,
      "¨þ": 3097,
      "¿\u0000\u0000": 3098,
      "f.": 3099,
      "\u0002*": 3100,
      "3í": 3101,
      "\u0000\u0000": 3102,
      " \u0007": 3103,
      "ct": 3104,
      "\u0001": 3105,
      "Ït": 3106,
      "\tð": 3107,
      "Ç": 3108,
      "\u0002\f": 3109,
      "\u001d\u0001": 3110,
      "\u000f\u0012": 3111,
      "M\u0001": 3112,
      "E": 3113,
      "½þ": 3114,
      "&": 3115,
      "íý": 3116,
      "\u0000\u0004\u0000": 3117,
      "|$": 3118,
      "\u0006": 3119,
      "¼þ": 3120,
      "E;": 3121,
      "q\u0001": 3122,
      "\r\u0003": 3123,
      "â\u0003\u0013ª": 3124,
      "\u0002ù": 3125,
      "¸\u0001\u0000\u0000": 3126,
      "éð": 3127,
      "H": 3128,
      "is ": 3129,
      "\u0018þ": 3130,
      "°þ": 3131,
      "Ç": 3132,
      "d\u0000o\u0000w\u0000": 3133,
      "WR": 3134,
      "T_": 3135,
      "Eù": 3136,
      "u\u0000d\u0000": 3137,
      "Aþ": 3138,
      "¹é": 3139,
      "u\u0000t\u0000": 3140,
      "ìý": 3141,
      "e\u0000n\u0000": 3142,
      "Åø\u0010": 3143,
      "á\u0001": 3144,
      "ø\u0001": 3145,
      "\u0002\u0000ë": 3146,
      "_p": 3147,
      "ùkD©": 3148,
      "Yþ": 3149,
      "gn": 3150,
      "îý": 3151,
      "@\u0002\u0000\u0000": 3152,
      "EP": 3153,
      "\u0004\u0014": 3154,
      "AC": 3155,
      "<\u0000\u0000\u0000": 3156,
      "\u0003": 3157,
      "H": 3158,
      "0": 3159,
      "\u0004u": 3160,
      "\u0019þ": 3161,
      "øè": 3162,
      "ï\u0001": 3163,
      "G": 3164,
      "\u0005R": 3165,
      "A0": 3166,
      "AVAWHì": 3167,
      "\u0007\u0005": 3168,
      "4\u0000\u0000\u0000": 3169,
      "¸þ": 3170,
      "\u0010Ç": 3171,
      "\u001bh": 3172,
      "H\u0007": 3173,
      "ÄÁ|\u0010": 3174,
      "à ": 3175,
      "ïîîïîîïîîïîî": 3176,
      "\r\b": 3177,
      "üÿT": 3178,
      "\rð": 3179,
      "Áê": 3180,
      "±\u0001": 3181,
      "\u0003\u0000Ò": 3182,
      "Ît": 3183,
      "×þ": 3184,
      "Óþ": 3185,
      "\u0000\u0000\u0000\u0000\u0000\u0000\u0000\u0000\u0000\u0000\u0000\u0000\u0000\u0000\u0000\u0000\u0000": 3186,
      "H": 3187,
      "\u0005\u0000°": 3188,
      "Òþ": 3189,
      "\u0001\u0000\u0000\u0000è": 3190,
      "ÿÿÿ": 3191,
      "àxàxàxàx": 3192,
      "j\u0004": 3193,
      "\u000e\u0004": 3194,
      "D$(": 3195,
      "por": 3196,
      "Îè": 3197,
      "T\u0000o\u0000p\u0000o\u0000": 3198,
      "X\u0001\u0000\u0000": 3199,
      "³ÞW": 3200,
      "#": 3201,
      "CO": 3202,
      "\u001d\u0000\u0000": 3203,
      "à;": 3204,
      "øû": 3205,
      "óA\u000f\u0011": 3206,
      "": 3207,
      "?þ": 3208,
      "L2": 3209,
      "\u001cþ": 3210,
      "\u0006©": 3211,
      "L|$": 3212,
      "\u0004": 3213,
      "[a": 3214,
      "ó\u000b@ù": 3215,
      "P": 3216,
      "\u0003": 3217,
      "Âþ": 3218,
      "c\u0000\u0002ë": 3219,
      "à\u0003\u0014*": 3220,
      "#\u0000": 3221,
      "HK": 3222,
      "t\f": 3223,
      "\u0006\u0010": 3224,
      "@ù\u0000": 3225,
      "|(": 3226,
      "ing ": 3227,
      ">b": 3228,
      "Õþ": 3229,
      "@0": 3230,
      "Çþ": 3231,
      "G\u0001": 3232,
      "»þ": 3233,
      "ü\u0004": 3234,
      "Ç\u0001": 3235,
      "\u0019*": 3236,
      "(\u0000\u0000": 3237,
      "\u0006\u0007": 3238,
      "\u0005": 3239,
      "ø\b": 3240,
      "B": 3241,
      "\u0004": 3242,
      "D\u0000\u0000\u0000": 3243,
      "\u0005\u0000Ð": 3244,
      "Äþ": 3245,
      "lin": 3246,
      "1\u000b": 3247,
      "+Â": 3248,
      "Èþ": 3249,
      "\u0001\u0006\u0002\u0000\u00062": 3250,
      "Hì H": 3251,
      "Uìì": 3252,
      "ãã": 3253,
      "à\b": 3254,
      "\tý": 3255,
      "LÇ": 3256,
      "ËE": 3257,
      "ÿ`": 3258,
      "þ": 3259,
      "ô\u0003\u0000*": 3260,
      "=þ": 3261,
      "\u001dþ": 3262,
      "\u0017þ": 3263,
      "@ø": 3264,
      "Öþ": 3265,
      ">þ": 3266,
      "Íþ": 3267,
      "Hè": 3268,
      "8\u0001\u0000\u0000": 3269,
      "Ø×": 3270,
      "\u0002ý": 3271,
      "ú÷": 3272,
      "\n\u0003": 3273,
      "8\u0000\u0000": 3274,
      "DE": 3275,
      "HÄ0_Ã": 3276,
      "\u0000\u0001\u0000\u0000": 3277,
      "0\u0003": 3278,
      "St": 3279,
      "íí": 3280,
      "pþ": 3281,
      "\u001aþ": 3282,
      "\u0002\u0000\u0000è": 3283,
      "$þ": 3284,
      "ºþ": 3285,
      "Éþ": 3286,
      "!þ": 3287,
      "¿\u0001": 3288,
      "p ": 3289,
      "|\u0001": 3290,
      "¿©ý\u0003\u0000": 3291,
      "HÆ": 3292,
      "\u001c\u0004": 3293,
      "x\u0001": 3294,
      "\u0010h": 3295,
      "ùû": 3296,
      "y\u000bN": 3297,
      "Ð\u0003": 3298,
      "J\u0001": 3299,
      "\u0010é": 3300,
      "p\u0002": 3301,
      "ý{Ä": 3302,
      "H$": 3303,
      "\u0000\u0000\u0000\u0000\u0000\u0000\u0001\u0000\u0000\u0000": 3304,
      "\u0005F": 3305,
      "\u0000\u0000\u0000": 3306,
      "ó\u000f\u0012": 3307,
      "ë\f": 3308,
      "«þ": 3309,
      "\u0002": 3310,
      "P": 3311,
      "@þ": 3312,
      "H)": 3313,
      "öü": 3314,
      "ä\u0001": 3315,
      "not ": 3316,
      "2 ": 3317,
      "\\ù": 3318,
      "u\t": 3319,
      "fD": 3320,
      "\u0007\u0000ð": 3321,
      "¨*": 3322,
      "Ìþ": 3323,
      "ÿÿ\u0017ý{": 3324,
      "\u0001": 3325,
      "@\u0005": 3326,
      "\u0012\u0012": 3327,
      "X\u0000\u0000\u0000": 3328,
      "C\f": 3329,
      "\u0010ÿ\u000f\u0000\u0000": 3330,
      "áá": 3331,
      "°\u0001\u0000\u0000": 3332,
      ";È": 3333,
      "ö\u0005": 3334,
      "x": 3335,
      "P\u0005": 3336,
      "oþ": 3337,
      "\" \u000fG": 3338,
      "\u0002\u0007": 3339,
      "\u0001": 3340,
      "\u0010\u0000": 3341,
      "0þ": 3342,
      "\f$": 3343,
      "¤þ": 3344,
      "î\u0001": 3345,
      "\u0005\u0000ð": 3346,
      "¢\n": 3347,
      "\u0010Ht$\u0018": 3348,
      "C\u000f\u0010": 3349,
      "ø÷": 3350,
      "±þ": 3351,
      "]Â\u0004\u0000": 3352,
      "\u001bþ": 3353,
      "\u0000è": 3354,
      "C\u0000\u0000": 3355,
      "@ù\u0001\u0000@ùB\u0000\u0001ë\u0001\u0000Ò": 3356,
      "tt": 3357,
      "ÇG": 3358,
      "Êþ": 3359,
      "EN": 3360,
      "â\u0003\u0015ª": 3361,
      "h\u0001\u0000\u0000": 3362,
      "Ç\u0006": 3363,
      "çý": 3364,
      "nvnvnvnv": 3365,
      "HÄ": 3366,
      "Ch": 3367,
      "þ": 3368,
      "can": 3369,
      "H\u0003": 3370,
      "\u0001": 3371,
      "Æ": 3372,
      "ãý": 3373,
      "Ðý": 3374,
      "ó¤": 3375,
      "Ó": 3376,
      "p\b": 3377,
      "\u000e\u0018": 3378,
      "}\u0018": 3379,
      "êý": 3380,
      "ÿÿé": 3381,
      "æý": 3382,
      "\u000b\b": 3383,
      "xx": 3384,
      "\"@": 3385,
      "t\u0006": 3386,
      "H ": 3387,
      "j\u0003": 3388,
      "\"\u0002": 3389,
      "0\n": 3390,
      "`\b": 3391,
      "+\u0001": 3392,
      "\fý": 3393,
      "`þ": 3394,
      "´þ": 3395,
      "d\u0000\u0000": 3396,
      " \t": 3397,
      "$$": 3398,
      "ÌÌÌÌÌÌÌÌÌÌÌÌÌÌÌ": 3399,
      ", %": 3400,
      "Ïr": 3401,
      "Bþ": 3402,
      "/þ": 3403,
      "Eü": 3404,
      "_\u00002\u0000": 3405,
      "_s": 3406,
      "Îÿ\u0015": 3407,
      "\u001fþ": 3408,
      ".?AV": 3409,
      "\u0012\u0003": 3410,
      "'\u0000\u0000": 3411,
      "ý{Á¨À\u0003_Ö": 3412,
      "³ÞW#": 3413,
      "IO": 3414,
      "pè": 3415,
      "\r\u0002": 3416,
      "u\u0010": 3417,
      "\u0014\u0002": 3418,
      "ay": 3419,
      "\u001c\u0002": 3420,
      "HX": 3421,
      "à\u0001\u0000\u0000": 3422,
      "\"þ": 3423,
      "R\u0010": 3424,
      "!\u0005\u0002\u0000\u0005": 3425,
      "`8": 3426,
      "\u0000\u0000\u0000\u0000\u0000!\u0001\u0000": 3427,
      " \u0002\u0000\u0000": 3428,
      "ú\u0004": 3429,
      "¡þ": 3430,
      "\u0018\u0003": 3431,
      "ë\u000e": 3432,
      "O": 3433,
      "\n$": 3434,
      "UVW": 3435,
      "µþ": 3436,
      "¬þ": 3437,
      "±Å": 3438,
      "com": 3439,
      "Ëþ": 3440,
      "\u0006": 3441,
      "SVW": 3442,
      "\u0002\u0000´": 3443,
      "ù": 3444,
      "¦þ": 3445,
      "þ": 3446,
      "<": 3447,
      "H\u000f¯": 3448,
      "\u0018*": 3449,
      "Ê": 3450,
      "E1": 3451,
      "Îþ": 3452,
      "­þ": 3453,
      "\br": 3454,
      "H\u0000\u0000\u0000": 3455,
      "\u001eþ": 3456,
      "8þ": 3457,
      "³þ": 3458,
      ",þ": 3459,
      "@ð": 3460,
      "\nð": 3461,
      ",,,,": 3462,
      "$0": 3463,
      "\u0006": 3464,
      "\u0000\u0000\u0000\u0000\u0000\u0000a\u0000\u0000\u0000": 3465,
      "\u0002": 3466,
      "e\u0000s\u0000": 3467,
      "<þ": 3468,
      "G\u0000\u0000\u0000": 3469,
      "âý": 3470,
      "\f\r": 3471,
      "õ\u0013@ù": 3472,
      "\u0010": 3473,
      " þ": 3474,
      "\u0001\u0000\u0000\u0000ÿ\u000f\u0000\u0000\u0000\u0000\u0000\u0000": 3475,
      "¥þ": 3476,
      "\u0004\u0000ð": 3477,
      "t\u000e": 3478,
      "@\u0000\u0000\u0000\u0000": 3479,
      "þ": 3480,
      "ÌÌÌÌÌÌÌÌÌÌÌÌÌÌ": 3481,
      "E_": 3482,
      "ò\u000fÐ": 3483,
      "\u000b\u0003": 3484,
      "ù\u0004": 3485,
      "$\u0000\u0000\u0000\u0000": 3486,
      "@\u0000\u0000T": 3487,
      "L7": 3488,
      "þ": 3489,
      "ö\u0003\u0000ª": 3490,
      "à\u000e": 3491,
      "àxñÀ\" \u000f\bÀ": 3492,
      "H": 3493,
      "\u0002\u0000 ": 3494,
      "ép": 3495,
      "\u0000\u0000\u0000\u0000\u0000\u0000\u0000\u0000\u0000\u0000\u0000\u0000\u0000\u0000\u0000\u0000\u0000\u0000\u0000\u0000\u0000": 3496,
      "E\u000f\u0010": 3497,
      "Ñ\u0001": 3498,
      "\u001eú": 3499,
      "þ": 3500,
      "\rý": 3501,
      "_\u0000D\u0000": 3502,
      "\u001dy\u000bN": 3503,
      "@\u0006": 3504,
      "þ": 3505,
      "§þ": 3506,
      "\u0015þ": 3507,
      "+þ": 3508,
      "1\u0001": 3509,
      "ý": 3510,
      "Pþ": 3511,
      "\f": 3512,
      "\t\u0010": 3513,
      "åý": 3514,
      "H\\$\bHl$": 3515,
      "\u001f\u0000\u0001ë": 3516,
      "\u0014\u0010": 3517,
      "Q\u0001": 3518,
      " \u0000=\u0000 \u0000": 3519,
      "IÖ": 3520,
      "\"": 3521,
      "43": 3522,
      "äý": 3523,
      "nþ": 3524,
      "I\u0011": 3525,
      "\u0004\u0000\u0000\u0000\u0000\u0000\u0000\u0000": 3526,
      "\"\u0004": 3527,
      "¢þ": 3528,
      "\u0014\u0003": 3529,
      "+@ù": 3530,
      "19": 3531,
      "`\f": 3532,
      "ò\u0003": 3533,
      "¿\u0000\u0000¿\u0000\u0000": 3534,
      "..": 3535,
      "A(": 3536,
      "\ný": 3537,
      "u\r": 3538,
      "ÿÿ\u0017?#\u0003Õý{": 3539,
      "HC": 3540,
      "I\u0010": 3541,
      "\n": 3542,
      "þ": 3543,
      "û\u0004": 3544,
      "9þ": 3545,
      "ú": 3546,
      "get": 3547,
      "&þ": 3548,
      "W\u0000i\u0000n\u0000d\u0000o\u0000w\u0000": 3549,
      "y\u0010": 3550,
      "à'": 3551,
      "\u0001\u0000@\u0000": 3552,
      "\u0000\u0000@": 3553,
      "ue": 3554,
      "%þ": 3555,
      "Æ\u0005": 3556,
      "Ex": 3557,
      "\n\u0004\u0000\n": 3558,
      "#þ": 3559,
      "A,": 3560,
      "K¹": 3561,
      "u\f": 3562,
      "¶þ": 3563,
      "\u0001\u0000@ùá": 3564,
      "t\u000b": 3565,
      "\u0000\u0000\u0000\u0000\u0000\u0000\u0000\u0000\u0000\u0000\u0000\u0000\u0000\u0000\u0000\u0000\u0000\u0000\u0000\u0000\u0000\u0000\u0000\u0000\u0000\u0000\u0000\u0000": 3566,
      "l.": 3567,
      "xþ": 3568,
      "\u000bý": 3569,
      "@z": 3570,
      "áý": 3571,
      "â\u0001": 3572,
      "ôü": 3573,
      "·þ": 3574,
      "þ": 3575,
      ");": 3576,
      " \u0006": 3577,
      "\u0007\u0010": 3578,
      "o ": 3579,
      ")\u0001": 3580,
      "\u0014$": 3581,
      "¸\u0001": 3582,
      "hþ": 3583,
      "\u0011\u0003": 3584,
      "£þ": 3585,
      "\u0000\u0000\u0000\u0000\u0002\u0000": 3586,
      "LM": 3587,
      "\né": 3588,
      "õü": 3589,
      "}Ó": 3590,
      "\u001e\u0001\u0000\u0001\u0000": 3591,
      "": 3592,
      "\u0000\u0001k": 3593,
      "\u0000\u0000\u0001\u0000": 3594,
      "#r": 3595,
      "ÃÌÌÌ": 3596,
      "ð\u0002": 3597,
      "SS": 3598,
      "": 3599,
      "\r\u0001 \u0007": 3600,
      "`\u001a": 3601,
      "=\u0004": 3602,
      "\u0011\u0010": 3603,
      "ta": 3604,
      "-þ": 3605,
      "\u0002\u00004": 3606,
      "\u0007\u0000": 3607,
      "D$H": 3608,
      "®þ": 3609,
      "\u000bp": 3610,
      "$\u0010": 3611,
      "c\u0000\u0002ë\u0002\u0000Ò": 3612,
      "\u000fÀ": 3613,
      "ó\u000f\u0016": 3614,
      "I\u000f": 3615,
      "Q\u0010": 3616,
      "  ": 3617,
      "\n\t": 3618,
      "#\u0006": 3619,
      "\b": 3620,
      "Xè": 3621,
      "á\u0003\u0018ª": 3622,
      "\u0002À": 3623,
      "ì\u0001": 3624,
      "(þ": 3625,
      "Lÿ": 3626,
      "É\u0010": 3627,
      "\u0007\u0000°": 3628,
      "óB": 3629,
      "?\u0000\u0000\u0000\u0000": 3630,
      "@¨": 3631,
      "Hl$": 3632,
      "ñü": 3633,
      "\u0000\u0000\u0014": 3634,
      "A]A^": 3635,
      "þ": 3636,
      "ùø": 3637,
      "j ": 3638,
      "±\u0016": 3639,
      "8F": 3640,
      "b\"": 3641,
      "HO": 3642,
      "ï¾": 3643,
      "ªþ": 3644,
      " ": 3645,
      "þ": 3646,
      "\u0005\u0001\u0000": 3647,
      "'þ": 3648,
      "@H": 3649,
      "ù÷": 3650,
      "\u0005\u0000\u0005\u0000": 3651,
      "òü": 3652,
      "ó\u0003\u0001ª": 3653,
      "N": 3654,
      "á\u0004": 3655,
      "\u0007\u0006": 3656,
      "ë\u0011": 3657,
      "|$": 3658,
      "`\u001e": 3659,
      "\u0005\n": 3660,
      "²þ": 3661,
      "zþ": 3662,
      "I\u0000n\u0000t\u0000": 3663,
      "sþ": 3664,
      "\u0005\u000b": 3665,
      "³ÞW#[a": 3666,
      "55": 3667,
      "Dþ": 3668,
      "\u0003": 3669,
      "4þ": 3670,
      "\u0013\u0013": 3671,
      "\u0004\u0000Ñ": 3672,
      "}þ": 3673,
      "÷Ø": 3674,
      "\u0017\b": 3675,
      "ÇD$(": 3676,
      "\"\u0010": 3677,
      "þ": 3678,
      "©ùk": 3679,
      "I": 3680,
      "~þ": 3681,
      "!@": 3682,
      "D": 3683,
      "Ã\u0010": 3684,
      "e\u0000\u0000\u0000": 3685,
      "þ": 3686,
      "1þ": 3687,
      "Co": 3688,
      "y": 3689,
      "lþ": 3690,
      "\u0000\u0000 Ò": 3691,
      "{": 3692,
      "jþ": 3693,
      "|þ": 3694,
      "à\u0003\u001bª": 3695,
      ",00,00": 3696,
      "æ\u0001": 3697,
      "\u0014\u0004": 3698,
      "å\u0001": 3699,
      "Aø": 3700,
      "ø\u0001u": 3701,
      "È\u0001": 3702,
      "]þ": 3703,
      "\"\u0000\r\u0000\n\u0000": 3704,
      "\u000b": 3705,
      "þ": 3706,
      ",\"": 3707,
      "J\u0010": 3708,
      "\u0002\u0016": 3709,
      "\u0003": 3710,
      "ÌÌÌÌH": 3711,
      "\b\u0000T": 3712,
      "Gþ": 3713,
      "ÖÕ": 3714,
      ")þ": 3715,
      "à3": 3716,
      "for": 3717,
      "t\u0000e\u0000": 3718,
      "\r\u0010": 3719,
      "RO": 3720,
      ":%": 3721,
      "Aö": 3722,
      ":þ": 3723,
      "\r\u0004": 3724,
      "\u0010\u0000": 3725,
      "ã\u0001": 3726,
      "Lt$": 3727,
      "à4": 3728,
      " H": 3729,
      "*þ": 3730,
      "\bð": 3731,
      "¹þ": 3732,
      "ø\u0006": 3733,
      "9\u0001": 3734,
      "\u0005": 3735,
      "3þ": 3736,
      "ÿC": 3737,
      "þ": 3738,
      "A#": 3739,
      "E\u0001": 3740,
      "Zþ": 3741,
      "±\u0012": 3742,
      "þ": 3743,
      "ali": 3744,
      "HC": 3745,
      "òA\u000f\u0010": 3746,
      "\u0001": 3747,
      "Lþ": 3748,
      "ë\u0010": 3749,
      "d\u0000\u0000\u0000": 3750,
      "D$X": 3751,
      "\u0007\u0000Ð": 3752,
      "is": 3753,
      "G": 3754,
      "\f\f\f\f": 3755,
      "@SHì H": 3756,
      "ì": 3757,
      "$\u0002": 3758,
      "_8": 3759,
      "þ": 3760,
      "¢\n(\u0000": 3761,
      "H\u0001\u0000\u0000": 3762,
      "\bé": 3763,
      "fD\u000fY": 3764,
      "\u0007è": 3765,
      "\u000f\u0016": 3766,
      "þ": 3767,
      "Eþ": 3768,
      "ùú": 3769,
      "\u0005\u0005\u0005\u0005": 3770,
      "@ö": 3771,
      "HxD": 3772,
      "\u0005ü": 3773,
      "\u0001": 3774,
      "à\f": 3775,
      "þ": 3776,
      "2þ": 3777,
      "\u0019\u0002": 3778,
      "dþ": 3779,
      "þ": 3780,
      "\b;": 3781,
      "ÿÿÿÿ\u0000\u0000\u0000\u0000@\u0000\u0000\u0000": 3782,
      "x\u0013": 3783,
      " \u0000\u0001\u0000\u0004\u0000\u00004\u0000\u0014\u0000\u000e": 3784,
      "À\u0006": 3785,
      "6þ": 3786,
      "\u0000\u0000\u0001\u0000\u0000": 3787,
      "04": 3788,
      "á\u0002": 3789,
      "~\u0001": 3790,
      "\u0001\u0000": 3791,
      "F\u0002": 3792,
      "þ": 3793,
      "(\u001e": 3794,
      "A": 3795,
      "½©": 3796,
      "\u0014è": 3797,
      "\u001b\u0002": 3798,
      "ÞÝ\u000e\u0000\u0000\u0000\u0000": 3799,
      "@\u0000\u0000": 3800,
      "þ": 3801,
      "\u0002": 3802,
      "þ": 3803,
      "B\u0002": 3804,
      "E\u0010": 3805,
      "þ": 3806,
      "\u001bÀ": 3807,
      "\u0000\u0000\u0000\u0000\u0001\u0000\u0000\u0000": 3808,
      "H\\$@": 3809,
      "f\u000f\\": 3810,
      "": 3811,
      "aþ": 3812,
      "\u0000\u0000\u0000\u0000P": 3813,
      "ïü": 3814,
      ">\u0000\u0000": 3815,
      "H$": 3816,
      "ÍÌL": 3817,
      "©ûs": 3818,
      "fE\u000fY": 3819,
      "þ": 3820,
      "f\u000fs": 3821,
      "\u000eý": 3822,
      "o\u0000r\u0000": 3823,
      "÷ý": 3824,
      "LÆ": 3825,
      "fC": 3826,
      "óü": 3827,
      "HD$8": 3828,
      "Bð": 3829,
      "A\u0000\u0000": 3830,
      "Wþ": 3831,
      "H": 3832,
      "\u000bÐ": 3833,
      "\u0004": 3834,
      "þ": 3835,
      "s\f": 3836,
      "b¢": 3837,
      "(\u001a": 3838,
      "ùùùùùùùùùùùùùùùù": 3839,
      "'": 3840,
      "Òt": 3841,
      "\u0012\u0000 ": 3842,
      "\bë": 3843,
      "yþ": 3844,
      "": 3845,
      "wþ": 3846,
      "Ýý": 3847,
      ")\u0003\u0000\u0000\u0000": 3848,
      "t\r": 3849,
      "Lp": 3850,
      "vþ": 3851,
      "E\u0000\u0000": 3852,
      "mþ": 3853,
      "üõ": 3854,
      "Mic": 3855,
      "Mþ": 3856,
      "D+": 3857,
      "\bý": 3858,
      "ø\u0005": 3859,
      "\n\u0000ù": 3860,
      "??": 3861,
      "à": 3862,
      "d\u0001": 3863,
      "Qþ": 3864,
      "Uþ": 3865,
      ",\n": 3866,
      "\u001fü": 3867,
      "ÒÒ": 3868,
      "W\u0010": 3869,
      "gþ": 3870,
      "ñ\u0003": 3871,
      ">\u0001": 3872,
      "Ó": 3873,
      "*\u0001": 3874,
      "\u0000ù\u0001\u0000Ò": 3875,
      "ûÿ": 3876,
      "\r\u0006": 3877,
      "Cþ": 3878,
      ".þ": 3879,
      "7þ": 3880,
      "\n\u0010": 3881,
      "t\u0012": 3882,
      "H": 3883,
      "\u000f\u0002": 3884,
      "\u0007ü": 3885,
      "\u0013\u0010": 3886,
      "ð ": 3887,
      "66": 3888,
      "'\u0002": 3889,
      "p\u0000\u0000\u0000": 3890,
      "H": 3891,
      "^þ": 3892,
      "@\u0016": 3893,
      ")\u0000\u0000": 3894,
      "\u0002\u0000": 3895,
      "\u000f¶À": 3896,
      "!¸": 3897,
      "ze": 3898,
      "\u000e\u0002": 3899,
      "K\u0001": 3900,
      "_þ": 3901,
      "to ": 3902,
      "#\u0002": 3903,
      "àC": 3904,
      "HÂ": 3905,
      "ää": 3906,
      "\u0003ë": 3907,
      "H$": 3908,
      "ó\u000b\u0000ù": 3909,
      "": 3910,
      "\rñ": 3911,
      "5\u0001": 3912,
      "H\t": 3913,
      "%\u0002": 3914,
      "àè": 3915,
      "Äc": 3916,
      "\u000fZ": 3917,
      "set": 3918,
      "t.": 3919,
      "str": 3920,
      "ì": 3921,
      "»": 3922,
      "\u0012\u0004": 3923,
      "$": 3924,
      "Hïè": 3925,
      "©þ": 3926,
      "pr": 3927,
      "©÷c": 3928,
      "¸ý": 3929,
      "Rþ": 3930,
      "}": 3931,
      "IÎ": 3932,
      "`\u0010": 3933,
      "\u0015\u0015": 3934,
      "\u0000\u0000\u0000\u0000A\u000e\u0010\u0002\u0001": 3935,
      "ßý": 3936,
      "4": 3937,
      "\u0006\u0000°": 3938,
      "\u0011\b": 3939,
      "kþ": 3940,
      "A\f": 3941,
      "F ": 3942,
      "Á@": 3943,
      "Vþ": 3944,
      "HÆ": 3945,
      "\u0001": 3946,
      "5þ": 3947,
      "@\bÿ\u0015": 3948,
      "þ": 3949,
      "fþ": 3950,
      "õÿÿ": 3951,
      "\u0016\u0000\u0000\u0000": 3952,
      "ÃÌÌ": 3953,
      "\u0012ý": 3954,
      "\u0003 ": 3955,
      "99": 3956,
      "<\u0000<\u0000": 3957,
      "\u001f\u0004": 3958,
      "ØØ": 3959,
      "þ": 3960,
      "#\u0000\u0000": 3961,
      "add": 3962,
      "end": 3963,
      "=\u0001": 3964,
      "ßß": 3965,
      "\u0005": 3966,
      "\u0012\u0010": 3967,
      "\f\u0007": 3968,
      "[þ": 3969,
      "Fþ": 3970,
      "W\u0000i\u0000n\u0000d\u0000o\u0000w\u0000s\u0000.\u0000": 3971,
      "Æ": 3972,
      "HÄ8": 3973,
      "H\u0018": 3974,
      "ê\u0003": 3975,
      "%%": 3976,
      "AR": 3977,
      "@¬": 3978,
      "ûú": 3979,
      "@\u0000 \u0000": 3980,
      "×è": 3981,
      "E3ö": 3982,
      "\u0007": 3983,
      "Eð": 3984,
      "l_": 3985,
      "\u0005ù": 3986,
      "!À": 3987,
      "Á": 3988,
      "2\u0001": 3989,
      "ò\u0002": 3990,
      "\u0002": 3991,
      " \u0004": 3992,
      "øú": 3993,
      "k\u0001": 3994,
      "ë\u0013": 3995,
      "\f\b": 3996,
      "K\u0010": 3997,
      "\u0015\b": 3998,
      "&\u0002": 3999,
      "P\u0002": 4000,
      "Jþ": 4001,
      "m ": 4002,
      "ting": 4003,
      "p\u0007": 4004,
      "X¸": 4005,
      "Ð\u0001\u0000\u0000": 4006,
      "Ö": 4007,
      "t\u0004": 4008,
      "\u0004\u0000q": 4009,
      "@\u0000\u0000\u0000@": 4010,
      "Ò\u0001": 4011,
      "\u0003ª": 4012,
      "²\u0001": 4013,
      "àü": 4014,
      "I": 4015,
      "ý{Á¨": 4016,
      "\u0001\u0000@9": 4017,
      "a\u0000\u0000": 4018,
      "Sþ": 4019,
      "Åû\u0010": 4020,
      "L¼$": 4021,
      "\u000f\b": 4022,
      "S\u0010": 4023,
      "1\u0000": 4024,
      "Åü\u0010": 4025,
      "@À": 4026,
      "cþ": 4027,
      "HÀøHø\u001f": 4028,
      "½ý": 4029,
      "þ": 4030,
      "\u0005\u0018": 4031,
      "": 4032,
      "iþ": 4033,
      "\u0000\u0000\u0000ÿ": 4034,
      " ý": 4035,
      "Iþ": 4036,
      "Nþ": 4037,
      "\u0001": 4038,
      "H\u0012\u0000": 4039,
      "08": 4040,
      "@#": 4041,
      "Üý": 4042,
      "üú": 4043,
      "\u0010\u0000\u0000\u0000\u0000\u0000a\u0000\u0004\u0000": 4044,
      "\u001e\u001e": 4045,
      "\u0000\u0000\u0000\u0000\u0000\u0003\u0004\u0000\u0000\u0000\u0000\u0000\u0000": 4046,
      " r": 4047,
      "\b\u0000Ð": 4048,
      ".\u0001": 4049,
      "à7": 4050,
      "fff": 4051,
      "\u0011r": 4052,
      "Ãþ": 4053,
      "&&": 4054,
      "PK": 4055,
      "t\b": 4056,
      "\b\u0000°": 4057,
      "\u0000\u0000\u0000H": 4058,
      "H": 4059,
      "ç\u0004": 4060,
      "ââ": 4061,
      "\u000e\u000e\u000e\u000e": 4062,
      "\u0007ù": 4063,
      "\u000e\u0003": 4064,
      "ô\u0003\u0001ª": 4065,
      "\f\u0005": 4066,
      "-\u0001": 4067,
      "º\u0001": 4068,
      "H\u0004%": 4069,
      "\u0017\r": 4070,
      "er ": 4071,
      "ý{Á¨¿#\u0003Õ": 4072,
      "Hþ": 4073,
      ",\u0000\u0000": 4074,
      "!\u0003": 4075,
      "res": 4076,
      "HO": 4077,
      "bþ": 4078,
      "\u001c\u0003": 4079,
      "Àý": 4080,
      "Lçè": 4081,
      "$@": 4082,
      "à\u0013": 4083,
      "ÆEü": 4084,
      "->": 4085,
      "14": 4086,
      "$\u0000q": 4087,
      "óA\u000fX": 4088,
      "eþ": 4089,
      "Ô\u0001": 4090,
      "AM": 4091,
      "int": 4092,
      "Kþ": 4093,
      "ÄA|\u0010": 4094,
      "_^]Ã": 4095,
      "ÃB": 4096,
      "\u0013\u0000\u0000\u0000": 4097,
      "/\u0001": 4098,
      " I": 4099,
      "\u0014ð": 4100,
      "Æý": 4101,
      "ÚÙ": 4102,
      "ó\u0004": 4103,
      "Ñè": 4104,
      "à\t": 4105,
      "\u000fð": 4106,
      "øù": 4107,
      "Àé": 4108,
      "E": 4109,
      "ñ\u0002": 4110,
      "Áâ": 4111,
      "25": 4112,
      "Hö": 4113,
      "Þý": 4114,
      "A¿": 4115,
      "\u0005\t": 4116,
      "à\u0010": 4117,
      "rþ": 4118,
      "ù#": 4119,
      "\u0014p": 4120,
      "*": 4121,
      "L3": 4122,
      "¾ý": 4123,
      "N\b": 4124,
      "ó\u000f~": 4125,
      "A": 4126,
      ">>": 4127,
      "\u0002\u00005": 4128,
      "A\u000f\\": 4129,
      "\u001a": 4130,
      "\n\f": 4131,
      "\u0000\u0004\u0000\u0011": 4132,
      "D\u000e": 4133,
      "LO": 4134,
      " \f": 4135,
      "HM": 4136,
      "Ap": 4137,
      ",%": 4138,
      "É\u0001": 4139,
      ".c": 4140,
      "Q\u0004": 4141,
      "\u0000\u0000\u0000": 4142,
      "óD\u000fY": 4143,
      "ÿÿÿ\u000f": 4144,
      "F\f": 4145,
      "7\u0001": 4146,
      "AVHì": 4147,
      "Ñý": 4148,
      "\u0000\u0000T": 4149,
      "`\u0002\u0000\u0000": 4150,
      "Ùý": 4151,
      "z\u0011": 4152,
      "@\u0000\u0000\u0000\u0000\u0000": 4153,
      "ø\u0007": 4154,
      "í": 4155,
      "HÚ": 4156,
      "t\u001e": 4157,
      "Áý": 4158,
      "Q\b": 4159,
      "a\u0000$\u0000": 4160,
      "ô\u0002": 4161,
      "Ûý": 4162,
      "ü\u001c": 4163,
      "\u000b\u0010": 4164,
      ": %": 4165,
      "è\u0002": 4166,
      "\u001dù": 4167,
      "ke": 4168,
      "üÿ\u0017": 4169,
      "t\u0013": 4170,
      "öû": 4171,
      "\u001c\u001c": 4172,
      "û": 4173,
      "Hï": 4174,
      "\u0011ý": 4175,
      "`\u0007": 4176,
      "PE": 4177,
      "÷\u0002": 4178,
      "\u0004ý": 4179,
      "ÐÐ": 4180,
      "0\f": 4181,
      "\u0001\u0000\u0002\u0000": 4182,
      "\u000f\u0013": 4183,
      "â": 4184,
      "a\u0003": 4185,
      "4\b\u0000": 4186,
      "B@": 4187,
      "©õ[": 4188,
      "Ø\u0001": 4189,
      "HÑ": 4190,
      "f\u000fÆ": 4191,
      "P\u0018": 4192,
      "Úý": 4193,
      "\"\u0000@ùc\u0000\u0002ë\u0002\u0000Ò": 4194,
      "4 ": 4195,
      "59": 4196,
      "\n×": 4197,
      "Â\u0001": 4198,
      "¿ý": 4199,
      "able": 4200,
      "t\u0011": 4201,
      "D\u000fW": 4202,
      "1\u0000\u0000": 4203,
      "Íý": 4204,
      "r\u0000o\u0000": 4205,
      "\u0003\u0002*": 4206,
      "Ð\u0002": 4207,
      "AUAT": 4208,
      "\u0004": 4209,
      "\u0016ý": 4210,
      "á": 4211,
      "pu": 4212,
      "\u0002": 4213,
      "\u0006": 4214,
      "\u0006\u0005": 4215,
      "\u0003ý": 4216,
      "HY": 4217,
      "%": 4218,
      "B0": 4219,
      "öÃ": 4220,
      "ñ\u0007": 4221,
      " \u0000": 4222,
      "6\u0002": 4223,
      "A@": 4224,
      "è": 4225,
      "|>": 4226,
      "''": 4227,
      " \"": 4228,
      "4$": 4229,
      "LL": 4230,
      "Øè": 4231,
      "?\u0003": 4232,
      "\u000fý": 4233,
      "\u0010\b": 4234,
      "\u001dy\u000bN³ÞW#[a": 4235,
      "IÏè": 4236,
      "à\u000b": 4237,
      "=%": 4238,
      "3\u0001": 4239,
      "Oþ": 4240,
      "°ý": 4241,
      "E\u000f\\": 4242,
      "ù\u0006": 4243,
      "b\u0011": 4244,
      "Y\u0001": 4245,
      "³\u0001": 4246,
      "$": 4247,
      "_\u0001": 4248,
      "`\u0016": 4249,
      "À\u0007": 4250,
      "ã\u0004": 4251,
      " \b": 4252,
      "Õý": 4253,
      "\u0002\u0000\u0000": 4254,
      " \u0000\u0000T": 4255,
      "y¹": 4256,
      "Òý": 4257,
      "\u0014ý": 4258,
      "IS": 4259,
      "*H": 4260,
      "\u0003r": 4261,
      "À\u0000Q": 4262,
      "B\u000e\u0018": 4263,
      "Hû": 4264,
      "\u0002\u0000q": 4265,
      "ý\u0003\u0000óS\u0001©": 4266,
      "÷ñ": 4267,
      "´\u0001": 4268,
      "Xý": 4269,
      "@ý": 4270,
      "ð\u0007": 4271,
      "L$": 4272,
      "\u001a\u0000\u001a\u0000": 4273,
      "\u0000\u0000\u0000\u0000\u0000\u0000 ": 4274,
      "e\u0001": 4275,
      "\u0005$": 4276,
      "R\u0001": 4277,
      "ë\u000f": 4278,
      "O": 4279,
      "\u0005û": 4280,
      "\rÐ": 4281,
      "Ll$": 4282,
      "\u001a\u001a": 4283,
      "`0": 4284,
      "á\u0017": 4285,
      "H\\$0HÄ _Ã": 4286,
      "\\\u0001": 4287,
      "Dù": 4288,
      "\u0001\u0000µ": 4289,
      "@\"": 4290,
      "\u0000\u0000\u0000\u0000\u0000\u0000\u0000\u0000\u0000\u0000\u0000\u0000\u0000\u0000\u0000\u0000\u0000\u0000\u0000\u0000\u0000\u0000\u0000": 4291,
      "`\u0000\u0000\u0000\u0000\u0000\u0000\u0000\u0000\u0000\u0000\u0000\u0000\u0000\u0000\u0000": 4292,
      "\u0000\u0000\u0000\u0001\u0000": 4293,
      "Ã@\u0000": 4294,
      "bB": 4295,
      "ôÿÿ": 4296,
      "_f": 4297,
      "¤\u0001": 4298,
      "ù": 4299,
      "Á\u0002": 4300,
      "##": 4301,
      "ò\u000f\\": 4302,
      "YY": 4303,
      "Øý": 4304,
      "C0": 4305,
      "\u0005\u000f": 4306,
      "HIø": 4307,
      "¸": 4308,
      "\u0004\u0000\u0000\u0000\u0000\u0000": 4309,
      "\u0018\u0000\u0000\u0000\u0000": 4310,
      "u\u000b": 4311,
      "Ã¸": 4312,
      "n ": 4313,
      "¼ý": 4314,
      ";\u0001": 4315,
      "¥\u0001": 4316,
      "\u000eð": 4317,
      "": 4318,
      "øg": 4319,
      "\u0011è": 4320,
      "\u000f\u0010\u000f\u0010\u000f\u0010\u000f\u0010": 4321,
      "\u0013ý": 4322,
      "ë\u0015": 4323,
      "ß\u0001": 4324,
      "18": 4325,
      "à\u0003\u0000": 4326,
      "ô\u0004": 4327,
      "Ïý": 4328,
      "P\u0003": 4329,
      "Ìý": 4330,
      "\u0000\u0000\u0000\u0000\u0000\u0000": 4331,
      "%\u0004\u0000\u0000\u0000\u0000": 4332,
      "G\u0004": 4333,
      "D$0": 4334,
      "Öý": 4335,
      ",\u0004": 4336,
      "y\u0018": 4337,
      "Âý": 4338,
      "Ã@\u0000\u0000": 4339,
      "l ": 4340,
      "À\u000f": 4341,
      "@\u001c": 4342,
      "`*": 4343,
      "\u0000\u0000\b\u0000\u0000\u0000\u0000\u0000\u0000\u0000": 4344,
      "¤\u0000\u0000\u0000": 4345,
      "\u0001": 4346,
      "é\u0004": 4347,
      "\u0010x": 4348,
      "^\u0001": 4349,
      "qþ": 4350,
      "çç": 4351,
      "{": 4352,
      "if": 4353,
      "Óý": 4354,
      "\u0000@D": 4355,
      "\u0000\u00005": 4356,
      "S\u0001": 4357,
      "N\u0001": 4358,
      "{þ": 4359,
      "": 4360,
      "L´$": 4361,
      "}\u0010": 4362,
      "\tè": 4363,
      "\fü": 4364,
      "Ôý": 4365,
      "\u0003": 4366,
      ",\u0000\u0004\u0000@D": 4367,
      "\u0005": 4368,
      "\u0018\u0004": 4369,
      "L$@": 4370,
      "¹\u0001": 4371,
      " \u0000=\u0000 \u0000\"\u0000": 4372,
      "pro": 4373,
      "î\u0003": 4374,
      "\nÀ": 4375,
      "ype": 4376,
      "óE\u000f\u0012": 4377,
      "2": 4378,
      "á\u001f": 4379,
      "\u0002": 4380,
      "ûÿT": 4381,
      "ùk\u0004©": 4382,
      "\u0000\u0013ò": 4383,
      ":\u0001": 4384,
      "`E": 4385,
      "â\u0003\u0016ª": 4386,
      "\u0002": 4387,
      "\u000f\u0014": 4388,
      "ý": 4389,
      "\u0013\b": 4390,
      "Æàx": 4391,
      "Û\u0001": 4392,
      "t\u0010": 4393,
      "Q": 4394,
      "ú\u0006": 4395,
      "V6": 4396,
      "": 4397,
      "ÿt": 4398,
      "\u0001": 4399,
      "A¾": 4400,
      "ÜÜ": 4401,
      "¯ý": 4402,
      "b1": 4403,
      "\u0010\u0000\u0000\u0000\u0000\u0000a": 4404,
      "Äý": 4405,
      "f\u000fÖ": 4406,
      "D ": 4407,
      "ðü": 4408,
      "Æ@": 4409,
      "¨\u0002": 4410,
      "H\u000fD": 4411,
      "u\u000e": 4412,
      "\"\u0003": 4413,
      "ne": 4414,
      "ñè": 4415,
      "\tü": 4416,
      "\u0019\u0004": 4417,
      "HÉ\u000f": 4418,
      "ö\u0002": 4419,
      "H;\u0005": 4420,
      "\u0000": 4421,
      "77": 4422,
      "¨ý": 4423,
      "½": 4424,
      "WRIT": 4425,
      "!!": 4426,
      "\u0001\u0001\u0001\u0001\u0001\u0001\u0001\u0001": 4427,
      "RT": 4428,
      "¨\u0002t": 4429,
      "á\u0007": 4430,
      "îü": 4431,
      "K\b": 4432,
      "S": 4433,
      "\u0010ý": 4434,
      "×ý": 4435,
      "\u0001": 4436,
      "V5": 4437,
      "\u0012\u0000\u0000\u0000\u0000\u0000\u0000\u0000\u0000\u0000\u0000\u0000\u0000\u0000\u0000\u0000\u0000\u0000\u0000\u0000": 4438,
      "1\u0002": 4439,
      "@ùà": 4440,
      "Hú": 4441,
      "@\u0007": 4442,
      "K{D": 4443,
      "hè": 4444,
      "t$": 4445,
      "\r\nHK": 4446,
      "çü": 4447,
      "\u0006è": 4448,
      "J": 4449,
      "H\u0002": 4450,
      "&\u0000\u0000": 4451,
      "ºý": 4452,
      "ë\u0014": 4453,
      "@,": 4454,
      "t\u0003": 4455,
      "Wa": 4456,
      "Ñý{": 4457,
      "\u0015\u0004": 4458,
      "\u0002": 4459,
      "L ": 4460,
      "G\u0018": 4461,
      "\u0012": 4462,
      "ile": 4463,
      "dddddddddddddddd": 4464,
      "\u00100": 4465,
      "À": 4466,
      "a\u0004": 4467,
      "à\n": 4468,
      "Con": 4469,
      "Éý": 4470,
      " ": 4471,
      "' ": 4472,
      "`\"": 4473,
      "Ó\u0001": 4474,
      "í#": 4475,
      "\u001a\u0002": 4476,
      "p\u0010": 4477,
      "IF": 4478,
      "V\u0002\u0000": 4479,
      "\u0006*": 4480,
      "ë\u0012": 4481,
      "z\u0001": 4482,
      "\u0005ô": 4483,
      "t\u000f": 4484,
      "ATAUAVAW": 4485,
      "\u0018ý": 4486,
      "49": 4487,
      "b²": 4488,
      "\nü": 4489,
      "\u0000\u0000?\u0000\u0000?": 4490,
      "@ò": 4491,
      "\u0010ÿÖ": 4492,
      "\\ý": 4493,
      "þ": 4494,
      "\b": 4495,
      "+È": 4496,
      "Ò": 4497,
      "\u0000\u0000\u0000f": 4498,
      "à\u0003\u0001ª": 4499,
      "ÿÿÿè": 4500,
      "¢\n(\u0000¢\n(\u0000": 4501,
      "\u0007\u0000": 4502,
      "ó\u000fo": 4503,
      "Ph": 4504,
      "B\f": 4505,
      "\u000bü": 4506,
      "âü": 4507,
      "ò\u000f\u0012": 4508,
      "\u0010\u0001\u0000": 4509,
      "@+": 4510,
      "\u0006ü": 4511,
      "\u0002": 4512,
      "\u0012\u0000\"": 4513,
      "éü": 4514,
      "?ý": 4515,
      "b": 4516,
      "\u0007©": 4517,
      "$\u0003": 4518,
      "æ\u0004": 4519,
      "\u0005ò": 4520,
      "\u0003\u0000ð": 4521,
      "\u0001": 4522,
      " \u0003\u0000\u0000": 4523,
      "ù\b": 4524,
      "bÒ": 4525,
      "×": 4526,
      "D": 4527,
      "õ\u0002": 4528,
      "<<": 4529,
      "a\u0000t\u0000i\u0000": 4530,
      "¬ý": 4531,
      "\u0019ý": 4532,
      "Ã\u0001": 4533,
      "fo": 4534,
      "\u0017\u0017\u0017\u0017": 4535,
      "": 4536,
      "\u0012ð": 4537,
      "P(": 4538,
      "÷ü": 4539,
      "íü": 4540,
      "/\u0000\u0000": 4541,
      "\u001f\u0002": 4542,
      "e\u0000g\u0000": 4543,
      "\u0003\u0000\u0000\u0000\u0000\u0000": 4544,
      "\u001a*": 4545,
      "Ïu": 4546,
      "8\u0004": 4547,
      "Ëý": 4548,
      "ë": 4549,
      "Èý": 4550,
      "Çý": 4551,
      "Îý": 4552,
      "_Z": 4553,
      "\u0017ý": 4554,
      "\u0003\u0000°": 4555,
      "¹": 4556,
      "ý": 4557,
      "are": 4558,
      "à\u0003\u0015*": 4559,
      "J\u0004": 4560,
      "Mo": 4561,
      "2\u0000\u0000": 4562,
      "\u0000\u0000\u0000\u0000\u0000\u0001\u0000@\u0000": 4563,
      "@V": 4564,
      "CH": 4565,
      "@%": 4566,
      "\u0010\u0002\u0000\u0000": 4567,
      "<|": 4568,
      "\t\u0000T": 4569,
      "Þ\u0001": 4570,
      "_P": 4571,
      "HÞ": 4572,
      "HØ": 4573,
      "÷\u0003\u0000ª": 4574,
      "@¼": 4575,
      "HD$ è": 4576,
      "H": 4577,
      ".": 4578,
      "ine": 4579,
      "=ý": 4580,
      "Hì Hê": 4581,
      "Ú\u0001": 4582,
      "\u001c*": 4583,
      "06": 4584,
      "û\b": 4585,
      "ð\u0001\u0000\u0000": 4586,
      "\u0000\u0000\u0000\u0000\u0000\u0000\u0000\u0000\u0000\u0000\u0000\u0000\u0000\u0000\u0000\u0000\u0000\u0000\u0000\u0000\u0000\u0000\u0000\u0000\u0000\u0000\u0000": 4587,
      "û\u0007": 4588,
      "Æ\u0001": 4589,
      "N": 4590,
      "\u000f\u0004": 4591,
      "}\u0001": 4592,
      "ç\u0002": 4593,
      "C(": 4594,
      "ßè": 4595,
      "L¤$": 4596,
      "in ": 4597,
      "^Ã": 4598,
      "\u0005": 4599,
      "1 ": 4600,
      "Z\u0001": 4601,
      "MP": 4602,
      "En": 4603,
      "\u000f\u0003": 4604,
      "æü": 4605,
      "\u0019": 4606,
      "13": 4607,
      "L$": 4608,
      "`": 4609,
      "\b\u0000": 4610,
      "Name": 4611,
      "\rü": 4612,
      "@)": 4613,
      "'%s": 4614,
      "CA": 4615,
      "\b\u0016": 4616,
      "0": 4617,
      "8H": 4618,
      "\u0003\u0000R": 4619,
      "á\u0003\u0000*": 4620,
      "|$": 4621,
      "\u001f \u0003Õý{": 4622,
      "\n\u0000\n\u0000": 4623,
      "\u0011\u0006": 4624,
      "z\u0012": 4625,
      "   ": 4626,
      "¿": 4627,
      "à\u0001": 4628,
      "SU": 4629,
      "\u000f\u000f\u000f\u000f\u000f\u000f\u000f\u000f": 4630,
      "*\u0004": 4631,
      "9¹": 4632,
      "Êý": 4633,
      "\u001cý": 4634,
      "óSA©ý{Â": 4635,
      "Tþ": 4636,
      "17": 4637,
      "\b\u0000\u0000\u0000\u0000": 4638,
      " \u0002\u0000\u0000": 4639,
      " \u0005": 4640,
      "G ": 4641,
      "etting": 4642,
      "Ý\u0001": 4643,
      "H": 4644,
      "³ý": 4645,
      "P0": 4646,
      "$À": 4647,
      "Hï": 4648,
      "\u0004\u0003": 4649,
      "\u000fd": 4650,
      "áü": 4651,
      "ôWA©": 4652,
      "\u000f2": 4653,
      "\u0004\u0000Ò": 4654,
      "l\u0001": 4655,
      "$(": 4656,
      "ÔÔ": 4657,
      "\u0003\u0000\u0000è": 4658,
      "ì\u0003": 4659,
      "ace": 4660,
      "úÿ": 4661,
      "\u0013\u0003": 4662,
      "\t\n": 4663,
      "!F": 4664,
      "1É": 4665,
      "48": 4666,
      "@ï": 4667,
      "\u0001": 4668,
      "!ðFùã": 4669,
      "L$P": 4670,
      "y\u0001": 4671,
      "O\u0010": 4672,
      "\u001cù": 4673,
      "Ì\u0001": 4674,
      "\u0016\u0003": 4675,
      "ãü": 4676,
      "\u000e@ù": 4677,
      "Lt$": 4678,
      "g\u0001": 4679,
      "ö÷": 4680,
      "!ü": 4681,
      "¾\u0001": 4682,
      "À\"": 4683,
      "Ít": 4684,
      "|\u0003": 4685,
      "ôû": 4686,
      "\u0018ð": 4687,
      ",": 4688,
      "HÇD$ ": 4689,
      "\u0000\u0000\u0000": 4690,
      "Yý": 4691,
      "\u0015\u0002": 4692,
      "0\u0002\u0000\u0000": 4693,
      "0\u0010": 4694,
      "\u000f\u0010\u0005": 4695,
      "¢\u0001": 4696,
      "I\u0005": 4697,
      "\u0000\u0000\u0000\u0001\u0000\u0000\u0000 \u0000\u0000\u0000": 4698,
      "c\u0001": 4699,
      "Ü\u0001": 4700,
      "ø\f": 4701,
      "_è": 4702,
      "óÿÿ": 4703,
      "h\u0002": 4704,
      "C8": 4705,
      "%\u0010": 4706,
      "øñ": 4707,
      "Q\u0002": 4708,
      "x\u0001\u0000\u0000": 4709,
      "°\u0003": 4710,
      "0ý": 4711,
      "fE\u000fX": 4712,
      "W\u0001": 4713,
      "\u0001": 4714,
      "x\b": 4715,
      "1\u000b0\t": 4716,
      "\u0006ª": 4717,
      "ìü": 4718,
      "\u0007ò": 4719,
      "Ù\u0001": 4720,
      "\u001dý": 4721,
      "¡\u0001": 4722,
      "cl": 4723,
      "FF": 4724,
      "ÔÓ": 4725,
      "Ä\u0010": 4726,
      ";\u0000\u0000": 4727,
      ",\u0001\u0000\u0000": 4728,
      "U\u0000\u0000": 4729,
      "\r\u0018": 4730,
      "f9": 4731,
      "[é": 4732,
      "\"": 4733,
      "÷cC©ùkD©": 4734,
      "HÃ": 4735,
      "úù": 4736,
      "\u000e\b": 4737,
      "!\u0004\u0000": 4738,
      "°\u0002": 4739,
      "Õ\u0001": 4740,
      "õû": 4741,
      "\u0001": 4742,
      "N\u0010": 4743,
      "óE\u000f\u0016": 4744,
      "\r\u0005": 4745,
      "AÆ": 4746,
      "`¸": 4747,
      "·\u0001": 4748,
      "¹©": 4749,
      "z\u0016": 4750,
      "\u001b*": 4751,
      "\u000fWÉ": 4752,
      "<\u0010": 4753,
      "t\u0015": 4754,
      "u\u0012": 4755,
      "u\u0018": 4756,
      "¦ý": 4757,
      "âÃ": 4758,
      "Ù": 4759,
      "\u001aý": 4760,
      "\u0001": 4761,
      "\u0005r": 4762,
      "Ïè": 4763,
      "0I": 4764,
      "\u0004": 4765,
      "\b\u0000ð": 4766,
      "1F": 4767,
      "15": 4768,
      "\u000f\bÀ": 4769,
      " \f": 4770,
      "¹\u0001\u0000\u0000\u0000": 4771,
      "à\u0007@ù": 4772,
      "u\u0003": 4773,
      "+\u0006\u0001\u0004": 4774,
      "\u0001": 4775,
      "(s": 4776,
      "\nÝÞ": 4777,
      ")\u0002": 4778,
      "ý": 4779,
      "U\u0001": 4780,
      "x\u0018": 4781,
      "í\u0003": 4782,
      "²ý": 4783,
      "@F": 4784,
      "Ày": 4785,
      "ø\u0010": 4786,
      "\u001e\u0002\u0000\u0002\u0000": 4787,
      "D$h": 4788,
      "\u0015ý": 4789,
      "e": 4790,
      "´ý": 4791,
      "¶ý": 4792,
      "ø\u0002": 4793,
      "fA\u000fX": 4794,
      "ÏÿÖ": 4795,
      " \u0006": 4796,
      " !": 4797,
      "Å\u0001": 4798,
      "Pý": 4799,
      "fA\u000fY": 4800,
      "d_": 4801,
      "(\u0004": 4802,
      "à+": 4803,
      "¤ý": 4804,
      "ú\u0007": 4805,
      "0\u0012": 4806,
      "<\u0002": 4807,
      "Höt": 4808,
      "\u000b\u0005": 4809,
      "\r": 4810,
      "fÇE": 4811,
      "\u0017\u0002": 4812,
      "\u000fB": 4813,
      "@x": 4814,
      "B": 4815,
      "O\u0001": 4816,
      "a\u0000n\u0000": 4817,
      "7\f": 4818,
      "èü": 4819,
      "L$": 4820,
      "\u000b\u0001 \u0007": 4821,
      " \u001f": 4822,
      ">ý": 4823,
      "u\u0011": 4824,
      "\u0001": 4825,
      "\u0014ë": 4826,
      "f\u0001": 4827,
      "\u0001\u0000\u0000": 4828,
      "P\u0002\u0000\u0000": 4829,
      "|\b": 4830,
      "H\\$\bHt$\u0010": 4831,
      "1": 4832,
      "s_": 4833,
      "\u0017\u0004": 4834,
      "\u0012\u001f": 4835,
      "å]Â\b\u0000": 4836,
      "ø": 4837,
      "Î\u0001": 4838,
      "õ\u0013\u0000ù": 4839,
      "t\u0016": 4840,
      "s\u0002": 4841,
      "H\"": 4842,
      "k\u0002": 4843,
      "!x": 4844,
      "AÐ;Õ": 4845,
      "Ø\b": 4846,
      "£\u0001": 4847,
      "M\u0000E\u0000": 4848,
      "ôW\u0001©": 4849,
      "\u001e\u0002": 4850,
      "ú\u0005": 4851,
      "Â\u0000\u0000": 4852,
      "â\u001f": 4853,
      "øò": 4854,
      "sc": 4855,
      "­ý": 4856,
      "\u0001\u0004\u0001\u0000\u0004": 4857,
      "\u0015\u0003": 4858,
      " ": 4859,
      "8`": 4860,
      "~@": 4861,
      "\u0004\u0000ù": 4862,
      "\r\t": 4863,
      "\u0006\u0005": 4864,
      "\u0019\u0019": 4865,
      "Â\u0002": 4866,
      "\u0001\u0000è": 4867,
      "\b\u0007": 4868,
      "\b©": 4869,
      "º\u0002\u0000\u0000\u0000": 4870,
      "0": 4871,
      "£ý": 4872,
      "b": 4873,
      "AD": 4874,
      "u\u0015": 4875,
      "\u001c": 4876,
      "\u0005": 4877,
      "»ý": 4878,
      "\f\u0000\u0000\u0000\u0000": 4879,
      "V\u0001": 4880,
      "F\u0018": 4881,
      "f.\u000f\u001f\u0000\u0000\u0000\u0000\u0000": 4882,
      "\u0000\u0002": 4883,
      "\u0004\u0003": 4884,
      "\u0003\u0000´": 4885,
      "\u001bý": 4886,
      "ä\u0002": 4887,
      "\u0006\u0000\u0000\u0000\u0000": 4888,
      "óû": 4889,
      "Óà": 4890,
      "HS": 4891,
      "Óè": 4892,
      "ü\u0000ü\u0000": 4893,
      "\u001b": 4894,
      "V8": 4895,
      "vice": 4896,
      "03": 4897,
      "WW": 4898,
      "T ": 4899,
      "T\u0000o\u0000p\u0000o\u0000_\u0000": 4900,
      "Àx": 4901,
      "\t\u0000Ð": 4902,
      "\u001d\u001d": 4903,
      "C_": 4904,
      "§ý": 4905,
      "ñû": 4906,
      "AF": 4907,
      "Hÿ%": 4908,
      "\r\u0000\u0000\u0000\u0000": 4909,
      "\u0011\f": 4910,
      "L|$": 4911,
      "â\u0002": 4912,
      "\u0003À": 4913,
      "Ð\u0004": 4914,
      "¢ý": 4915,
      "/ý": 4916,
      "Ê\u0001": 4917,
      "\u0004\u0004\u0000\u0000\u0000\u0000\u0000\u0000a\u0000\u0000\u0000": 4918,
      "A)": 4919,
      "ËF": 4920,
      "ý{Ã¨À\u0003_Ö": 4921,
      "µý": 4922,
      "ë\u0016": 4923,
      ",q": 4924,
      "ÏpÀ": 4925,
      "®ý": 4926,
      "¹ý": 4927,
      "\u0004": 4928,
      "HÄ ]Ã": 4929,
      "½èð": 4930,
      "×ØÕÖÓÔ\u000e\u0000": 4931,
      "ý": 4932,
      "t\u0017": 4933,
      "\u001a0": 4934,
      "¥ý": 4935,
      "\u001c$": 4936,
      "E3ä": 4937,
      "\u000f\u0010E": 4938,
      "llvm.": 4939,
      "\u0001\u0000\u0016": 4940,
      "\u0001\u0000\u0000Ô": 4941,
      "(ý": 4942,
      ";Ð": 4943,
      "\u0013ð": 4944,
      "\u0005\u0000\u0000\u0000\u0000": 4945,
      "`ý": 4946,
      "\u0002": 4947,
      " b": 4948,
      "ÿ\u000f": 4949,
      "tþ": 4950,
      "ig": 4951,
      "J\b": 4952,
      "L¼$": 4953,
      "ó\u0002": 4954,
      "oý": 4955,
      "\u000f ": 4956,
      "\u0006\u0000Ð": 4957,
      "¶\u0001": 4958,
      "A-": 4959,
      "ÚÚ": 4960,
      "`B": 4961,
      "|\u0000|\u0000": 4962,
      "p\u0002\u0000\u0000": 4963,
      "\u0002": 4964,
      "ý": 4965,
      "lp": 4966,
      "\n": 4967,
      "H": 4968,
      "à!": 4969,
      "ó\u000b@ùý{Â": 4970,
      "i\u0001": 4971,
      "H+ÁHÀøHø\u001f": 4972,
      "¹\u0010\u0000\u0000\u0000": 4973,
      "K\u0000S\u0000": 4974,
      "<\u0003": 4975,
      "ect": 4976,
      "äü": 4977,
      "Lç": 4978,
      ",\u0002": 4979,
      ".\u0000\u0000": 4980,
      "@\u0004\u0000": 4981,
      "Ç\u0002": 4982,
      "H©": 4983,
      "r\u0001": 4984,
      "¼\u0000\u0000\u0000": 4985,
      "pý": 4986,
      "½\u0001": 4987,
      "ïû": 4988,
      "\u0016\u0002": 4989,
      "õ÷": 4990,
      "#\u0004": 4991,
      "Ç\u0003": 4992,
      "t\u0001": 4993,
      "hb": 4994,
      "q ": 4995,
      "ê\u0002": 4996,
      "\u0015\u0000\u0000\u0000": 4997,
      "\u0000\u0000\u0000\u0000\u0000\u0001\u0000\u0000H\u0012": 4998,
      "\u0011ü": 4999,
      "Læ": 5000,
      "Åè": 5001,
      "\u000eü": 5002,
      "\u0001": 5003,
      "À\u000f": 5004,
      "@": 5005,
      "\f\u000f": 5006,
      "\t\u0000": 5007,
      "»\u0001": 5008,
      ";ý": 5009,
      "\u0019x": 5010,
      "Îÿ\u0015": 5011,
      "?\u0002": 5012,
      "<ý": 5013,
      "`!": 5014,
      "\u000e\u0000\u0000\u0000\u0000\u0000": 5015,
      "HH": 5016,
      "\u0001": 5017,
      "L5": 5018,
      "\f\u000b": 5019,
      "\u001f \u0003Õ\u001f \u0003Õ\u001f \u0003Õ\u001f \u0003Õ": 5020,
      "à/": 5021,
      "\u001fS": 5022,
      "\u0002": 5023,
      "2\u0010": 5024,
      "ý": 5025,
      "em": 5026,
      "A_Ã": 5027,
      "Hò": 5028,
      "\tò": 5029,
      "8\u0002": 5030,
      "«\u0001": 5031,
      "M9": 5032,
      "L½": 5033,
      "?ô": 5034,
      "\u0015ð": 5035,
      "«ý": 5036,
      "±D\u000fY": 5037,
      "No": 5038,
      "\u0004\f": 5039,
      "uþ": 5040,
      "ªý": 5041,
      "0\r": 5042,
      "·ý": 5043,
      "ëü": 5044,
      "`&": 5045,
      "D$ è": 5046,
      "\u001fý": 5047,
      "j\b": 5048,
      "\u0003": 5049,
      "\u0001\u0000\u0000\u0000\u0000!\u0001": 5050,
      "À=": 5051,
      "à\u0003\u001cª": 5052,
      "_^[Ã": 5053,
      "Aý": 5054,
      "\u0000\u0000\u0000H": 5055,
      " è": 5056,
      ">\u0002": 5057,
      "s\u0001": 5058,
      "Ld$": 5059,
      "Ñø": 5060,
      "\b\u0005": 5061,
      "\u0004*": 5062,
      "[\u0000\u0000": 5063,
      "å]Â\u0004\u0000": 5064,
      "{\u0001": 5065,
      "Oð\u0000": 5066,
      "@p": 5067,
      "\u0001": 5068,
      "\u0000\u0000\u0001\u0000\u0000À\u0000": 5069,
      "fD\u000fX": 5070,
      "\u0001\u0006\u0002\u0000\u00062\u00020": 5071,
      "±ý": 5072,
      "ù\u0005": 5073,
      "8 ": 5074,
      "\u0006ò": 5075,
      "I\u000f¯": 5076,
      "\u0000\u0000\u0000\u0000\u0001\u0000\u0001\u0000": 5077,
      "Ä\u0003": 5078,
      "\u0004ñ": 5079,
      "0": 5080,
      "õ\u0003\u0001ª": 5081,
      "¡ý": 5082,
      "H\u000b": 5083,
      "1\u000b0\t\u0006\u0003U": 5084,
      "I\u0018": 5085,
      "µ\u0001": 5086,
      "ð": 5087,
      "\u0001\u0000\u0000\u0000\u0000\u0000\u0000\u0000\u0000\u0000\u0000\u0000": 5088,
      "\u0007\n": 5089,
      "\u000bÁ": 5090,
      "AÀ": 5091,
      "åü": 5092,
      "\u0004\u0000 \n\u0005": 5093,
      "sý": 5094,
      "\\$0": 5095,
      "AE": 5096,
      "\u0000\b\u0000\u0000\u0000\u0000": 5097,
      "D3": 5098,
      "Fr": 5099,
      "D\u0000\u0000\u0000\u0000\u0000": 5100,
      "Th": 5101,
      ")\u0000\u0000\u0000": 5102,
      "\u0003": 5103,
      "!": 5104,
      "@\u001a": 5105,
      "Ï\u0001": 5106,
      "\u000f[À": 5107,
      "\u0014": 5108,
      "\f\n": 5109,
      "@ú": 5110,
      "]\u0001": 5111,
      "êü": 5112,
      "\u0000\u0000\u0000\u0000\u0000\u0001\u0000 \u0000": 5113,
      "H;Ë": 5114,
      "ï\u0002": 5115,
      "\u0006": 5116,
      "\u0018\b": 5117,
      "\u0006\u0000ð": 5118,
      "ý": 5119,
      "$r": 5120,
      "  ": 5121,
      "\u0000\u0000\u0000": 5122,
      "O\b": 5123,
      "¨\u0001\u0000\u0000": 5124,
      "\u001d\u0002": 5125,
      "­\u0001": 5126,
      "ÞÞ": 5127,
      "H": 5128,
      "¬\u0001": 5129,
      "": 5130,
      "ÓÔ\u000e\u0000A\u000b": 5131,
      "qu": 5132,
      "45": 5133,
      "\u0002": 5134,
      "4": 5135,
      "ÿÿ": 5136,
      "Ã\u0000": 5137,
      "\u0001\u0000\u0000": 5138,
      "WÀ": 5139,
      "Hí": 5140,
      "'t ": 5141,
      "Ö\u0001": 5142,
      "Ë\u0001": 5143,
      "\u0011\t": 5144,
      "u\u0001": 5145,
      "HÄP": 5146,
      "W ": 5147,
      "+ý": 5148,
      "C\u0000\u0000\u0000": 5149,
      "\u001f\b": 5150,
      "gro": 5151,
      "\u0000\u0000\u0002\u0000": 5152,
      "ö\u0007": 5153,
      "ÿH\r": 5154,
      "4ý": 5155,
      "av": 5156,
      "¼\u0001": 5157,
      "\u0013": 5158,
      "ST": 5159,
      "u\u000f": 5160,
      "\u0010P": 5161,
      "@\u0003\u0000\u0000": 5162,
      "b\u0000\u0000": 5163,
      "Á\u0003": 5164,
      "Tÿ\u001dy\u000bN³ÞW#[a": 5165,
      "ÍÌÌ": 5166,
      "\u001b\u001b": 5167,
      "$ý": 5168,
      "\u0006\u000b": 5169,
      ";ø": 5170,
      "Ùè": 5171,
      " \u0007": 5172,
      "- ": 5173,
      "!": 5174,
      "\u0014\b": 5175,
      "D\u000f\\": 5176,
      ">\u0004": 5177,
      "\u001fø": 5178,
      "\"\u0000R": 5179,
      "À\f": 5180,
      "\u0010\"": 5181,
      "\u0018\u0002\u0000\u0000": 5182,
      "À/": 5183,
      "e\u0000d\u0000": 5184,
      "AWAV": 5185,
      "a\u0000l\u0000": 5186,
      "§\u0001": 5187,
      "U ": 5188,
      "%ý": 5189,
      "\u0003\u0004ª": 5190,
      "*\u0000\u0000": 5191,
      ")F": 5192,
      "ý": 5193,
      "?\u0000\u0000ë": 5194,
      "?\u0000\u0000k": 5195,
      "Æé": 5196,
      "Ò ": 5197,
      ",\u0000\u0004\u0000@D\u0004\u0000\u0000\u0000\u0000": 5198,
      "\n¸": 5199,
      "\u0001\u0000\u0000\u0002\u0000": 5200,
      "ö\u0004": 5201,
      "Æ": 5202,
      "â": 5203,
      "ý": 5204,
      "ý": 5205,
      "t\"": 5206,
      "%u": 5207,
      "\u0013\u0000Ò": 5208,
      "\u001eý": 5209,
      "\nè": 5210,
      "(\u0003": 5211,
      "¬\u0000\u0000\u0000": 5212,
      "À<": 5213,
      "#ý": 5214,
      "EX": 5215,
      "Û": 5216,
      "\u0000\u0000 Ò\u0000\u0013ò": 5217,
      "\t": 5218,
      " ý": 5219,
      "A\u001c": 5220,
      "à\u001b": 5221,
      "\u001f\u0000\u0000ñ": 5222,
      "ùÿ": 5223,
      "ý": 5224,
      "|I\u0011": 5225,
      "and": 5226,
      "H\\$P": 5227,
      "u\u0000t\u0000.\u0000": 5228,
      "ÖÖ": 5229,
      "ý": 5230,
      "òû": 5231,
      "3È": 5232,
      "s@": 5233,
      "Dý": 5234,
      "\u000eè": 5235,
      "õ\u0003\u0000*": 5236,
      "\u0002\u0004\u0000\u0000": 5237,
      ".s": 5238,
      "øð": 5239,
      " ": 5240,
      "$\u0004": 5241,
      "\u0011\u0005": 5242,
      "'ý": 5243,
      "</": 5244,
      "Í\u0001": 5245,
      "ý": 5246,
      "HD$@": 5247,
      "0\u0014": 5248,
      "`\u0000\u0000\u0000\u0000\u0000": 5249,
      "\u0006\u0000\u0006\u0000": 5250,
      "N\u0000A\u0000": 5251,
      "éû": 5252,
      "hý": 5253,
      "!": 5254,
      "\u0012x": 5255,
      "Ð\u0006": 5256,
      "H\u001a": 5257,
      "EÀ": 5258,
      "IÇ": 5259,
      "\u0012": 5260,
      "ú\b": 5261,
      "ó\u0007": 5262,
      "AÀ": 5263,
      " @": 5264,
      "ý": 5265,
      "oc": 5266,
      "\t\u0004": 5267,
      "H\u001d": 5268,
      ":": 5269,
      ".ý": 5270,
      "âÂ": 5271,
      "(": 5272,
      "\u0000@\u0000\u0000\u0000\u0000\u0000\u0000": 5273,
      "±\u000fY": 5274,
      "_ø": 5275,
      "°,": 5276,
      "E\u0002": 5277,
      "\" \u000fE": 5278,
      "ý": 5279,
      "Ñ": 5280,
      "î\u0002": 5281,
      "\u0006r": 5282,
      "\u0014": 5283,
      "Bü": 5284,
      "\u0010À": 5285,
      "": 5286,
      "t\u0019": 5287,
      "\u000f\u0018": 5288,
      "\u0006û": 5289,
      "I": 5290,
      "L´$": 5291,
      "-ý": 5292,
      "38": 5293,
      "\n\u0000T": 5294,
      "?ü": 5295,
      "±ÄA": 5296,
      "ù\u0007": 5297,
      "\u0004ª": 5298,
      "fa": 5299,
      "A": 5300,
      "¦\u0001": 5301,
      "0\b": 5302,
      "": 5303,
      "\u0005": 5304,
      "!ý": 5305,
      "Môd": 5306,
      ",ý": 5307,
      "4\u0002": 5308,
      "\r\u0000\u0000\u0000\u0000\u0000": 5309,
      "`@": 5310,
      "": 5311,
      "))": 5312,
      "C\u0000o\u0000": 5313,
      "Gý": 5314,
      "ñ\u0004": 5315,
      "\u001d\u0003": 5316,
      "»": 5317,
      "\u0011 ": 5318,
      "`\u0002@ù": 5319,
      "ó÷": 5320,
      "+\u0000\u0000": 5321,
      "\"ý": 5322,
      ")ý": 5323,
      "t\u0018": 5324,
      "H¨": 5325,
      "ã\u0002": 5326,
      "â\u0007": 5327,
      "ý": 5328,
      "": 5329,
      "¡\u0000\u0000T": 5330,
      ";ð": 5331,
      "H;È": 5332,
      "\u000fÀ": 5333,
      "á\u0003\u0019ª": 5334,
      "mm": 5335,
      "!ø": 5336,
      "ý": 5337,
      "ra": 5338,
      "Hú\u0010r": 5339,
      "l\u0004": 5340,
      "E\f": 5341,
      "\u0002k": 5342,
      "P@": 5343,
      "BÀ": 5344,
      "Oð": 5345,
      "L÷è": 5346,
      "èû": 5347,
      "\u0017\u0003": 5348,
      "Á\u0010": 5349,
      "@\u0000 \u0000": 5350,
      "\u000bò": 5351,
      "Á\b": 5352,
      "Ç\u0004": 5353,
      "~\u0016": 5354,
      "07": 5355,
      "he": 5356,
      "<\u0000\u0000": 5357,
      "h\u0000\u0000\u0000": 5358,
      "L¤$": 5359,
      " \u0000\u0000\u0000\u0004\u0000\u00004\u0000\u0014\u0000\u000e": 5360,
      "H$": 5361,
      "0": 5362,
      "}H\u0004": 5363,
      "\u0000ÿ\u0000": 5364,
      "Vu": 5365,
      "t\u001a": 5366,
      "vý": 5367,
      ".p": 5368,
      "~ý": 5369,
      "3ý": 5370,
      "öú": 5371,
      "3Á": 5372,
      "ý": 5373,
      "< ": 5374,
      "H": 5375,
      "6\u0003": 5376,
      "ÿ?": 5377,
      "\u0018\u0010": 5378,
      "ý": 5379,
      "øõ": 5380,
      "ow": 5381,
      "\u0005\f": 5382,
      "+\u0006\u0001\u0004\u0001": 5383,
      "\u0000\u0000µ": 5384,
      "ý": 5385,
      "\n\u0000\u0000\u0000\u0000\u0000": 5386,
      "ud": 5387,
      "D$x": 5388,
      "\u0011ð": 5389,
      "Rè": 5390,
      "\u0005\u0014": 5391,
      "4\u0000\u0000": 5392,
      "\u0012ü": 5393,
      "ý": 5394,
      "ý": 5395,
      "ý": 5396,
      "¿\u0002": 5397,
      "t\u0014": 5398,
      "\u0006\u0000\u0000\u0000\u0000\u0000\u0000": 5399,
      "÷û": 5400,
      "[\u0000\u0004\u0000": 5401,
      "2ý": 5402,
      "¸\u0005": 5403,
      "EL": 5404,
      "]é": 5405,
      "\" \u000f\u0000\u0001": 5406,
      "HÇ": 5407,
      "SP": 5408,
      "I ": 5409,
      "#\u0003": 5410,
      "v\u0001": 5411,
      "J": 5412,
      "t(": 5413,
      "&ý": 5414,
      "p\u0000\u0000": 5415,
      "\u0003": 5416,
      "\n©": 5417,
      "I\b": 5418,
      "e\u0000c\u0000": 5419,
      "Ñ\u0003": 5420,
      "HcÈ": 5421,
      "\u0003": 5422,
      "86": 5423,
      "p \u0000": 5424,
      "Aü": 5425,
      "": 5426,
      "\u000fC": 5427,
      "IÏ": 5428,
      "â\u0005": 5429,
      "L÷": 5430,
      "ý": 5431,
      "a\u0000t\u0000": 5432,
      "_^Ã": 5433,
      "÷\r": 5434,
      "V7": 5435,
      "ÿÿ\u0000\u0000\u0000\u0000": 5436,
      "A\u000e\u0010": 5437,
      "Ãý": 5438,
      "@¶": 5439,
      "v\b": 5440,
      "ÜÛ": 5441,
      "K0": 5442,
      "ý": 5443,
      "¡\u0013@Ñ": 5444,
      "Eü": 5445,
      "=": 5446,
      " \u0018": 5447,
      "øó": 5448,
      "\t\u0000ð": 5449,
      "\u0000\u0000\u0000\u0000\u0000\u0000\u0000\u0000\u0000\u0000\u0000\u0000\u0000\u0000\u0000\u0000\u0000\u0000\u0000\u0000\u0000\u0000\u0000\u0000\u0000\u0000\u0000\u0000\u0000\u0000\u0000": 5450,
      "@": 5451,
      "Lý": 5452,
      "\u000f(Æ": 5453,
      " /": 5454,
      "L\u000f¯": 5455,
      "t2": 5456,
      "½": 5457,
      "ÇD$0": 5458,
      "ý": 5459,
      "\u0006\u0006\u0006\u0006": 5460,
      "%\u0004": 5461,
      "Ð\u0007": 5462,
      "¾": 5463,
      "\u0005ª": 5464,
      "\rò": 5465,
      ">": 5466,
      "ÿÿ\u0000": 5467,
      "%r": 5468,
      "\b\u0007": 5469,
      "\u001e": 5470,
      "@UHì Hê": 5471,
      "I\u0004": 5472,
      "ÆC": 5473,
      "\u0005\u000e": 5474,
      "`\u0000\u0000T": 5475,
      "\u0002\u0000\u0001\u0000": 5476,
      "E\u0000\u0000\u0000\u0000\u0000": 5477,
      "¡\u0002": 5478,
      "a\u0000r\u0000": 5479,
      "y\u0011": 5480,
      "\u0000\u0000\u0000@": 5481,
      "\u001f\u001f": 5482,
      "×\u0001": 5483,
      "++": 5484,
      "ÿÿÿ\u0000ÿÿÿ\u0000ÿÿÿ\u0000ÿÿÿ\u0000": 5485,
      "\u0006F": 5486,
      "s\n": 5487,
      "Ø\u0002": 5488,
      "\u0003\u0000¹": 5489,
      "}ý": 5490,
      "}o": 5491,
      "I\u0006": 5492,
      "òF": 5493,
      "û": 5494,
      "f\u0002": 5495,
      "Pro": 5496,
      "AN": 5497,
      "Sý": 5498,
      "H\\$\bHt$\u0010WHì": 5499,
      "b\u0012": 5500,
      "1ý": 5501,
      "ô\u0001\u0000\u0000": 5502,
      "#\u0010": 5503,
      "ûsE©": 5504,
      "Â\u0003": 5505,
      "@­": 5506,
      "À\u0002\u0000\u0000": 5507,
      "5ý": 5508,
      "e\u0000t\u0000": 5509,
      "h\u0010": 5510,
      "í\u0002": 5511,
      "å\u0002": 5512,
      "\"": 5513,
      "8ý": 5514,
      "$X": 5515,
      "*ý": 5516,
      "ô÷": 5517,
      "øö": 5518,
      "@¦": 5519,
      "\np": 5520,
      "UH": 5521,
      "\u0007û": 5522,
      "ã\u0003\u0000ª": 5523,
      "Rý": 5524,
      "\u0007\t": 5525,
      "\u0000\u0000": 5526,
      "(\u0000q": 5527,
      "t!": 5528,
      "HL$ è": 5529,
      "sion": 5530,
      "-": 5531,
      "?": 5532,
      "xý": 5533,
      "îÿÿ": 5534,
      "v\u0005": 5535,
      "^è": 5536,
      "w\u0001": 5537,
      "ffff": 5538,
      " !": 5539,
      "ë\u0017": 5540,
      "Ô\u0001\u0000\u0000\u0000\u0000\u0000": 5541,
      "Õ\u0001\u0000\u0000\u0000\u0000\u0000": 5542,
      "u\u0017": 5543,
      "º\u0004\u0000\u0000\u0000": 5544,
      "Æ\u0004": 5545,
      "ÇD": 5546,
      "\u0007\u0000\u0007\u0000": 5547,
      "a\u0000\u0000T": 5548,
      "D$\u0018": 5549,
      "ï¾­Þ": 5550,
      "x\u0004": 5551,
      "ôú": 5552,
      "\u0015\u0010": 5553,
      "\u0019\u0000\u0000\u0000": 5554,
      "$": 5555,
      "j\u0010": 5556,
      "Ê\"": 5557,
      "@\u0000\u0000\u0000\u0000\u0000\u0000": 5558,
      "t\u001b": 5559,
      "\u0002\u0002\u0002\u0002\u0002\u0002\u0002\u0002": 5560,
      "N\u0004": 5561,
      " \u0000\u0000\u0000\u0000\u0000\u0000": 5562,
      "ÿÿµ": 5563,
      "\u000f(Á": 5564,
      "ý": 5565,
      "Å\u0004": 5566,
      "E\u000f¶": 5567,
      "I\u0000D\u0000": 5568,
      "H0": 5569,
      "ó\u000f\u001eú": 5570,
      "H¼$": 5571,
      "ø": 5572,
      "HF": 5573,
      "H¬": 5574,
      "\u001b\u0003": 5575,
      "A¼": 5576,
      "ø\u000b": 5577,
      "\u0001": 5578,
      "HÇ$": 5579,
      "Ð\u0005": 5580,
      "ú?": 5581,
      "\u0007": 5582,
      "\u0001\u0000\u0001\u0000\u0001\u0000\u0001\u0000": 5583,
      "\u0014ü": 5584,
      "\t\u0000°": 5585,
      "}\b": 5586,
      "ïÿÿ": 5587,
      "0\u0005": 5588,
      "\u0000ÿ¿": 5589,
      "Ð\n": 5590,
      "H": 5591,
      "_T": 5592,
      "´\u0000\u0000\u0000": 5593,
      "|ý": 5594,
      "K ": 5595,
      "ho": 5596,
      "Å{\u0010": 5597,
      "I×": 5598,
      "­p": 5599,
      "¨\u0003": 5600,
      "dat": 5601,
      "\u0000\u0000\u0000\u0000\u0000\u0000\u0000\u0000\u0001\u0000\u0000\u0000": 5602,
      "\u0011": 5603,
      " \u0002\u0000": 5604,
      "$\b": 5605,
      "yý": 5606,
      "ðû": 5607,
      "23": 5608,
      "½": 5609,
      "\u001a\u0004": 5610,
      "L¬$": 5611,
      "bÂ": 5612,
      "E3ÿ": 5613,
      "\u001f": 5614,
      "pl": 5615,
      "\u0019\u0003": 5616,
      "l$": 5617,
      "F©": 5618,
      "õú": 5619,
      "\u0003\u0000Ð": 5620,
      "Bý": 5621,
      "40": 5622,
      "Åô": 5623,
      "ý": 5624,
      ";Â": 5625,
      "mý": 5626,
      "Ðü": 5627,
      "\u0003": 5628,
      "\u0013ë": 5629,
      " ü": 5630,
      "~\b": 5631,
      "îè": 5632,
      "@`": 5633,
      "lý": 5634,
      "H\u0000\u0000": 5635,
      "á#": 5636,
      ">R": 5637,
      "õ\u0004": 5638,
      "\u0000\u0000\u0000\u0000ÇE": 5639,
      "^ý": 5640,
      "ÅÜ": 5641,
      "H\u0000\u0000": 5642,
      "ø": 5643,
      "t\u001c": 5644,
      "$\u0007": 5645,
      "Oô": 5646,
      "h\u001e": 5647,
      "F\u0003": 5648,
      "É": 5649,
      "ç\u0005": 5650,
      "b\u0003": 5651,
      "æ\u0002": 5652,
      "HÿÁ": 5653,
      "u\u0014": 5654,
      " À": 5655,
      "ú": 5656,
      "HN": 5657,
      "ð\u0004": 5658,
      "é\u0001t": 5659,
      "\tû": 5660,
      "9ý": 5661,
      "0.": 5662,
      "\u000f(Â": 5663,
      "\u0001\u0000\u0002": 5664,
      "HD$P": 5665,
      "\r\u000b": 5666,
      "â\u0017": 5667,
      "\u0013\n": 5668,
      "à\u0014": 5669,
      "s(": 5670,
      "3Éè": 5671,
      "\r\u0000\u0017\u0000\u0000\u0000": 5672,
      "@P": 5673,
      "": 5674,
      "] ": 5675,
      "\u0007": 5676,
      "\u001a\u0003": 5677,
      "î#": 5678,
      "I\u0000\u0000\u0000\u0000\u0000": 5679,
      "L$`": 5680,
      "AX": 5681,
      "I0": 5682,
      "á\u0005": 5683,
      " \u0010": 5684,
      "A½": 5685,
      "ÿu\f": 5686,
      "òñ": 5687,
      "¿": 5688,
      "Aø": 5689,
      "Fý": 5690,
      "\u0000\u0000\u0000\u0000\u0000\u0001\u0000`\u0000": 5691,
      "* ": 5692,
      "a\u0000\u0000": 5693,
      "óô": 5694,
      "H(": 5695,
      "6\u0000\u0000": 5696,
      "v\u0007": 5697,
      " À": 5698,
      "\u0013\u0007": 5699,
      "_D": 5700,
      "*À": 5701,
      "H\u0000D\u0000A\u0000": 5702,
      "÷Ù": 5703,
      "ý": 5704,
      "\u0016\u0016": 5705,
      "\u000fû": 5706,
      "ù\u0010": 5707,
      "ø\u0018": 5708,
      "_ý": 5709,
      "¡\u0003": 5710,
      ":!": 5711,
      "\u0005\"": 5712,
      "3Èè": 5713,
      "\u000fè": 5714,
      "\u0002": 5715,
      "]ý": 5716,
      "t\u001d": 5717,
      "\b\t": 5718,
      "s\u0010": 5719,
      "\u0000\u0000T": 5720,
      "s\u0006\u0000": 5721,
      "\u0004": 5722,
      "wý": 5723,
      "=\u0002": 5724,
      "@SHì ": 5725,
      "¨¿#\u0003ÕÀ\u0003_Ö?#\u0003Õý{": 5726,
      "+": 5727,
      "\u001b\u0004": 5728,
      ":ý": 5729,
      "½ü": 5730,
      "MÆ": 5731,
      "õ\u0007": 5732,
      "tex": 5733,
      "v\u0003": 5734,
      "àð": 5735,
      "\u0003": 5736,
      "o\u0001": 5737,
      "Wý": 5738,
      "Mý": 5739,
      "inte": 5740,
      "\u000f": 5741,
      "àø": 5742,
      "\u0006 ": 5743,
      "ñ?": 5744,
      "mi": 5745,
      "&": 5746,
      "óD\u000f\u0016": 5747,
      "Q ": 5748,
      "the ": 5749,
      "\u0019\b": 5750,
      "àû": 5751,
      "@": 5752,
      "ðÿðÿðÿðÿ": 5753,
      "m\u0001": 5754,
      " ": 5755,
      "H|$": 5756,
      "\t\u0000\t\u0000": 5757,
      "eý": 5758,
      "\u0000\u0000\u0001\u0000\u0000\u0000": 5759,
      "Lq": 5760,
      "\b@\u0000": 5761,
      "gi": 5762,
      "Iü": 5763,
      "\u0013": 5764,
      "p\u0018": 5765,
      "\u00054": 5766,
      "\u000b\u0000T": 5767,
      "aý": 5768,
      "D\u0002": 5769,
      "\u0000\u0000\u0000\u0000\u0000!\u0001\u0005\u0001": 5770,
      "\u0000\u0000": 5771,
      "f\u000fï": 5772,
      "\u0001\u0000\u0001\u0000\u0000\u0000": 5773,
      "¾": 5774,
      "`\u000b": 5775,
      "Åì": 5776,
      "Eý": 5777,
      "öù": 5778,
      "iý": 5779,
      ";;": 5780,
      "\u001f8": 5781,
      "\u0000@\u0000\u0000": 5782,
      "n\u0001": 5783,
      "D\u0004": 5784,
      "\u0013": 5785,
      "cý": 5786,
      "+\u0000ù": 5787,
      "\u0010\u0000q": 5788,
      "zý": 5789,
      "\u0000\u0000\u0000\u0000": 5790,
      "GU": 5791,
      "|\u0002": 5792,
      "\t": 5793,
      "%\u0003": 5794,
      "w.": 5795,
      "\u0002\u0000Ð": 5796,
      "H\\$\bHl$\u0010Ht$\u0018": 5797,
      "Ó": 5798,
      "¿\u0003": 5799,
      "â ": 5800,
      "ñ": 5801,
      "Qý": 5802,
      "\\\\": 5803,
      "\u0001": 5804,
      "Mð": 5805,
      "\fò": 5806,
      "á\u0003\u001aª": 5807,
      ">\n": 5808,
      "À~": 5809,
      "àã": 5810,
      "\r\u0000\u0000\u0000\u0000Y": 5811,
      "¯\u0001": 5812,
      "\u0000H": 5813,
      "\u0000@\u0001\u0000\u0000\u0000": 5814,
      "EÐ": 5815,
      "\rû": 5816,
      "\u0012è": 5817,
      "U": 5818,
      "H´$": 5819,
      "à\"": 5820,
      "\u0006ô": 5821,
      "°è": 5822,
      "\u0018": 5823,
      "A\u000e0": 5824,
      "L\u0000\u0000\u0000": 5825,
      "jý": 5826,
      "read": 5827,
      "1\u0014": 5828,
      "\bü": 5829,
      "\u0003\u0000\u0000\u0000\u0000\b\u0000\u0000\u0000\u0000\u0000\u0000\u0000": 5830,
      "A,¨\u0001t": 5831,
      "XX": 5832,
      "¨!": 5833,
      "ø?": 5834,
      "\f": 5835,
      "----": 5836,
      "\u000bû": 5837,
      "vi": 5838,
      "&\u0000\u0000\u0000": 5839,
      "LM": 5840,
      "Á": 5841,
      "\u0004": 5842,
      "À%": 5843,
      "h\u0006": 5844,
      "D$\b": 5845,
      "F\u0000\u0000\u0000\u0000\u0000a\u0000\u0003\u0000": 5846,
      "fý": 5847,
      "ì\u0002": 5848,
      "X\u0002\u0000\u0000": 5849,
      "\u0006\u0000q": 5850,
      "p:": 5851,
      "_é": 5852,
      "H¼": 5853,
      "G©": 5854,
      "Zý": 5855,
      "ë!": 5856,
      "I\u0002": 5857,
      "\u000f.": 5858,
      "\u0000\u0001\r\u0001 \u0007": 5859,
      "fB": 5860,
      "\u0007\u0000\u0011": 5861,
      "\u0010\u0000*": 5862,
      "}\u0011": 5863,
      ",À": 5864,
      "ò÷": 5865,
      "Ëè": 5866,
      "R\b": 5867,
      "ÿ\u0000": 5868,
      "ný": 5869,
      "\u0007ª": 5870,
      "\u0003\u0000": 5871,
      "C\u0002": 5872,
      "Op": 5873,
      "Cý": 5874,
      "©q": 5875,
      "[ý": 5876,
      "Á\u001c": 5877,
      "K\u0002": 5878,
      "std": 5879,
      "\u0001\u0000 Ò": 5880,
      "3 ": 5881,
      "\u0000\u0000": 5882,
      "\b\u0000\u0000\u0000\u0000\u0000\u0000": 5883,
      "dý": 5884,
      "\u000b\t": 5885,
      "H;Á": 5886,
      "\u0006\f": 5887,
      "\u000fü": 5888,
      "è": 5889,
      "øÿÿÿ": 5890,
      "H¼$": 5891,
      "4\u0003": 5892,
      "s/": 5893,
      "\u0015 ": 5894,
      "7ý": 5895,
      "\"\u0000\u0000\u0000": 5896,
      "`\u0004\u0000": 5897,
      "\u0014": 5898,
      "Li": 5899,
      "Hd$": 5900,
      "\u0007 ": 5901,
      "À#": 5902,
      "ù?": 5903,
      "\u0005\u0000\u0000\u0000\u0000\u0000": 5904,
      "rý": 5905,
      "\nû": 5906,
      "îû": 5907,
      "ý": 5908,
      "Pü": 5909,
      "\u0005\u0000\u0004\u0000\u0000\u0000": 5910,
      "Jý": 5911,
      "à\r": 5912,
      "I\u0000n\u0000t\u0000c\u0000": 5913,
      "\u0003": 5914,
      "\u0002\u0000ð": 5915,
      "ÿÿÿ\u0000\u0000\u0000\u0000": 5916,
      "ø": 5917,
      "\u0013ü": 5918,
      "x\u0002": 5919,
      "ñ÷": 5920,
      "\u0019\u0010": 5921,
      "ó¤H\u0005": 5922,
      "/": 5923,
      "\u0001": 5924,
      "HD": 5925,
      "}(": 5926,
      "<@": 5927,
      "\u0019": 5928,
      "\n": 5929,
      "H]": 5930,
      "`\u0012\u0000": 5931,
      "\u0001\u0000\u0000\u0001": 5932,
      "î\u0004": 5933,
      "ò\u0004": 5934,
      "\f\u0016": 5935,
      "\u001f\u0004@": 5936,
      "ê\u0004": 5937,
      "B(": 5938,
      "Ýü": 5939,
      "-\u0000\u0000": 5940,
      "ÐÏ": 5941,
      "\n\t": 5942,
      "Á": 5943,
      "ª\u0001": 5944,
      "@\n": 5945,
      "y\u0000\u0000\u0000": 5946,
      "µ\u0002": 5947,
      "\u001e\u0003": 5948,
      "gý": 5949,
      "Ç\u0007": 5950,
      ")": 5951,
      "ßü": 5952,
      " \u0002\u001fÖ": 5953,
      "PS": 5954,
      "=\u0000\u0000\u0000": 5955,
      "\fû": 5956,
      "\u0001\u0000°": 5957,
      "Ný": 5958,
      "ø\t": 5959,
      "9\u0003": 5960,
      "PPPP": 5961,
      "\u001c\b": 5962,
      "\u0005\u0012": 5963,
      "ÀZ": 5964,
      "¹)": 5965,
      "È\u0001\u0000\u0000": 5966,
      "PU": 5967,
      "@ü": 5968,
      "¬": 5969,
      "L6": 5970,
      "ò?": 5971,
      "bý": 5972,
      "\u0017": 5973,
      "\u0011\u0014": 5974,
      "K\u0004": 5975,
      "óD\u000fX": 5976,
      "B\u0018": 5977,
      "\u0010": 5978,
      "å\u0004": 5979,
      "*\u0002": 5980,
      "\u0007à": 5981,
      "8\u0003": 5982,
      "HÇ": 5983,
      "MM": 5984,
      "íû": 5985,
      "ÿ": 5986,
      "\u0003\u0000\u0000\u0000\u0000\u0000\u0000\u0000": 5987,
      "Eü": 5988,
      "H\u0000D\u0000A\u0000O\u0000": 5989,
      "\fÀ": 5990,
      "Åä": 5991,
      "\u0000\u0001\u0000\u0000\u0000": 5992,
      "1\u0010": 5993,
      "ký": 5994,
      "P@\u0001\u0000\u0000\u0000": 5995,
      ")\u0004": 5996,
      "\u0002\u0000°": 5997,
      "\u000b\u0000": 5998,
      "\u0006\u0005": 5999,
      "ñ\b": 6000,
      "øô": 6001,
      "þý": 6002,
      "òÿÿ": 6003,
      "@\u0000R!": 6004,
      "W\u0000\u0000\u0000": 6005,
      "\u0015": 6006,
      "ùõ": 6007,
      "\u001d\u0012": 6008,
      "Á\u0004": 6009,
      "09": 6010,
      "\u0005\u0000\t\u0005": 6011,
      "$P": 6012,
      "\u0001\u0000\u0000\u0000p": 6013,
      "ð\b": 6014,
      "MÀt": 6015,
      "@&": 6016,
      "ï\u0004": 6017,
      "s.": 6018,
      "\u0001\u0000\u0000\u0000Ð": 6019,
      "[]A\\A]A^": 6020,
      "ùè": 6021,
      "|$0": 6022,
      "H\f": 6023,
      "¾ü": 6024,
      "\n\u000b": 6025,
      "+\u0002": 6026,
      "Ký": 6027,
      "rr": 6028,
      "Ä ": 6029,
      "OR": 6030,
      "t\u0005è": 6031,
      "\n": 6032,
      "\u0001\u0000\u0000\u0000": 6033,
      "\u001f\u0010": 6034,
      "3Òè": 6035,
      "\u0002\u0000\u0000": 6036,
      ",1": 6037,
      "\t\t\t\t": 6038,
      "¸\u0002": 6039,
      "3\u0002": 6040,
      "÷\u0006": 6041,
      "\u0001\u0000\u0000\u0000\u0010": 6042,
      "Uý": 6043,
      "½": 6044,
      "\u0017\u0010": 6045,
      "_i": 6046,
      "À?": 6047,
      " \u0002\u0004": 6048,
      "T": 6049,
      "a \u0000\u0000": 6050,
      "a\u001a": 6051,
      "ñú": 6052,
      "j\n": 6053,
      "$8": 6054,
      "\u0001": 6055,
      "w\b": 6056,
      "°\u0002\u0000\u0000": 6057,
      "": 6058,
      "A": 6059,
      "á\u0003\u001bª": 6060,
      "eH\u0004%": 6061,
      "à\u0002\u0000\u0000": 6062,
      "\r ": 6063,
      "\f\t": 6064,
      "1\u0000`": 6065,
      "\nò": 6066,
      "_\u00001\u00006\u0000": 6067,
      "<\u0004": 6068,
      "\u0002": 6069,
      "\n# ": 6070,
      "\u0015ü": 6071,
      "@ùá": 6072,
      "t-": 6073,
      "~": 6074,
      "óE\u000fX": 6075,
      "HÂ": 6076,
      "`\u0000R": 6077,
      "Vý": 6078,
      "9": 6079,
      "ïú": 6080,
      "ìû": 6081,
      "2\u0004": 6082,
      "\u0001\u000f": 6083,
      "\u0006\u0000Q": 6084,
      "¾©ý\u0003\u0000": 6085,
      "ö\u000f": 6086,
      "¿#\u0003ÕÀ\u0003_Ö?#\u0003Õý{": 6087,
      "Mä": 6088,
      "\u0001\u0000\u0000\u0000ð": 6089,
      "\u0010ÏÿÖ": 6090,
      "\u0005*": 6091,
      "(u": 6092,
      "©\u0001": 6093,
      "\u0000\u0000\u0000": 6094,
      "\u0012\b": 6095,
      "\u001e\u0004": 6096,
      "@\u0001R": 6097,
      "0\u0006": 6098,
      "rtk": 6099,
      "ÿÿ5": 6100,
      "Ó\u0003": 6101,
      "öè": 6102,
      "E\u0018": 6103,
      "Ñü": 6104,
      "////": 6105,
      "L\u0002": 6106,
      "æÀ": 6107,
      "@v": 6108,
      "Iý": 6109,
      "H»": 6110,
      "6ý": 6111,
      "\u0000( \u0002\u0000( \u0002\u0000( \u0002\u0000( \u0002": 6112,
      "\u0001\u0000\u0000\u0000 ": 6113,
      "?\u0004": 6114,
      "Di": 6115,
      "ø\u000f": 6116,
      "÷\u0004": 6117,
      "\n%": 6118,
      "ì|": 6119,
      "\u0001\u0000\u0000\u0000°": 6120,
      "H;Ê": 6121,
      "29": 6122,
      "ùð": 6123,
      "¨ ": 6124,
      "\u000f\bÀ": 6125,
      "}\u0004": 6126,
      "V9": 6127,
      "á\u0006": 6128,
      "LÂ": 6129,
      "\u0000H\u0012": 6130,
      "\u0000(Gù": 6131,
      "G\f": 6132,
      "\bF": 6133,
      "¡\u0000\u0000": 6134,
      "\u0012": 6135,
      "è": 6136,
      "ùô": 6137,
      "Æ$": 6138,
      "óú": 6139,
      "HÁà\u0004": 6140,
      "\u001c": 6141,
      "\u0002\u0000\u0000": 6142,
      "\nÞÝ\u000e\u0000A\u000b": 6143,
      "\u0011": 6144,
      "L¬$": 6145,
      ",\u0003": 6146,
      "V\u0002": 6147,
      "\u0018\u0014": 6148,
      "\u0010": 6149,
      "\u0010": 6150,
      "¼\u0000q": 6151,
      "\u0000\u0003": 6152,
      "N\u0000A\u0000M\u0000E\u0000": 6153,
      "À\t": 6154,
      "MH¸": 6155,
      "(": 6156,
      "\u001d\u0004": 6157,
      "05": 6158,
      "Hñ¹\u0010\u0000\u0000\u0000": 6159,
      "H´$": 6160,
      ";÷": 6161,
      "\u0002\u0000\u0002": 6162,
      "öõ": 6163,
      "H\u0006": 6164,
      "\u0000\b\u0000\u0000\u0000\u0000\u0000\b\u0000\u0000\u0000\u0000": 6165,
      "AÓ": 6166,
      "@\r": 6167,
      "÷\u001b@ù": 6168,
      "E3Ò": 6169,
      "b2": 6170,
      "Ç": 6171,
      "{ý": 6172,
      "ÅÅ": 6173,
      "A°": 6174,
      "\u0002": 6175,
      "ë\u001a": 6176,
      "ë ": 6177,
      "\u0000\u0000@¹": 6178,
      "l$8": 6179,
      "@\t": 6180,
      "%d": 6181,
      "~\u0012": 6182,
      "P": 6183,
      "t:": 6184,
      "è\u0004": 6185,
      "\u0003": 6186,
      "group": 6187,
      "all": 6188,
      "u\u0016": 6189,
      "\u0011\u0012": 6190,
      "òA\u000fÐ": 6191,
      "Ç@": 6192,
      "D\u000b": 6193,
      "%\u0000\u0000\u0000": 6194,
      "\u000e\u0005": 6195,
      "\u0000\u0000ð": 6196,
      "A\u000f¯": 6197,
      "! ": 6198,
      "EH¸": 6199,
      "ø ": 6200,
      "\u0010ü": 6201,
      "\tô": 6202,
      "²\u0002": 6203,
      "E : ": 6204,
      "ÆÆ": 6205,
      "\u001a\u0000\u0000\u0000": 6206,
      "¸": 6207,
      "Ã\u0002": 6208,
      "HL$0è": 6209,
      "A¹\u0001\u0000\u0000\u0000": 6210,
      "\u0000\u0000\u0000\u0000è": 6211,
      "%\b": 6212,
      "\u0016ü": 6213,
      "e\u0000 \u0000": 6214,
      "s\b": 6215,
      "Å\b": 6216,
      "Az": 6217,
      "H\u001c": 6218,
      "\u001a0\u001a0": 6219,
      "i\u0000s\u0000": 6220,
      "Lñ": 6221,
      "E\u0004": 6222,
      "x\u0004\u0000\u0000": 6223,
      "#": 6224,
      "\u000fG": 6225,
      "@'": 6226,
      "Tý": 6227,
      "\f÷": 6228,
      "Ö\u0002": 6229,
      "±\u001a": 6230,
      "\u0001\u0000ð": 6231,
      "é\b": 6232,
      "\u0002": 6233,
      "\u0002\u0000\u0002\u0000\u0002\u0000\u0002\u0000": 6234,
      "_^]": 6235,
      "à£": 6236,
      "ùò": 6237,
      "R\u0004": 6238,
      "\u0015\u0005": 6239,
      "\u001ap": 6240,
      "\u0019ü": 6241,
      "\u0017ü": 6242,
      "AS": 6243,
      "ó?": 6244,
      "-éð": 6245,
      "V\b": 6246,
      "d$": 6247,
      "\f\u0018": 6248,
      "Àü": 6249,
      "\\$": 6250,
      "½\u0003": 6251,
      "ú": 6252,
      "{ ": 6253,
      "\u0001\u0000\u0000\u0000P": 6254,
      "ø\n": 6255,
      "ÝÝ": 6256,
      "\u0010d¡": 6257,
      "\u0002": 6258,
      "M\u0010": 6259,
      "CC": 6260,
      "1\u0016": 6261,
      "ß\u0002": 6262,
      "8": 6263,
      "à\u0012": 6264,
      "BÐ;Õ": 6265,
      "A\u0006": 6266,
      "ë\u0018": 6267,
      "½©ý\u0003\u0000óS\u0001©": 6268,
      "U\u0010": 6269,
      "\r2": 6270,
      "h\u0003": 6271,
      "Å|\u0010": 6272,
      "B\u0000\u0000\u0000": 6273,
      "3\u0000\u0000": 6274,
      "\u0006": 6275,
      "¢\u0002": 6276,
      "@\u0000\u0000\u0000@\u0012\u0000\"": 6277,
      "\u0011\u000f": 6278,
      "é\u0006": 6279,
      "F\u0000\u0000": 6280,
      "y\u0004": 6281,
      "O\u0004": 6282,
      "\u0015": 6283,
      "_M": 6284,
      "F\u0005": 6285,
      "Hý": 6286,
      "@\u0012": 6287,
      "X\u0002": 6288,
      "Êè": 6289,
      "7@ù": 6290,
      "\u000bú": 6291,
      "À\u0000 ": 6292,
      "Ôü": 6293,
      ",\u0000 \u0000": 6294,
      "\u0007ô": 6295,
      "\u0006\n+\u0006\u0001\u0004\u0001": 6296,
      "c/": 6297,
      "fA\u000f\\": 6298,
      "\u0015\u0018": 6299,
      "^[": 6300,
      "\b": 6301,
      "HkÉ": 6302,
      "ï¾­Þï¾­Þ": 6303,
      "Ø\u0003": 6304,
      "\u0000\u0000\u0000\u0000": 6305,
      "@2": 6306,
      "á\u0000\u0000": 6307,
      "al ": 6308,
      " ": 6309,
      "\u0001\u0000\b\u0000\u0000\u0000\u0000\u0000\u0000\u0000\u0000\u0000": 6310,
      "u\u0013": 6311,
      "ïÿÿ\u0017": 6312,
      "B\u000e ": 6313,
      "\u0011": 6314,
      "Dd$": 6315,
      "\u000eû": 6316,
      "5\u0004": 6317,
      "\u0010\u0000\u0000\u0000\u0000\u0000a\u0000\u0003\u0000": 6318,
      "t$@": 6319,
      "IP": 6320,
      "\u0000ùÿ": 6321,
      "K\u0000\u0000\u0000": 6322,
      "QQ": 6323,
      ">ü": 6324,
      "\u0005ú": 6325,
      "B\u000b": 6326,
      "ë\u0019": 6327,
      "Ñ\u0002": 6328,
      " ¨": 6329,
      "\u0014\u000b": 6330,
      "À\u000e": 6331,
      "\r\r\r\r": 6332,
      "'": 6333,
      "ûÿ\u0017": 6334,
      "M ": 6335,
      "0_": 6336,
      "Àt\né": 6337,
      "P\u0006": 6338,
      "ùö": 6339,
      "\u0016": 6340,
      "qý": 6341,
      "Ð\u0002\u0000\u0000": 6342,
      "!8": 6343,
      "\b": 6344,
      "ÅÄ": 6345,
      "aø": 6346,
      "J": 6347,
      "­\u0002": 6348,
      "Ã\r": 6349,
      "®\u0001": 6350,
      "ê": 6351,
      "H$": 6352,
      "P\f": 6353,
      "\u0010": 6354,
      "3\u0000\u0000\u0000": 6355,
      "|É\u0010": 6356,
      "Üü": 6357,
      "t\u001f": 6358,
      "\u0014\u0007": 6359,
      "@ ": 6360,
      "Ò\u0003": 6361,
      "hdas": 6362,
      "tý": 6363,
      "÷\u0007": 6364,
      "á?": 6365,
      "\u0013\u0005": 6366,
      "\u000bè": 6367,
      "Æü": 6368,
      ",": 6369,
      "ñò": 6370,
      "¿ü": 6371,
      "R\u0002": 6372,
      "@": 6373,
      "po": 6374,
      "ýH\u0019": 6375,
      "\u000f\u0017": 6376,
      "ÿÿÿÿ\u0000": 6377,
      "fE\u000fÆ": 6378,
      "CR": 6379,
      "\u0014d": 6380,
      "Ïs": 6381,
      "t\u0002": 6382,
      "c\u0000\u0000": 6383,
      "\u0014\u0006": 6384,
      "áÅ": 6385,
      "÷Ð": 6386,
      "\u0018I": 6387,
      "v\u0004": 6388,
      "\f ": 6389,
      "\u000b\u0006": 6390,
      "!r": 6391,
      "t%": 6392,
      "éq": 6393,
      "by": 6394,
      "Ì\u0000\u0000\u0000": 6395,
      "`6": 6396,
      "ñÿÿ": 6397,
      "Êâ": 6398,
      "é\u0005": 6399,
      "\f\u000e": 6400,
      "-4": 6401,
      "À$": 6402,
      "Oý": 6403,
      "0ü": 6404,
      "¹ ": 6405,
      "uø": 6406,
      " \"": 6407,
      "[\b": 6408,
      "ir": 6409,
      "tin": 6410,
      "\u0003\u0001": 6411,
      "`": 6412,
      "h\u0004": 6413,
      "@\u0000": 6414,
      "2\u0002": 6415,
      "\rè": 6416,
      "\u0000\u0000H": 6417,
      "\u001cü": 6418,
      "H\\$ ": 6419,
      "\u0005x": 6420,
      "À\n": 6421,
      "Ç": 6422,
      "\u0002\u0000k": 6423,
      ">\u0003": 6424,
      "\u000f\u0011": 6425,
      "~": 6426,
      "4\u0004": 6427,
      "@": 6428,
      "\u0018º": 6429,
      "øÿ": 6430,
      "a\u0000m\u0000": 6431,
      "óD\u000f\u0011": 6432,
      "D\u0000e\u0000": 6433,
      "0\u001c": 6434,
      "&\u0003": 6435,
      "\u0001\u0000": 6436,
      "\rô": 6437,
      ":\u0000\u0000": 6438,
      "\u000bÂ": 6439,
      " ü": 6440,
      "`\u0002@¹": 6441,
      "#": 6442,
      "\u0010ñ": 6443,
      "¨ü": 6444,
      "\u0000\u0002\u0000": 6445,
      "(Gù": 6446,
      "\t©": 6447,
      ":\u0002": 6448,
      "1\u0000\u0000\u0000": 6449,
      "Þü": 6450,
      "L$": 6451,
      "Øü": 6452,
      "\u0002": 6453,
      "\u001f4": 6454,
      "W\b": 6455,
      "ZÀ": 6456,
      "o\u0000o\u0000o\u0000o\u0000o\u0000o\u0000o\u0000o\u0000": 6457,
      "`": 6458,
      "\u0005\u0000\u0000\u0000\u0000\u0000\u0000": 6459,
      "_m": 6460,
      "ÿÿ\u0017\u001f": 6461,
      "\u0018ü": 6462,
      "1\u0004": 6463,
      "\u001b\u0000\u0000\u0000": 6464,
      "}}": 6465,
      "<": 6466,
      "p": 6467,
      "Xü": 6468,
      "L\u0000e\u0000g\u0000": 6469,
      "é÷": 6470,
      "äÂ": 6471,
      "Q": 6472,
      "ä\u0004": 6473,
      "À>": 6474,
      "é\u0010": 6475,
      "G\u0002": 6476,
      "&\u0004": 6477,
      "ö\u0006": 6478,
      "L8": 6479,
      "@\u000b": 6480,
      "IÀ": 6481,
      "HÓ": 6482,
      "¸\u0003": 6483,
      "=ü": 6484,
      "0\u0003\u0000\u0000": 6485,
      "\t\u0007": 6486,
      "~Ó": 6487,
      "Jü": 6488,
      "\b\"": 6489,
      "\r\u0007": 6490,
      "Ûü": 6491,
      "\u0005!": 6492,
      "a\u0010": 6493,
      "\u0001\u0000\u0000\u0000`": 6494,
      "?\u0000\u0000": 6495,
      "\\ü": 6496,
      "w\u0010": 6497,
      "HÕ": 6498,
      "1Û": 6499,
      "öE": 6500,
      "HP": 6501,
      "Ô\u0003": 6502,
      "bñ|H\u0010": 6503,
      "=ð": 6504,
      "t)": 6505,
      "cr": 6506,
      "F0": 6507,
      "\bò": 6508,
      "óB\u000f\u0010": 6509,
      "ø\u001f": 6510,
      "\u00130": 6511,
      "sr": 6512,
      "\u0012\f": 6513,
      " %s ": 6514,
      "HÿÃ": 6515,
      "Í\u0003": 6516,
      "Uìjÿ": 6517,
      "`\u0002\u0000": 6518,
      "can't ": 6519,
      "\b": 6520,
      "\u000e": 6521,
      "bR": 6522,
      "Hì8": 6523,
      "ö?": 6524,
      "\u001bü": 6525,
      "YÃ": 6526,
      "\u0004\u0000\u0000è": 6527,
      "°\u0004": 6528,
      "HD$H": 6529,
      "DÇ": 6530,
      "\u0018¹": 6531,
      "@\u000f": 6532,
      "\u0001\u0000\u0000\u00000": 6533,
      "ð÷": 6534,
      "\u001b2": 6535,
      "DÃ": 6536,
      "Åú\u0010": 6537,
      "Öü": 6538,
      "ôd£": 6539,
      "3\u0000ù": 6540,
      "`\u001a\u0000": 6541,
      "bj": 6542,
      "\r\u000e": 6543,
      "Ht$P": 6544,
      "\u000b": 6545,
      " $": 6546,
      "T?": 6547,
      "\u001dü": 6548,
      "\u0003": 6549,
      "HÁ": 6550,
      "ÿÿ\u0017à": 6551,
      "[[": 6552,
      "HÄHX": 6553,
      "úo": 6554,
      "(\u0010": 6555,
      "'\u0004": 6556,
      "A3": 6557,
      " \u0000 \u0000 \u0000 \u0000 \u0000 \u0000 \u0000 \u0000": 6558,
      "H\u0003Á": 6559,
      "/": 6560,
      "º\u0010": 6561,
      "\u0004": 6562,
      "\u0001\u0000`\u0000\"": 6563,
      "Ú½": 6564,
      "\u0007R": 6565,
      "\u001e": 6566,
      "ñù": 6567,
      "w\u0003": 6568,
      "ý{Æ": 6569,
      "A\u0014": 6570,
      "\u0001\u0000Ð": 6571,
      "24": 6572,
      "æ\u0005": 6573,
      "a\u0000c\u0000y\u0000": 6574,
      "Bu": 6575,
      "×ü": 6576,
      "\u000b\u0000\u000b\u0000": 6577,
      "R": 6578,
      "ðFù": 6579,
      ":+": 6580,
      "@²": 6581,
      "\f": 6582,
      ":\u0000 ": 6583,
      "Mü": 6584,
      "\nô": 6585,
      "CL": 6586,
      "g ": 6587,
      "\u000f\u0000\u0000\u0000\u0000\u0000\b\u0000\u0000\u0000\u0000\u0000\u0000\u0000": 6588,
      " \u0001\u0000\u0000\u0000\u0000\u0000\u0000\u0000\u0000\u0000": 6589,
      "Yü": 6590,
      "¯¯": 6591,
      "HG": 6592,
      "TO ": 6593,
      "\u001a": 6594,
      "Iø": 6595,
      "À\u000f": 6596,
      "@\u000e": 6597,
      "`\n@ù": 6598,
      "\b\u0000\u0000\u0000\u0000": 6599,
      "z": 6600,
      "p\u0006": 6601,
      "\u0018": 6602,
      "æ?": 6603,
      "è\u000f": 6604,
      "\f\u0000q": 6605,
      "ÅÌ": 6606,
      "LÜ": 6607,
      "@q": 6608,
      "?": 6609,
      "ë\u001c": 6610,
      "AG": 6611,
      "ëû": 6612,
      "ñð": 6613,
      "ED": 6614,
      "÷?": 6615,
      "!": 6616,
      "y)\u0004r": 6617,
      "G\u000f\u0010": 6618,
      " \u0000\u0000\u0000H": 6619,
      "t;": 6620,
      "úò": 6621,
      "a_": 6622,
      "Hº": 6623,
      "\" \u000f\"": 6624,
      "H\u0000ÿ\u0015": 6625,
      "\u0006\u0003U\u001d": 6626,
      "du": 6627,
      "V\u0010": 6628,
      "gr": 6629,
      "ÿÿ\u0017?#\u0003Õ": 6630,
      "ë\u001e": 6631,
      "í\u0004": 6632,
      "=\u0003": 6633,
      "ack": 6634,
      "\u001d\b": 6635,
      "DÆ": 6636,
      "\u0001\u0000T\u0005\u0001\u0000": 6637,
      "(O": 6638,
      "Åð": 6639,
      ", %r": 6640,
      "\u0013\t": 6641,
      "d\u0000ddd\u0000ddd\u0000ddd\u0000dd": 6642,
      "\u0001\u0000\u0000\u0000 ": 6643,
      "Èè": 6644,
      "\u0001\u0000T\u0005\u0001\u0000\u0005": 6645,
      "-\u0002": 6646,
      ">r": 6647,
      "äø": 6648,
      "\u0000\u0002\u0000\u0000": 6649,
      "\u001a\u0005": 6650,
      "±E\u000fY": 6651,
      "\u0014\u0016": 6652,
      "Môd\r\u0000\u0000\u0000\u0000Y": 6653,
      "Ï\u0003": 6654,
      "\f": 6655,
      "E8": 6656,
      "H": 6657,
      "C\u0001": 6658,
      "\u000b\u0000\u0000\u0000\u0000\u0000\u0000": 6659,
      "\u0007\u0007\u0007\u0007": 6660,
      "òD\u000fÐ": 6661,
      "ã\u000f": 6662,
      ")\u0003": 6663,
      "\u001c\u0000\u0012\u001f": 6664,
      "µ": 6665,
      "tY": 6666,
      " \u0002\u0005": 6667,
      "t,": 6668,
      "Lïè": 6669,
      "\u0002\u0002\u0002": 6670,
      "H\\$0Ht$8": 6671,
      "!\f": 6672,
      "áû": 6673,
      "F": 6674,
      "M\b": 6675,
      "\b": 6676,
      "C\u0003": 6677,
      "a\u0000\u0004\u0000\t\u0005": 6678,
      ">": 6679,
      "\u0000\b": 6680,
      "78": 6681,
      "Un": 6682,
      "7\u0000\u0000": 6683,
      "\u0000ÿ\u0000ÿ": 6684,
      "Á\u0000\u0000T": 6685,
      "u\u001a": 6686,
      "(¿": 6687,
      "\u0014 ": 6688,
      "¸ü": 6689,
      "@?": 6690,
      "char": 6691,
      "0$": 6692,
      "óE\u000fY": 6693,
      "\\$`": 6694,
      "xè": 6695,
      "ý{Å": 6696,
      "`.": 6697,
      "\u0002": 6698,
      "Ô\u0000\u0000\u0000": 6699,
      "ãû": 6700,
      "Î\u0003": 6701,
      ";": 6702,
      "B\u000f\u0011": 6703,
      "7": 6704,
      "\u0002\u0000\u0000\u0000@\u0000\u0000\u0000": 6705,
      "\u000b¹": 6706,
      " \u000f": 6707,
      "t>": 6708,
      "t?": 6709,
      "¾\u0001\u0000\u0000\u0000": 6710,
      "D\u0010": 6711,
      "ã\u0005": 6712,
      "âø": 6713,
      "\"\u0005\u0019\u0001\u0000\u0000\u0000": 6714,
      "ES": 6715,
      "H": 6716,
      "ÿÿÿé": 6717,
      "ÂÂ": 6718,
      "\u0015\t": 6719,
      "À\u0003\u0000\u0000": 6720,
      "\u0014\u0005": 6721,
      "Íü": 6722,
      "\u0014T": 6723,
      "hc": 6724,
      ",0,0,0,0": 6725,
      "\u0010": 6726,
      "Óü": 6727,
      "\u0004\u0003": 6728,
      "\b\u0007": 6729,
      "\"\u0000\r\u0000\n\u0000K\u0000S\u0000": 6730,
      "\u0000\u0000": 6731,
      "LÁ": 6732,
      "*H": 6733,
      "Úü": 6734,
      "çû": 6735,
      "ôè": 6736,
      "à÷": 6737,
      "\u0013\u0000R": 6738,
      "5\u0002": 6739,
      "¡À": 6740,
      "Get": 6741,
      "ø\u0003": 6742,
      "\n\u0000\u0000\u0000\u0000\u0000\u0000": 6743,
      "_F": 6744,
      "9\u0002": 6745,
      "Òü": 6746,
      "\r\f": 6747,
      "\u001c\t": 6748,
      "LÈ": 6749,
      ".f": 6750,
      "Dv": 6751,
      "ý": 6752,
      "\u0006\u0000Ñ": 6753,
      "ð\u0006": 6754,
      "P\u0003\u0000\u0000": 6755,
      ")\u0010": 6756,
      "Ç@\u0004": 6757,
      "Ïp\u0000\u0000": 6758,
      "0\u0007": 6759,
      "tc": 6760,
      "Ôø": 6761,
      "\u0005Ñ": 6762,
      "\bB": 6763,
      "ô\u0007": 6764,
      "\u0001\u0000\u0000\u0000À": 6765,
      "\u000e\u0007": 6766,
      "\u000eò": 6767,
      "_\u00002\u00004\u0000": 6768,
      "\u000b©": 6769,
      "Ä\u0000\u0000\u0000": 6770,
      "\u0010\u0000\u0000\u0001": 6771,
      "%,": 6772,
      "°ü": 6773,
      "a8": 6774,
      "Õü": 6775,
      "\u0010U": 6776,
      "\u001aü": 6777,
      "3@ù": 6778,
      "\u000e\u0006": 6779,
      "\u0000\u0000\u0000\u0000ÿÿÿÿ": 6780,
      "ë\u001d": 6781,
      "\u001cè": 6782,
      "A_A^A\\": 6783,
      "\u0017@ù": 6784,
      "ë\u001b": 6785,
      "à\u0011": 6786,
      "IÔ": 6787,
      "ov": 6788,
      "¨\u0004": 6789,
      "\u0012À": 6790,
      "\u0000\u0004\u0000Q": 6791,
      "": 6792,
      "°\u0010": 6793,
      "N3": 6794,
      " ¢": 6795,
      "pC": 6796,
      "éú": 6797,
      "inter": 6798,
      "hh": 6799,
      "\rú": 6800,
      "s\u0000\u0000": 6801,
      "\u0014÷": 6802,
      "Eà": 6803,
      "ô?": 6804,
      "u÷": 6805,
      "\u0018": 6806,
      "\u0002)\u0003\u0000\u0000\u0000": 6807,
      "Ñé": 6808,
      "Ã": 6809,
      "26": 6810,
      "\u000e(": 6811,
      "ü": 6812,
      "=?": 6813,
      " A": 6814,
      "!\u0000\u0000\u0000\u0000\u0000\u0000": 6815,
      "ÅÔ": 6816,
      "t$": 6817,
      "v\u0000i\u0000c\u0000": 6818,
      "\u000b\u0007": 6819,
      "> ": 6820,
      "êû": 6821,
      "h ¸": 6822,
      "": 6823,
      "ã\u0007": 6824,
      "âØ": 6825,
      "\u0012\u0005": 6826,
      "PQ": 6827,
      "àG": 6828,
      "T$ ": 6829,
      "\u0016\u0010": 6830,
      "Ïv": 6831,
      "\n\u0007": 6832,
      "U\u0002": 6833,
      "Uü": 6834,
      "`\t": 6835,
      "DÀ": 6836,
      "\u001a ": 6837,
      "": 6838,
      "ê\u0005": 6839,
      "ðÿÿ": 6840,
      "\u0010\u0000\u0001": 6841,
      "3Í": 6842,
      "\u0000ÿ?": 6843,
      "Àò": 6844,
      "rtkhdas": 6845,
      "U\b": 6846,
      "@\u0019": 6847,
      "\u001a": 6848,
      "Ïü": 6849,
      "\u0007": 6850,
      "Àî": 6851,
      "àxñÀ": 6852,
      "9F": 6853,
      "XÃ": 6854,
      "¼ü": 6855,
      "": 6856,
      "Ó\r": 6857,
      "\u0010\u0010\u0010\u0010\u0010\u0010\u0010\u0010\u0010\u0010\u0010\u0010\u0010\u0010\u0010\u0010": 6858,
      "H¹": 6859,
      "ï÷": 6860,
      "\u0003": 6861,
      "\nT": 6862,
      "H]": 6863,
      "â ": 6864,
      "@9\u0000": 6865,
      "õù": 6866,
      "]Â\b\u0000": 6867,
      "E\f": 6868,
      "+\u0003": 6869,
      "Ð\b": 6870,
      "ÁÃ": 6871,
      "A^Ã": 6872,
      "K(": 6873,
      "¢\u0003": 6874,
      "7\u0004": 6875,
      "s\u0000\u0000\u0000": 6876,
      "\u001c\u0010": 6877,
      " \u0004\u0000": 6878,
      "P8": 6879,
      "EÉ": 6880,
      "!\u0001\u0005\u0001": 6881,
      "'@ù": 6882,
      "²\u0004": 6883,
      "\f": 6884,
      "\u0013è": 6885,
      "HÇè": 6886,
      "\u0002": 6887,
      "_\u0003": 6888,
      "\u001c\u0007": 6889,
      "\u001b\u0010": 6890,
      "òB\u000f\u0010": 6891,
      "¾\u0002": 6892,
      "of ": 6893,
      ">?": 6894,
      "Æ\u0002": 6895,
      "ÀÀ": 6896,
      "\u00144": 6897,
      "ë\"": 6898,
      "¸\u0004": 6899,
      "\u0012\u0006": 6900,
      "D$": 6901,
      "H!": 6902,
      "5\u0000\u0000": 6903,
      "d2": 6904,
      "H¦": 6905,
      "ô": 6906,
      "\u0005\u0011": 6907,
      "`\u0004\u0000\u0000": 6908,
      "ÛÛ": 6909,
      "½½": 6910,
      "éø": 6911,
      "X\u0004": 6912,
      "\u0003": 6913,
      ">": 6914,
      "âû": 6915,
      "æû": 6916,
      "X ": 6917,
      "`\u0003\u0000\u0000": 6918,
      " \t": 6919,
      "C\u000f\u0011": 6920,
      "\u001a": 6921,
      "t+": 6922,
      "\n2\u0006p": 6923,
      "â\u0006": 6924,
      "Ù\u0002": 6925,
      "T\u0002": 6926,
      "ñ\u0006": 6927,
      "f\u0002\u0000": 6928,
      "\u0014\n": 6929,
      "UP": 6930,
      "4\u0010": 6931,
      "H@": 6932,
      "\u0000\u0000\u0000H": 6933,
      "()": 6934,
      "`\u0006@ù": 6935,
      "\u0003\u00004": 6936,
      "Áü": 6937,
      "\\\u0000\u0000\u0000": 6938,
      "\u0015û": 6939,
      "J\u0004": 6940,
      "µ": 6941,
      "9\u0010": 6942,
      "7¢": 6943,
      "\b": 6944,
      "h\u0018": 6945,
      "\u0002": 6946,
      "2\u0003": 6947,
      "\u001b\b": 6948,
      "óò": 6949,
      "é\u0007": 6950,
      "wr": 6951,
      "÷ù": 6952,
      "c\u0010": 6953,
      "\u0007": 6954,
      "s:": 6955,
      "V\u0004": 6956,
      "@A": 6957,
      "lock": 6958,
      "Ùü": 6959,
      "w ": 6960,
      "E3Û": 6961,
      "óù": 6962,
      "\u0019ð": 6963,
      "Ev": 6964,
      "H\\$\u0010H": 6965,
      "|": 6966,
      "OX": 6967,
      "Éq": 6968,
      "i\u0000o\u0000": 6969,
      "b\u0010": 6970,
      ".\u0000I\u0000": 6971,
      "\u0000\u0000@": 6972,
      "\u0010": 6973,
      "H<": 6974,
      "ú\t": 6975,
      "ïù": 6976,
      "FX": 6977,
      "sof": 6978,
      "err": 6979,
      "\u0014\u0000Ò": 6980,
      "\u0011\u0007": 6981,
      "\f©": 6982,
      "0p": 6983,
      "ß\u0003": 6984,
      "ô\u0006": 6985,
      "PC": 6986,
      "°\b": 6987,
      "\u0011\u0000\u0000\u0000\u0000\u0000\u0003\u0004\u0000\u0000\u0000\u0000\u0000\u0000": 6988,
      "'\u0003": 6989,
      "L\u0004": 6990,
      "úø": 6991,
      " \u000e": 6992,
      "H\u0003Ð": 6993,
      "HA": 6994,
      "IÍè": 6995,
      "Äã}\u0019": 6996,
      "Oðÿ": 6997,
      "etting/": 6998,
      "¯ü": 6999,
      "Mö": 7000,
      "IÌè": 7001,
      "J\u0002": 7002,
      "-\u0003": 7003,
      "ð\u0002\u0000\u0000": 7004,
      "HT$0": 7005,
      "ÃC": 7006,
      "?7": 7007,
      "s\u0004": 7008,
      "Å\u0010": 7009,
      "\b": 7010,
      "\u0003\u0000 \n\u0005": 7011,
      "-\u0000-\u0000": 7012,
      "¡\u0004": 7013,
      "Hñ¹\u0010\u0000\u0000\u0000ó¤H\u0005": 7014,
      "v\u0010": 7015,
      "`2": 7016,
      "/ ": 7017,
      "PF": 7018,
      "s\u0003": 7019,
      "HT$ ": 7020,
      "¬\u0002": 7021,
      "t*": 7022,
      "D$\u0010": 7023,
      "è\u0003\u0000\u0000": 7024,
      "\u0013\u000b": 7025,
      "Å\u0000\u0000\u0000\u0000": 7026,
      "ÄA{\u0010": 7027,
      "}ü": 7028,
      "\u001f\u0004\u0000±": 7029,
      "Eø": 7030,
      "ÁA": 7031,
      "Lï": 7032,
      "Ø\u0004": 7033,
      "Ì1": 7034,
      "|)": 7035,
      "u%": 7036,
      "\u0011\n": 7037,
      " \u0005": 7038,
      "äû": 7039,
      "ôÿ": 7040,
      "\u000f\n": 7041,
      "\u0016ð": 7042,
      "õ\b": 7043,
      "\u0012û": 7044,
      "××": 7045,
      "kÀ": 7046,
      "öñ": 7047,
      "1\u0003": 7048,
      "î\u0010": 7049,
      "f\u000fþ": 7050,
      "+Ê": 7051,
      "/\u0002": 7052,
      "K\u0000 \u0007": 7053,
      "H": 7054,
      "w\u0004": 7055,
      "»ü": 7056,
      "àò": 7057,
      "*Gù": 7058,
      "I@": 7059,
      "\u0010": 7060,
      "Â\u0010": 7061,
      " \n": 7062,
      "½\u0002": 7063,
      "8Í": 7064,
      "H3ÄHE": 7065,
      "PY": 7066,
      "\u0013\u0006": 7067,
      "\u0002": 7068,
      "d.": 7069,
      "0<": 7070,
      "ÒÒÓ": 7071,
      "û": 7072,
      "\u0004": 7073,
      "H\u0002": 7074,
      "\u000f\t": 7075,
      "\fø": 7076,
      "c\u0000": 7077,
      "ted ": 7078,
      "star": 7079,
      "@¹à": 7080,
      "xÿÿÿ": 7081,
      "óø": 7082,
      "\u0015&": 7083,
      "#\b": 7084,
      "ff\u000f\u001f\u0000\u0000\u0000\u0000\u0000": 7085,
      "Ã\u0001": 7086,
      "[\u0010": 7087,
      "\u0007": 7088,
      "z\u0002": 7089,
      "\u0005ë": 7090,
      "@*": 7091,
      "\u0003\u0000\u0000": 7092,
      "L$8": 7093,
      "\u0011\"": 7094,
      "Me": 7095,
      "D\u0000A\u0000u\u0000d\u0000": 7096,
      "Å\u0002": 7097,
      "´\u0000q": 7098,
      "@h": 7099,
      "\u0018ë": 7100,
      "Âü": 7101,
      "uý": 7102,
      "lib": 7103,
      "¥\u0002": 7104,
      "0ð": 7105,
      "PEôd£": 7106,
      "HÄ0[Ã": 7107,
      "õ?": 7108,
      "\u0003": 7109,
      "sw": 7110,
      "\b": 7111,
      "º\u0002": 7112,
      "ax": 7113,
      "ö\b": 7114,
      "u\u001b": 7115,
      "K\u0004": 7116,
      "M\b": 7117,
      "d\u0002": 7118,
      "R,": 7119,
      "h\b": 7120,
      "3\u0003": 7121,
      "¥ü": 7122,
      "â?": 7123,
      "$": 7124,
      "ý{Ä¨À\u0003_Ö": 7125,
      "B9": 7126,
      "Îü": 7127,
      "õ\u0006": 7128,
      "ýýýý": 7129,
      "Äü": 7130,
      "S\b": 7131,
      "a\u0006": 7132,
      "\"\f": 7133,
      "]ü": 7134,
      "{\b": 7135,
      "\u0010": 7136,
      "È\u0002": 7137,
      "òA\u000fY": 7138,
      "\r\u0000\u0000\u0000\u0000\u0000\u0000": 7139,
      "Ð\u0012": 7140,
      "á": 7141,
      "\u001d\u0010": 7142,
      "Device": 7143,
      "H3ÄH$": 7144,
      "O@\u0001\u0000\u0000\u0000": 7145,
      "!\u001c": 7146,
      "i\u0000l\u0000": 7147,
      "H@\bÿ\u0015": 7148,
      "b\u0004": 7149,
      "||": 7150,
      "ýü": 7151,
      "t&": 7152,
      "±\u0003": 7153,
      "E@": 7154,
      "!\u0014": 7155,
      "\u001e\u0004\u0000\u0004\u0000": 7156,
      "\u0017\f": 7157,
      "Èÿ": 7158,
      "H}": 7159,
      "MI": 7160,
      "Æ\b": 7161,
      "ø\u0000\u0000": 7162,
      "\u0004": 7163,
      "\t": 7164,
      "!": 7165,
      "\u0003": 7166,
      ";\u0002": 7167,
      "Èü": 7168,
      "\u0016": 7169,
      "\u001e\u0000\u0000\u0000": 7170,
      "÷ö": 7171,
      "HÂ'HIø": 7172,
      "y\u0002": 7173,
      "R ": 7174,
      "º\u0003": 7175,
      "\u0003\u0003\u0003": 7176,
      "Lò": 7177,
      "\u0005T": 7178,
      "ë\u00023À": 7179,
      "\u0003\u00005": 7180,
      "h\n": 7181,
      "~\u0004": 7182,
      "6\u0000\u0000\u0000": 7183,
      "áð": 7184,
      "\u0001\u0000\u0000\u0000à": 7185,
      "!$": 7186,
      "\r©": 7187,
      "B": 7188,
      "ïð": 7189,
      "\u0005?": 7190,
      "t'": 7191,
      "K": 7192,
      "%.": 7193,
      "È\u0003": 7194,
      "_v": 7195,
      "L$p": 7196,
      "X\b": 7197,
      "¸\u0002\u0000\u0000\u0000": 7198,
      "\u0007x": 7199,
      "q\u0004": 7200,
      "{ÿ{ÿ": 7201,
      "\n\u0004\u0000\n4\u0006\u0000": 7202,
      "A\u000b\u0000": 7203,
      "HÇ": 7204,
      "J©": 7205,
      "ed ": 7206,
      "a\u0000\u0000\u0000 \n": 7207,
      "\u0019\n": 7208,
      "ÿ\u0015\u0000": 7209,
      "\rõ": 7210,
      "N ": 7211,
      "\u001cø": 7212,
      "ET": 7213,
      "uc": 7214,
      "Êü": 7215,
      "Eð": 7216,
      " \u0001\u0010": 7217,
      "fA": 7218,
      "\u000eà": 7219,
      "X\u0010": 7220,
      "\u001c\u0006": 7221,
      "ÄÁ{\u0010": 7222,
      "<ü": 7223,
      "¿#\u0003ÕÀ\u0003_Ö?#\u0003Õ": 7224,
      "Ð\u0003\u0000\u0000": 7225,
      "E3í": 7226,
      "bP": 7227,
      "8": 7228,
      "\u000f£": 7229,
      "\u0013\f": 7230,
      "e\u0000l\u0000": 7231,
      "ñø": 7232,
      "\t ": 7233,
      "(v": 7234,
      "t\u0000\u0000": 7235,
      "Ù\u0003": 7236,
      "H\u0000D\u0000A\u0000O\u0000u\u0000t\u0000.\u0000": 7237,
      "Ð\u0000\u0000": 7238,
      "uð": 7239,
      "ýC\u0000": 7240,
      ".\u0002": 7241,
      "q\b": 7242,
      "Éü": 7243,
      "%\u0018": 7244,
      "\u0004": 7245,
      "\nr": 7246,
      "\u001b\u0006": 7247,
      "\u0000\u0000\u0000\u0000\u0000\u0000\u0000\u0000\u0000\u0000\u0000\u0000\u0000\u0000\u0000\u0000\u0000\u0000\u0000\u0000\u0000\u0000\u0000\u0000\u0000": 7248,
      "¢À": 7249,
      "%\\": 7250,
      "\u0014û": 7251,
      "IØ": 7252,
      "yn": 7253,
      "\u0000\u0000\u0000H": 7254,
      "I©": 7255,
      "RR": 7256,
      " \u0018": 7257,
      "\u0005\u0000\u00004\u0000\u0014\u0000\u000e": 7258,
      "\u000e\n": 7259,
      "": 7260,
      "\u0004": 7261,
      "\u0002\u0000\b": 7262,
      "åû": 7263,
      "½\u0010": 7264,
      "\u0017ð": 7265,
      "L4": 7266,
      "y": 7267,
      "úÿT": 7268,
      "HC\b": 7269,
      "Hî": 7270,
      ":\u0004": 7271,
      "HÁHú\u0000\u0010\u0000\u0000r": 7272,
      "Ð\u0010": 7273,
      "Rt": 7274,
      " \u000b": 7275,
      "÷ò": 7276,
      "HÒ\u000f": 7277,
      "p\u0000l\u0000": 7278,
      "\u0014%": 7279,
      "t#": 7280,
      "`Ó": 7281,
      "\u0011û": 7282,
      " J%\u0004\u0000\u0000\u0000\u0000": 7283,
      "@\u0004\u0000\u0000": 7284,
      "D\u0000\u0001\u0000\u0000\u0000": 7285,
      "ó\u0006": 7286,
      "ó\u000f\u0010\u0005": 7287,
      "\u0016\u0000\u0000\u0000è": 7288,
      "Ëü": 7289,
      "H": 7290,
      "21": 7291,
      "D\u0011": 7292,
      "H;ß": 7293,
      "Ll$": 7294,
      "c\u0002": 7295,
      "$ð": 7296,
      "\u001eü": 7297,
      "D\b": 7298,
      "Ìü": 7299,
      "} ": 7300,
      "\u0015ë": 7301,
      "÷ú": 7302,
      "D": 7303,
      "\u0004": 7304,
      "\u001að": 7305,
      "H\u000fE": 7306,
      "Wave": 7307,
      "\u001e\u0010": 7308,
      "u.": 7309,
      "\u001cð": 7310,
      "i\u0002": 7311,
      "TO WRIT": 7312,
      "EC": 7313,
      ";Ø": 7314,
      "õò": 7315,
      "®\u0000\u0000\u0000\u0000\u0000": 7316,
      "\u0006Ø": 7317,
      ";Æ": 7318,
      "L$\b": 7319,
      "\u000f¶\u0005": 7320,
      "(ü": 7321,
      "ñ\t": 7322,
      "äð": 7323,
      "\u0005": 7324,
      "À\u000b": 7325,
      "\u0002": 7326,
      "\u000e": 7327,
      ":?": 7328,
      "r\u0003": 7329,
      "¢\u0000R": 7330,
      "Ú\u0003": 7331,
      "Ðû": 7332,
      "ºü": 7333,
      "\u0006\u0000\u000fd": 7334,
      "`/": 7335,
      "\u0014\"": 7336,
      "\u0003": 7337,
      "\u0014\t": 7338,
      "CP": 7339,
      "\rù": 7340,
      "Æ\u0010": 7341,
      "\u0015\u0006": 7342,
      "TY": 7343,
      "7\u0002": 7344,
      "3": 7345,
      "r\u0004": 7346,
      "`x": 7347,
      "la": 7348,
      "HÍè": 7349,
      "3Íè": 7350,
      "Ê#": 7351,
      "\fô": 7352,
      "áø": 7353,
      "\u000fL": 7354,
      "D\u0000\u0000H": 7355,
      "UN": 7356,
      "\u0000H": 7357,
      "`\u0018": 7358,
      "\n&": 7359,
      "\u000fWÀ\u000f\u0011": 7360,
      "0>": 7361,
      "ÿÿÿÿÿÿ": 7362,
      "ö\t": 7363,
      "Ð ": 7364,
      "¿¾": 7365,
      "À\r": 7366,
      "w\t": 7367,
      "\u0000\u0000\u0000\u0000\u0000\u0001\u0000`\u0000\"": 7368,
      "ure": 7369,
      "â": 7370,
      "`z": 7371,
      "=\u0018": 7372,
      ";Ç": 7373,
      "mem": 7374,
      "B8": 7375,
      "\"\b": 7376,
      ";ü": 7377,
      "\u000bô": 7378,
      "5?": 7379,
      "\bB\f": 7380,
      "L$(": 7381,
      "\u000bø": 7382,
      "\u0000q\u0000": 7383,
[...]
