{"version":"1.0","truncation":null,"padding":null,"added_tokens":[{"id":16377,"content":"<s>","single_word":false,"lstrip":false,"rstrip":false,"normalized":false,"special":true},{"id":16378,"content":"</s>","single_word":false,"lstrip":false,"rstrip":false,"normalized":false,"special":true},{"id":16379,"content":"<pad>","single_word":false,"lstrip":false,"rstrip":false,"normalized":false,"special":true},{"id":16380,"content":"<unk>","single_word":false,"lstrip":false,"rstrip":false,"normalized":false,"special":true},{"id":16381,"content":"<cls>","single_word":false,"lstrip":false,"rstrip":false,"normalized":false,"special":true},{"id":16382,"content":"<sep>","single_word":false,"lstrip":false,"rstrip":false,"normalized":false,"special":true},{"id":16383,"content":"<mask>","single_word":false,"lstrip":false,"rstrip":false,"normalized":false,"special":true}],"normalizer":null,"pre_tokenizer":null,"post_processor":null,"decoder":null,"model":{"type":"BPE","dropout":null,"unk_token":null,"continuing_subword_prefix":null,"end_of_word_suffix":null,"fuse_unk":false,"byte_fallback":false,"ignore_merges":false,"vocab":{"\u0000":0,"\u0001":1,"\u0002":2,"\u0003":3,"\u0004":4,"\u0005":5,"\u0006":6,"\u0007":7,"\b":8,"\t":9,"\n":10,"\u000b":11,"\f":12,"\r":13,"\u000e":14,"\u000f":15,"\u0010":16,"\u0011":17,"\u0012":18,"\u0013":19,"\u0014":20,"\u0015":21,"\u0016":22,"\u0017":23,"\u0018":24,"\u0019":25,"\u001a":26,"\u001b":27,"\u001c":28,"\u001d":29,"\u001e":30,"\u001f":31," ":32,"!":33,"\"":34,"#":35,"$":36,"%":37,"&":38,"'":39,"(":40,")":41,"*":42,"+":43,",":44,"-":45,".":46,"/":47,"0":48,"1":49,"2":50,"3":51,"4":52,"5":53,"6":54,"7":55,"8":56,"9":57,":":58,";":59,"<":60,"=":61,">":62,"?":63,"@":64,"A":65,"B":66,"C":67,"D":68,"E":69,"F":70,"G":71,"H":72,"I":73,"J":74,"K":75,"L":76,"M":77,"N":78,"O":79,"P":80,"Q":81,"R":82,"S":83,"T":84,"U":85,"V":86,"W":87,"X":88,"Y":89,"Z":90,"[":91,"\\":92,"]":93,"^":94,"_":95,"`":96,"a":97,"b":98,"c":99,"d":100,"e":101,"f":102,"g":103,"h":104,"i":105,"j":106,"k":107,"l":108,"m":109,"n":110,"o":111,"p":112,"q":113,"r":114,"s":115,"t":116,"u":117,"v":118,"w":119,"x":120,"y":121,"z":122,"{":123,"|":124,"}":125,"~":126,"":127,"":128,"":129,"":130,"":131,"":132,"":133,"":134,"":135,"":136,"":137,"":138,"":139,"":140,"":141,"":142,"":143,"":144,"":145,"":146,"":147,"":148,"":149,"":150,"":151,"":152,"":153,"":154,"":155,"":156,"":157,"":158,"":159," ":160,"¡":161,"¢":162,"£":163,"¤":164,"¥":165,"¦":166,"§":167,"¨":168,"©":169,"ª":170,"«":171,"¬":172,"­":173,"®":174,"¯":175,"°":176,"±":177,"²":178,"³":179,"´":180,"µ":181,"¶":182,"·":183,"¸":184,"¹":185,"º":186,"»":187,"¼":188,"½":189,"¾":190,"¿":191,"À":192,"Á":193,"Â":194,"Ã":195,"Ä":196,"Å":197,"Æ":198,"Ç":199,"È":200,"É":201,"Ê":202,"Ë":203,"Ì":204,"Í":205,"Î":206,"Ï":207,"Ð":208,"Ñ":209,"Ò":210,"Ó":211,"Ô":212,"Õ":213,"Ö":214,"×":215,"Ø":216,"Ù":217,"Ú":218,"Û":219,"Ü":220,"Ý":221,"Þ":222,"ß":223,"à":224,"á":225,"â":226,"ã":227,"ä":228,"å":229,"æ":230,"ç":231,"è":232,"é":233,"ê":234,"ë":235,"ì":236,"í":237,"î":238,"ï":239,"ð":240,"ñ":241,"ò":242,"ó":243,"ô":244,"õ":245,"ö":246,"÷":247,"ø":248,"ù":249,"ú":250,"û":251,"ü":252,"ý":253,"þ":254,"ÿ":255,"e ":256,"\\f":257,"\n.":258,"  ":259,"s ":260,"th":261,"in":262,"\\-":263,"on":264,"t ":265,"er":266,"\\fR":267,"d ":268,"or":269,"ti":270,"an":271,"re":272,"the ":273,"\\fB":274,"te":275,"en":276,"\n.I":277,"al":278,"ar":279,"    ":280,", ":281,"tion":282,"is ":283,"\\fR ":284,"o ":285,"--":286,"y ":287,"se":288," \"":289,"le":290,"de":291,"ing":292,"st":293,"f ":294,"fi":295,"(C":296,"\\&":297,"co":298,"\\fB\\-":299,"or ":300,"ch":301,"to ":302,"tem":303,"P ":304,"X ":305,"at":306,"ro":307,"ing ":308,"am":309,"\n.IX ":310,"er ":311,"si":312,"ou":313,"a ":314,"Item":315,"Item \"":316,"\n.IX Item \"":317,"4\n.IX Item \"":318,"==":319,".\n.":320,"op":321,"of ":322,"\n.IP ":323,"ec":324,"lo":325,"ab":326,"and ":327,"di":328,"Th":329,"\\*":330,"l ":331,"no":332,"tion ":333,"ac":334,"li":335,"sp":336,"wi":337,"\"\n":338,"\\fR 4\n.IX Item \"":339,"\\*(C":340,"\\fI":341,"----":342,"\n\\&":343,"in ":344,"ma":345,"mp":346,"es":347,"ul":348,"un":349,"le ":350,"        ":351,"es ":352,"ex":353,"ed ":354,"it":355,"for ":356,"us":357,"con":358,".  ":359,". ":360,"\" ":361,"~~":362,"as":363,"at ":364,".\n.IP ":365,"pro":366,"P\n":367,".\n":368,"\\f(C":369,"an ":370,"ter":371,"um":372,"wh":373,"ri":374,"th ":375,"for":376,"====":377,"ad":378,"\n.P":379,"\\f(CW":380,"ly ":381,"be ":382,"en ":383,"pu":384,"on ":385,"ver":386,"vi":387,"fa":388,"su":389,"bu":390,"The ":391,"res":392,"ed":393,"n ":394,"ur":395,"ag":396,"are ":397,"as ":398,"ent":399,"ch ":400,"\\*(C'":401,"\\*(C`":402,"ate":403,"me":404,"\\f(CW\\*(C`":405,"it ":406,"use":407,"\n.R":408,"al ":409,"el":410,"Sp":411,"faul":412,"--------":413,"val":414,"that ":415,"S ":416,"lin":417,"mo":418,"ction":419,"and":420,"ff":421,"This ":422,"file":423,"with ":424,"e\n":425,"pp":426,"spec":427,"str":428,"ol":429,"comp":430,"by ":431,"com":432,"\\fR, ":433,"il":434,"\n.B":435,"m ":436,"\\fB\\-m":437,"not ":438,"sh":439,"\n.\\":440,"to":441,"ts ":442,"able":443,"tr":444,"nam":445,"valu":446,"rec":447,"defaul":448,"of the ":449,"if ":450,"low":451,"option":452,"qu":453,"is":454,"po":455,"ca":456,"\\-\\-":457,"de ":458,"speci":459,"cal":460,"out":461,"~~~~":462,"comm":463,"av":464,"able ":465,"gn":466,"ack":467,"et":468,"option ":469,",\n":470,"\n\\&        ":471,"S 4":472,"P \"":473,"\"\n.P":474,"ent ":475,"sy":476,"this ":477,"ll ":478,"ted ":479,"ce":480,"\n.RS 4":481,"\\fR\n":482,"00":483,"ce ":484,"ta":485,"la":486,"ate ":487,") ":488,"Sp\n":489,"========":490,"arg":491,"c ":492,"ow":493,"put ":494,": ":495,"RE":496,"-m":497,"ram":498,".\n.IP \\fB":499,"yp":500,"\"\n.PD":501,"ra":502,"\\fB\\-\\-":503,"can ":504," \\-":505,"specifi":506,"ang":507,"par":508,"\\fB\\-f":509,"sion":510,"no\\-":511,"SH":512,"gh":513,"stru":514,"use ":515,"s, ":516,"will ":517,"whi":518,"Se":519,"ne":520,"fro":521,"ces":522,"\\f[":523,"tiv":524,"be":525,"du":526,"in the ":527,"ke":528,"gi":529,"amp":530,"fun":531,"\\*(C'\\fR ":532,"ation ":533,"st ":534,"ener":535,"mi":536,"ation":537,"\n.IP \\fB":538,"ter ":539,"default ":540,".\n.Sp\n":541,"the":542,"file ":543,"sion ":544,"\n.V":545,"fil":546,"br":547,"----------------":548,"If ":549,"per":550,"ly":551,"from ":552,"cl":553,".\n.P":554,"mat":555,"used ":556,"s\n":557,"\\&. ":558,"of":559,"\n.\\\" ":560,"ari":561,"\n.PP\n":562,"num":563,"do":564,"\\-m":565,"the\n":566,"you":567,"tor":568,"pre":569,"\n.IP \"":570,"exp":571," 0":572,"are":573,"all ":574,"se ":575,"\\&.\n.":576,"\\fR\" ":577,"typ":578,"\n.T":579,"\\fR\\fI":580,"when ":581,"\\fP":582,"p ":583,"ction ":584,"which ":585,"to the ":586,"siz":587,"r ":588,"k ":589,".\n.PP\n":590,"bo":591,"war":592,"e is ":593,"ther ":594,"sc":595,"] ":596,"ali":597,"ten":598,"supp":599,"\\|":600,"fin":601," 1":602,"\\&.":603,"jec":604,"tt":605,"inter":606,"so ":607,"loc":608,"numb":609,"ct":610,"C ":611,"\n.B ":612,"ated ":613,"pa":614,"te ":615,"mor":616,"\\fR\\fB":617,"ded ":618,"om":619,"instru":620,"R ":621,"au":622,"direc":623,"set ":624,"\n.sp":625,"only ":626,"col":627,"code ":628,"s are ":629,"pl":630,"wor":631,"el ":632,"gener":633,"dat":634,"\\fP ":635,"~~~~~~~~":636,"out ":637,"ds ":638,"\\(":639,"enable":640,"forma":641,"with":642,"(1":643,"e\\-":644,"bjec":645,"int ":646,"section":647,"sys":648,"suppor":649,"   ":650,"Set ":651,"fram":652,"ample":653,"..":654,".\n.T":655,".\n.IP \\fB\\-m":656,"ing the ":657,"De":658,"g ":659,"ON":660,"x ":661,"e the ":662,"fol":663,"\\fB\\-W":664,"der":665,"\n.SH":666,"output ":667,"pi":668,"vari":669,"\n.RS 4\n":670,"cur":671,"name":672,"may ":673,"proces":674,"cor":675,"follow":676,"put":677,"++":678,"\n.RE":679,"tex":680,"arch":681,"{\\":682,"-f":683,"you ":684,"ea":685,"\\{\\":686,"im":687,"oun":688,"pr":689,"zer":690,"=\\fR\\fI":691,".I":692,"tab":693,"s the ":694,"\\-f":695," and ":696,"s.  ":697,"sed ":698,"mode":699,"warn":700,"\n\\fB":701,"SS":702,"min":703,"\"\n.PD 0":704,"tic":705,"64":706,"by":707,"DE":708,"function":709,"================":710,"system":711,"\n\\&\\fB":712,"default":713,"20":714,"IN":715,"ther":716,"dis":717,", the ":718,"app":719,"int":720,"tim":721,"one ":722,"instruction":723,"all":724,"mb":725,"can be ":726,"(1)":727,"ted":728,"man":729,"id":730,"if":731,"sign":732,"e-":733,"ub":734,"]\n":735,"max":736,"\"\n.PD\n":737,", and ":738,"ad ":739,"\\*(C'\\fR":740,"link":741,"qui":742,"pas":743,"our":744,"number ":745,"for the ":746,"\\f[R":747,"\\&.\n.RE":748,"s to ":749,".\n.IP \"":750,"imp":751,"s\\fR":752,"but ":753,"\n.\\}":754,"\"\nSet ":755,"up":756,"This option ":757,"input ":758,"32":759,"s:":760,"ins":761,"\n.Vb":762,"value ":763,"\nthe ":764,"add":765,"key":766,"@tab":767,"set":768,"cep":769,"A ":770,"\\*(C'\\fR, ":771,"TI":772,"ss":773,"format":774,"vide":775,"defin":776,"age ":777,"12":778,"also ":779,"ph":780,"stre":781,"command ":782,"clu":783,"OP":784,"char":785,"tur":786,"ame ":787,"0 ":788,"call":789,"; ":790,"prog":791,"por":792,"mul":793,"cre":794,"lev":795,"end":796,"ie ":797,"sub":798,"ust ":799,"\\*(":800,"ve ":801,"ary ":802,"s that ":803,"loat":804,"regi":805,"For ":806,"1 ":807,"time":808,"\n.Ve":809,"compil":810,"fo":811,"wa":812,"\\fR is ":813,"line ":814,"specified ":815,"ument":816,"director":817,"hav":818,"non":819,"E ":820,"ment":821,"dep":822,"scri":823,"any ":824,"over":825,"run":826,"command":827,"confi":828,"name ":829,"_\\|":830,".IP \"":831,"stream":832,"lic":833,"\\fR, \\fB":834,"t is ":835,"ev":836,"16":837,"w ":838,"ren":839,"ure":840,"oul":841,"bit":842,"  \\-m":843,"Defaul":844,"tri":845,"is\n":846,"En":847,"ref":848,"ead":849,"e, ":850,"ser":851,"program":852,"targ":853,"ic":854,"\\&.\n.RE\n.PP\n":855,"fl":856,"Op":857,"Wh":858,"                ":859,"ard":860,"tre":861,"lib":862,"sing":863,"Aq":864,"//":865,"ati":866,"\n.SH ":867,"spla":868,"af":869,"ould ":870,"has ":871,"stor":872,"\n.if ":873,"In":874,"ge":875,"t\n":876,"Sub":877,"read":878,"no-":879,"_\\|_":880,"tro":881,"dump":882,"following ":883,"on the ":884,"ie n ":885,"chang":886,"ke ":887,"param":888,"no ":889,"objec":890,"enc":891,"AR":892,"\n.I ":893,"\n.el ":894,"err":895,"informa":896,"only":897,"fix":898,"l\\-":899,"tive ":900,"used":901,"ind":902,"ei":903,"regist":904,"ess":905,"more ":906,"star":907,"'\\":908,"bi":909,".0":910,"stack":911,"ar ":912,"section \"":913,"TION":914,"\n.IX Sub":915,"diff":916,"ment ":917,"aly":918,"GC":919,"ally ":920,"tain":921,"config":922,"so":923,"size":924,"ail":925,"ffec":926,"path":927,"miz":928,"oper":929,"hi":930,"using ":931,"s\"\n":932,"exec":933,"ts the ":934,"ow ":935,"s.\n":936,"AM":937,"AV":938,"tw":939,"IS":940,"function ":941,"inclu":942,"version":943,"to be ":944,"analy":945,"\\(bu":946,"der ":947,"iti":948,"\\f[V":949,"ase ":950,"will be ":951,"other ":952,"cation":953,"open":954,"version ":955,"\\\\":956,"NT":957,"options ":958,"ese ":959,"\n.n":960,"\\f[V]":961,"giv":962,"ble":963,"\\fR \\fI":964,"10":965,"example":966,"C++":967,"ba":968,"This is ":969,"\" \"":970,"\n.IP \\fB\\-m":971,"bug":972,"opti":973,"gro":974,"rang":975,"same ":976,"code":977,"number of ":978,"ome ":979,"have ":980,"sour":981,"devi":982,"ble ":983,"ap":984,".\n.RE":985,"than ":986,"each ":987,"pack":988,"chec":989,"scrip":990,"\n.Sp":991,"ut":992,"s (":993,"filter ":994,"ding ":995,"\n\\&\\f(CW\\*(C`":996,"curren":997,"les":998,"s of ":999,"lit":1000,"float":1001,"output":1002,"\n.Vb 1":1003,"multi":1004,"libr":1005,"htt":1006,"When ":1007,"led ":1008,"compres":1009,"http":1010,"with the ":1011,"buil":1012,"fir":1013,"optimiz":1014,"stand":1015,"rt":1016,"P\n.B":1017,"U ":1018,"\n.TP\n":1019,".\n.IP \\fB\\-f":1020,"stri":1021,"bran":1022,"ga":1023,"exten":1024,"allow":1025,"loop":1026,".  The ":1027,",\n\\&\\fB":1028,"we":1029,"its ":1030,"SE":1031,"ori":1032,"time ":1033,"tran":1034,"values ":1035,"2 ":1036,"ard ":1037,"charac":1038,"data ":1039,"s and ":1040," 4":1041,"ched":1042,"ip":1043,"      ":1044,"spac":1045,"dition":1046,"\\*(Aq":1047,"filter":1048,"TH":1049,"by the ":1050,"No":1051,"lec":1052,"remo":1053,"trac":1054,"align":1055,"type":1056,"o not ":1057,"ho":1058,"ing\n":1059,"~~~~~~~~~~~~~~~~":1060,"process":1061,"addres":1062,"list":1063,"cation ":1064,"hel":1065,"point ":1066,"um ":1067,"such ":1068,"\n.ie n ":1069,"\\fR and ":1070,"log":1071,"does ":1072,"back":1073,"doc":1074,"ght ":1075,"Ex":1076,"must ":1077,"flag":1078,"form":1079,".\nThe ":1080,"\n.BR ":1081,"displa":1082,"\n.\\\"":1083,"Spec":1084,"should ":1085,"archi":1086,"pres":1087,"ci":1088,"enti":1089,"es the ":1090,"stan":1091,"\n.if n ":1092,"line":1093,"s for ":1094,"25":1095,"id ":1096,"AL":1097,"expres":1098,"\"\"":1099,"auto":1100,"rit":1101,"reg":1102,"Gener":1103,")\n":1104,"ve":1105," (":1106,"termin":1107,"\n.sp\n":1108,"ts":1109,"data":1110,"ver ":1111,"tern":1112,"enabled ":1113,"mit":1114,"d\n":1115,"ron":1116,"list ":1117,"'s ":1118,"\\-b":1119,"s in ":1120,"@tab\\fR\\fB":1121,"pri":1122,"In ":1123,"is not ":1124,"ing-":1125,"resul":1126,"secon":1127,"ting ":1128,"then ":1129,"sp\n":1130,"can":1131,"Re":1132,"size ":1133,"work":1134,"> ":1135,"variable":1136,"retur":1137,"LE":1138,"TE":1139,"requi":1140,"some ":1141,"IP":1142,"t\\-":1143,"ere ":1144,"4\n.el ":1145,"value is ":1146,"contain":1147,"bin":1148,"lon":1149,"avail":1150,"t-":1151,"I ":1152,"bet":1153,"fiel":1154,"off":1155,"Option":1156,"head":1157,"about ":1158,"contro":1159,"level":1160,"Al":1161," X":1162,".IP \"\\fB":1163,"analyzer":1164,"-W":1165,"\n\\&\\fI":1166,"age":1167,"sched":1168,"pat":1169,"disable":1170,"memor":1171,"f\n":1172,"), ":1173,"check":1174,"\n\\&\\-":1175,"information ":1176,"\n.if n \\{\\":1177,"h'":1178,"\n.Sp\n":1179,"to\n":1180,"git":1181,"D ":1182,"differ":1183,"It ":1184,"coun":1185,"gin":1186,"SS ":1187,"ash":1188,"from the ":1189,"specified":1190,"files ":1191,"cpu":1192,"vo":1193,"org":1194,"MA":1195,"OR":1196,"prec":1197,"tho":1198,"fu":1199,"GCC ":1200,"y\n":1201,"GN":1202,"\n.IP \\(bu":1203,"byte":1204,"up ":1205,"lock":1206,"F ":1207,"match":1208,"may be ":1209,"FI":1210,"\\[":1211,"effec":1212,".\n.IP \\fB\\-":1213,"openss":1214,"a\n":1215,"cop":1216,"d\\-":1217,"first ":1218,"to a ":1219,"sm":1220,"plac":1221,"ure ":1222,"fe":1223,"T ":1224,"debug":1225,"multip":1226,"warning ":1227,"\\h'":1228,"nec":1229,"accep":1230,"does not ":1231,"cap":1232,"argument":1233,"\"\nThe ":1234,"mean":1235,"string":1236,"used to ":1237,"it is ":1238,"writ":1239,"inste":1240,"\"\nD":1241,"specif":1242,"gra":1243,"mess":1244,"imum ":1245,"user":1246,".  This ":1247,"separ":1248,"end ":1249,"in a ":1250,"L ":1251,"Use ":1252,"\n\\&\\fB\\-m":1253,"color":1254,"abi":1255,"syn":1256,"s\\-":1257,"number":1258,"value":1259,"ence ":1260,"  \\-":1261,"t to ":1262,":\n.Sp":1263,"\n\\&\\-m":1264,"show":1265,"way":1266,"gnor":1267,"cer":1268,"if the ":1269,"this option ":1270,"floating-":1271,"\\fR\\|":1272,"\n.fi":1273,"] [":1274,"eg":1275,"of a ":1276,"d, ":1277,"Ad":1278,"mis":1279,"inde":1280,"trans":1281,"ima":1282,"branch":1283,"orm":1284,"format ":1285,"betwe":1286,"type ":1287,"aliz":1288,"11":1289,"and\n":1290,"dou":1291,"tly ":1292,"diag":1293,"\\&.\n.sp\n":1294,"s. ":1295,"tribu":1296,"mac":1297,"other":1298,"ssi":1299,"B ":1300," 4\n":1301,"standard ":1302,"clas":1303,"posi":1304,"input":1305,"cu":1306,"inte":1307,"bl":1308,"\"\n.IP \\fB":1309,".\n.SH":1310,"given ":1311,"current ":1312,"t the ":1313,"source ":1314,"requ":1315,"compiler ":1316,"ary":1317,"chan":1318,".org":1319,";\n\\&        ":1320,"Objec":1321,"appli":1322,"Generate ":1323,"cally ":1324,"wit":1325,"ful ":1326,"wid":1327,"ses":1328,"\n.nf\n":1329,"s a ":1330,"If the ":1331,"sof":1332,"2.":1333,"register":1334,"sum":1335,"filen":1336,"attribu":1337,"C++ ":1338,"without ":1339,"\\f[R] ":1340,"tin":1341,"require":1342,"foo":1343,"after ":1344,"s-":1345,"diagno":1346,"= ":1347,"ker":1348,"thro":1349,"ful":1350,"oc":1351,"available ":1352,"load":1353,"\\fB\\-O":1354,"ound":1355,"target":1356,"\\fR\\f(C":1357,"et ":1358,"fp":1359,"\n.SH \"":1360,"CP":1361,"between ":1362,"main":1363,"\\ ":1364,"\\f[R]":1365,"tect":1366,"**":1367,"selec":1368,"befor":1369,"AB":1370,"integ":1371,"share":1372,"character":1373,"swit":1374,"ed by ":1375,"y the ":1376,"-mno-":1377,"SC":1378,"ugh":1379,"eter":1380,"Note ":1381,"ignor":1382,"was ":1383,"audi":1384,"s\\fR ":1385,"lay":1386,"form ":1387,"O ":1388,"floating-point ":1389,"nel":1390,"how ":1391,"acces":1392,"mer":1393,"P\n.B ":1394,".1":1395,"gc":1396,"s=":1397,"top":1398,"3 ":1399,"ST":1400,"provi":1401,"stat":1402,"80":1403,"max-":1404,"directory ":1405,"help":1406,"ast ":1407,". Defaul":1408,"text":1409,"Objectiv":1410,"mbol":1411,"larg":1412,"sti":1413,"std":1414,"hard":1415,"git ":1416,"\nis ":1417,"dir":1418,"video ":1419,"sym":1420,"program ":1421,".\n.IP \"\\fB":1422,".\n.PP\nThe ":1423,"enco":1424,"defined ":1425,"stic":1426,"100":1427,"parameter":1428,"ever":1429,"mar":1430,"symbol":1431,"ses ":1432,"i ":1433,"\n.    ":1434,"ll":1435,"default is ":1436,"Enable ":1437,"error":1438,"excep":1439,"dur":1440,"\n\\&\\fB\\-f":1441,"ample ":1442,"refer":1443,"\\fR\\|(1)":1444,"these ":1445,"rela":1446,"\n.It ":1447,"openssl\\-":1448,"\\f(CW\\*(C`at":1449,"24":1450,"variable ":1451,"initi":1452,"\"\nSet the ":1453,"viron":1454,"extension":1455,"sett":1456,"Com":1457,"ge ":1458,"\\-bit ":1459,"'t ":1460,"lob":1461,", but ":1462,"You":1463,"high":1464,"enabled by ":1465,"execu":1466,"\\fR]\n":1467,"graph":1468,"as a ":1469,"\\fR\n.RS 4\n":1470,"use the ":1471,"through":1472,"that the ":1473,"Specif":1474,"abo":1475,"less ":1476,"pix":1477,"ual":1478,"key ":1479,"vec":1480,"sta":1481,"consi":1482,"new":1483,"ifi":1484,"sin":1485,"only)":1486,"options":1487,"AME":1488,"tifi":1489,"warning":1490,"inlin":1491,"preci":1492,"environ":1493,"arra":1494,".\n.TP\n":1495,"Con":1496,"SY":1497,".\n.TP\n.B":1498,"4\n.IX Item \"-":1499,"and the ":1500,"ument ":1501,"You ":1502,"norm":1503,"cr":1504,"string ":1505,"For example":1506,"M ":1507,"frame ":1508,"Co":1509,".org/":1510,"tra":1511,"e=":1512,"ual ":1513,"SO":1514,"configur":1515,"DENT":1516,"iz":1517,"\\\\n":1518,"system ":1519,"...":1520,"ME":1521,"pass":1522,"licit":1523,"\\n":1524,"\\-\\-\\-\\-":1525,"mode ":1526,"depend":1527,"ing a ":1528,"dic":1529,"ed to ":1530,"\n.IP \\fB\\-mno\\-":1531,"| ":1532,"oo":1533,"This option is ":1534,"tec":1535,"they ":1536,"SI":1537,"' ":1538,"SSE":1539,"Ar ":1540,"tive":1541,"of\n":1542,"video":1543,"object ":1544,"[\\fB\\-":1545,". The ":1546,"len":1547,"See ":1548,"double":1549,"OPTION":1550,"Comm":1551,"with a ":1552,"gu":1553,"return":1554,"do not ":1555,"comple":1556,"     ":1557,"display":1558,"possi":1559,"ist":1560,"now":1561,"\"\n.PP\n":1562,"\n\\&\\-f":1563,"re ":1564,"frame":1565,".\n.Sp\nThe ":1566,"non-":1567,"gre":1568,"register ":1569,"ml":1570,"resp":1571,"generated ":1572,"print":1573,"sk":1574,"ux":1575,"cli":1576,"struct":1577,"memory ":1578,"low ":1579,"new ":1580,"avi":1581,"War":1582,"ous ":1583,"wind":1584,"compi":1585,"://":1586,"profile":1587,"instead ":1588,"sequ":1589,"ound ":1590,"hol":1591,"fac":1592,"gnu":1593,"s://":1594,", or ":1595,"NAME":1596,"user ":1597,"must be ":1598,"\n\\&\\-W":1599,"PC":1600,"mpeg":1601,"86":1602,"supported ":1603,"ic ":1604,"at the ":1605,"ell ":1606,"ditional ":1607,"respon":1608,"semb":1609,"\n.IP \"\\fB":1610,"ww":1611,"ID":1612,"deta":1613,"\"\nP":1614,"https://":1615,"text ":1616,"ft ":1617,"that":1618,"ump":1619,"\n.B \\-":1620,"8 ":1621,"es\n":1622,".g":1623,"IT":1624,"single ":1625,"sim":1626,"map":1627,"UR":1628,"es are ":1629,"These ":1630,"mak":1631,"instruction ":1632,"disable ":1633,"dec":1634,"512":1635,"level ":1636,"limit":1637,"for a ":1638,"modi":1639,"ed\n":1640,"\\fR\\|(1),\n\\&\\fB":1641,"\\\" ":1642,"-0":1643,"long":1644,"       ":1645,"\\fP, ":1646,"\\fR\\f(CB":1647,"d-":1648,"GNU ":1649,"4 ":1650,"s/":1651,"es, ":1652,"block":1653,"ame":1654,"ding":1655,"assemb":1656,"To ":1657,"Wi":1658,"as the ":1659,"ates ":1660,"or\n":1661,"mati":1662,"two ":1663,"ER":1664,"attribute":1665,"Di":1666,"t of ":1667,"maximum ":1668,"glob":1669,"repor":1670,"us ":1671,"connec":1672,"uti":1673,"ob":1674,"imple":1675,"your ":1676,"modu":1677,"like ":1678,"sav":1679,".\n.RE\n.RS 4":1680,"0x":1681,"\\-a":1682,"test":1683,"UT":1684,"ok":1685,"By ":1686,"s.\n.IP \\fB":1687,"-1":1688,"expression":1689,"compati":1690,"fer":1691,"\\- ":1692,"\n.IP \\(bu 4\n":1693,"into ":1694,"order":1695,"support ":1696,"scal":1697,"entr":1698,"pointer":1699,"where ":1700,"\\fB\\-Wno\\-":1701,":\n.Sp\n.Vb 1":1702,"arm":1703,".2":1704,"constan":1705,"duc":1706,"em":1707,"Fl ":1708,"call ":1709,"architect":1710,"est ":1711,"ity ":1712,"not be ":1713,"Lin":1714,"s.":1715,"\n.TP\n.B":1716,"ue":1717,"Ma":1718,"host":1719,"Un":1720,"\n.PP":1721,"MP":1722,"prin":1723,"ir ":1724,"* ":1725,"ps":1726,"section ":1727,"15":1728,"ht":1729,"tak":1730,"zero":1731,"\\fR option ":1732,"local":1733,"useful ":1734,"list of ":1735,"tag":1736,"using the ":1737,"argument ":1738,"Example":1739,"san":1740,"99":1741,"either ":1742,"lity ":1743,".5":1744,"  X":1745,"stream ":1746,"struc":1747,"dy":1748,"ved ":1749,"been ":1750,"eca":1751,"both ":1752,"overri":1753,"ator":1754,"linker ":1755,"s\\fR\n.IX Sub":1756,"es to ":1757,"NOP":1758,"info":1759,"RIP":1760,"\\%":1761,"color ":1762,"know":1763,"Note that ":1764,"le-":1765,"specific ":1766,"quival":1767,"rr":1768,"thres":1769,"for\n":1770,"Pro":1771,".\n.SH ":1772,"OPTIONS":1773,"ght":1774,"are\n":1775,"\\fR\\fB@tab\\fR\\fB":1776,"multiple ":1777,"ating ":1778,"EN":1779,", SSE":1780,"SCRIP":1781,"start":1782,"be\n":1783,"insn":1784,"beh":1785,"optimization":1786,"\\fR\" 4\n.el ":1787,"see ":1788,"alg":1789,"rea":1790,"is the ":1791,"\\fP\n":1792,"being ":1793,"ten ":1794,"right ":1795,"sing ":1796,"feat":1797,"\"\n.IP ":1798,"da":1799,"CO":1800,"EX":1801,"header":1802,"ways ":1803,"t value is ":1804,"*<":1805,"descrip":1806,"alloc":1807,"DESCRIP":1808,"\n\n":1809,"hand":1810,"before ":1811,"Command":1812,"prefix":1813,"DESCRIPTION":1814,"aq":1815,"per ":1816,"ell":1817,"ree ":1818,"ain":1819,"  \\-mno\\-":1820,"ort":1821,"Objective-":1822,"run ":1823,"ts to ":1824,"y, ":1825,"stack ":1826,"Au":1827,"colum":1828,"different ":1829,"\n.ie n .IP \"\\fB":1830,"generate ":1831,"chin":1832,"DI":1833,"pe":1834,"\n\\&\\fB\\-":1835,"base":1836,"ot":1837,"threshol":1838,"UN":1839,"ffmpeg":1840,"50":1841,"even ":1842,"AVX":1843,"should be ":1844,"\\e":1845,"behavi":1846,"nul":1847,"order ":1848,"000":1849,"include":1850,"ty ":1851,"\" 4\n.el ":1852,"\\fR.  ":1853,"\"\nEnable ":1854,"\"\nGenerate ":1855,"\n.Ve\n.Sp\n":1856,"accepts the ":1857,"endi":1858,":\n.RS 4":1859,"AN":1860,"environment ":1861,"pk":1862,"22":1863,"\n.RE\n.\\}":1864,"space ":1865,"SIS":1866,"Head":1867,"location":1868,"ld":1869,"\n.RS 4\n.\\}":1870,"http://":1871,"SYNOP":1872,"conten":1873,"mark":1874,"tu":1875,"s\"":1876,"stati":1877,"\"\n.PD 0\n.IP \\fB":1878,"control ":1879,"\\fR,\n\\&\\fB":1880,"\\\\$":1881,"SYNOPSIS":1882,"poin":1883,"auth":1884,"\"\n.PD 0\n.IP ":1885,"analyzer\\-":1886,"\n.RS 4\n.\\}\n.nf\n":1887,"in\n":1888,"tun":1889,"ort ":1890,"machin":1891,"net":1892,"seg":1893,"path ":1894,"vol":1895,"\n.Vb ":1896,"library ":1897,"Header":1898,"case ":1899,"nel ":1900,"html":1901,"cortex":1902,"13":1903,"red ":1904,"most ":1905,"@tab X":1906,"instructions ":1907,"\\fR, \\fB\\-\\-":1908,"saniti":1909,"ence":1910,"entri":1911,".\n.PP\n\\fI":1912,"uses ":1913,"target ":1914,"\n.    ds ":1915,"lat":1916,"Warn ":1917,"their ":1918,"beca":1919,"exist":1920,"equival":1921,"recor":1922,"\n\\&          ":1923,".\n\n":1924,"ular ":1925,".\nThis ":1926,"\n.TP\n\\fB\\-\\-":1927,"ase":1928,"plan":1929,"commit":1930,"set to ":1931,"-\n.\\\" ":1932,"sample":1933,"specify ":1934,"read ":1935,"ated":1936,".\n.Sp":1937,"switch":1938,"S\n":1939,"side ":1940,".ds ":1941,"cp":1942,"v8":1943,", \\-\\-":1944,"audio ":1945,"ds":1946,"sel":1947,"tific":1948,"PA":1949,"temp":1950,"just ":1951,"suf":1952,"ue ":1953,"Header \"":1954,"=\\fI":1955,"\n.IX Header \"":1956,"bar":1957,"\"\nS":1958,"buff":1959,"medi":1960,".\n.IP \"\\fB\\-":1961,"dynam":1962,"\n.IR ":1963,"model":1964,"On":1965,"orith":1966,"ff ":1967,"ity":1968,"tain ":1969,"\n\\&    ":1970,"based ":1971,".IP ":1972,"device ":1973,"::":1974,"names ":1975,"those ":1976,"functions ":1977,"error ":1978,"case":1979,"\\fR(1)":1980,"operation":1981,"index":1982,"Per":1983,"\\fR or ":1984,"mega":1985,"indic":1986,"44":1987,".  If ":1988,"ere":1989,"is a ":1990,"\\n(":1991,"Pr":1992,"ies ":1993,"determin":1994,"character ":1995,"FILE":1996,".\nIf ":1997,"cro":1998,"dele":1999,"automati":2000,"link ":2001,"AD":2002,"\\fR|":2003,"quo":2004,"issu":2005,"local ":2006,"otherwi":2007,"angu":2008," the ":2009,"and \\f(CW\\*(C`":2010,"exit":2011,".\n.SS ":2012,"assum":2013,"It is ":2014,"ck":2015,"bug ":2016,"leng":2017,"present":2018,"algorith":2019,"way ":2020,"lock ":2021,"sr":2022,"200":2023,"such as ":2024,"ir":2025,"ning ":2026,"point":2027,"when the ":2028,", AVX":2029,"information":2030,"processor":2031,"values":2032,"correspon":2033,"\n(":2034,"print ":2035,"s of the ":2036,"channel":2037,"gg":2038,"thread":2039,".  Th":2040,"33":2041,"assembl":2042,"one":2043,"cm":2044,"\\fB--":2045,"men":2046,"symbo":2047,"certific":2048,"est":2049,"s_":2050,"flag ":2051,"directory":2052,"execut":2053,"stamp":2054,"do ":2055,"inst":2056,"initializ":2057,"signed ":2058,"upd":2059,"to use ":2060,"track":2061,"v ":2062,", which ":2063,"\"\nA":2064,"range ":2065,"\\fR option":2066,"control":2067,"UL":2068,"field ":2069,"none":2070,"2\n":2071,"HT":2072,"work ":2073,"pattern":2074,"Comp":2075,"\n.sp\n.if n \\{\\":2076,"separated ":2077,"fast":2078,"Po":2079,"pd":2080,"metho":2081,"event":2082,"LI":2083,"dump\\-":2084,"affec":2085,"messag":2086,"divi":2087,"G ":2088,"\" 4\n.el .IP ":2089,"$ ":2090,"\\fR to ":2091,"en\n":2092,"own":2093,"strict":2094,"replac":2095,"I]":2096,"example ":2097,"  \\-f":2098,"simp":2099,",\n.BR ":2100,"detail":2101,"mod":2102,"\\f[I]":2103,"following option":2104,"SEE ":2105,"\n.br":2106,"\\&.\n.RE\n.PP\n\\-\\-":2107,".\n.TP ":2108,"enabled":2109,"\n..\n.":2110,"files":2111,"SEE AL":2112,"ation of ":2113,"diagnostic":2114,"ces ":2115,"SS \"":2116,"+0":2117,"\\f[V]-":2118,"them ":2119,"make ":2120,"SEE ALSO":2121,"ging ":2122,"librari":2123,"sanitiz":2124,"synta":2125,"word ":2126,"the default ":2127,"verbo":2128,"cach":2129,"explicit":2130,", it ":2131,"liter":2132,"ffff":2133,"width":2134,"\n.fi\n.if n \\{\\":2135,"second ":2136,"equivalent ":2137,"\\&. The ":2138,"64 ":2139,"le\\-":2140,"who":2141,"document":2142,"ush":2143,"MO":2144,"dd":2145,"enable ":2146,"aren":2147,"return ":2148,"s.\n.IP \\fB\\-m":2149,"enables ":2150,"ware ":2151,"eter ":2152,"since ":2153,"decl":2154,"edi":2155,"ant ":2156,"fix ":2157,"display ":2158,"uni":2159,"configuration ":2160,"server":2161,"ally":2162,"ES":2163,"vie":2164,"mem":2165,";\n":2166,"Man":2167,"jump":2168,"\\fR.\n.IP \\fB":2169,"           ":2170,"proto":2171,"processor ":2172,"St":2173,"device":2174,"vector":2175,"\" 4\n.IX Item \"":2176,"ets ":2177,"s)":2178,"modifi":2179,"\\*(C'\\fR\n":2180,"pub":2181,"expression ":2182,"\\\\n[":2183,"For":2184,"ear":2185,"\\fR]\n[\\fB\\-":2186,"GP":2187,"\\-c":2188,".  This is ":2189,"q ":2190,"er\n":2191,"proper":2192,"\n.SS ":2193,"olu":2194,"128":2195,"emp":2196,"branch ":2197,"19":2198,"With ":2199,"match ":2200,"ot ":2201,"HE":2202,"origin":2203,"location ":2204,". Default is ":2205,"conf":2206,"from":2207,"timestamp":2208,"\n.el \\{\\":2209,",\n\\&\\f(CW\\*(C`":2210,"tool":2211,"Specifi":2212,"For example, ":2213,"table":2214,"\"\nWarn ":2215,"nr ":2216,"\\f(CW\\*(C`_\\|_":2217,"e.g":2218,"\n.\\}\n.el \\{\\":2219,"s with ":2220,"cle":2221,"ed\\-":2222,"git-":2223,"always ":2224,"\\fIfile":2225,"off ":2226,"filename":2227,"ded":2228,"possible ":2229,"er than ":2230,"combin":2231,"t, ":2232,"consider":2233,":  ":2234,"etc":2235,"array":2236,"6 ":2237,"14":2238,"any":2239,"search":2240,"rr_":2241,"parameter ":2242,"duce ":2243,"precision ":2244,"\", ":2245,"Mo":2246,"CPU ":2247,"provided ":2248,"ont":2249,"EE":2250,"would ":2251,"arch ":2252,"whe":2253,",\n\\fB":2254,"\n.TP ":2255,"\\{\\\n":2256,"special ":2257,"\n.RE\n.PP\n":2258,"'\\c":2259,"mu":2260,"rate":2261,"shared ":2262,"upp":2263,"anc":2264,"correc":2265,"schedul":2266,"1.":2267,"lis":2268,"rite":2269,"You can ":2270,"\n.RS 4\n.ie n ":2271,"tor ":2272,"lim":2273,"s.  The ":2274,"\n.Ve\n.IP \\(bu 4\n":2275,"-04":2276,"ef":2277,"might ":2278,"lab":2279,"pass ":2280,"gr":2281,"met":2282,"used for ":2283,".\n.TP\n.B ":2284,"=<":2285,"Y ":2286,"integer ":2287,"fal":2288,"pow":2289,"PI":2290,"pag":2291,"RO":2292,"und":2293,"base ":2294,"\t\t":2295," -1":2296,"\n.IP \\(bu ":2297,"23":2298,"EL":2299,"ator ":2300,"\\{\\\n\\h'":2301,"5 ":2302,"\\h'+0":2303,"Open":2304,"tware ":2305,"CH":2306,"identi":2307,"\\{\\\n\\h'-04":2308,"Enable":2309,"C++ only)":2310,"tree\\-":2311,"long ":2312,"CON":2313,"adat":2314,"as\n":2315,"'\\c\n.\\}\n.el \\{\\":2316,"            ":2317,"by default":2318,"raw ":2319,"above ":2320,"defini":2321,"index ":2322,"that\n":2323,"div":2324,"mov":2325,"value of ":2326,"pointer ":2327,"descri":2328,"column":2329,"invo":2330,"small":2331,"instan":2332,"util":2333,"opt":2334,"void ":2335,"zip":2336,"equ":2337,"NO":2338,"p\n":2339,"s in the ":2340,".c":2341,"Ar":2342,"\n.sp -1":2343,"entries ":2344,".\n.It ":2345,"\\}":2346,"bit ":2347,"al\n":2348,"ded in ":2349,"s.\n.":2350,".IP \"\"\"":2351,"FF":2352,"memb":2353,"this option":2354,"s,\n":2355,"many ":2356,"overf":2357,"AT":2358,"last ":2359,"30":2360,"thing ":2361,"40":2362,"option is ":2363,"ed, ":2364,"lines ":2365,"\n.TH":2366,"\\fR \\fB":2367,"On ":2368,"word":2369,".com":2370,"left ":2371,".\n.IP \\fB\\-W":2372,"[ ":2373,"hw":2374,"****":2375,"library":2376,"message ":2377,"AC":2378,"b ":2379,"avo":2380,"cust":2381,"write":2382,"shell ":2383,"sed":2384,"INDENT":2385,"init":2386,"get":2387,"bound":2388,"\nto ":2389,"get ":2390,"nex":2391,"incre":2392,"optimization ":2393,"c\\-":2394,"compon":2395,"result ":2396,":\n.RS 4\n.IP \\fB":2397,"XS":2398,"valid ":2399,"RI":2400,"lic ":2401,"\"\nSpecif":2402,"GCC":2403,"header ":2404,"- ":2405,"ru":2406,"reco":2407,"cho":2408,"deprec":2409,"ed with ":2410,"use of ":2411,"tical ":2412,"ABI":2413,"p\\-":2414,"Aq ":2415,"second":2416,"l-":2417,"process ":2418,"0.":2419,"s:\n.IP \\fB":2420,"on't ":2421,"group":2422,"litt":2423,":      ":2424,"Ch":2425,"previ":2426,"xz":2427,"\"\"\" 4\n.el .IP ":2428,"with\n":2429,"space":2430,"pixel":2431,"this\n":2432,"detec":2433,"\n.TP\n\\fB\\-":2434,"owever":2435,"passed ":2436,"table ":2437,"window":2438,"UNINDENT":2439,". If ":2440,"instead of ":2441,"act":2442,"17":2443,"ers ":2444,"NAME\n":2445,"additional ":2446,"\"\n.\\\" ":2447,"\\(c":2448,"create ":2449,"whether ":2450,"[\\fI":2451,"servi":2452,"via ":2453,"kee":2454,"Li":2455,"\\fR.\n.Sp\n":2456,"Vi":2457,"dest":2458,"recur":2459,"langu":2460,"s\"\n.PP\n":2461,"block ":2462,":    ":2463,"sty":2464,". This ":2465,"written ":2466,"mon":2467,"start ":2468,"them":2469,"copy":2470,"attemp":2471,"wra":2472,"declar":2473,"\\fR (":2474,"loop ":2475,".ds Aq ":2476,"MM":2477,"@tab X\"":2478,"\nand ":2479,"not\n":2480,"0000":2481,"rs":2482,"stop":2483,"called ":2484,"implement":2485,"\"\n.sp\n":2486,"remov":2487,"zero ":2488,"Fi":2489,"\\f[R]\n":2490,"setting":2491,"\\(aq":2492,"module":2493,"an\n":2494,"configure":2495,"s.\n.Sp\n":2496,"stack\\-":2497,"builtin":2498,"Ver":2499,"for each ":2500,"NDENT":2501,"page ":2502,"\n.INDENT":2503,"prox":2504,"PE":2505,"R \\-":2506,"sig":2507,"too":2508,"raw":2509,"dev":2510,"range is ":2511,"stribu":2512,"2.3":2513,"s) ":2514,"ly\n":2515,"AU":2516,"BU":2517,"sl":2518,"width ":2519,"avr":2520,"nee":2521,"ch\n":2522,"support":2523,"frequ":2524,"\\fR]":2525,"offset":2526,"metadat":2527,"load ":2528,"conver":2529,"code that ":2530,"om ":2531,"respec":2532,"templ":2533,"given":2534,"copy ":2535,"f-":2536,"ative ":2537,"except ":2538,")\\fR\" ":2539,"ling ":2540,"simil":2541,"\\fR)":2542,"distribu":2543,"change ":2544,"60":2545,"compu":2546,"lity":2547,"\\fR.\n":2548,"ree":2549,"unit":2550,"\n.RE\n.RS 4":2551,"red":2552,"cortex\\-a":2553,"you can ":2554,"90":2555,"Sy":2556,"\\fR  ":2557,"store ":2558,"main ":2559,"help ":2560,"\n.\\}\n":2561,"ower":2562,"ed by the ":2563,"source":2564,"s from ":2565,"perform":2566,"Allow":2567,"positor":2568,"commit ":2569,"expan":2570,"MI":2571,"cent":2572,"x86":2573,"\\{\\\n\\h'-04'":2574,"GS":2575,"under":2576,"class ":2577,"hardware ":2578,"PO":2579,"rati":2580,"32 ":2581,"www":2582,"known ":2583,"cy":2584,"CL":2585,"sanitize=":2586,"# ":2587,"s that are ":2588,"effect ":2589,"what ":2590,"plu":2591,"By default":2592,"\\,":2593,"\n.TP\n.B ":2594,"-Wno-":2595,"ed in ":2596,"t_":2597,"Git ":2598,"repositor":2599,"led":2600,"while ":2601,"server ":2602,"compiled ":2603,"\n\\&\\fB\\-W":2604,"assembler ":2605,"recei":2606,"ually ":2607,"a\\-":2608,"debug ":2609," \\-i ":2610,"include ":2611,"0, ":2612,"escap":2613,"pixel ":2614,".\n.RE\n.RS 4\n.RE":2615,"search ":2616,"es a ":2617,"amoun":2618,"(1) ":2619,"es in ":2620,"\\n(.":2621,"ough":2622,"s, and ":2623,"inten":2624,"\n.RS":2625,"\n.SH NAME\n":2626,"c++":2627,"the same ":2628,"extern":2629,"indent":2630,"global ":2631,"\\/":2632,"(C++":2633,"fici":2634,"tit":2635,"memory":2636,"statem":2637,"/ ":2638,"under ":2639,"allows ":2640,"stic ":2641,"because ":2642,"frequenc":2643,"architecture":2644,"E_":2645,"\n.Ve\n.PP\n":2646,"cryp":2647,"se, ":2648,"remote ":2649,"specified, ":2650,"byte ":2651,"compression ":2652,"macro":2653,":\n.PP":2654,"I \\-":2655,"split":2656,"impli":2657,"some":2658,"Print ":2659,"\"\nThis ":2660,"00 ":2661,"abs":2662,"mapp":2663,"protec":2664,"2, ":2665,"range":2666,"precision":2667,"An":2668,"\\fP\n.RS 4\n":2669,"command line ":2670,"\"\nUse ":2671,".4":2672,"name of the ":2673,"necess":2674,"below":2675,"entry ":2676,"corresponding ":2677,"\n.SH SYNOPSIS":2678,"Lic":2679,"\n.Ic ":2680,"used in ":2681,"Us":2682,"dri":2683,"ele":2684,"ty":2685,"s or ":2686,"Licen":2687,",\nthe ":2688,"Objective-C ":2689,"describ":2690,"1, ":2691,"ker ":2692,"is enabled by ":2693,"spe":2694,"instr":2695,"partic":2696,"MD":2697,"var":2698,"g-":2699,"ms":2700,"\nThe ":2701,"cs":2702,"CT":2703,"Doc":2704,"frames ":2705,");\n\\&        ":2706,"compressed ":2707,"kernel":2708,"top ":2709,"VI":2710,"The":2711,"Displa":2712,"produc":2713,"on a ":2714,"shif":2715,"field":2716,"fo ":2717,"exclu":2718,"gp":2719,"  \\-W":2720,"of the\n":2721,"switch ":2722,"overflow":2723,"tl":2724,"expec":2725,").\n":2726,"R_":2727,"ying ":2728,"intern":2729,".\n.SH \"":2730,", AVX512":2731,"all the ":2732,"ule ":2733,"names":2734,"conversion":2735,"wher":2736,"\n.\\\"\n.\\\" ":2737,"\\f(CW\\*(C`atmega":2738,"warn ":2739,"endian":2740,":   ":2741,"\\fR.\n.IP \\fB\\-m":2742,"iB":2743,"named ":2744,"www.":2745,"isable ":2746,"behavior ":2747,".\n.\n.":2748,"\n.\\\"    ":2749,"pdf":2750,"core":2751,"den":2752,"ends ":2753,"check ":2754,"image ":2755,"          ":2756,"instead":2757,"quote":2758,"by\n":2759,"currently ":2760,"se\n":2761,"linker":2762,"back ":2763,"Show ":2764,"hash":2765,"64\\-bit ":2766,"setting ":2767,"symbol ":2768,"Manual":2769,"ux ":2770,"that is ":2771,"c_":2772,"chro":2773,"not":2774,"relax":2775,"over ":2776,"-max-":2777,"options are ":2778,"object":2779,"ISO ":2780,"paren":2781,"very ":2782,"\\-1":2783,"\\&.\n.RE\n.PP\n\\fB":2784,"\\(bu\\h'+0":2785,"script ":2786,"\n\\&            ":2787,"'\\\"":2788,"\\(bu\\h'+03":2789,"array ":2790,"sets ":2791,".\n.ie n ":2792,"through ":2793,"wan":2794,"\n.IP\n":2795,"provide":2796,"parti":2797,"after":2798,":\n":2799,"gcc":2800,"Allowed ":2801,"SP":2802,"rF":2803,"file is ":2804,"compare":2805,"\n.    ds C":2806,", this ":2807,"show ":2808,"encoding":2809,"dpk":2810,"like":2811,"prob":2812,"(C++ and ":2813,"deco":2814,"supports ":2815,"port ":2816,"effect":2817,"AUTH":2818,"found ":2819,"represent":2820,"Default is ":2821,"standard":2822,"full ":2823,"r/":2824,"es that ":2825,"This filter ":2826,"\\-\\-\\-\\-\\-\\-\\-\\-":2827,"e_":2828,"fet":2829,"\n.IP \\(bu 2.3":2830,".e":2831,"unless ":2832,"profile\\-":2833,"first":2834,"small ":2835,"\"\nDo not ":2836,"  X\\fR\" ":2837,"threshold":2838,"as w":2839,"port":2840,"iter":2841,"alle":2842,"still ":2843,"ft":2844,"e\n\\fB":2845,"has been ":2846,"disabled ":2847,"cmp":2848,"\\*(C'\\fR is ":2849,"-type":2850,"forman":2851,"lay ":2852,"Uni":2853,"window ":2854,"if you ":2855,"CPU":2856,"nes":2857,".\n.Sp\nThis ":2858,"boo":2859,"frames":2860,"defined":2861,"algorithm":2862,"groff":2863,"\\(cq":2864,"If":2865,"tree ":2866,"objects ":2867,"saf":2868,"by default ":2869,"Cop":2870,"\\&. This ":2871,"ted by ":2872,"=\\fR\\fIn":2873,"address ":2874,"\\&.\\&.":2875,"relative ":2876,"son":2877,"supported":2878,"add ":2879,"\\-float":2880,"RS":2881,"ip ":2882,"ste":2883,"copi":2884,"can be used to ":2885,"merg":2886,"\":":2887,"Do not ":2888,"Sof":2889,"scre":2890,".html":2891,"__":2892,"\n.Ar ":2893,"V ":2894,"hei":2895,"sor":2896,"ely":2897,"lish":2898,"proc":2899,"verif":2900,"\\fB\\-fno\\-":2901,"manual ":2902,"pic":2903,"\"\nThis option ":2904,"automatically ":2905,"down":2906,"static":2907,"PCM ":2908,"\nT":2909,"/us":2910,"=1":2911,"log ":2912,"\nfor ":2913,"soft":2914,"quer":2915,"length ":2916,"debugging ":2917,"otherwise ":2918,"extr":2919,"DO":2920,"\"\n.IP \\fB\\-":2921,"FL":2922,"ite":2923,"\n.SH DESCRIPTION":2924,"tern ":2925,"interfac":2926,"integer":2927,"the default":2928,"\\&. If ":2929,"App":2930,".\n.\\":2931,"this option is ":2932,"\"\nGenerate code ":2933,"680":2934,", F":2935,"command-":2936,"compatible ":2937,"hal":2938,"results ":2939,"=0":2940,"ted to ":2941,"s to be ":2942,"\\fR and \\fB":2943,".\n.IP \\fB\\-\\-":2944,"there ":2945,"GNU":2946,"Only ":2947,"visi":2948,"look":2949,"own ":2950,"mux":2951,"n't ":2952,"imal ":2953,"count":2954,"WAR":2955,"into the ":2956,"there is ":2957,"AUTHOR":2958,"FP":2959,"TL":2960,"late":2961,"sample ":2962,"prev":2963,"ulti":2964,"requires ":2965,"gnu.org/":2966,"io":2967,"tions ":2968,"\\fR\nis ":2969,"static ":2970,"binary ":2971,"cc":2972,"reloc":2973,"  X\\fR\" 4\n.el ":2974,"description ":2975,"es of ":2976,"go":2977,"turn":2978,"secur":2979,"let":2980,"channel ":2981,"cul":2982,"\"\nIn":2983,"need to ":2984,"rup":2985,"/usr/":2986,"However":2987,",\nand ":2988,"256":2989,"feature":2990,"allow ":2991,"destin":2992,"cpu=":2993,", \\fB":2994,"-\n.\\\" * ":2995,"label":2996,"power":2997,"\\fR) ":2998,"math":2999,"valid":3000,"audio":3001,"AMP":3002,"patch":3003,"compatibi":3004,"every ":3005,"generate":3006,"syntax ":3007,"70":3008,"\" 4":3009,"pur":3010,"begin":3011,":\n.Sp\n.Vb ":3012,"ically ":3013,"\\-d":3014,"rather ":3015,"ABI ":3016,"c\n":3017,"were ":3018,"rele":3019," 0.0":3020,"52":3021,"map ":3022,"white":3023,"segment":3024,"rate ":3025,"\n.PD":3026,"basi":3027,"referenc":3028,"offset ":3029,"rst":3030,"\\-bit":3031,"altern":3032,"file, ":3033,"dump-":3034,"oriz":3035,"buffer":3036,"exac":3037,"@tab ":3038,"then the ":3039,"hex":3040,"ation, ":3041,"\\n(.g ":3042,"\n.S":3043,"when":3044,".\n.RE\n.RS 4\n.Sp\n":3045,"view":3046,"G_":3047,"cost":3048,"\n.el":3049,"\": ":3050,"sele":3051,"yph":3052,"the\n.B ":3053,"squ":3054,"ust":3055,".3":3056,"conv":3057,"see":3058,"omi":3059,"sched\\-":3060,"application":3061,"rule":3062,"All ":3063,"s on ":3064,"puts ":3065,"client":3066,"\\fIn":3067,"false":3068,"76":3069,"i.e":3070,"trap":3071,"created ":3072,"in which ":3073,"evalu":3074,"from a ":3075,"IN ":3076,"\\fR=\\fI":3077,"more than ":3078,"struct ":3079,"available":3080,"48":3081,"part ":3082,"explicitly ":3083,", for ":3084,"usage ":3085,"+ ":3086,"roun":3087,"previous ":3088,"limit ":3089,"OR ":3090,"and exit":3091,"file\n":3092,"@tab\\fR\\fB X":3093,"virt":3094,"exit ":3095,"bf":3096,"ed in the ":3097,"s, the ":3098," X\\fR\" 4\n.el ":3099,"{\n":3100,"note":3101,"manual":3102,"\\fR\\fB)\\fR\" ":3103,"ted\n":3104,"Power":3105,"ical ":3106,"ed for ":3107,"Note":3108,"certificate ":3109,"-fdump-":3110,"Tr":3111,"s\\fR\n":3112,"script":3113,"suffix":3114,"instrument":3115,"alph":3116,"s.\nThe ":3117,"XX":3118,"to\\-":3119,"contents ":3120,"we ":3121,"Out":3122,"es and ":3123,"original ":3124,"55":3125,"d the ":3126,"ing\\-":3127,"SHA":3128,"\"\n.IP \\fB\\-m":3129,"'\\\" ":3130,"(\\fR\\fI":3131,"sive ":3132,"suppres":3133,"required ":3134,"ro ":3135,"added ":3136,"PATH":3137,"similar ":3138,"uri":3139,", a ":3140,"resol":3141,"\\fB\\-march":3142,"\\{\\\n.":3143,"18":3144,"1\" \"":3145,"addition":3146,"tware":3147,"in\\-":3148,"GE":3149,"depth":3150,"priv":3151,"session":3152,"where the ":3153,"34":3154,"cover":3155,"dition ":3156,"uses the ":3157,"implicit":3158,"diagnostic ":3159,"umb":3160,"atomi":3161,"compilation ":3162,"appro":3163,"write ":3164,"T_":3165," \\- ":3166,"types":3167,"and/":3168,"ach ":3169,"ing is ":3170,"s.  This ":3171,"null":3172,"lines":3173,"\\fR, which ":3174,"recogn":3175,"db":3176,"ies":3177,"test ":3178,"later ":3179,"usually ":3180,"ak":3181,"a \"":3182,"anced ":3183,"ssh":3184,"tiny":3185,"[\\fB":3186,"constant ":3187,"ed-":3188,"non\\-":3189,"][":3190,"sen":3191,"appe":3192,"Objective\\-":3193,"\n.INDENT 0.0":3194,"EC":3195,"\\fIgit ":3196,"during ":3197,"e.g. ":3198,"fr":3199,"old":3200,"verbose":3201,"alread":3202,"fail":3203,"large ":3204,"he":3205,"one of the ":3206,"working ":3207,".  In ":3208,"are not ":3209,"shor":3210,"remote":3211,"ing, ":3212,"side":3213,"identifi":3214,"starting ":3215,"push":3216,"rtl\\-":3217,"archive":3218,"ate the ":3219,"-in":3220,"2/":3221,"ee":3222,"does":3223,"merge ":3224,"in_":3225,"\\fR for ":3226,"ture ":3227,"nega":3228,"7 ":3229,"al\\-":3230,"alias":3231,"has no ":3232,"\n.TP\n.B  ":3233,"\n.br\n":3234,"performan":3235,"Copy":3236,"linux":3237,"inser":3238,"foo.":3239,"Lo":3240,"turn ":3241,"macro ":3242,"whose ":3243,"absolu":3244,"or the ":3245,"profile ":3246,"Op ":3247,"ma ":3248,"ong":3249,"\\fB\\-mno\\-":3250,"align\\-":3251,"decla":3252,"....":3253,"item":3254,"suc":3255,"]]":3256,"this":3257,"const":3258,"acro":3259,"le\n":3260,"limi":3261,"\\[bu":3262,"printed ":3263,"takes ":3264,"the\n\\fB":3265,"\n.nh":3266,"\n.SS \"":3267,"chain":3268,"Selec":3269,"CE":3270,"ni":3271,"row":3272,"force":3273,"omit":3274,"2025":3275,"bt":3276,"configured ":3277,"\n.ft ":3278,"active ":3279,"considered ":3280,"if a ":3281,"mix":3282,"\\\\$1":3283,"man-":3284,"Supp":3285,"v4":3286,"box":3287,"imag":3288,"set the ":3289,"after the ":3290,"interpre":3291,"want to ":3292,", and the ":3293,"avoid ":3294,"\\fR are ":3295,"del":3296,"values are ":3297,"URL":3298,"command line":3299,"MAN":3300,"armv8":3301,"decompres":3302,":\n.PP\n.Vb 1":3303,"extra ":3304,"send":3305,"\n.D":3306,"info ":3307,"modif":3308,"delete":3309,"means ":3310,"volum":3311,"state":3312,"again":3313,"occur":3314,"range is from ":3315,", so ":3316,"RT":3317,"directories ":3318,"moun":3319,"of\nthe ":3320,"ever ":3321,":  X ":3322,"lac":3323,"vx":3324,"an-":3325,"common ":3326,"\\fI\\-\\-":3327,"override":3328,"RS 4":3329,"rand":3330,"regular ":3331,"or more ":3332,"extension ":3333,"definition":3334,"recogniz":3335,"Copyright ":3336,"ain ":3337,"\"\n\\&":3338,"AP":3339,"pip":3340,"including ":3341,"present ":3342,"\\fR, and ":3343,"\\fR, \\fB\\-O":3344,"PK":3345,"\\fR,\n":3346,"FT":3347,"filenam":3348,"\\fI\\%":3349,"unused":3350,"host ":3351,"request":3352,"image":3353,"dq":3354,"\\fR\n\\&\\fB\\-m":3355,"operation ":3356,"coul":3357,"contain ":3358,"32\\-bit ":3359,"empty ":3360,"by a ":3361,"application ":3362,"selected ":3363,"HTT":3364,"emb":3365,"old ":3366,"signat":3367,"also be ":3368,"K ":3369,"_size":3370,"\"\nIf ":3371,"cannot be ":3372,"Linux ":3373,"()":3374,"thing":3375,"sever":3376,".\nThis is ":3377,"status ":3378,"\\fR, \\fB\\-":3379,"hea":3380,"histor":3381,"matching ":3382,"s\\&. ":3383,"y\\-":3384,"component":3385,"LO":3386,"liti":3387,"true":3388,"build ":3389,"fpu":3390,"f\\-":3391,"rel":3392,"68":3393,"dump\\-rtl\\-":3394,"signal ":3395,"pattern ":3396,"command-line ":3397,"or a ":3398,"nro":3399,"ing of ":3400,"acc":3401,"when a ":3402,"next ":3403,"resour":3404,"signal":3405,"s (.":3406,"\\fP, \\fB":3407," to ":3408,".)":3409,"t=":3410,"than":3411,"ance":3412,"term":3413,"optional ":3414,"GIT":3415,"indirec":3416,"tively":3417,"instruction set ":3418,"ey":3419,"ext":3420,"promp":3421,"\"\n.PD\nGenerate ":3422,"tempor":3423,"access ":3424,"DN":3425,"fon":3426,"'\\\"\n":3427,"filename ":3428,"equivalent to ":3429,"IX":3430,"gin ":3431,"LE ":3432,"packag":3433,"VB":3434,"ly, ":3435,"Set the ":3436,"times ":3437,"already ":3438,"leg":3439,"trun":3440,"buffer ":3441,"ID ":3442,"guard":3443,"invok":3444,".  This option ":3445,"shell":3446,"prim":3447,"\\fR|\\fB":3448,"rather than ":3449,"38":3450,"ask":3451,"group ":3452,"Enabled ":3453,"makes ":3454,"declaration":3455,"MiB":3456,"ning":3457,"Each ":3458,"done ":3459,"AVR_":3460,"normally ":3461,"sdata":3462,"effici":3463,"lu":3464,"p_":3465,"{ ":3466,"\\fR.\n.IP \\fB\\-f":3467,": X ":3468,"variables ":3469,"pc":3470,"calcul":3471,"h ":3472,"expr":3473,"running ":3474,"\n.Vb 1\n\\&    ":3475,"arguments ":3476,"dynamic":3477,"\\[bu] ":3478,"date":3479,"emit":3480,"disabled":3481,"\\m":3482,"s about ":3483,"ing to ":3484,"2man-":3485,">\n":3486,"default)":3487,"super":3488,"mips":3489,"kernel ":3490,"DS":3491,"eli":3492,"sa":3493,"revi":3494,"\\&.\n":3495,"ad l":3496,"meaning":3497,"existing ":3498,"asso":3499,"percent":3500,"root ":3501,"undefined ":3502,"projec":3503,"tx":3504,"another ":3505,"construc":3506,"module ":3507,"g\\-":3508,"v3":3509,"\\fR(":3510,"tection ":3511,"ING ":3512,"Ic ":3513,"play":3514,"assign":3515,".\n.IP \\fB\\-Wno\\-":3516,"E, ":3517,"PRE":3518,"right":3519,"\n.Ve\n.SS ":3520,"architecture ":3521,"\n.Fl ":3522,"lead":3523,"delay":3524,"rst2man-":3525,"conven":3526,"rst2man-indent":3527,"erv":3528,"al-":3529,"is used":3530,"itsel":3531,"comment":3532,"certain ":3533,"Free ":3534,"cri":3535,"ng":3536,"dump ":3537,"implemen":3538,"toge":3539,"arith":3540,"ignored":3541,"9 ":3542,", if ":3543,"\"\nC":3544,"SSL":3545,"config ":3546,"sequence ":3547,"Bu":3548,"extrac":3549,"devices ":3550,"black":3551,"mail":3552,"perf ":3553,"ryp":3554,"0 to ":3555,"update":3556,"enter":3557,".\n.sp\n":3558,"perl":3559,"calls ":3560,"\\[bu] 2\n":3561,"An ":3562,"Software ":3563,"pan":3564,"enum":3565,"trail":3566,"single-":3567,"could ":3568,"cat":3569,"radi":3570,"only the ":3571,"section \"Example":3572,"need ":3573,"ratio":3574,"disc":3575,"\"\nWhen ":3576,"supports the ":3577,"particular ":3578,"Max":3579,"\\fR,":3580,"vectoriz":3581,".\n.\\\"\n.\\\" ":3582,"\\&.\n.SH":3583,"instal":3584,"sure ":3585,"attribute ":3586,"reach":3587,"purpo":3588,"\\fR and":3589,"Contro":3590,"entry":3591,":\n.sp\n.if n \\{\\":3592,"=\"":3593,"permis":3594,"generates ":3595,"executed ":3596,"{\n\\&          ":3597,"ended ":3598,"\\*[":3599,"above":3600,"proble":3601,"\\\\n[rr_":3602,"(or ":3603,"C_":3604,"_name":3605,"fipa":3606,"unit ":3607,"set of ":3608,"Wind":3609,"stem":3610,"loa":3611,"defaults to ":3612,"separate ":3613,"ffmpeg \\-i ":3614,"length":3615,"COP":3616,"va":3617,", in ":3618,"to re":3619,"using":3620,"dup":3621,"35":3622,"il ":3623,"for \\fI":3624,"US":3625,"\n\\& ":3626,"file.":3627,"so\n":3628,"builtin_":3629,"\\&.\n.SH \"":3630,"preprocessor ":3631,"runtime ":3632,"commands ":3633,"double ":3634,"fer ":3635,"suit":3636,": \\fB":3637," \\-m":3638,"src":3639,"literal ":3640,"ateg":3641,"targets ":3642,"normal ":3643,"dependenc":3644,"succes":3645,"\\-r":3646,"         ":3647,"paths ":3648,"PT":3649,"\\f(CW0":3650,"as an ":3651,"executable ":3652,"to-":3653,"-size":3654,"PC ":3655,"* 4\n":3656,"dynamic ":3657,"listed ":3658,"ures":3659,"take ":3660,"Audi":3661,"COPY":3662,")\n\\&        ":3663,"condition":3664,"terminal ":3665,"Ne":3666,"it\n":3667,"below ":3668,"compiler":3669,"\\c":3670,"dro":3671,"jus":3672,"sli":3673,"and/or ":3674,"on\n":3675,"DIR":3676,"associ":3677,"PUT":3678,"action":3679,"metadata ":3680,".  S":3681,"\\f(CW\\*(C`attiny":3682,"CS":3683,"daem":3684,".\n.ie n .IP \"\"\"":3685,"+no":3686,"ist ":3687,"\\fB\\-\\-no\\-":3688,"protector":3689,"my":3690,"\\fB\\-Wall":3691,"tree":3692,"\\[aq":3693,"means that ":3694,"CW":3695,"vanced ":3696,"\\*(C'\\fR or ":3697,"If you ":3698,"position":3699,"execution ":3700,"appropri":3701,"CA":3702,"roll":3703,"mavx":3704,"store":3705,"title":3706,"\\-\\-\\-":3707,"bian":3708,">\n.RS 4\n":3709,"prefix ":3710,"status":3711,"complete ":3712,"ong ":3713,"User ":3714,"gram":3715,"impro":3716,".IP \"*<":3717,"double-":3718,"statement":3719,"tic ":3720,". It ":3721,"if it ":3722,".\n.PP":3723,"obj":3724,"made ":3725,"for all ":3726,"Perl ":3727,"B]":3728,"scop":3729,"se\\-":3730,"environment":3731,"XSAV":3732,",\n\\&        ":3733,"16 ":3734,"x\\-":3735,"\\fR and \\fI":3736,"t-in ":3737,"great":3738,"template":3739,"1.0":3740,"shad":3741,"provide ":3742,"dial":3743,"fetch":3744,"compar":3745,".\n.TP\n.B \\-":3746,"compile ":3747,"ance ":3748,"interrup":3749,"TER":3750,"Added in ":3751,"several ":3752,"root":3753,"(1),\n.BR ":3754,"tively ":3755,"possible":3756,"pol":3757,"s is ":3758,"immedi":3759,"gain":3760,"trace\\-":3761,".\n.TP\n\\fB\\-":3762,"wrapp":3763,"changes ":3764,"ash ":3765,"executable":3766,"_type":3767,"\n.N":3768,"which is ":3769,"they are ":3770,"known":3771,"Tit":3772,"intended ":3773,"clo":3774,"Vide":3775,"WI":3776,"activ":3777,"move ":3778,"dependent ":3779,"much ":3780,"3)":3781,"mm":3782,"tmp":3783,"method ":3784,"crypto":3785,"though":3786,"addr":3787,"command is ":3788,"transp":3789,"Specifies the ":3790,"jav":3791,"within ":3792,"\n\\&\\-Wno\\-":3793,"threshold ":3794,".\n.TP 8":3795,"Defin":3796,"\"\nDisable ":3797,"e\\&.":3798,"pop":3799,"ting":3800,"er-":3801,"archive ":3802,"software":3803,"bind":3804,"ce\n":3805,"ented ":3806,"\n.PP\n\\fB--":3807,"By default ":3808,"R \"":3809,"tel ":3810,"stder":3811,"sive":3812,"ARC":3813,"spar":3814,"used by ":3815,"counter":3816,"\\^":3817,"encryp":3818,"messages ":3819,"\n\\&\\fB\\-\\-":3820,"\\m[":3821,"/etc":3822,"will":3823,"need":3824,"configuration":3825,"\nof ":3826,"\n.X":3827,"specifies the ":3828,"minimum ":3829,"gen":3830,"hyph":3831,"cast":3832,"calls":3833,"analyz":3834,"rtl-":3835,"MIP":3836,"\"\nR":3837,"custom":3838,".\n.\n":3839,"inline\\-":3840,"3.":3841,"sec":3842,"\\. ":3843,"book":3844,"has a ":3845,"tool ":3846,"amount of ":3847,"resulting ":3848,"\\fB\\-O2":3849,"declared ":3850,".\n.RS 4":3851,"conditional ":3852,"transla":3853,"RIG":3854," *":3855,"sw":3856,"ently ":3857,"times":3858,"COM":3859,"size of ":3860,"strict\\-":3861,"}\n.Ve\n.Sp\n":3862,"rever":3863,"diff ":3864,"mast":3865,"tot":3866,"\\*(Aq ":3867,"alignment ":3868,"necessary ":3869,"unti":3870,"model ":3871,"boole":3872,"-*":3873,"4\\-":3874,"\n.E":3875,"\n.Op ":3876,"noti":3877,".  It ":3878,"sync ":3879,"leav":3880,"our ":3881,"conversion ":3882,"=\\fR\\fIcpu":3883,"stric":3884,"too ":3885,".\n.TP\n.BI \\-":3886,"protocol":3887,"\n.sp\n\\fB":3888,"tune":3889,"ipa":3890,"debian":3891,"contin":3892,"bit-":3893,"cmd":3894,"NUL":3895,"addition ":3896,"endian ":3897,"likely ":3898,"processed ":3899,"override ":3900,"Auth":3901,"\n.RE\n.RS 4\n.RE":3902,"absolute ":3903,"Window":3904,"p-":3905,"\\fP is ":3906,"\"\nSpecify ":3907,"RD":3908,"m\n":3909,"(C and ":3910,"there":3911,"It accepts the ":3912,"\n.TP 15":3913,"sf":3914,"equal ":3915,"\"\nSpecify the ":3916,"hyphen":3917,"``":3918,"\\fR>":3919,"ant":3920,"one of ":3921,"contains ":3922,"ile ":3923,"as \\fB":3924,"select ":3925,"/etc/":3926,"around ":3927,": @tab X\"":3928,"inline-":3929,"armv":3930,"<https://":3931,"ish":3932,"inline ":3933,"structure":3934,"iteration":3935,"into a ":3936,".\n.\\\" ":3937,"ie \\n(.g ":3938,"algorithm ":3939,"\n\t":3940,"don't ":3941,"curl ":3942,"size of the ":3943,"\n.TH ":3944,"reference ":3945,"\n.\\\" http://":3946,"-fno-":3947,"prior":3948,"desk":3949,"sil":3950,"with \\fB\\-":3951,"cannot ":3952,"containing ":3953,"matches ":3954,"exception":3955,"handl":3956,"\\[aq]":3957,"Cre":3958,"[:":3959,"d_":3960,"ma_":3961,"send ":3962,"compiling ":3963,"NT ":3964,"software ":3965,"'\n":3966,"Display ":3967,"AES":3968,"lq":3969,"lik":3970,", SSE4":3971,"author":3972,"diagnostics\\-":3973,"dpkg":3974,"exper":3975,"\\f(CW\\*(C`avr":3976,"embed":3977,"er\\-":3978,"mpe":3979,"complete":3980,"her":3981,"sse":3982,"\\fR\\f(CW":3983,"1\n":3984,"with an ":3985,"// ":3986,"count ":3987,"s.\n.PP\n":3988,"troff":3989,"\n.TH \"":3990,"COPYRIG":3991,"43":3992,"free":3993,"cov":3994,"when\n":3995,"built-in ":3996,"mcu":3997,"ation of the ":3998,"terminal":3999,"Advanced ":4000,"tag ":4001,"\\(aq\n.el":4002,"enable\\-":4003,"characters ":4004,"Other":4005,"gam":4006,"ord":4007,"extra":4008,"s\"\n.IP \\(bu 4\n":4009,".sp":4010,"see the ":4011,"s are not ":4012,"       .ds Aq ":4013,"\" 4\n.IX Item \"-W":4014,"style ":4015,"er to ":4016,"etur":4017,"... ":4018,"followed by ":4019,"stack-":4020,"statistic":4021,"appear ":4022,"       .ds Aq '":4023,"\n.RB ":4024,".ds Aq \\(aq\n.el":4025,"\"\n.IP \"\\fB":4026,"\\fR[\\fB":4027,"displayed ":4028,"sets the ":4029,"bot":4030,"have a ":4031,"********":4032,"least ":4033,"produce ":4034,"prefer":4035,"PowerPC ":4036,"verb":4037,"instructions.  ":4038,"respectively":4039,"font":4040,"perf":4041,"numer":4042,"directly ":4043,"28":4044,"ise ":4045,".\n.RE\n.sp\n":4046,"graph ":4047,"\"\nPr":4048,"ump ":4049,"COMMAN":4050,"xmega":4051,"wav":4052,"comma":4053,"insns":4054,"justifi":4055,"lease ":4056,"accor":4057,"encoding ":4058,"decimal ":4059,"summ":4060,"Sh":4061,"\n.de ":4062,"in this ":4063,"plat":4064,"\"\n.PD\nThe ":4065,"preced":4066,"verify":4067,"0)":4068,"generated by ":4069,"certificate":4070,"botto":4071,"\\.":4072,"man ":4073,"qual":4074,"ING":4075,"element":4076,"\n.UNINDENT":4077,"taken ":4078,"frequency ":4079,"destination ":4080,"\\fR\\&. ":4081,"less":4082,"functions":4083,"2:":4084,"sn":4085,"st\n":4086,"session ":4087,"s\\fR\" ":4088,"now ":4089,"package ":4090,"machine ":4091,"against ":4092,"), and ":4093,"give ":4094,"sign ":4095,"page":4096,"name\n":4097,"skip":4098,"[0":4099,"various ":4100,"\", \"":4101,"yu":4102,"X  ":4103,"xx":4104,"er of ":4105,"atim ":4106,"transform":4107,".\n.PP\n\\fIExample":4108,"*\\-":4109,"tection":4110,"             ":4111,"can be used ":4112,"LZ":4113,"job":4114,"ARC ":4115,"reques":4116,"column ":4117,"turn off ":4118,"CK":4119,"Found":4120,"SSL ":4121,"syntax":4122,"verbatim ":4123,"1:":4124,"H ":4125,"brea":4126,"lav":4127,"slow":4128,", XSAV":4129,"enabled, ":4130,":   X  ":4131,"implemented ":4132,"use\\-":4133,"\" \"1\" \"":4134,"3, ":4135,"igh":4136,"able to ":4137,"have the ":4138,"through the ":4139,"11 ":4140,"=n":4141,"RA":4142,"\\fR\\f(CI":4143,".com/":4144,"FE":4145,"N ":4146,"needed ":4147,"eak":4148,"full":4149,"heuri":4150,"MUL":4151,"See the ":4152,"perio":4153,"loop\\-":4154,"internal ":4155,"ultip":4156,"suitable ":4157,"/html":4158,"directiv":4159,"specify":4160,"long\\-":4161,"literal":4162,"sq":4163,"state ":4164,"post":4165,"calls to ":4166,"hyphenation":4167,"_f":4168,"sur":4169,"\\f(CW\\*(C`.":4170,"using a ":4171,"sched-":4172,"layout":4173,"suffix ":4174,"unk":4175,"address":4176,"s which ":4177,"three ":4178,"use\n":4179,"\\fR\n(":4180,".\n.IP \\fBmax-":4181,"types ":4182,"S_":4183,"mang":4184,"orted ":4185,"causes ":4186,"this is ":4187,"perform ":4188,"gest":4189,"System":4190,"TO":4191,"v2":4192,"ciph":4193,":      \\fR\\f(CB":4194,"basic ":4195,"files, ":4196,"paralle":4197,"included ":4198,"98":4199,"[\\-":4200,"Commands\"\n.PP\n":4201,"mpeg ":4202,"\n..\n.de ":4203,"i.e. ":4204,"Otherwi":4205,"in the\n":4206,"prolog":4207,"debugg":4208,"...]":4209,"\\fP, \\fB\\-\\-":4210,"FOR":4211,"Set":4212,"Ve":4213,"in-":4214,", then ":4215,"def":4216,".  For ":4217,".\nDefaul":4218,"interlac":4219,"depends ":4220,"\\&.\n.RE\n.PP\n\\-":4221,"aver":4222,"ss ":4223,"\n.RE\n.sp":4224,"nroff":4225,"atch":4226,"for this ":4227,"cally":4228,"scan":4229,"THE ":4230,"fields ":4231,"missing":4232,"CPU with ":4233,"-mp":4234,"xi":4235,"\n.BR \\-":4236,"place":4237,"libraries ":4238,"-fdump-rtl-":4239,"-c":4240,"\\fR] [":4241,"the compiler ":4242,"\\fIx":4243,"short ":4244,"docker":4245,"<\\fB":4246,".  When ":4247,"quali":4248,"find ":4249,"devices":4250,"'ll ":4251,"dn":4252,"T}":4253,"\\fR. ":4254,"outputs ":4255,"timestamp ":4256,"Some ":4257,"draw":4258,"node":4259,"\"\nRe":4260,"c \\-":4261,"ALL":4262,"beginning ":4263,"orizont":4264,"one or more ":4265,"under the ":4266,"AMPLE":4267,"HAV":4268,"lz":4269,"rq":4270,"appear":4271,"values are":4272,"documentation ":4273,"-time ":4274,"2\n\\&        ":4275,"rc":4276,"progres":4277,"\\s":4278,"mark ":4279,"analyzer-":4280,"xz\n":4281,"COPYRIGHT":4282,"(see ":4283,"try ":4284,"seconds ":4285,"simple ":4286,"as well ":4287,"Norm":4288,"PP":4289,"wei":4290,"force ":4291,"adj":4292,"\\f[B]":4293,"sequenc":4294,"vfp":4295,"ite ":4296,"suppli":4297,"core ":4298,"only\n":4299,"higher":4300,"client ":4301,"\"\nPrint ":4302,"OUT":4303,"\\&.\n.PP\n":4304,".\n.IP \"\\fB\\-W":4305,"\\fR is not ":4306,"branch\\-":4307,"other\n":4308,"ular":4309,"about the ":4310,"select":4311,"s can be ":4312,"ences":4313,"col ":4314,".  Al":4315,"never ":4316,"\\fP and ":4317,"operator ":4318,"devel":4319,"cases ":4320,"\\t":4321,"ing and ":4322,"\\fB\\-fprofile\\-":4323,"signifi":4324,"Version ":4325,"HAVE_":4326,"aspec":4327,"goo":4328,"loop-":4329,"password ":4330,"Advanced SI":4331,"Run":4332,"[=":4333,"s\"\nThe ":4334,"void":4335,"fully ":4336,"abov":4337,"connection ":4338,"otherwise":4339,"immediate":4340,"Me":4341,"ed.\n":4342,"report ":4343,"will\n":4344,").  ":4345,"is used ":4346,"configure ":4347,"position ":4348,"performance ":4349,"sten":4350," \" ":4351,"region":4352,").\n.IP \\fB":4353,"\n.IP \\[bu] 2\n":4354,".\n.Sp\nIf ":4355,"within the ":4356,"4\n":4357,"d::":4358,"\"\nT":4359,"HO":4360,"s as ":4361,"forwar":4362,"probabi":4363,"height":4364,"experim":4365,"CR":4366,"stere":4367,"so that ":4368,"Output ":4369,"doesn't ":4370,"WITH":4371,"before the ":4372,"\" T":4373,"an error ":4374,"s of a ":4375,"scale":4376,"10 ":4377,"ED":4378,"PRO":4379,"{\n\\&        ":4380,"shadow":4381,"sible ":4382,"sha":4383,"ted, ":4384,"have been ":4385,"transfer":4386,"little-":4387,"elimin":4388,"2\\*(C'\\fR, ":4389,"53":4390,"CNT":4391,") and ":4392,"Pod::":4393,"VE":4394,"horizont":4395,"sent ":4396,"s; ":4397,"que":4398,"\\fP \\fI":4399,"require ":4400,"By default, ":4401,"PS":4402,"correct ":4403,".\n.IP \\fB\\-mno\\-":4404,"licen":4405,"Add ":4406,"\n.RE\n.\\}\n.sp\n":4407,"qualifi":4408,"Numb":4409,"TS ":4410,"with \\fB":4411,"\n.B \"":4412,"size, ":4413,"shown ":4414,"capabi":4415,"See also ":4416,"detect":4417,"out_":4418,"feature ":4419,"implementation":4420,",\n.B ":4421,"ind ":4422,"SEE ALSO\"":4423,"Audio ":4424,"common":4425,"groun":4426,"floating ":4427,"better ":4428,"ssible ":4429,"deprecated":4430,"88":4431,"sv":4432,"once":4433,"am ":4434,"warning is ":4435,"(do not ":4436,"\\fIlib":4437,"your":4438,"alias ":4439,"\n.nf":4440,"can\n":4441,"). ":4442,"75":4443,", you ":4444,"atta":4445,"ural ":4446,"message":4447,"for more ":4448,"(x":4449,"languag":4450,"plugin":4451,"arithme":4452,"-d":4453,"NE":4454,"s, but ":4455,"licit ":4456,"x86\\-":4457,"there are ":4458,"fx":4459,"once ":4460,"overla":4461,"repository ":4462,"compatibility ":4463,"-float":4464,"fipa\\-":4465,"alway":4466,"\\fR\nto ":4467,"\\h'-":4468,"initial ":4469,"until ":4470,"Qu":4471,"free ":4472,"att":4473,"spli":4474,"planes":4475,"CX":4476,"LD":4477,". Allowed ":4478,"merge":4479,"\nand":4480,",video":4481,"unction ":4482,"typically ":4483,"example, ":4484,"] [\\-\\-":4485,"UTF":4486,"order to ":4487,"utils ":4488,"_t":4489,"\n.\n.":4490,"two":4491,"\\[rs":4492,".p":4493,"ers":4494,"rev":4495,"\n.PP\n\\fB":4496,"202":4497,"removed ":4498,"BA":4499,"b_":4500,"Options\"\n.PP\n":4501,"accepted ":4502,"virtual ":4503,"(7":4504,"reduc":4505,"name is ":4506,"specified, the ":4507,"Specify ":4508,"segment ":4509,"model=":4510,"\": \"":4511,"FR":4512,"changed ":4513,"properti":4514,"Cur":4515,"polic":4516,"micro":4517,"packet":4518,"No ":4519,"dividu":4520,"ordin":4521,"the \\fB":4522,"to \\fI":4523,"rout":4524,"cause ":4525,"duration":4526,"network ":4527,"in some ":4528,"contrac":4529,"br\\}":4530,"calling ":4531,"change the ":4532,"Options\\fR":4533,"'br\\}":4534,".\n.IP * 4\n":4535,"speed":4536,"26":4537,"ate\n":4538,"treated ":4539,"schedu":4540,"MENT":4541,"method":4542,"scheduling ":4543,", \" ":4544,"STAR":4545,"fron":4546,"to\nthe ":4547,"ON ":4548,"higher ":4549,"\n..\n.de V":4550,"5)":4551,"VM":4552,"band":4553,"\n.        ":4554,"\\-file":4555,".\n.Ve":4556,"value\n":4557,"Par":4558,"e a ":4559,"text\n.ft ":4560,"ffffffff":4561,"\n.    ds C`":4562,": X @tab X\"":4563,"comparis":4564,"\" Ta \"":4565,"(\\n(":4566,"199":4567,"reas":4568,"prop":4569,"de IX":4570,"type, ":4571,"\\*(#":4572,"between the ":4573,"\\fR  \\fB\\-m":4574,"driver ":4575,"screen":4576,"const ":4577,"\n.RB":4578,"\n.PP\nThe ":4579,"call\\-":4580,"type of ":4581,"volati":4582,"nr rF":4583,"choi":4584,"stack\\-protector":4585,"\\w":4586,"uff":4587,"per-":4588,"end of the ":4589,"cache ":4590,"            nr ":4591,"73":4592,"ous":4593,"normaliz":4594,"view ":4595,"abb":4596,"pid":4597,"processing ":4598,"blur":4599,"embedded ":4600,"., ":4601,"With":4602,"a-":4603,"one\n":4604,"EXAMPLE":4605,"(in ":4606,"trigg":4607,"security ":4608,"\n.IP \"\\fB\\-":4609,"dir/":4610,"\"\nEnable the ":4611,"quotes in ":4612,"% ":4613,"IEE":4614,"s to the ":4615,"\\fR will ":4616,"which\n":4617," 1 ":4618,"MMX":4619,"Ac":4620,"s\"\n.PD\n":4621,"compat":4622,"]\n[":4623,"seri":4624,"component ":4625,"associated ":4626,"=2":4627,"u ":4628,"allocation":4629,"apply ":4630,"levels ":4631,"/html/":4632,">\"":4633,"sor ":4634,"ves ":4635,"agg":4636,"Inter":4637,"such a ":4638,"78":4639,">]":4640,"Using ":4641,"\\~":4642,"remove ":4643,"difference ":4644,"instance":4645,"Software Found":4646,"it will ":4647,"Sets the ":4648,"overridd":4649,"\\fR \\fB(\\fR\\fI":4650,"individu":4651,"make":4652,"docker ":4653,"desi":4654,") the ":4655,"result":4656,"specify the ":4657,"\n.Op Fl ":4658,"LIN":4659,"subjec":4660,"operator":4661,"depending ":4662,"Author":4663,"lavfi":4664,"SA":4665,"sch":4666,"ere is ":4667,"all\n":4668,"\n.Sp\n\\&\\fI":4669,"openssl":4670,"possible to ":4671,":0":4672,"denti":4673,"s\n\\&\\-f":4674,"s\nare ":4675,"\n.B \\-\\-":4676,"0 (":4677,"interface ":4678,"allo":4679,"255":4680,"(2":4681,"flo":4682,"nc":4683," \\-f ":4684,"s in a ":4685,"\\\\$2":4686,"letter":4687,"significan":4688,".net":4689,"Bl":4690,"PL":4691,"marg":4692,"chain ":4693,".\nFor ":4694,"release":4695,"sqrt":4696,"3\n\\&        ":4697,"ving ":4698,"use of the ":4699,"big-":4700,"GO":4701,"chi":4702,"\n.ie n .IP \"*<":4703,"\"\nDi":4704,"\\f[R] \\f[I]":4705,"service ":4706,"3\n":4707,"Hz":4708,"thus ":4709,"disables ":4710,"trunc":4711,"1/":4712,"BS":4713,"Boo":4714,"\\fR] ":4715,"recomm":4716,"tion of ":4717,". For ":4718,"generating ":4719,"nroff, ":4720,"TR":4721,"T{\n":4722,"dl":4723,"compilation":4724,"abi=":4725,"custom ":4726,"result in ":4727,"(\\f(CW\\*(C`":4728,"NU":4729,"ing for ":4730,"sed in ":4731,"specified by ":4732,"report":4733,"mit ":4734,"\n\\&\\fB\\-Wno\\-":4735,"=\\fR\\fIname":4736,"_\\|_AVR_":4737,"\\fR=\\fI\\,":4738,"iled ":4739,"v'":4740,"tation":4741,"box ":4742,"\\&.\n.RE\n.sp":4743,"_\\|_\\|":4744,"regard":4745,"null ":4746,"Chang":4747,"specification":4748,"max_":4749,"monit":4750,"template ":4751,"fur":4752,"ki":4753,"or \\fB":4754,"to generate ":4755,"divide":4756,"format\\-":4757,"} ":4758,"\\fIname":4759,"\\-mis":4760,"intro":4761,"if\n":4762,"event ":4763,"global":4764,"manual page ":4765,"ok ":4766,"also\n":4767," \\-f":4768,"private ":4769,"meaningful ":4770,"na":4771,"\"\nPer":4772,"connection":4773,"together ":4774,"(\\fB":4775,"Ser":4776,"pt":4777,"madd":4778,"conta":4779,"datab":4780,"GIT_":4781,"systems ":4782,"feed":4783,"even if ":4784,"proced":4785,"systemd":4786,"parameters ":4787,"total ":4788,"detection ":4789,"\"\n0x":4790,".\nIt ":4791,"emit ":4792,"Video ":4793,"ami":4794,"ent\n":4795,"area ":4796,"20 ":4797,"seconds":4798,"includes ":4799,"member":4800,"at\n":4801,"rect":4802,"import":4803,"multipli":4804,"Any ":4805,"Rang":4806,"at least ":4807,"that are ":4808,"files are ":4809,"ssum":4810,"\"\nApp":4811,"libraries":4812,">\\fR\n":4813,"cpy":4814,"\n\\&    perl":4815,"warn about ":4816,"\"\nComp":4817,"line\n":4818,"docbook":4819,"\\[dq":4820,"details":4821,"fre":4822,"\"\nE":4823,"umul":4824,"\\fR\\fB.":4825,"groff ":4826,"\"\">":4827,"container ":4828,"useful for ":4829,"ELF ":4830,"/0":4831,"EG":4832,"JS":4833,"nu":4834,"s when ":4835,", as ":4836,"\\f(CW\\*(C`\\-":4837,"specul":4838,"short":4839,"deri":4840,"following values":4841,"show\\-":4842,"provider":4843,".\n.TP\n.BR \\-":4844,"'u":4845,"BMI":4846,"task":4847,"inline":4848,"commits ":4849,"related ":4850,"success":4851,"lef":4852,"nothing ":4853,"platform":4854,"bas":4855,"l\n":4856,"smi":4857,"prag":4858,"std::":4859,"reference":4860,"Select ":4861,"experiment":4862,"1_":4863,"\n.EX":4864,"MMX, SSE":4865,"BI":4866,"\\fR\\ ":4867,". This is ":4868,"stream_":4869,"extended ":4870,"NOTE":4871,"negative ":4872,"ground ":4873,"-file":4874,"Av":4875,"Ql ":4876,"with \\fB\\-f":4877,"\\{\\\n.    ds C`":4878,"set, ":4879,"place ":4880,"\n.TP\n.B  --":4881,"\"\n\\&\\fB":4882,"allocation ":4883,"siv":4884,"create":4885,"branches":4886,"expansion":4887,"\"\nAl":4888,"visibi":4889,"0.\n.IP \\fB":4890,"but not ":4891,"sock":4892,"structure ":4893,"metadata":4894,"logi":4895,"adjust ":4896,"meas":4897,"to\n\\fB":4898,"-mno":4899,"s\nthe ":4900,"ared ":4901,"which the ":4902,"\\*(C'\\fR.  ":4903,"Auto":4904,"problem":4905,"PD":4906,"s: ":4907,"diction":4908,"tok":4909,"operating ":4910,"cal ":4911,"generation ":4912,"warns for ":4913,"up to ":4914,", SSE2":4915,"cross":4916,"install":4917,"history ":4918,"< ":4919,"the\n\\&\\f(CW\\*(C`":4920,"mode, ":4921,"automatic ":4922,"implies ":4923,"mavx512":4924,"according ":4925,"2\\-":4926,"DWAR":4927,"ore ":4928,"\\fR, \\fI":4929,"flush":4930,"behavior":4931,"e\\&.g":4932,"elin":4933,".\n.Pp\n":4934,"Permis":4935,"1,":4936,"UD":4937,".\nIf the ":4938,"resolu":4939,"backwar":4940,"keep ":4941,"routin":4942,"(default)":4943,"1\\fR, \\fB":4944,"_C":4945,"action ":4946,"option\n":4947,"\\-\\-no\\-":4948,"replace":4949,"56":4950,"cas":4951,"vr":4952," \", \" ":4953,"deci":4954,".\n.UNINDENT":4955,".\nThis option ":4956,"debug\\-":4957,"Stand":4958,"break":4959,"ps ":4960,"\\fR> ":4961,"code to ":4962,"single":4963,"> <":4964,".  This\n":4965,"distribute ":4966,"License ":4967,"greater than ":4968,"\n.Xr ":4969,"[<":4970,"seman":4971,"4\n.IX Item \"--":4972,"based on ":4973,"public ":4974,"Docker ":4975,"appropriate ":4976,"-a":4977,"-g":4978,"Langu":4979,"specifies ":4980,".\n.IP \\fB\\-fno\\-":4981,"specifying ":4982,"Linux":4983,":    \\fR\\f(CB":4984,"\"\nApply ":4985,":\n.RS":4986,"Sour":4987,"Use":4988,", RD":4989,"verti":4990,"strateg":4991,"options, ":4992,"imum":4993,"\\*(C'\\fR)":4994,"version of ":4995,"ips":4996,"modules":4997,"Writ":4998,"ran":4999,"slo":5000,"allthrough":5001,".\n.RE\n.IP \\fB":5002,"\n.ie n .IP \"\"\"":5003,"Min":5004,"Specify the ":5005,"description":5006,"separated by ":5007,"repe":5008,".  The default ":5009,"standard output":5010,"startup ":5011,"indicate":5012,"Maximum ":5013,"Curren":5014,"WA":5015,"dp":5016,"mil":5017,"scap":5018,"asm":5019,"ate a ":5020,"container":5021,"record ":5022,"protocol ":5023,".\n.It Fl ":5024,"))":5025,"gcov":5026,"s\\fR, ":5027,"\n.EE":5028,"usage":5029,"out\n":5030,"s:\n.Sp":5031,"linear":5032,"uninitializ":5033,"unsigned ":5034,"\\fR\nand ":5035,"authenti":5036,"loaded ":5037,"attack":5038,"\n.ie n .IP \"*<\"\"":5039,"\\s-":5040,"emul":5041,"grow":5042,"vector ":5043,"pkcs":5044,"escape ":5045,"external ":5046,"exclude":5047,"However, ":5048,"boun":5049,"nop":5050,"ped":5051,". Th":5052,"streng":5053,"param ":5054,";\n\\&          ":5055,"Possible ":5056,"\\*(C'\\fR to ":5057,"output is ":5058,"variant ":5059,"bytes ":5060,"\\(cqs ":5061,"dialec":5062,"1\\-":5063,"tly":5064,"no_":5065,"nt":5066,"y-":5067,".\n.IP \\fI":5068,"func":5069,"start_":5070,"TO ":5071,"i\\&.":5072,".\nTh":5073,"vertical ":5074,"ts of ":5075,"service":5076,"installed ":5077,"MMX, SSE, SSE2":5078,"note ":5079,"final ":5080,"Force ":5081,"deprecated ":5082,"\n.Ql ":5083,"untu":5084,"exce":5085,"ending ":5086,"\n    ":5087,".\\|":5088,"quiet":5089,"same as ":5090,"works ":5091,"actual ":5092,"dg":5093,"dsp":5094,"rsync ":5095,"along ":5096,"Options":5097,"ls ":5098,"engin":5099,"vis":5100,"reser":5101,"only be ":5102,"codec":5103,"blue":5104,"statement ":5105,"overridden ":5106,"),\n":5107,")\\&. ":5108,"rection":5109,"4\n.IX Item \"*<":5110,".\n.SS \"":5111,"regex":5112,"duration ":5113,"Col":5114,"Val":5115,"interpol":5116,"code for ":5117,"trace ":5118,"entire ":5119,"\n.RE\n.\\}\n.sp":5120,"machine":5121,")\n.IP \\fB":5122,"cf":5123,"nan":5124,"\\fI\\-":5125,"reci":5126,"symbols ":5127,"assume ":5128,"attempt to ":5129,"exact ":5130,"/.":5131,"IS ":5132,"processing":5133,"easi":5134,"has the ":5135,"constant":5136,"soft\\-float":5137,"font ":5138,"= 0":5139,"I/":5140,"OF ":5141,"runtime":5142,"FFmpeg ":5143,"2025\" \"":5144,"happ":5145,"linked ":5146,"; it ":5147,"\"\nThis warning ":5148,"cost ":5149,"              ":5150,".\nWhen ":5151,"tation ":5152,"of-":5153,"disable it":5154,"efer":5155,"inside ":5156,"wide":5157,"older ":5158,"if (":5159,"s, or ":5160,"name>":5161,"1 (":5162,"s.\nThis ":5163,"share/":5164,"/>":5165,"sure":5166,"derefer":5167,"\\fB\\-O1":5168,"save\\-":5169,"member ":5170,"OS":5171,"moo":5172,"variable is ":5173,"instance ":5174,"msg":5175,"mk":5176,"pad":5177,"vidi":5178,"may not ":5179,"processed":5180,"target-":5181,"style":5182,"as well":5183,"Define ":5184,"desktop":5185,"er, ":5186,"instructions, ":5187,"change":5188,"PCL":5189,"simd":5190,"record":5191,"RAM":5192,"unalign":5193,"0.0":5194,"a_":5195,"a single ":5196,"dict":5197,"the\n.B \\-":5198,"flags ":5199,"disable\\-":5200,"language ":5201,"\"\nPerform ":5202,"(\"":5203,"1]":5204,"\\fB\\-fanalyzer":5205,"\\fB\\-march=":5206,"\n.\t":5207,"foo ":5208,"web":5209,"\\fR and \\fB\\-":5210,"Over":5211,"arc":5212,"unknown":5213,"tru":5214,"bits ":5215,"Exten":5216,"floating-point":5217,"std=":5218,"ax":5219,"ipp":5220,"s!":5221,"left":5222,"delay ":5223,"SSSE":5224,"fix\\-":5225,"exactly ":5226,"TS":5227,"dash":5228,"e to ":5229,"or \"":5230,"Pub":5231,"clock":5232,"ility ":5233,"mou":5234,"invalid":5235,", it is ":5236,"pair":5237,"less\n":5238,".\nThe default ":5239,"transfer ":5240,"from\n":5241,"delta":5242,".h":5243,"wk":5244,"}\n\\&        ":5245,"ated\n":5246,"lower ":5247,"code is ":5248,"gran":5249,"sb":5250,"default\n":5251,"trace":5252,"patch ":5253,"notice ":5254,"MB":5255,"inher":5256,"overlay":5257,"General ":5258,"ck80":5259,"redund":5260,"turned ":5261,"/dev":5262,".\nDefault is ":5263,"of the \\fB":5264,"bytes":5265,"\\:":5266,"conj":5267,"\\&.\n.RE\n.SH \"":5268,"tually ":5269,"3.0":5270,"smp":5271,"ARM":5272,"##":5273,"date ":5274,"in\n\\fB":5275,"demux":5276,"limited ":5277,"trace\\-cm":5278,".\n.RE\n.sp\n\\fB\\-":5279,".mp":5280,"jmp":5281,"build":5282,"compli":5283,"will not ":5284,"imil":5285,"1 to ":5286,"code\n":5287,"\n.TP\n.B \\-":5288,"http://www.":5289,"driver":5290,"ativ":5291,"in\nthe ":5292,"context":5293,"and\n\\fB":5294,".\n.Sp\nEnabled ":5295,"predic":5296,"future ":5297,"maintain":5298,"Warning":5299,"match the ":5300,"part of the ":5301,"]*":5302,"line, ":5303,"example.com":5304,"have to ":5305,"zero-":5306,"because the ":5307,"HTTP ":5308,"lag":5309,"lang":5310,"ed_":5311,"permit":5312,"ORT":5313,"symbolic ":5314,"\\fB\\-Wall\\fR":5315,"cke":5316,"reset":5317,"in \\fI":5318,"where":5319,"MOVB":5320,"Can ":5321,"bb":5322,"\n.ds ":5323,"unsaf":5324,"\n.SH \"NAME":5325,"duplic":5326,"PCLMUL":5327,"5.":5328,"VER":5329,"ath":5330,"pul":5331,"marked ":5332,"events ":5333,"itself ":5334,"though ":5335,"TY":5336,"output file":5337,"16, ":5338,"addresse":5339,"heuristic":5340,"Dar":5341,"antic":5342,"suite":5343,"which are ":5344,"\"\nDump ":5345,"request ":5346,"fast\\-":5347,"BUGS":5348,"\\^\\-":5349,"+1":5350,"RF":5351,"ben":5352,"pw":5353,"actually ":5354,".  The\n":5355,"LIB":5356,"PIC":5357,"Arm":5358,"plugin ":5359,"'\\\" t":5360,"\\w'":5361,"dr":5362,"(1), ":5363,"tree-":5364,"fp\\-":5365,"SYNOPSIS\"":5366,"might be ":5367,": @tab X":5368,"only for ":5369,"filter_":5370,"cache":5371,"jump ":5372,"screen ":5373,"Res":5374,"Su":5375,"zip ":5376,".  A ":5377,"manag":5378,"SOUR":5379,"\n.PD 0":5380,"System ":5381,"adjust":5382,"\n  ":5383,"= 1":5384,"dist":5385,"\\fR\noption ":5386,"output file ":5387,"openssl ":5388,"less than ":5389,"support for ":5390,"scale ":5391,"XX:":5392,"Cm ":5393,"IP ":5394,"MP ":5395,"Typ":5396,"glish":5397,"iB ":5398,"on\\-":5399,"\\fR\n\\&\\fB\\-f":5400,"reorder":5401,"a list of ":5402,"gain ":5403,"In the ":5404,".\n.SH OPTIONS":5405,".\n.Sp\n.Vb 1":5406,"File":5407,"hexa":5408,"Number of ":5409,"milli":5410,"VAL":5411,"\\fR: ":5412,"\\fR (C++ and ":5413,"metri":5414,"generation of ":5415,"directories":5416,"math\\-":5417,"Dis":5418,"LIT":5419,"UB":5420,"defaults ":5421,"depth ":5422,"password":5423,"translation ":5424,"dB":5425,"pla":5426,"can be\n":5427,"archiv":5428,"clear":5429,"create a ":5430,"IN CON":5431,"Standard ":5432,"\n.SH \"NAME\"\n":5433,"Disable ":5434,"yth":5435,"t and ":5436,"tech":5437,"verifi":5438,"\\&.\n.sp\nThe ":5439,"slash":5440,"TLS ":5441,":  X \\fR\\f(CB":5442,"smpte":5443,"4\\*(C'\\fR, ":5444,"600":5445,"ince ":5446,"icro":5447,"Unicode ":5448,"reason":5449,"t (":5450,"English":5451,"Inde":5452,"package":5453,"missing ":5454,".\n.PP\n\\fICommand":5455,"\n\\fI":5456,"tell":5457,"true ":5458,"te the ":5459,"allowed ":5460,"network":5461,"trailing ":5462,"\\fR.\n.IP \\fB\\-":5463,"               ":5464,"version of the ":5465,"square ":5466,"/dev/":5467,"nm":5468,"\n.ad l":5469,"move":5470,"registers ":5471,"master":5472,"conjunction ":5473,"HP ":5474,"Vali":5475,"\\fR\n.Sp\n\\&\\fI":5476,"chip":5477,"liz":5478,"targe":5479,"function is ":5480,"\\f[V]--":5481,"support.\n.IP \\fB":5482,"300":5483,"nvidi":5484,"in an ":5485,"fore ":5486,"e\nthe ":5487,"alizer":5488,"class":5489,"\"\nWarn about ":5490,"primary ":5491,"semantic":5492,"obu":5493,"pkey":5494,"cour":5495,"\"\nB":5496,"and\n\\&\\f(CW\\*(C`":5497,"more\n":5498,"dumpbase":5499,"$ git ":5500,"detected ":5501,"rst2man-indent-":5502,"Ev":5503,"II ":5504,"a.":5505,"chil":5506,".\n(":5507,"socke":5508,"ally, ":5509,"\\/\\fR\n":5510,"UE":5511,"\\fR), ":5512,"conso":5513,"context ":5514,"size\n":5515,"\\fIfile\\fR\\fB.":5516,"User Command":5517,"dpkg 1":5518,"Automati":5519,"YY":5520,"gri":5521,"ide":5522,"se-":5523,"to the\n":5524,"\\fR\\fB=\\fR\\fI":5525,"ratio ":5526,"[\\-\\-":5527,"ref ":5528,"of these ":5529,"righ":5530,"bool":5531,"2020":5532,"ted\\-":5533,"format=":5534,"s. The ":5535,"warnings ":5536,"prints ":5537,".\n.Sp\n.Vb ":5538,"measure":5539,"IC":5540,"MD ":5541,"Micro":5542,"sum ":5543,"accur":5544,"specification ":5545,"you are ":5546,"Note that the ":5547,"printf":5548,"save ":5549,"useful when ":5550,"marked with ":5551,"Fil":5552,"POP":5553,"UT ":5554,"dang":5555,"gno":5556,"\n.TP":5557,"name, ":5558,"Default ":5559,"fix-":5560,"object file":5561,"expansion ":5562,"docker-":5563,"split ":5564,"\\[rs]":5565,".*":5566,"leaf":5567,"value, ":5568,"of the input ":5569,"layou":5570,"preserv":5571,"binary":5572,"URL ":5573,"\\fR|\\fB\\-\\-":5574,"affect ":5575,"UTF\\-":5576,"CD":5577,"best ":5578,"s.\n.IP \\fB\\-":5579,": [":5580,"of\n\\fB":5581,"aries":5582,"stored ":5583,"exception ":5584,"v850":5585,"MOVBE, ":5586,"arily ":5587,"domain":5588," 1 1":5589,"formatting":5590,"data\\-":5591,"MAX":5592,"pointer\\-":5593,"would be ":5594,"\n.BR \"":5595,"\\fB\\-mcpu=":5596,") to ":5597,"wait":5598,"alignment":5599,"}\n":5600,"and re":5601,"POSI":5602,"I \"":5603,"bound ":5604,"undefined":5605,".  A":5606,"specifier":5607,"ignored ":5608,"crl":5609,"instead of the ":5610,"atomic ":5611,"07":5612,"\\&.\n.sp":5613,"publish":5614,"ware":5615,"    \"":5616,", r":5617,"points ":5618,".\n.It Ic ":5619,"may\n":5620,"systemd\\-":5621,"ailable ":5622,"ere are ":5623,"ADPCM ":5624,"2009":5625,"described ":5626,"further ":5627,"\\[dq]":5628,"Multip":5629,"fd":5630,"fli":5631,".  O":5632,"ure is ":5633,"can also be ":5634,"use a ":5635,"libc":5636,"IST":5637,"verbose ":5638,"modify ":5639,"cons":5640," \\-\\-":5641,"=\\*(Aq":5642,"Imp":5643,"ech":5644,"lum":5645,"lra":5646,"in \\fB":5647,"\\fR, the ":5648,"may not be ":5649,"s:\n.RS 4":5650,"multi-":5651,"consisten":5652,"displayed":5653,"determine ":5654,"BASE":5655,"W ":5656,"lp":5657,"\\fB\\-fsanitize=":5658,"FIX":5659,"stringop":5660,"soft ":5661,"\n.EX\n":5662,"Ns ":5663,"vm":5664,"1024":5665,"cortex\\-m":5666,"height ":5667,"temporary ":5668,"c-":5669,"sam":5670,"tar":5671,"ut ":5672,"of this ":5673,".  For example":5674,"url":5675,"Intel ":5676,"These are ":5677,"declaration ":5678,"ipa-":5679,"\"\n.IX Sub":5680,"smoo":5681,"x2":5682,"al, ":5683,"atur":5684,"words ":5685,"Inc":5686,"\\f[V]j":5687,"HEAD":5688,"prevent":5689,"unused\\-":5690,".\n.RS 4\n.IP \\fB":5691,".a":5692,"51":5693,"refs/":5694,"\\fR \\fIinteger":5695,"transi":5696,"consider ":5697,"\\fR,\n\\fB":5698,"raph":5699,"json":5700,"relocation":5701,"look ":5702,"constr":5703,".  If the ":5704,"the\n.I ":5705,"specify a ":5706,"controls ":5707,"whenever ":5708,"DWARF ":5709,".T":5710,"A_":5711,"e\\&. ":5712,"rol":5713,"es (":5714,"ly-":5715,"max\\-":5716,"supported by ":5717,"COL":5718,"modified ":5719,"detect ":5720,"Public ":5721,"47":5722,"Si":5723,"[\\fB\\-\\-":5724,"s]":5725,".  (":5726,"motion ":5727,"becom":5728,"MPEG":5729,"null\\-":5730,"/2":5731,"Date":5732,"bro":5733,"n\n":5734,"\\fB\\-mp":5735,"analyzer\\-f":5736,"indicate ":5737,"prevent ":5738,"has no effect ":5739,"custom\\-f":5740,"FORMA":5741,";\n.Ve\n.Sp\n":5742,"cmodel=":5743,"s\nand ":5744,"POPCNT":5745,"dwar":5746,"found":5747,"ih":5748,"pt ":5749,"sar":5750,"s.\n.IP \\fB\\-f":5751,"\n.ie \\n(.g ":5752,"\\-\\fR\\fI":5753,"ably ":5754,"never":5755,"expor":5756,"tability ":5757,"phase":5758,"compression":5759,"compatible with ":5760,"\"\nDispla":5761,"-of-":5762,"RON":5763,"Siz":5764,"down ":5765,"propag":5766,"direct ":5767,"Requi":5768,"this option, ":5769,"socket":5770,"Source":5771,"D_":5772,"LP\n":5773,"ose ":5774,"pse":5775,"uc":5776,"remain":5777," \" \"":5778,"\\-\\-enable\\-":5779,"s\nthat ":5780,"equal":5781,"Control ":5782,"\n.P\n":5783,"'s\n":5784,"ink":5785,"act ":5786,"mechan":5787,"\n.if t ":5788,"\n.SH \"SYNOPSIS\"":5789,"One ":5790,"snap":5791,"+fp":5792,"uid":5793,"choo":5794,"of each ":5795,"line is ":5796,"s\\fR\\|":5797,"packets ":5798,"'\\\"\n'\\\" ":5799,"txt":5800,"List ":5801,"las":5802,"\\-i ":5803,"last":5804,"processe":5805,"\n.\\}\n.":5806,"_\\|_builtin_":5807,"........":5808,"site":5809,"es for ":5810," and the ":5811,"s that the ":5812,"changes":5813,"can't ":5814,"branch-":5815,"NOT ":5816,"\n.SM":5817,"radius":5818,"\"\nDisable the ":5819,"warns for paths ":5820,"pedantic":5821,"sis ":5822,"generally ":5823,"fixed ":5824,"\n.INDENT ":5825,"Available ":5826,"SSSE3":5827,"57":5828,"fas":5829,"expand":5830,"colon":5831,"cert":5832,"highli":5833,"conflic":5834,"listen":5835,"Advanced SIMD":5836,"snapsh":5837,"36":5838,"restric":5839,"ed to the ":5840,". 4\n":5841,"profil":5842,"\\fR, but ":5843,"s:\n.IP \"\\fB":5844,"changed":5845,"document ":5846,"section in the ":5847,"needed":5848,"License":5849,"groff/":5850,"Wor":5851,"hum":5852,"apply":5853,"larger ":5854,"SYS":5855,"er\\-than":5856,"mechanis":5857,"SV":5858,"mt":5859,"wd":5860,"digit":5861,"produ":5862,"varian":5863,"input video ":5864,"timeout":5865,"Not ":5866,"age: ":5867,"based on the ":5868,"since dpkg 1":5869,"immediately ":5870,"Automatically ":5871,"3d":5872,"SE ":5873,"To":5874,"zo":5875,"\n.M":5876,"fig":5877,"to use":5878,") is ":5879,"file name ":5880,"out of ":5881,"processes ":5882,"passe":5883,"ENVI":5884,"\\fR or \\fB":5885,"decre":5886,"\\&...":5887,"\\-bound":5888,"larger\\-than":5889,"expressions ":5890,"GPU ":5891,"encoding,video":5892,"as well as ":5893,"Be":5894,"malloc":5895,"threa":5896,"for the\n":5897,"umented ":5898,"with no ":5899,"such as":5900,"earli":5901,"ENVIRON":5902,"Tim":5903,"y_":5904,"anti":5905,"open ":5906,"\"\n.PD\nSet ":5907,"\n.Vb 4":5908,"built":5909,".\n.TP\n\\fB":5910,"Program":5911,"head ":5912,"<\\fBhttps://":5913,"R\n.fi":5914,"c1":5915,"esti":5916,"forc":5917,"outside ":5918,"with the same ":5919,"OpenSSL ":5920,"signature ":5921,"scape ":5922,"\\-guard":5923,"\n.\\\" Gener":5924,"byobu":5925,"adding ":5926,"\n\\&\\-Wanalyzer\\-":5927,"Compres":5928,"left marg":5929,"ssume ":5930,"-key":5931,"rep":5932,"causes the ":5933,"output\n":5934,"detailed ":5935,"make the ":5936,"update ":5937,"\\fR, \\fB\\-O3":5938,"OUTPUT":5939,"''":5940,"Jav":5941,"often ":5942,".\n.PP\nThis ":5943,"C++, ":5944,"shows ":5945,"consist":5946,"boolean":5947,"EXAMPLES":5948,"Can be ":5949,"\nor":5950,"-no":5951,"4.":5952,"Sec":5953,", CL":5954,"er is ":5955,"noise ":5956,"construct":5957,"recip":5958,"use with ":5959,"text to ":5960,"eak ":5961,"linking ":5962,"single\\-":5963,"complex":5964,"content ":5965,"\\f[V]-XX:":5966,"FLA":5967,"4.1":5968,"MA ":5969,"ome":5970,"units ":5971,"C and ":5972,"OPEN":5973,"built ":5974,"align-":5975,"prior ":5976,"specified\n":5977,"STR":5978,"\\fR option is ":5979,"interpreted ":5980,"\n.Nm\n":5981,"JSON ":5982,"_rate":5983,"bd":5984,"jp":5985,"s\\fP":5986,"invalid ":5987,"\\-f ":5988,"ary\n":5989,"bit\\-":5990,"cation (":5991,"separate":5992,"assembly ":5993,"Medi":5994,"eval":5995,"invol":5996,"le: ":5997,"dig":5998,".  It is ":5999,",\nwhich ":6000,"which":6001,"INPUT":6002,"included in ":6003,"bugs.":6004,"pixels ":6005,"wrap":6006,"repository":6007,"sensi":6008,"pipelin":6009,"Ignor":6010,"Stre":6011,"no\n":6012,"\"\nF":6013,"protection":6014,"aten":6015,"mista":6016,"\n.TQ":6017,"user-":6018,"every":6019,"See \\fB":6020,"capabiliti":6021,"Bo":6022,"C, ":6023,"for \\fB":6024,"\\fR \\fIfile":6025,"ORY":6026,"shared":6027,"memcpy":6028,"there is no ":6029,"individual ":6030,"\"\n.SH NAME\n":6031,"(when ":6032,"500":6033,"PM":6034,"any\n":6035,"at levels ":6036,".\nIn ":6037,"=\\fR\\fInum":6038,"portability ":6039,"\\fR is used":6040,"efficient":6041,"procedural ":6042,"G++":6043,"RG":6044,"a new ":6045,"conc":6046,"files and ":6047,"neg":6048,"both":6049,"interval":6050,"accesse":6051,"signature":6052,"indirect ":6053,"stderr":6054,"\nThis ":6055,"fat":6056,"kil":6057,"rd":6058,", h":6059,"\\fR or":6060,"stuff":6061,"domain ":6062,"\"\n.PD\nEnable ":6063,"scripts ":6064,"\n.\\\"  ":6065,"Also ":6066,"stdout":6067,"encoded ":6068,"SIG":6069,"Windows ":6070,"E\\-":6071,"[]":6072,"thir":6073,"inver":6074,"real ":6075,"\\fB\\-g":6076,"a file ":6077,"objects":6078,"sequence":6079,"zero\\-":6080,"property ":6081,"\" 4\n":6082,"attach":6083,"PORT":6084,"|0":6085,"\n. ":6086,"enough":6087,"of \\fB":6088,"disp":6089,"acy ":6090,"es with ":6091,",\nbut ":6092,"pipe":6093,"\\fR is a ":6094,"\n.SH SEE ALSO":6095,"default is to ":6096,"& ":6097,"distan":6098,"adv":6099,"else":6100,"togg":6101,"options\n":6102,"calle":6103,"format is ":6104,"accepts ":6105,"\n.RE\n.PP\n\\fI":6106,"relocat":6107,"_id":6108,"rac":6109,"size is ":6110,"register is ":6111,"false ":6112,"daemon":6113,"Title ":6114,"recommended ":6115,"Date: ":6116,"ER ":6117,"II":6118,"relev":6119,".  Note that ":6120,"imple ":6121,"git\\-":6122,"\"\nThe maximum ":6123,"HERE":6124,"/tmp":6125,"hid":6126,"for example ":6127,". In ":6128,".\nA ":6129,"default at ":6130," 10":6131,"call-":6132,"starts ":6133,"\n\\&\\fB\\-fno\\-":6134,"rror":6135,"tune=":6136,"BUG":6137,"four":6138,"function\n":6139,"programs ":6140,"allows the ":6141,"IPv":6142,"print the ":6143,"smaller ":6144,"hash ":6145,"Apply ":6146,"MIPS ":6147,"as \\fBcommand":6148,"Dat":6149,"TCH":6150,"fast ":6151,".\nTo ":6152,"of\\-":6153,"you\n":6154,"; use":6155,"*<\\f(CW":6156,"speed ":6157,"/usr/share/":6158,"constructor":6159,"96":6160,"Y, ":6161,"nor":6162,"native ":6163,"entical ":6164,"f (":6165,"\n.\\\"     ":6166,"guar":6167,"factor":6168,"ATE":6169,"of an ":6170,"with the\n":6171,"plt":6172,"identical ":6173,"flat":6174,"approx":6175,"\\fR and higher":6176,"meaning ":6177,"later":6178,"\"\">\" 4\n.el .IP ":6179,"left margin ":6180,"NI":6181,"cd":6182,"ness":6183,"is to ":6184,"colle":6185,"numbers ":6186,".2, ":6187,"enables it":6188,"increment":6189,"resource ":6190,"convention":6191,"arithmetic ":6192,"'ps":6193,":v":6194,"PID":6195,"PER":6196,"_h":6197,"d to ":6198,"butt":6199,"generation":6200,"with\nthe ":6201,"\n.nr ":6202,"\\\\n(":6203,"Syn":6204,"split\\-":6205,".if ":6206,"\\-function":6207,"sump":6208,"she":6209,"OPT":6210,"SIZ":6211,"makes":6212,"ator: ":6213,"\\e\n\\&        ":6214,"'\\\"\t":6215,"eturn ":6216,"erg":6217,"\n.RI ":6218,"file descrip":6219,"arch=":6220,"printer":6221,"char ":6222,"list\\-":6223,"bin/":6224,"effective ":6225,"few ":6226,"foo2":6227,"Conver":6228,"Make ":6229,"whole ":6230,"Chec":6231,"particular":6232,"pdfmark":6233,"2.0":6234,"Mar":6235,"s\\fP ":6236,"};\n\\&        ":6237,"\\-map":6238,"2024":6239,"Inste":6240,"lists.":6241,"bottom ":6242,"\n.RB (":6243,"5.0":6244,"bash":6245,"ding the ":6246,", y":6247,"\n\\&\\f(CW":6248,"the\n\\&\\fB":6249,"systems, ":6250,"stdin":6251,"definition ":6252,"daemon ":6253,"suitable for ":6254,"\\-mismatch":6255,"Range is ":6256,"Language: ":6257,"happen":6258,".\n.IP\n":6259,"fs":6260,"s.\n.Sp\nThe ":6261,"encounter":6262,"to \\f(CW\\*(C`":6263,"lict":6264,"\"\nA ":6265,"\n\\&        void ":6266,"\n.\\\"\n.TH \"":6267,"constants ":6268,"conflict":6269,"\n.\\\"    Manual":6270,"\n.\\\"    Author":6271,"\n.\\\"    Source":6272,"Title: ":6273,"vfpv3":6274,"floating point ":6275,"i\\&.e\\&. ":6276,"(c":6277,"play ":6278,"fi\n.if n \\{\\":6279,") or ":6280,"struct\\-":6281,"argument is ":6282,"percentage ":6283,"=\\fR\\fIcpu-type":6284,"'\\\" t\n.\\\"     ":6285,"\n.\\\" Generator: ":6286,"\n.\\\"  Language: ":6287,"1'\\c\n.\\}\n.el \\{\\":6288,"85":6289,"ner":6290,"tp":6291,", -":6292,"\\&. This is ":6293,"ctl":6294,"code in which ":6295,"\n.SH AUTHOR":6296,"fields":6297,"These options ":6298,"boundary":6299,"ABILIT":6300,"close":6301,"\n.\\\"    Manual: ":6302,"386":6303,"HP":6304,"SG":6305,"redu":6306,"laun":6307,"any of the ":6308,"way to ":6309,"\n.sp -1\n.IP \"":6310,"expected ":6311,"68020":6312,"\" 4.2":6313," *\n.\\\" ":6314,"<https://www.":6315,"nvidia\\-":6316,"pseu":6317,"Ali":6318,"ise":6319,"ve\\-":6320,"--no-":6321," \"\"":6322,"\" and ":6323,".\n.IP \\(bu":6324,"submodule":6325,"FILE ":6326,"extensions ":6327,"longer ":6328,"Specifies ":6329,"enumer":6330,"stderr ":6331,"debian.org/":6332,"monitor":6333,"strength":6334,"CI":6335,"Man ":6336,"dres":6337,"ep":6338,"fall":6339,"ded\n":6340,"ating the ":6341,"use-":6342,"ypas":6343,"s\\fR]\n":6344,"credenti":6345,"\n.SH OPTIONS":6346,"TENT ":6347,"00 00 ":6348,"(e.g. ":6349,"FO":6350,"jq ":6351,"s on the ":6352,"infin":6353,"used by the ":6354,"\\fR\\fB]":6355,"   [":6356,"Defaults to ":6357,"\n.\\\"      ":6358,". The default ":6359,"division ":6360,"Memor":6361,"\n.\\\"    Source: ":6362,"CU":6363,"Please ":6364,"ix":6365,"        \\-":6366,"it to ":6367,"ject ":6368,"either":6369,"placed ":6370,"self ":6371,"since the ":6372,"amily ":6373,"Valid ":6374,"\n.\\\"      Date: ":6375,"74":6376,":\n.\\\" ":6377,"Net":6378,"thread ":6379,"ret":6380,"arri":6381,"called":6382,"bitr":6383,"readable ":6384,"multiply ":6385,"IEEE ":6386,"snapshot ":6387,"bugs.debian.org/":6388,"ASC":6389,"uto\\-":6390,"\n.IP \\fB\\-W":6391,"ignore ":6392,"CONFI":6393,"\nT}":6394,"Note: ":6395,"aspect ":6396,"lists.gnu.org/":6397,"deb":6398,"s\\fR.\n.IP \\fB\\-f":6399,"lib/":6400,"factor ":6401,", which is ":6402,"0.5":6403,"CB":6404,"mask":6405,".\nAllowed ":6406,",\nand":6407,"fov":6408,"ldc":6409,"+nofp":6410,"\n.RB [":6411,"yuv4":6412,"alloca":6413,"ck803":6414,"enables it; use":6415,"OS ":6416,"TA":6417,"unroll":6418,",\nor ":6419,"\\&.0":6420,"set default ":6421,"DER":6422,"region ":6423,"entries":6424,"above options ":6425,"continu":6426,"average ":6427,"31":6428,"Scri":6429,"f(":6430,"\\fR(1) ":6431,"coding":6432,"that it ":6433,"explicit ":6434,"sections ":6435,"printed":6436,"handling ":6437,"\n.TP 8":6438,"provides ":6439,"horizontal ":6440,"General Public ":6441,"gnome":6442,"2009-0":6443,"! ":6444,":\\fR ":6445,"gn ":6446,"ent to ":6447,"will not be ":6448,"\\f[R]\\f[I]":6449,"returns ":6450,".\n.TP 8\n.B \\-":6451,"\nor ":6452,"ha":6453,"reduce ":6454,"uncompressed ":6455,"\\f(CW\\*(C`r":6456,"-min-":6457,"\n.\\\" disable ":6458,"collec":6459,"input file":6460,"stitu":6461,"Enables ":6462,"Unix ":6463,"<http://":6464,"Z ":6465,"iw":6466,"stub":6467,"\\fB\\-p":6468,"TIME":6469,"MAIN CON":6470,"5076":6471,"00013":6472,"attempts to ":6473,".html\n.\\\" ":6474,"across ":6475,"Supported ":6476,"-*- ":6477,"justification (":6478,"hyphenation\n.nh":6479,"TS HERE":6480,"STARTS HERE":6481,"adjust text to ":6482,"TENT STARTS HERE":6483,"507673":6484,"\"\n.TH ":6485,"here":6486,"leak":6487,"uses a ":6488,"quad":6489,"ack ":6490,"\\fP(1)":6491,"used\n":6492,"green":6493,"samples ":6494,"archive/html/":6495,"2/msg":6496,"Define some ":6497,"\n.ad l\n.\\\" ":6498,"Time ":6499,"stuff\n.\\\" ":6500,"00013.html\n.\\\" ":6501,"\"\nDe":6502,"only)\n.ad l\n.\\\" ":6503,"simply ":6504,"formatting\n.\\\" ":6505,")?":6506,"5\n":6507,"DQ":6508,"DO ":6509,"will be\n":6510,"used with ":6511,"explo":6512,"with\\-":6513,"End ":6514,"analysis ":6515,"available for ":6516,"444":6517,"similar":6518,"-\n.\\\" * MAIN CON":6519,"ously ":6520,"groff/2009-0":6521,"\nwill ":6522,"\"\n.It ":6523,"iv":6524,"~\n.\\\" http://":6525,"~\n.ie \\n(.g ":6526,"arbitr":6527,"part of ":6528,"high ":6529,"handle ":6530,"Li \"":6531,"ISO C":6532,"introduc":6533,"AR ":6534,"Simple ":6535,"\\en":6536,"df":6537,"ggest":6538,"\\-byte ":6539,"\\fB<":6540,"in C++":6541,"pping ":6542,"ques":6543,"used, ":6544,"versions of ":6545,"GCC to ":6546,"-\n.\\\" disable ":6547,"Objective-C and ":6548,"smi ":6549,"Armv8":6550,"Index":6551,"fashi":6552,"estima":6553,"\" 4.2\n.\\}\n":6554," .5":6555,"\")":6556,"-\n.SH \"NAME\"\n":6557,"Key":6558,"s  \\-f":6559,".\n.br":6560,"ask ":6561,"file to ":6562,"\\&.<":6563,"label ":6564,"decoding":6565,"too many ":6566,")\"\nSet ":6567,",\n.I ":6568,"As ":6569,"inger":6570,".  You can ":6571,"adds ":6572,"compiled with ":6573,"chroma ":6574,"software/":6575,"missing\\-":6576,"'' ":6577,":<":6578,"USE":6579,"ring":6580,"\\fR (C and ":6581,"abling ":6582,"\\*(C'\\fR and ":6583,"upload":6584,"s and the ":6585,"auto-":6586,"response ":6587,"accumul":6588,"purpose ":6589,"ffffffff8":6590,"strategy":6591,"s:\n.Sp\n.Vb 1":6592,"-separated ":6593,"ME ":6594,"nical ":6595,"ptr":6596,", m":6597,"is only ":6598,"dot":6599,"are:":6600,"\n\\fBgit ":6601,"\\[lq":6602,"during the ":6603,"\\fR options are ":6604,"query ":6605,"mistak":6606,"(3":6607,"\n.IP":6608,". A ":6609,"suggest":6610,"\\f(CW\\*(C`#":6611,"\\fR is the ":6612,"tries to ":6613,"encoder":6614,"tradition":6615,"grep":6616,"proxy ":6617,"win":6618,"\\fR.  The ":6619,"default for ":6620,"      |":6621,"control the ":6622,"controlled ":6623,"95":6624,"B_":6625,"LC_":6626,"RAMP":6627,"SR":6628,"parse":6629,"end of ":6630,"graphic ":6631,".\n.TP\n\\fB\\-\\-":6632,"overrides ":6633,"requested ":6634,"(0":6635,")\"\n":6636,"List":6637,"\n.  ":6638,"\\-l":6639,"\\-1 ":6640,"\\fR.\n.Sp\nThe ":6641,", c":6642,"and a ":6643,"\\-\\-help":6644,"\\{\\\n.    ":6645,"\\[rq":6646,"float ":6647,"AGE":6648,"Fram":6649,"Pas":6650,"\\0 ":6651,"swa":6652,"u'":6653,"win ":6654,"dif":6655,"boot":6656,"\\&.git":6657,"using \\fB":6658,"\n.ne ":6659,".  The":6660,"faster ":6661,"given, ":6662,"'\\*[":6663,"Avoid ":6664,"ither ":6665,"x_":6666,"z ":6667,"\\-W":6668,", CX":6669,"the\n.\\\" ":6670,"interprocedural ":6671,"levels!":6672,"may be used to ":6673,"\n\\&\\fB\\-mno\\-":6674,"execute ":6675,"Buil":6676,"permission ":6677,".T]":6678,"'ps' ":6679,"\n.sp -1\n.IP \"  ":6680,"'\\*[.T]":6681,"GI":6682,"Lev":6683,"dc":6684,"fused":6685,"ore":6686,"prof":6687,"phase ":6688,"packet ":6689,"current\n":6690,"regs":6691,"how to ":6692,"gnu\\-":6693,"s.\n.IP \\fB+":6694,"\"\n.IP \\fB\\-f":6695,"numeric ":6696,"threaded ":6697,"72":6698,": \"":6699,"C<":6700,"CP ":6701,"i386":6702,"of \\fI":6703,"usual ":6704,"but\n":6705,"trus":6706,".\n.TP":6707,"pict":6708,"input file ":6709,"set\\-":6710,"errat":6711,"Sty":6712,"HOME":6713,"'\\*[.T]'ps' ":6714,"AI":6715,"how":6716,"s\\fR is ":6717,"er_":6718,"to an ":6719,"mail ":6720,"used when ":6721,"\n.IP \"\\fB\\-\\-":6722,"code for the ":6723,"following":6724,"\n.fi\n\n":6725,"alpha ":6726,"implicitly ":6727,"SYSTE":6728,"bly ":6729,"vml":6730,"chron":6731,"clon":6732,"ead ":6733,"\\*(C'\\fR) ":6734,"keys ":6735,"received ":6736,"the same as ":6737,"depends on the ":6738,":\\fR\\fI":6739,"C\n":6740,"rely ":6741,"using\n":6742,"frame\\-":6743,"s.  This is ":6744,"containing the ":6745,"information is ":6746,"symbols":6747,"delete ":6748,"empty":6749,".\n.SH \"SEE ALSO\"":6750,"resolv":6751,"mount ":6752,"floating-point\n":6753,"Since ":6754,"fter ":6755,"an\\-":6756,"les ":6757,"dir ":6758,"compare ":6759,".\n.Sp\nNote that ":6760,"applic":6761,"nony":6762,"any other ":6763,"users ":6764,"range of ":6765,"element ":6766,":   X  \\fR\\f(CB":6767,"good ":6768,"s\"\nThe maximum ":6769,"[,":6770,"ints ":6771,"reload":6772,"\"\nSpecifies the ":6773,"line\\-":6774,"If a ":6775,"grep ":6776,"MOV":6777,"/02/":6778,"pragma":6779,"=3":6780,"=> ":6781,"sd":6782,"destruc":6783,"exist ":6784,"for example":6785,"preprocessor":6786,"]\n\t":6787,"12 ":6788,"subsection":6789,"command\n":6790,"source file":6791,"1000":6792,"whitespace ":6793,"MiB;":6794,"itself":6795,"token":6796,"hexadecimal ":6797,"\\-lib":6798,"skipp":6799,"messages":6800,"\\}\n.    ":6801,"\\(cqt ":6802,"compatibility":6803,"volume ":6804,"random ":6805,"COMMAND":6806,"approxima":6807,"fashion":6808,"\n        ":6809,"4:":6810,"59":6811,"FOR ":6812,"bund":6813,"oct":6814,"pts":6815,"til":6816,"\\fR options":6817,"most":6818,"file>":6819,"use this ":6820,"-ftree-":6821,", the compiler ":6822,"GCC_":6823,"gpopt":6824,"  \\-Wno\\-":6825,"luma_":6826,"little-endian ":6827,"\"\nCompile ":6828,"constex":6829,", CX16, ":6830,"Style":6831,".sf":6832,"F'":6833,"LTO ":6834,"jo":6835,"know ":6836,"buf":6837,"shar":6838,"matri":6839,".\n.IP \"\\fB\\-\\-":6840,"filters ":6841,"ignore\\-":6842,"accessed ":6843,"encoder ":6844,"must be a ":6845,"Forma":6846,"They ":6847,", SSE4.2, ":6848,"User Commands\"":6849,"/s\n":6850,"PE ":6851,"ay":6852,"gt":6853,"background ":6854,"extensions, ":6855,"\\}\n.\\}\n.":6856,"precision\n":6857,"over the ":6858,"GNU/":6859,"volume":6860,"WITH_":6861,":\n\\&        ":6862,"A-":6863,"border":6864,"n] ":6865,"at a ":6866,"board ":6867,"have\n":6868,"spaces":6869,"Use the ":6870,"boundary ":6871,"half-":6872,"\nof the ":6873,"-specific ":6874,"8/":6875,"JPE":6876,"dar":6877,"thub":6878,"sto":6879,"type is ":6880,"\\fP]":6881,"tty":6882,"you must ":6883,"AL ":6884,"whether the ":6885,"keep":6886,"seek":6887,"HTTP":6888,"Require":6889,"700":6890,"Lim":6891,"ber":6892,"rr ":6893,"ded\\-":6894,"atch ":6895,"big\\-":6896,"analysi":6897,"chos":6898,"permission":6899,"ENVIRONMENT":6900,"\",\n":6901,"3.5":6902,"If\n":6903,"od":6904,"r2":6905,"then":6906,"This\n":6907,"asser":6908,"s\n(":6909,"plus":6910,"subsequ":6911,"float\\-":6912,"\n.if n .sp":6913,"shown":6914,"traditional ":6915,"affect the ":6916,"technical ":6917,"-insn":6918,"1 \"":6919,":v ":6920,"=[":6921,"eq":6922,"design":6923,"ating a ":6924,"expen":6925,"area":6926,"hard\\-float":6927,"dependent":6928,"partition":6929,"****************":6930,"front ":6931,"\n.MR ":6932,"bri":6933,"rm":6934,"\\fI<":6935,".\nFor example, ":6936,"is, ":6937,"isn't ":6938,"frame, ":6939,"compatible":6940,"enable the ":6941,"Book ":6942,"520":6943,"LF":6944,"an un":6945," \\-v":6946,"directori":6947,"run-time ":6948,"differenc":6949,"\"\n.PP\n\\fB":6950,"useful to ":6951,"GPL":6952,"results in ":6953,"\"\nIntel ":6954,"supplied ":6955,"stereo ":6956,"\\*(#H":6957,"sche":6958,"\\s-1":6959,".o":6960,"45":6961,"\\fR\n\\&\\fB\\-":6962,"amer":6963,"\n.Pp\n":6964,"\n\\&        gc":6965,"in the same ":6966,"input video":6967,"depend ":6968,"\\fR and \\fB\\-f":6969,"initialization ":6970,"Like ":6971,"performed ":6972,"709":6973,"omitted":6974,"random":6975,"eturn":6976,"v850e":6977,"analyzer\\-fd\\-":6978,"sheets ":6979," is ":6980," are ":6981,"3.4":6982,"Don't ":6983,"PR":6984,"\n.IP \\fI":6985,"\\f(CW1":6986,"on the\n":6987,"file\\-":6988,"if n ":6989,"option, ":6990,"keyword":6991,"\n\\&\\-ftree\\-":6992,"simpli":6993,"C++ only)\"\nWarn ":6994,"Vertical ":6995,"DocBook ":6996,"assignment":6997,".sf.net":6998,"Emac":6999,"KE":7000,"\\e\n":7001,"\\v'":7002,"samp":7003,"secre":7004,"vice ":7005,"if they ":7006,"\\&. When ":7007,"interactive ":7008,"mode: ":7009,"ident":7010,"\\f[R]: ":7011,"crc":7012,"affects ":7013,"-Wno-analyzer-":7014,"similar to ":7015," .5v":7016,"-list":7017,".w":7018,"Escape ":7019,"~/.":7020,"args":7021,"ghtly ":7022,"github":7023,"functions that ":7024,"L Style":7025,"avoid":7026,"XSL Style":7027,"therefore ":7028,"priority ":7029,"docbook.sf.net":7030,"Permission ":7031,"same\n":7032,"sheets v":7033,"docbook.sf.net/>":7034,"() ":7035,"ical":7036,"reli":7037,"The\n":7038,"fore":7039,"writing ":7040,"FILES":7041,"POD":7042,"H.2":7043,"Name ":7044,"ime":7045,"s\nto ":7046,"16\\-bit ":7047,"ability ":7048,"OPTIONS\"\n.PP\n":7049,"equivalent to":7050,"integer (":7051,"boolean ":7052,"concaten":7053," curl ":7054,"2_":7055,"66":7056,"AA":7057,"x-":7058,"prep":7059,"finish":7060,"interleav":7061,".\n.TH ":7062,"codec ":7063,"audio stream":7064,"\"\nShow ":7065,"Star":7066,"combined ":7067,"invocation":7068,"language":7069,"more than one ":7070,"summary ":7071," \", \" \\-\\-":7072,".\n\\&\\fI":7073,"KiB ":7074,"Same ":7075,"s may be ":7076,"unction":7077," \\-W":7078,"you'll ":7079,"\" 4\n.IX Item \"*<":7080,"proxy":7081,"rules ":7082,"Overri":7083,"course, ":7084,":\\fI":7085,"PAR":7086,"mand":7087,"\\-2":7088,"t a ":7089,"\\fB ":7090,", w":7091,"life":7092,". If the ":7093,"brack":7094,"diff\\-":7095,"trace_":7096,"blue ":7097,"skip ":7098,"decim":7099,"case of ":7100,"e\n\\fBgit-":7101,"destination":7102,"\n.Dq ":7103,":\n.IP \\fB":7104,"bc":7105,"rg":7106,"round":7107,"at all":7108,"vileg":7109,"mean ":7110,"\\fP option ":7111,"-fsanitize=":7112,"initializer":7113,"inlining":7114,"returned ":7115,"File ":7116,"macros ":7117,"fetch ":7118,"rounding ":7119,"efficient ":7120,"transparen":7121,"analyzer ":7122,"quality ":7123,"develop":7124,"fc":7125,"flow ":7126,"\n\\&.":7127,"poten":7128,"doing ":7129," 0\n.":7130,"\\f[V]jav":7131,"byte-size":7132,"save":7133,"COMP":7134,"small data ":7135,"alternative ":7136,"FETCH":7137,"WARE":7138,"I/O ":7139,"\n.if t .sp":7140,"\"\n.It Li \"":7141,"Beg":7142,"\\-A ":7143,"al_":7144,"\\fB\\-M":7145,"\" (":7146,"edg":7147,"iso":7148,"RECT":7149,"other than ":7150,".\n.IP \\fB\\-mp":7151,"object file ":7152,"gnu++":7153,"plane":7154,"\t\t\t\t":7155,"index entries ":7156,"x86 ":7157,"project":7158,"could be ":7159,"socket ":7160,"layout ":7161,"Java ":7162,"-to-":7163,"1.\n.IP \\fB":7164,"don":7165,"dst":7166,"une ":7167,"expo":7168,".\nIf":7169,"ate\\-":7170," 0\n.if ":7171,"linking":7172,"formats ":7173,"its own ":7174,"240":7175,"coreutil":7176,"scope ":7177,"nvidia\\-smi ":7178,"bg":7179,"pfx":7180,", \\fI":7181,"que ":7182,"warns about ":7183,"s to a ":7184,"addresses":7185,"standard input":7186,"Post":7187,"cipher":7188,"comparison":7189,"resolution ":7190,"chosen ":7191,"Simil":7192,"Tex":7193,"bus":7194,"m'\\":7195,"s\"\nSet ":7196,"|\\\\n":7197,"\\-in\\-":7198,"\\fBld":7199,"ing\nthe ":7200,"tr ":7201," 1 \"":7202,"instruc":7203,"char *":7204,"ISA ":7205,"\\\\k":7206,"source file ":7207,"\\n(.g .if ":7208,"discar":7209,"potenti":7210,".6":7211,"RL":7212,"Ub":7213,"simul":7214,"active":7215,"max ":7216,"ations ":7217,"with\n\\fB":7218,"has an ":7219,"stop ":7220,"Print the ":7221,"evaluated ":7222,"LZMA":7223,"Begin ":7224,"<path":7225,"FA":7226,"iee":7227,"wron":7228,"xd":7229,"lea":7230,"and is ":7231,"exact":7232,"edge ":7233,"if no ":7234,"pream":7235,"render":7236,"errors ":7237,".\n.TP\n.BI ":7238,"\"\nPro":7239,"printer ":7240,"features ":7241,"above, ":7242,"third ":7243,"2\\fR ":7244,"User":7245,"want ":7246,", \"":7247,"dimen":7248,"runn":7249,"values for \\fI":7250,"hostname":7251,"assembler":7252,"\n..\n.\\\" ":7253,"documentation":7254,"query":7255,"Run ":7256,"yourself ":7257,"authentication ":7258,"PG":7259,"f course, ":7260,"liary ":7261,".  To ":7262,".\n\n.TP\n.B  --":7263,"for\n.\\\" ":7264,"agent":7265,"within a ":7266,"2023":7267,"2222":7268,"sanitizer":7269,"strict-":7270,"\n.Dv ":7271,"developer":7272,"Accep":7273,"\\\\$2\"":7274,"nothing in ":7275,"(0x":7276,"pal":7277,"v\\fR ":7278,"\\fBgit ":7279,"viol":7280,"ick":7281,"contains a ":7282,"applied ":7283,"Mak":7284,"\"\n.IX Header \"":7285,"\"\n.RE\n.RS 4\n.RE":7286,"HIST":7287,"Na":7288,"SGS":7289,"kind ":7290,"\\fR options ":7291,"direction":7292,"maj":7293,"The following ":7294,"with \\f(CW\\*(C`":7295,"auxi":7296,"disable the ":7297,"Direc":7298,".\n.Sp\n\\&\\fB":7299,", FMA":7300,"\\h'-(":7301," \\\" ":7302,"\"\\\\$2\"":7303,"ATION":7304,"epi":7305,"gar":7306,"\"\nFor ":7307,"asan-":7308,".\nSee ":7309,"See":7310,"the\n\\fB\\-\\-":7311,"checking ":7312,"cpu-type":7313,"standard input ":7314,"determine the ":7315,"parent ":7316,"PKCS":7317,"intended for ":7318,"bene":7319,"0\n":7320,"Clas":7321,"X<":7322,"alo":7323,"fade":7324,"if !":7325,"you to ":7326,"by\nthe ":7327,"100 ":7328,"ANY ":7329,"0)) ":7330,".  Always ":7331,"27":7332,"bar ":7333,"tm ":7334,"s for the ":7335,"\\fR/":7336,"unles":7337,"prefetch":7338,"type\n":7339,"generic":7340,"framer":7341,"value of the ":7342,"define ":7343,"trivi":7344,"operand":7345,"Provi":7346,"handled ":7347,"groff's ":7348,"High":7349,"UID":7350,"unzip":7351,"from groff ":7352,"; the ":7353,"substring ":7354,"_\\|_\\*(C'\\fR ":7355,"\\fR \\fIfilename":7356,"count\\-":7357,"making ":7358,"documents.\n.":7359,"MODE":7360,"items (":7361,"\n.Em ":7362,"dictionary ":7363,"07/02/":7364,"8)":7365,"[=\\fI":7366,"o\n":7367,"s\\fR, \\fB":7368,"ensure ":7369,"\n.IP \\fB\\-f":7370,"\\fP] [":7371,"generic ":7372,"substitu":7373,"classe":7374,"connect ":7375,"assumed ":7376,"division":7377,"chroma":7378,"download":7379,"DNS ":7380,"Pod::Man ":7381,"significant ":7382,"case the ":7383,"since dpkg 1.1":7384,"'F'":7385,".\n\\&\\fB":7386,".ad l":7387,"_fov":7388,"bzip":7389,"There are ":7390,"as follow":7391,"we'll ":7392,"TH), ":7393,"entium":7394,"input\n":7395,"compiler to ":7396,"executed":7397,"\\e\\e":7398,"flag is ":7399,"(7)":7400,"aggres":7401,"visibility":7402,"Microsoft ":7403,"Index:":7404,"Graph":7405,"nr":7406,"ring ":7407,"sph":7408,"\\fI$":7409,"useful":7410,"files that ":7411,"if \\n":7412,"use .":7413,"IND":7414,"\"\n.PD\nUse ":7415,"s\\fR.\n.SS ":7416,"\n.fi\n.RE":7417,"space (when ":7418,"methods ":7419,"copyright ":7420,"justification":7421,"/tmp/":7422,"Ubuntu":7423,"%\\t":7424,"' \"":7425,"(s) ":7426,"bel":7427,"\\-version":7428,"or\n\\fB":7429,"tion\n":7430,"\\fR to the ":7431,"\n.IX Title ":7432,"\n.B  ":7433,"part":7434,"pick":7435,"data/":7436,"If the F ":7437,"\\fR]\n        ":7438,"\\\\n%\\t":7439,"obtain":7440,"\"\n.IP \\fI":7441,"Git Manual":7442,"ite\\-":7443,"CW\n.nf":7444,"'\n'br\\}":7445,"Setting ":7446,"Pod::Simple ":7447,".  Of course, ":7448,"(c) ":7449,"\n.ne \\\\$1":7450," .5v\n.if n .sp":7451,"if \\nF ":7452,"\n.IX Title \"":7453,"CW\n.nf\n.ne \\\\$1":7454,"% 0\n.":7455,"ner ":7456,"nb_":7457,"v1":7458,"e \\\" ":7459,"\\-p":7460,"\\fB\\-d":7461,"sity ":7462,"on stderr ":7463,".\n.PP\nFor ":7464,"more":7465,"For nroff, ":7466,"addresses ":7467,"strings from ":7468,"You may ":7469,"way too many ":7470,"keep\\-":7471,"we can't ":7472,"\n.nh\n.SH NAME\n":7473,"NULL":7474,"followed by a ":7475,"\\t\\\\n%\\t":7476,"FORMAT":7477,"\"\\\\$2\"\n..\n.":7478,"tm Index:":7479,")\n.if t .sp":7480,"DIS":7481,"s\n.RS 4\n":7482,"restri":7483,"the current ":7484,", a":7485,".\n.ie \\n(.g ":7486,"in POD":7487,"protection ":7488,"fauto\\-":7489,"\\*(C` and ":7490,"Sp \\\" ":7491,"output yourself ":7492,".Ip":7493,"SS), ":7494,"links ":7495,"filtered ":7496,"F .":7497,"separator":7498,"branches ":7499,"requirement":7500,"| \\-\\-":7501,"b \\\" ":7502,", AVX512V":7503,"decoder":7504,"FPv":7505,", for use with ":7506,"\\\\$1\\t\\\\n%\\t":7507,"s (.SH":7508,"s (.TH), ":7509,"revision":7510,"together":7511,"titles (.TH), ":7512,"hyphenation; it ":7513,"PP)\n.if t .sp":7514,"choice":7515,"makes\n.\\\" ":7516,"C<>":7517,"preamble":7518,"nothing in troff":7519,"SGSBASE":7520,"epilog":7521,"items (.Ip":7522,"\\*(C` and \\*(C'":7523,"(default":7524,"2\n.        ":7525,"5/":7526,"F==":7527,"ND":7528,"Rec":7529,"hl":7530,"rF .":7531,"\\-size":7532,"lead ":7533,"        if !":7534,".  F":7535,"adap":7536,"REPORT":7537,"\n.TE":7538," 1\n.if ":7539,"Debi":7540,"INCL":7541,"storage ":7542,"to be used ":7543,"aligned ":7544,"> in POD":7545,"\\f(CW\\*(C`at90":7546,"\\nF==":7547,".g==":7548,"long-":7549,"scalar ":7550,"headers (.SH":7551,"e.g., ":7552,"es in technical ":7553,"rF:":7554,"s (.SS), ":7555,"\\m[blue":7556,"\n.de Sp \\\" ":7557,"'br\\}\n.el":7558,"\n..\n.de Vb \\\" ":7559,"text\n.ft R\n.fi":7560,"(\\n(.g==":7561,"(\\n(rF:":7562,"de IX\n.        ":7563,"nr rF 1\n.if ":7564,"_\\|_AVR_HAVE_":7565,"have to process ":7566,"marked with X<":7567,"\\-guard\\-":7568,"End verbatim ":7569,"Avoid warning ":7570,"\\}\n.    \\}\n.\\}\n.":7571,"rr rF":7572,"if n .ad l":7573,"Escape single ":7574,"github.com/":7575,"\\n(.g .if rF .":7576,"Begin verbatim ":7577,"groff's Unicode ":7578,"'F'.\n.":7579,"we'll generate ":7580,"we can't use .":7581,"\\nF==2 ":7582,"\\m[blue]":7583,">0, ":7584,"HF":7585,"IT ":7586,"lt":7587,"inhi":7588,"coordin":7589,"wide ":7590,"streams ":7591,"gawk":7592,"\n.\\\"\n.IX Title \"":7593,"about undefined ":7594,"controll":7595,"), subsection":7596,"F 2\n.        ":7597,"SOFT":7598,"Link ":7599,"\n..\n.nr rF":7600,"little\\-":7601,"produces ":7602,"SPARC":7603,"\\{\\\n.        ":7604,"acros":7605,"invoked ":7606,"\n..\n.de Ve \\\" ":7607,"\\{\\\n.    if \\nF ":7608,"'\n'br\\}\n.\\\"\n.\\\" ":7609,"(\\n(.g==0)) ":7610,"'F'.\n.de IX":7611,"\\nF==2 \\{\\\n.":7612,"lto":7613,"sk ":7614,"sort ":7615,"\\f(CW\\*(C`_":7616,"when using ":7617,"pho":7618,"name of a ":7619,"ARCH":7620,"histo":7621,"content":7622,"index\n.\\\" ":7623,"shift\\-":7624,"register is >0, ":7625,"3.43)":7626,"preamble:\n.\\\" ":7627,".txt":7628,"MS":7629,"icon":7630,"in all ":7631,"pie":7632,"mini":7633,"\"\n.PD 0\n.IP \"\\fB":7634,"also enables ":7635,"opencl":7636,"\n.TP\n\\fB":7637,"access":7638,"https://c":7639,"the default for ":7640,"cycle":7641,"chroma_":7642,"parenthe":7643,"security":7644,"rectang":7645,"engine":7646,"3.43)\n.\\\"\n.\\\" ":7647,"-only ":7648,"vel":7649,"\\fR can be ":7650,"loong":7651,"unknown ":7652,"hier":7653,"canon":7654,"positive ":7655,"\"\nPas":7656,"is the default":7657,"GPU":7658,"RFC ":7659,"builtin ":7660,".mit":7661,"FC":7662,"a\\*(C'\\fR, ":7663,"consum":7664,"and\nthe ":7665,"SSI":7666,"appended ":7667,"charset":7668,"utility ":7669,"feature is ":7670,"allocated ":7671,"\n.RE\n.PP\n\\fB":7672,"implementation ":7673,"except for ":7674,"cyc":7675,"coverage":7676,"Copyright (c) ":7677,"bottom":7678,"under the term":7679,"x86\\-64 ":7680,"abbrevi":7681,"native":7682,"Valu":7683,"STRING":7684,"Memory ":7685,"' \"\"\n":7686,"SOFTWARE":7687,"histogram":7688,"_DE":7689,"ture":7690,"restor":7691,"with \\fB\\-\\-":7692,"you should ":7693,"addressing ":7694,"expressed ":7695,"\n.TP\n.BI \\-":7696,"install ":7697,"partial ":7698,"\n.    ds C' \"\"\n":7699,"visible ":7700,"laten":7701,"frag":7702,"-spec":7703,"tv":7704,"s all ":7705,"seq":7706,"changes in ":7707,"loops":7708,"complex ":7709,"\\fP, \\fB--":7710,"features":7711,"emitted ":7712,"PREFETCH":7713,"trace\\-cmd\\-":7714,"relocatable":7715,"\nare ":7716," CW":7717,"2]":7718,"C\\-":7719,"NO ":7720,"Pre":7721,"ost":7722,"x\n":7723,"the output ":7724,", --":7725,"unrol":7726,"plus ":7727,"16C":7728,"\\*(Aqs ":7729,"throw":7730,"latter ":7731,"anything ":7732,"computed ":7733,"RANT":7734,"database":7735,"SU":7736,"\\-reloc":7737,"req":7738,"re.org/":7739,"the number of ":7740,"\"\nMaximum ":7741,"s, so ":7742," 1.":7743,"warns ":7744,"import ":7745,"set\n":7746,"programm":7747,"optimized ":7748,"we.mit":7749,"Addition":7750,"via the ":7751,"title ":7752,"WARRANT":7753,"virtual":7754,"Tran":7755,"recognized ":7756,"leading ":7757,"big-endian ":7758,"https://cwe.mit":7759,"2,":7760,"3\\-":7761,"OTH":7762,"SK":7763,"c3":7764,"lr":7765,"ded, ":7766,"\"\nChang":7767,"shoul":7768,"\\&. It ":7769,"out the ":7770,"\n\\&\\-mp":7771,"\n\\&\\-mcustom\\-f":7772,"mainly ":7773,"medium":7774,"\\fR \\fB5":7775,"increase":7776,"recursiv":7777,"gpg":7778,"dpkg-":7779,", FSGSBASE":7780,"PTS":7781,"slightly ":7782,"scheme":7783,"garb":7784,"0,":7785,"[no\\-":7786,"ding\n":7787,"md":7788,", and\n":7789,"strong":7790,"\\fB\\-mcpu":7791,"\n.B .":7792,"time, ":7793,"AMD ":7794,"pack ":7795,"Note that this ":7796,"nested ":7797,"ation, Inc":7798,"choose ":7799,"At":7800,"eb":7801,"ante":7802,"detection":7803,".\n.RS":7804,"as\\-":7805,"ed.  ":7806,"ates the ":7807,"\\fR \\fIname":7808,"auto\\-":7809,"video stream":7810,"correctly ":7811,"half ":7812,"constructs ":7813,"auxiliary ":7814,"-p":7815,"89":7816,"in order to ":7817,"This command ":7818,"ourn":7819,"utf-":7820,"documented ":7821,"privileg":7822,"mode is ":7823,"14\n.B \\-":7824,"cryptographic ":7825,"unsafe\\-":7826,"coding: ":7827,"[no\\-]":7828,"A\\-":7829,"is also ":7830,"y to ":7831,"for which ":7832,"option to ":7833,"] <":7834,"general ":7835,"passph":7836,"compiler\n":7837,"Open ":7838,"reading ":7839,"color=":7840,"synthe":7841,".  If you ":7842,"mapping ":7843,"identifier":7844,"treated as ":7845,"contain the ":7846,"-based ":7847,"Name":7848,"eded ":7849,"osed ":7850,"ting the ":7851,"stat ":7852,"linux ":7853,"names are ":7854,"types of ":7855,"(1)\n":7856,"ARG":7857,"THIS ":7858,"Report ":7859,"level_":7860,"how many ":7861,"simple":7862,".\n.TP 14\n.B \\-":7863,"reachable ":7864,"-*-\n.\\\" ":7865,"regardles":7866,"SOURC":7867,"FLAGS":7868,"),":7869,"-U":7870,"DL":7871,"\\et":7872,"cnt":7873,"yes":7874,"rot":7875,"magi":7876,"can be disabled ":7877,"number of the ":7878,"output, ":7879,"256 ":7880,"offload":7881,"util\\-":7882,"improve ":7883,"stereo":7884,"derived ":7885,"NOTES":7886,"nano":7887,"UBLE":7888,"guarante":7889,">\n.br\n":7890,"ased ":7891,"anch":7892,"retri":7893,"tes":7894,"\" or \"":7895,"it can ":7896,"synony":7897,"\\fB\\-Wextra":7898,"each\n":7899,"32\\-bit":7900,"profile-":7901,"like this":7902,"Link":7903,"inserted ":7904,"API ":7905,"forward ":7906,"2\\&.":7907,"Other ":7908,"hard ":7909,"ann":7910,"is gran":7911,"coefficient":7912,"ade ":7913,"rest ":7914,"format, ":7915,"libav":7916,"code-":7917,"1111":7918,"standard output ":7919,"AND ":7920,"small\\-":7921,"recover":7922,"[\\fI\\,":7923,"\n.RE\n.RS 4\n.Sp\n":7924,"show the ":7925,"DOUBLE":7926,"letter ":7927,"\n.INDENT 3.5":7928,"\\\\k:":7929,"After ":7930,"\\\n\t":7931,"sra":7932,"t.":7933,"incorrect ":7934,"\\-madd":7935,", BMI":7936,"cond\\-":7937,"parts ":7938,"only when ":7939,"display the ":7940,"show_":7941,"See  CW":7942,"AN ":7943,"mapping":7944,"\n\\&            |":7945,"copies ":7946,"definitions/":7947,"probability":7948,"fused\\-madd":7949,"|\\\\n:":7950,"little\\-endian":7951,"\\\n\t/":7952,"See  CWE\\-":7953,"/path":7954,"Str":7955,"Vari":7956,"[rr_":7957,"aw":7958,"done":7959,"however":7960,"\\-path":7961,"refer ":7962,"AME ":7963,"printing ":7964,"sanitize\\-":7965,"upper ":7966,"long double":7967,"shift ":7968,"'\\\"\n.de ":7969,"__AVR_":7970,"SAHF":7971,"\\:\\%":7972,"'\\*[.T]'ps' .ds ":7973,"re.org/data/":7974,"EB":7975,"bypas":7976,"val ":7977,"inc":7978,"incompatible ":7979,"\\-v":7980,"\\fR.\n.IP \"\\fB":7981,"roo":7982,"\"\n\t":7983,"        \"":7984,"optionally ":7985,"name=":7986,"data is ":7987,"showing ":7988,"deno":7989,"dependency ":7990,".wav":7991,"39":7992,"nor ":7993,"er=":7994,"or equal ":7995,"for\nthe ":7996,".\n.Sp\nIn ":7997,"enabled\n":7998,"functions.  ":7999,"required":8000,"selected":8001,"modul":8002,"Display":8003,"release ":8004,"rr rF\n.\\\" ":8005,"inputs ":8006,"\n.B xz\n":8007,"rtmp":8008,"login ":8009,"arguments are ":8010,"\n.nf\n curl ":8011,"Config":8012,"possibly ":8013,"locale ":8014,"operations ":8015,"OpenSSL":8016,"written by ":8017,"MIPS":8018,"weigh":8019,"licenses":8020,"SL":8021,"a, ":8022,"peak":8023,"magn":8024,"formatted ":8025,"versions ":8026,"overflow ":8027,"aliasing":8028,"Otherwise, ":8029,"depending on ":8030,"-mno-f":8031,"e\\&.g\\&. ":8032,"Debian ":8033,"4-":8034,"Mac":8035,"cel":8036,"idi":8037,"\n.\n.IP \"":8038,"amin":8039,"\"\nEx":8040,"es.\n":8041,"ed and ":8042,"an integer ":8043,"toc":8044,"if it is ":8045,"ation (":8046,"all of the ":8047,"\\fP=\"":8048,"\"\nAssume ":8049,"because it ":8050,"suppress ":8051,"prologu":8052,"Blue":8053,"VALUE":8054,"launch":8055,"latency":8056,"(\\fI":8057,"gl":8058,"\\fR [\\fI":8059,"tive\n":8060,"\\&. Se":8061,"ated by ":8062,"namespace ":8063,"tab ":8064,"instructions to ":8065,"; coding: ":8066,"read_":8067,"backslash":8068,"level of ":8069,"htm":8070,"void *":8071,"troff; coding: ":8072,"little-endian":8073,"\\~ ":8074,"\\w'\\fB":8075," are quotes in ":8076,"restriction":8077,"C<>.\n.ie n ":8078,"utf-8 ":8079,"ta ":8080,"\\fR | ":8081,"coming ":8082,"\\fR\nand\n\\fB":8083,"per\\-":8084,"when it ":8085,"passing ":8086,"issue ":8087,"corresponds ":8088,"Archi":8089,"alternate ":8090,"reverse ":8091,"(x, y":8092,"comparison ":8093,"\n.SM\n.B ":8094,"5.01 (":8095,"\n.RB [ \\-":8096,"utf-8 -*-\n.\\\" ":8097,"(and ":8098,");":8099,"ks ":8100,"mv":8101,"coding ":8102,"ress ":8103,"file \\fI":8104,"from the\n":8105,"bod":8106,"pair ":8107,"maximum":8108,"creating ":8109,"color_":8110,"harden":8111,"program is ":8112,"\n.TP\n\\fB\\-\\-no\\-":8113,"contents of the ":8114,"-*- mode: ":8115,"((":8116,"VFPv":8117,"{\"":8118,"\\fB\\-l":8119,"for-":8120,"The \\fB":8121," \\-1":8122,".\n.Pp":8123,"\\-fallthrough":8124,"functions are ":8125,"32r":8126,"is\nnot ":8127,"\\fB\\-O3":8128,"Specifying ":8129,", SSE3":8130,"insns-":8131,"\n\n  ":8132,"parameter is ":8133,"move\\-":8134,"bf5":8135,"-in-":8136,"\\-\\-enable\\-lib":8137,"\"\nCompile for ":8138,"constexpr":8139,"Pod::Man 5.01 (":8140,"(if ":8141,"2n":8142,"[=<":8143,"\\'":8144,"cpp":8145,"h2":8146,"s.\n.PP\nThe ":8147,"t/":8148,"\\fR [":8149,"usag":8150,"asy":8151,"white ":8152,"quanti":8153,"name of ":8154,"green ":8155,"ally\n":8156,"\n.RE\n.RS 4\n.PD":8157,"named \\fI":8158,"performance":8159,"sdata=":8160,"lzma":8161,"big\\-endian":8162,"loongson":8163,"*.":8164,"OF":8165,"WB":8166,"YU":8167,"sx":8168,"sort":8169,"vp":8170,"degre":8171,"P 1":8172,"did ":8173,"in effect":8174,"mag":8175,". This option ":8176,"an error":8177,"use) the ":8178,"due to ":8179,"export ":8180,"\\fR\\fB\\fI":8181,"trees":8182,"ARM ":8183,"compile":8184,"e.g.":8185,"distribution ":8186,"use\\-after":8187,"exceed":8188,", SSE4.2, POPCNT":8189,"\n'\\\" t\n.\\\"     ":8190,"(the ":8191,"*\n.\\\" ":8192,"d\\fR ":8193,"one-":8194,"sifi":8195,"\n\\&  ":8196,"it's ":8197,"values\n":8198,"options that ":8199,"\\*(C'\\fR section":8200,"disk ":8201,"one of":8202,"only) ":8203,"openmp":8204,"capture ":8205,"implement ":8206,"3333":8207,".\n.TP 8\n.B ":8208,"priority":8209,"try to ":8210,"stream_specifier":8211,"Currently ":8212,"7.0":8213,"Ri":8214,"yel":8215,"\\fB\\-\\-help":8216,"enable-":8217,"impor":8218,"specified in ":8219,"filter will ":8220,"check\\-":8221,"module-":8222,"both the ":8223,"going ":8224,"NUM":8225,"46":8226,"At ":8227,"emac":8228,"s.\n.IP \"\\fB":8229,"twi":8230,"anon":8231,"of \\f(CW\\*(C`":8232,"aby":8233,"for details":8234,"s, which ":8235,".\n.Sp\nWhen ":8236,"predict":8237,"INT":8238,"ground":8239,"setting the ":8240,"tracking ":8241,"public":8242,"Format":8243,"er than the ":8244,"extern\\-":8245,"needs to be ":8246,"REPORTING ":8247,"BR":8248,"Loc":8249,"hy":8250,"p16":8251,"s\" ":8252,"ded-":8253,"stag":8254,"opac":8255,"itu":8256,". When ":8257,"vim":8258,"agar":8259,"int\\-":8260,"128 ":8261,"bitmap ":8262,"hot":8263,"Example:":8264,"\\\\$1 ":8265,"plane ":8266,"recursion":8267,"sometimes ":8268,"step":8269,"2023 ":8270,"relevant ":8271,"dimension":8272,"0:":8273,"It":8274,"Pack":8275,"intr":8276,"\\-compare":8277,"one is ":8278,"\\fR\\&.\n.sp\n":8279,"abor":8280,"in the current ":8281,"follow ":8282,"started ":8283,"blan":8284,"quality":8285,"Multiple ":8286,"regardless of ":8287,").\n.PP\n":8288,"Text":8289,"eabi":8290,"journ":8291,"to avoid ":8292,"wish":8293,"unused ":8294,"else ":8295,"ts a ":8296,") are ":8297,"specific":8298,"\\fP=":8299,"\\fR\\fB:\\fR\\fI":8300,"link-time ":8301,"\\&.\n.RE\n.sp\n":8302,"linear ":8303,"different\n":8304,"applied to ":8305,"video_":8306,"architectures":8307,"settings ":8308,"performs ":8309,"eye ":8310,"armv6":8311,"save\\-temp":8312,"pseudo":8313,"arbitrary ":8314,"\\m[blue]\\fB":8315,"Read ":8316,"RND":8317,"k\\-":8318,"lou":8319,"weak":8320,"on-":8321,"situ":8322,"\n.RS\n":8323,"comma ":8324,"following\n":8325,"applies ":8326,"\n.br\n.B ":8327,"convert ":8328,"some\n":8329,"provided":8330,"alpha":8331,"volatile":8332,"desired ":8333,"\noption ":8334,"CA ":8335,"ids ":8336,"pf":8337,"lexi":8338,"fit ":8339,"l -":8340,"string\n":8341,"preset":8342,"\\(dq":8343,"While ":8344,"enclo":8345,"flags":8346,"sync":8347,"  \\-mp":8348,"relative to the ":8349,", FXS":8350,"addition, ":8351,"bit-field ":8352,"freedesktop":8353,"can\nbe ":8354,"big-endian":8355,"growth":8356,"\"\nDump after ":8357,"dangl":8358,"Both ":8359,"22222":8360,"fauto\\-profile":8361,"PREFETCHW":8362,", BMI2, ":8363,"/var":8364,"api":8365,"center":8366,"\\-info":8367,"X and ":8368,"for any ":8369,"such\n":8370,"spec\\-":8371,"\\fR\nwill ":8372,"perc":8373,"lying ":8374,"scen":8375,"input and ":8376,"runs ":8377,"get the ":8378,"private":8379,"atomic":8380,"free software":8381,".\\|.\\|":8382,"advant":8383,"ASCII ":8384,"\nwith ":8385,"BF":8386,"Cap":8387,"c0":8388,"fut":8389,"s \\-":8390,". (":8391,"it the ":8392,"pped ":8393,"pre-":8394,"ctl ":8395,"input stream":8396,"s\"\nEnable ":8397,"This is a ":8398,"candi":8399,"optimizations ":8400,".\n\nThe ":8401,"issued ":8402,"combination ":8403,"with\n\\fB\\-\\-":8404,"rsa":8405,"width and ":8406,"expanded ":8407,");\n\\&          ":8408,"PowerPC":8409,"means that the ":8410,"wrapper ":8411,"choice ":8412,"backward ":8413,"luma ":8414,"\n.RE\n.PP\n\\fI%":8415,"\n.fi\n\nSee also ":8416,"\nin ":8417,"-string":8418,"IB":8419,"rejec":8420,"its\n":8421,"compact":8422,"tram":8423,"clone":8424,"ted-":8425,"Altern":8426,"), \\fB":8427,"sequenti":8428,"passed to the ":8429,"removed":8430,"copied ":8431,"alternativ":8432,"omitted ":8433,"handler ":8434,"preferred ":8435,"jpeg":8436,"licenses/":8437,"future":8438,"':":8439,"blob":8440,"gprof":8441,"demang":8442,"for an ":8443,"reserv":8444,"filesystem ":8445,"intermedi":8446,"command to ":8447,"compressed":8448,"presence ":8449,"matched ":8450,"appeared ":8451,"send_":8452,"\\\\n(.w":8453,"\\h'-(\\\\n(.w":8454,"unless the ":8455,"\\\\k:\\h'-(\\\\n(.w":8456,"trampo":8457,"\\\\k:\\h'-(\\\\n(.wu":8458,"elf":8459,"trust ":8460,"\\*(C'\\fR for ":8461,"board":8462,"will be used ":8463,"web ":8464,"Addres":8465,"large":8466,"frame rate ":8467,"equivalent":8468,"dynamically ":8469,"PEM":8470,"bt2020":8471,"purpose":8472,"interrupt ":8473,"*\\-*\\-":8474,"GOT ":8475,"-\\*(#H":8476,".\"":8477,"=4":8478,"Gro":8479,"IF":8480,"VP":8481,"fy ":8482,"got":8483,"gaby":8484,"\\fR\\m[":8485,"ambi":8486,"dither":8487,"compac":8488,".\n.IP \\fBf":8489,"tive\\-":8490,".\n.Sp\nFor ":8491,"] [\\-":8492,"SION":8493,"per second ":8494,"Document":8495,"force_":8496,"PKG_":8497,"TERN":8498,"feedback ":8499,"29":8500,"Cer":8501,"SSH":8502,"categ":8503,"satur":8504,"vend":8505,"lip":8506,"scroll":8507,"\n\\fB<":8508,"memory\n":8509,"dsa":8510,"increas":8511,"underst":8512,"kilo":8513,"mouse ":8514,"highligh":8515,"\n.RI [ ":8516,"Convert ":8517,"655":8518,"Beca":8519,"Dec":8520,"MC":8521,"ML ":8522,"dB ":8523,"reset ":8524,"\\fB\\-ff":8525,"to \\fB":8526,". It is ":8527,"\n.PP\n\\fI":8528,"directive":8529,"namespace":8530,"keyword ":8531,"creates ":8532,"than the ":8533,"symlink":8534,"print\\-":8535,"day":8536,"ffmpeg \\-":8537,"machine-":8538,"32 bit":8539,"probably ":8540,"comma-separated ":8541,"remaining ":8542,"Instead ":8543,"/\\-":8544,"C/":8545,"El":8546,"]\"\n":8547,"gs":8548,"than\n":8549,"exces":8550,"assump":8551,"options:":8552,"can only be ":8553,"neither ":8554,"without":8555,"\n.RS 4\nShow ":8556,".\n.IP \"\\-\\-":8557,"so, ":8558,"have no ":8559,"Options ":8560,"authoriz":8561,"core\\&.":8562,"instrumentation ":8563,"linux/":8564,"wrapper":8565,"like the ":8566,"overlap":8567,": @tab X\"\n.PD 0":8568,"profiling ":8569,"HISTORY":8570,"independent ":8571,"annot":8572,"desc":8573,"files.  ":8574,"\n.BI \\-":8575,"in the range ":8576,"section\\-":8577,"\\*(C'\\fR.\n":8578,"defines the ":8579,"time\n":8580,"dumppfx":8581,"s.\n\n":8582,"ipul":8583,"hoist":8584,"without a ":8585,"shared\\-":8586,"\n.It Fl ":8587,"per second":8588,"Most ":8589,"\\/\\fR]":8590,"verify ":8591,"Select the ":8592,"need to be ":8593,"armv7":8594,"silence ":8595,"have the same ":8596,"Otherwise":8597,"std=c++":8598,"ipa-cp":8599,"constrain":8600,"dwarf":8601,"earlier ":8602,"OPENSSL":8603,"-relative ":8604,"0 and ":8605,"30 ":8606,"S/":8607,"Time":8608,"_list":8609,"finger":8610,"ira":8611,"ute ":8612,"\n..\n":8613,"decryp":8614,"tion is ":8615,"wildc":8616,".\n.Sp\nSee  CWE\\-":8617,"prun":8618,"...\n\\&        ":8619,"looks ":8620,"gamma":8621,"magnitu":8622,",=":8623,"-bit ":8624,".avi":8625,"SD":8626,"bad":8627,"mx":8628,"\\fB+":8629,"see\n":8630,".  Use ":8631,"by using the ":8632,"\\fR, or ":8633,"\n.BI ":8634,"num\\fR ":8635,"SEED":8636,"backend":8637,"Alph":8638,"FIL":8639,"execute":8640,"see \\fB":8641,"allocate ":8642,"indicates ":8643,"scheduling":8644,"something ":8645,"tls\\-":8646,"latenc":8647,"addition to the ":8648,"job ":8649,"schedule\\-":8650,"replacement ":8651,"mkv":8652,"grid ":8653,"subsequent ":8654,"hierarch":8655,"\"\n.RE\n.RS 4\n.PD":8656,"USH":8657,"ones":8658,"\\fB\\-c":8659,"\"\nSets the ":8660,"and-":8661,"files (":8662,"the\n.Ic ":8663,"file (":8664,"fill":8665,"\\fP[=":8666,"disables the ":8667,"selects the ":8668,"recursive":8669," \\-mno\\-":8670,"dialo":8671,"period ":8672,"\n.Xr ssh":8673,"inherit":8674,"\\[lq]":8675,"\n\\-":8676,").\nThe ":8677,"BIT":8678,"C99":8679,"GER":8680,"LP":8681,"We ":8682,"email":8683,"four ":8684,"digest":8685,"contra":8686,"if an ":8687,"-mx":8688,"only one ":8689,"signed":8690,"expressed in ":8691,"transforma":8692,"media ":8693,"By default, the ":8694,"additionally ":8695,"drop":8696,"child":8697,"POSIX ":8698,"mechanism ":8699,"enough ":8700,"advantage ":8701,"(s)":8702,"kb":8703,".  On ":8704,"The default ":8705,"pool":8706,") \\\n\t/":8707,"-mcpu=":8708,"if-":8709,"changes the ":8710,"no longer ":8711,"inlining ":8712,"normal":8713,"END":8714,"power ":8715,"compute ":8716,"resolved ":8717,"'\\\"\n'\\\"\t":8718,"\\\\n[rr_i":8719,"aggreg":8720,"'u\n\\fB":8721,"s\\fR\\|(1)":8722,"Synta":8723,"-v":8724,"API":8725,"bal":8726,"cb":8727,"well ":8728,"\\fR.\nThe ":8729,"c (":8730,".\n.Sp\nIf the ":8731,".\n.Sp\nWith ":8732,"does not\n":8733,"files in the ":8734,"debug_":8735,"STAT":8736,".\n.SH AUTHOR":8737,"little ":8738,"cortex\\-a7":8739,"\\*[an-":8740,"reserved ":8741,"HP \\w'\\fB":8742,"SYSTEMD":8743,"/var/":8744,"( ":8745,":\n.sp":8746,"\\fB\\-x":8747,"That ":8748,"in that ":8749,"of the current ":8750,"tty ":8751,"functions\n":8752,"passes":8753,"ISO":8754,"preser":8755,"written":8756,"DIF":8757,"behaviour ":8758,"s of the GNU ":8759,"dbus":8760,"starting from ":8761,"precedence ":8762,"Normally ":8763,"trigger":8764,"distance ":8765,"Ubuntu ":8766,"5:":8767,"5\n\\&        ":8768,"San":8769,"[+":8770,"s\\&.\n.sp\n":8771,"eri":8772,"or not ":8773,"to make ":8774,"\n.Pa ":8775,"with this ":8776,"\n\\&        # ":8777,"aries ":8778,"the\n\\fI":8779,"1234":8780,"directory, ":8781,"Options\"":8782,"to\nbe ":8783,"switch\\-":8784,"get_":8785,"frequency":8786,"tls":8787,"dereference":8788,"System V":8789,"mostly ":8790,"NaN":8791,"PKCS#":8792,"XD":8793,"\\'\n":8794,"_mode":8795,"cat ":8796,"hint":8797,"home ":8798,"\n.I \"":8799,"\\(lq":8800,"support the ":8801,"Dep":8802,"regexp":8803,"\\-block":8804,"diagnosed ":8805,"select the ":8806,"max-inline-":8807,"24 ":8808,"execution":8809,"clip":8810,"May ":8811,"hostname ":8812,"prefix\\-map":8813,"property":8814,"merge\\-":8815,"credential":8816,"kind of ":8817,"-width ":8818,"84":8819,"cell":8820,"fcmp":8821,"s=\\fR\\fI":8822,"the \"":8823,"is an ":8824,"cook":8825,"\"\nForce ":8826,"for (":8827,".  These ":8828,"\\f(CW\\*(C`f":8829,"\\f(CW\\*(C`vml":8830,"it will be ":8831,"-mips":8832,"preprocessed":8833,"ward":8834,"created":8835,"treat":8836,"\n\\&\\fB\\-mcpu=":8837,"\n\\&\\-mno\\-":8838,"source code ":8839,"vect-":8840,"pee":8841,"sample_rate":8842,"issues":8843,"dump\\-analyzer\\-":8844,"combined with ":8845,"choic":8846,"deprecate":8847,"sequence of ":8848,"\\[aq]t ":8849,", SSE4.1":8850,", XSAVE, ":8851,"sequences ":8852,"speculative ":8853,"struct\\-return":8854,"DO NOT ":8855,", FXSR":8856,"8\\-bit ":8857,"A\n":8858,"Foo":8859,"s2":8860,"s\"\n.PD 0":8861,"s\n\\&\\-W":8862,"\\-compat":8863,"a function ":8864,"file=":8865,"is\nthe ":8866,"out-of-":8867,"the\n.Fl ":8868,"of\n.I ":8869,"so that the ":8870,"(1)\\fP":8871,"passes ":8872,"setup":8873,"bitmap":8874,".\n.RE\n.IP \\fB\\-m":8875,"\nis a ":8876,"\n\\&\\-fno\\-":8877,", AVX2, ":8878,"value of \\fI":8879,"previously ":8880,"00000000":8881,"\\fR  \\fB\\-f":8882,"step ":8883,"procal ":8884,"addition to ":8885,"Create a ":8886,"long\\-calls":8887,"weight":8888,"Without ":8889,"BMI, BMI2, ":8890,"reciprocal ":8891,"Even ":8892,"stringop\\-":8893,", CX16, SAHF":8894,"Des":8895,"flow":8896,"oq":8897,"interfer":8898,"interval ":8899,"diff\\&.":8900,"s\"\nWarn ":8901,"allow the ":8902,"should not be ":8903,"In this ":8904,"ST_":8905,"makes the ":8906,"ffmpeg-":8907,".html>":8908,"false]\n\t":8909,"added to the ":8910,"until the ":8911,"TRAC":8912,"private key ":8913,"zero-length ":8914,"EVE":8915,"M, ":8916,"go ":8917,"hd":8918,"m3":8919,"pin":8920,"enh":8921,"cover ":8922,"locally ":8923,"live ":8924,"\"\nOn ":8925,"for detail":8926,"\n.RS ":8927,"ave ":8928,".\n.PP\nA ":8929,"R substring ":8930,"subtrac":8931,"wait ":8932,"overhead ":8933,"ARI":8934,"accept ":8935,"Code":8936,"increase ":8937,"turns ":8938,"linux\\-":8939,"like\n":8940,"VM ":8941,"a/":8942,"zstd":8943,"onic ":8944,"tical":8945,"may":8946,"unset":8947,".  For example, ":8948,". For example, ":8949,"\" 4\n.IX Item \"-":8950,"rip":8951,"isy":8952,"begin ":8953,"function-":8954,"value for ":8955,"fix\\-r":8956,".\n.IP \\fB\\-g":8957,"MER":8958,"cortex\\-a53":8959,"387":8960,"assignment ":8961,"Check ":8962,"T, ":8963,"ases ":8964,"-- ":8965,"seed":8966,"ing the\n":8967,"sity":8968,".  \\fI":8969,"without\n":8970,"corrup":8971,"source\n":8972,".\n.TP\n\\f[V]-":8973,"Cover ":8974,"determined ":8975,"replace ":8976,"clean":8977,"undersc":8978,"\nT{\n":8979,"references ":8980,"translation":8981,"parallel ":8982,"operating system":8983,"sum of ":8984,"is granted to ":8985,"\",\n\\&        ":8986,"97":8987,"Free":8988,"RM":8989,"[1]":8990,"den ":8991,"ls":8992,"land":8993,"ve the ":8994,"\n.HP \\w'\\fB":8995,"\\-type":8996,", V":8997,"for example, ":8998,"The number of ":8999,"specially ":9000,"000 ":9001,"Sep ":9002,"\\(oq":9003,"2019":9004,"instructions":9005,"timeout ":9006,"ALL ":9007,"passwd":9008,"nroff ":9009,"packages ":9010,"conveni":9011,"logical ":9012,"Format ":9013,"REPORTING BUGS":9014,");\n":9015,"Back":9016,"F\n":9017,"lan":9018,"rule ":9019,"dead ":9020,"optim":9021,"\\fI.":9022,"ull ":9023,"fail ":9024,"to/":9025,"directive ":9026,"\"\nSet which ":9027,"AVR ":9028,"s=n":9029,"peel":9030,"unique ":9031,"CHA":9032,"Display the ":9033,"\\fR(5)":9034,"2-":9035,"C-":9036,"Pa":9037,"ai":9038,"ep ":9039,"ards ":9040,"to be\n":9041,"acy":9042,"\"\nM":9043,"on all ":9044,"when you ":9045,"running":9046,"values for ":9047,"Options\"\n":9048,"copy, ":9049,"mode (":9050,"509":9051,"suffici":9052,"width, w":9053,"FPU":9054,"lavfi.":9055,"\\fR\\ 'u\n\\fB":9056,"note that ":9057,"Director":9058,"D\\-":9059,"Tak":9060,"Upd":9061,"timiz":9062,"\\fB.":9063,"\\fB\\-i":9064,".\n.P\n":9065,". 4\n.IX Item \"":9066,"named":9067,"s, such as ":9068,"their":9069,"strip":9070,"allow\\-":9071,"capture":9072,"user\\-":9073,"applies to ":9074,"hardware":9075,"Code ":9076,"\\fP\n\n":9077,".\n.TP\n.B \\-\\-":9078,"kernel\\&.":9079,"exclude ":9080,"heap ":9081,"HP-U":9082,"/path/":9083,"body ":9084,"(5)":9085,",\\fR\\fI":9086,":\"\n":9087,"reprodu":9088,"\"\n(":9089,"in order ":9090,"\\-\\- ":9091,"\\(*":9092,"64\\-":9093,"e-list":9094,"format\n":9095,"directory\n":9096,"big ":9097,"\\ \\&":9098,"\\f(CW\\*(C`ata":9099,", SSE3, ":9100,"AVX512":9101,"\n.    ds #":9102,"explicit\\-reloc":9103,"ISO C ":9104,"Software":9105,"occur ":9106,"Advanced SIMD ":9107,"\\fIlibgcc":9108,"database ":9109,"Warning:\\fR ":9110,"TYPE":9111,"GNU/Linux ":9112,"half-precision ":9113,"|\\\\n:u'":9114,"= \"":9115,"AG":9116,"FS":9117,"cast ":9118,"e of ":9119,", +":9120,"\\f(CW\\*(C`int":9121,"ts are ":9122,"if not ":9123,"parse ":9124,"you may ":9125,"TION ":9126,"non-zero ":9127,"CODE":9128,"44444":9129,", it will ":9130,"scheduling is ":9131,"1.0 ":9132,"installa":9133,"\"\n.IP \\fB\\-mno\\-":9134,"ftr ":9135,"had ":9136,"\\fB\\-r":9137,"for use ":9138,"\\f(CW\\*(C`a":9139,"line-":9140,"shall ":9141,"\\fP to ":9142,"with \"":9143,"stores ":9144,"version\\fR\n":9145,"\\f[R], ":9146,"displays ":9147,"2025-0":9148,"progress ":9149,"\"\nAlways ":9150,"echo ":9151,"s:\n.RS 4\n.IP \\fB":9152,"simplifi":9153,"\",":9154,"$(":9155,"/proc":9156,"1-":9157,"tb":9158,"\n.Cm ":9159,"chunk":9160,"roll ":9161,"er and ":9162,"abl":9163,"mpy":9164,"examin":9165,".\nIt is ":9166,"\n\\&        ff":9167,"in the file ":9168,"\\fP\n.UNINDENT":9169,"Optimiz":9170,"without the ":9171,"integr":9172,"large-":9173,"sequences":9174,"ffmpeg \\-f ":9175,"updated ":9176,"next":9177,"this\noption ":9178,"\"\nIf set to ":9179,"lities":9180,"black ":9181,"New":9182,"COPYRIGHT\n":9183,"visibility ":9184,"plain ":9185,"anchor":9186,"ambigu":9187,"R substring for ":9188,":\n.PP\n":9189,"=value":9190,"MIN":9191,"c=":9192,"pyth":9193,"into\n":9194,"ing it ":9195,"node ":9196,"mirror":9197,"preset ":9198,".\n.RE\n.TP\n":9199,"contains the ":9200,"counter ":9201,"switch-":9202,"\"\nUse the ":9203,"SPARC ":9204,"\\fIn\\fR ":9205,"prompt":9206,"desktop ":9207,"policy ":9208,"FIXME":9209,"prevents ":9210,"Stream ":9211,"*/":9212,"21":9213,"5)\n":9214,"attr":9215,"\\&. If the ":9216,"enables the ":9217,"mode=":9218,"timate ":9219,"allsym":9220,"logging ":9221,"Remove ":9222,"controls the ":9223,"LIC":9224,"slash ":9225,"ness ":9226,"safe":9227,"prompt ":9228,"arithmetic":9229,"Darwin ":9230,"RGB ":9231,"contrast":9232,"(void":9233,"4, ":9234,"DAT":9235,"MT":9236,"\\d":9237,"_opencl":9238,"family ":9239,"has\n":9240,"peak ":9241,"son ":9242,"x, ":9243,"thunk":9244,"answ":9245,"to this ":9246,".\n\n.SH ":9247,"again ":9248,"\\f(CW\\*(C`double":9249,"istic":9250,"\n.IP \"\\fI":9251,"manipul":9252,"code, ":9253,"list_":9254,"sink":9255,"planes ":9256,"\\{\\\n\\h'-04' ":9257,"distribution":9258,"syntax of ":9259,"period":9260,"tells ":9261,"\n.nf\n curl \\-\\-":9262,"\\fP=\n\t":9263,"${":9264,"Cor":9265,"F_":9266,"QU":9267,"Sun":9268,"brow":9269,"gpl":9270,"lf":9271,"s can ":9272,"arr":9273,"\n.IP * 4\n":9274,"and then ":9275,"come ":9276,"low-":9277,"\"\n.PP":9278,"words":9279,"instructions\n":9280,"\"\n.PD\nWhen ":9281,"\"\n.PD\nSet the ":9282,"TIC":9283,"phy":9284,"readable":9285,"utl":9286,"is not used":9287,"default is \\fB":9288,"attributes ":9289,"multiple times ":9290,"recorded ":9291,"safe ":9292,"selection ":9293,"negative":9294,"experimental":9295,"cross-":9296,"pkcs7":9297,"overridden by ":9298,"destructor":9299,"\\fP=\"\"\n\t":9300,")\\*(Aq":9301,")\\&.\n.sp\n":9302,"AY":9303,"ast":9304,"kallsym":9305,"|\\-":9306,"\\-section":9307,"\\fR are":9308,"sic":9309,"acti":9310,"exits ":9311,".  P":9312,"at \\fI":9313,"with \\fB\\-m":9314,"format-":9315,"series ":9316,"version\n":9317,"optimi":9318,"files with ":9319,"memory usage ":9320,"either the ":9321,"t value is \\f(CW":9322,".\n.PP\n\\fIOption":9323,"\n.IP \\(bu 2\n":9324,"\\/\\fR":9325,"scope":9326,"completely ":9327,"included in the ":9328,": @tab X\"\n.PD":9329,"hidden":9330,"Requires ":9331,"(0xffffffff8":9332,"\\fP[=false]\n\t":9333,"-h":9334,"BL":9335,"M\\-":9336,"OUT ":9337,"Tur":9338,"\\-separated ":9339,"opts":9340,"actor":9341,"wiki":9342,"usual":9343,"risc":9344,"via":9345,"susp":9346,"that does not ":9347,"files.\n":9348,"If no ":9349,"...\n":9350,"\n\\fBgit-":9351,"signed\\-":9352,"\n.I nvidia\\-smi ":9353,"multiple":9354,"defined for ":9355,"self":9356,"ADD":9357,"17 ":9358,"VERSION":9359,"Sign":9360,".7":9361,"8, ":9362,"DPKG_":9363,"Must ":9364,"[/":9365,"gzip":9366,"osi":9367,"\\fR : \\fB":9368,". To ":9369,"at run ":9370,"shap":9371,"trust":9372,",\nSSE":9373,"laz":9374," 0 0":9375,"nonnull":9376,"has to be ":9377,"may be used ":9378,"transform ":9379,"\\fB\\-Og":9380,"DIRECT":9381,"tree\\-loop\\-":9382,"parent":9383,"working tree ":9384,"niagar":9385,"strict\\-aliasing":9386,"averag":9387,"THE SOFTWARE":9388,"_\\|_\\|_\\|_\\|":9389,"optimizer":9390,"4\n.B ":9391,"Do":9392,"Nam":9393,"\\.\n.\n.":9394,"flexi":9395,"s), ":9396,"v\\-":9397,"ansi":9398,"is configured ":9399,"\\fR is\n":9400,"sed\n":9401,"decode ":9402,"struction":9403,"the\n\\&\\fB\\-":9404,"matched":9405,"number of\n":9406,"fixit":9407,"sizeof ":9408,"values of ":9409,"GNO":9410,"ignore":9411,"relative":9412,".\n.Sp\n\\&\\fI":9413,"properly ":9414,"recursive ":9415,"VIDE":9416,"absolute":9417,"present in the ":9418,"strict ":9419,"continue ":9420,"basen":9421,"dgst":9422,"collection ":9423,"\\fR\\m[]":9424,"850":9425,"DHE":9426,"Dump ":9427,"Function":9428,"K_":9429,"]\n.RB [ \\-":9430,"crt":9431,"vul":9432,"the first ":9433,"\\fB\\-B":9434,"\n.IP \\fB\\-":9435,"in byte":9436,"that is not ":9437,"ill ":9438,"arch=\\fR\\fI":9439,"160":9440,"'\\v'":9441,"Allow ":9442,"checking":9443,"frame_":9444,"Proto":9445,"track ":9446,"divide ":9447,"column\": ":9448,"necessary":9449,"encryption ":9450,"\\s+":9451,"11111":9452,"FIXME: ":9453,"0\\-":9454,">\n\\&        ":9455,"padd":9456,"yon":9457,"s may ":9458,"really ":9459,"\"\nEnables ":9460,"\n\\&'":9461,"cond":9462,"\\fR\noption":9463,"\\&. This option ":9464,"64\\-bit":9465,"bigg":9466,"spaces ":9467,"this option to ":9468,"blend":9469,"https://www.":9470,"connected ":9471,"Make":9472,"reachable":9473,"to reduce ":9474,"Disable":9475,"targeted ":9476,"\"\nDisplay ":9477,"lead to ":9478,"velop":9479,"9.3":9480,"=10":9481,">= ":9482,"HD":9483,"iled":9484,"pb":9485,"tou":9486,"\n.LP\n":9487,"\"\nLike ":9488,"\n.Bl -":9489,"\n.Tn ":9490,"cursor ":9491,"set-":9492,"disable-":9493,"up the ":9494,"effects ":9495,"marker":9496,"module\\-":9497,"Manag":9498,"raw PCM ":9499,"sigma":9500,"The\n.B ":9501,"problem ":9502,"Perl changes in ":9503,"trigger ":9504,"experimental ":9505,"metric":9506,"KiB of ":9507,"33333":9508,"OPENSSL-":9509,"(3)":9510,"-x":9511,".mkv":9512,"1\\*(C'\\fR, ":9513,"Li ":9514,"ualiz":9515,"v\n":9516,"real":9517,"\\fR = ":9518,"and its ":9519,"unk ":9520,"untrack":9521,"condition ":9522,".  With ":9523,"kept ":9524,"frame-":9525,".\n.IP \"\\-":9526,"keyring":9527,"defines ":9528,"\n.if !":9529,"allowed":9530,"SEC":9531,"presented ":9532,"checked ":9533,"after a ":9534,"like \\f(CW\\*(C`":9535,"SEE ALSO\"\n\\&\\fB":9536,"written to ":9537,"makes it ":9538,"NULL ":9539,"did not ":9540,"CMD":9541,"EV":9542,"Ghost":9543,"Gnu":9544,"Pip":9545,"Ul":9546,"pentium":9547,"rw":9548,"task ":9549,"u8":9550,"\\fR\\&.\n.RE\n.PP\n":9551,"anno":9552,"rebase":9553,", AES":9554,"semi":9555,"stal":9556,"conform":9557,"who ":9558,"near":9559,"predefined ":9560,"implicit ":9561,"name (":9562,"requir":9563,"from\nthe ":9564,"170":9565,"User Manual":9566,"master ":9567,"floating point":9568,"\n.RB \"":9569,"COLOR":9570,"Syntax ":9571,"Saniti":9572," [":9573,"1 and ":9574,"14 ":9575,"OL":9576,"band ":9577,"ng ":9578,"omiz":9579,"\\-name":9580,"erge":9581,"\\fR.\n.IP \\fB\\-W":9582,"a warning ":9583,"olar":9584,"ation\n":9585,"export":9586,"all\\-":9587,"\\fR \\fIdir":9588,"editor ":9589,".4 and ":9590,"limited":9591,"cipher ":9592,"queu":9593,"UDP ":9594,"inside the ":9595,"adjustment":9596,"Mark ":9597,"\" and \"":9598,"yuv420":9599,"SYSTEMD_":9600,"+0x":9601,"7\n":9602,"BW":9603,"Lis":9604,"Return ":9605,"rink":9606,"sle":9607,"red\\-":9608,"about":9609,".\n.IP \\[bu] 2\n":9610,".\n\n.TP\n.B  ":9611,"functional":9612,"upon ":9613,"name and ":9614,"packed ":9615,"cpu=\\fR\\fIcpu":9616,"preceded ":9617,"smar":9618,"reported ":9619,"quote ":9620,", this is ":9621,"accel":9622,"basic block":9623,"Media ":9624,"IPv6 ":9625,"Level ":9626,"should\n":9627,"P 1\n\n  ":9628,"(as ":9629,"470":9630,"GD":9631,"GR":9632,"won't ":9633,"\n.   ":9634,"\\-to\\-":9635,"tional ":9636,"chap":9637,"sical ":9638,"op ":9639,"live":9640,"fav":9641,"00:":9642,"when compiling ":9643,"DEVI":9644,"value of":9645,"lib ":9646,"single\n":9647,"code.\n.IP \\fB\\-m":9648,"\\fR\\|(1) ":9649,"newline ":9650,"warning: ":9651,"even if the ":9652,"searched ":9653,"limit is ":9654,"switch is ":9655,"\"\nDo not warn ":9656,"Appli":9657,"truncation":9658,"file descriptor ":9659,".\n.IP \\(bu 4\n":9660,"garbage ":9661,"LICEN":9662,">\\&.":9663,"Cold":9664,"M_":9665,"Mess":9666,"NNI":9667,"OB":9668,"RC":9669,"_file":9670,"uish":9671,"\n.ie ":9672,"s using ":9673,"\\-conversion":9674,", PREFETCHW":9675,"\\fR as the ":9676,"-mstack-":9677,"file and ":9678,"   :      ":9679,"...\n.Ve":9680,"\\fB\\-Wformat":9681,"\\fB\\-Wpedantic":9682,"-fprofile-":9683,"When":9684,"_\\|_\\*(C'\\fR is ":9685,".  This warning ":9686,"  \\-fipa\\-":9687,"merging ":9688,"statu":9689,". Default ":9690,"GNU core":9691,"ADCX":9692,"initialized ":9693,"diagnostics-":9694,"nr rr_":9695,"[ \\et":9696,"GCC\n":9697,"avrxmega":9698,"\\fR  \\fB\\-":9699,"there is a ":9700,"TLS":9701,"EC, XSAV":9702,"RTL ":9703,"\\\\n[rr_levels!":9704,"Video":9705,"long\\-double":9706,"instance, ":9707,"\n.IP\n.nf\n":9708,"coreutils/":9709,"ipa-cp-":9710,"reproduci":9711,"ColdFi":9712,"+[rr_":9713,"1\\fR ":9714,"Larg":9715,"ML":9716,"_addr":9717,"fg":9718,"vla":9719,"s from the ":9720,"on\nthe ":9721,"inguish":9722,"ing an ":9723,"ed with the ":9724,"it is not ":9725,"strf":9726,"\\fR, \\f(CW":9727,"\\fR, GCC ":9728,"stores":9729,"_\\|_\\*(C'\\fR":9730,"stride":9731,"filter, ":9732,"cpu_type":9733,"\\f[R] or ":9734,"frame rate":9735,"frequency, ":9736,"round ":9737,"sense ":9738,"\n.Nm ":9739,"necessary to ":9740,"silently ":9741,"SSSE3, SSE4.1":9742,"KEY":9743,"PostScri":9744,"unsafe\\-math\\-":9745,"GNU coreutils ":9746,",audio":9747,"clock ":9748,"qp":9749,"tz":9750,"xl\\-":9751,"ynam":9752,"thumb":9753,"incoming ":9754,"\\-line ":9755,"online ":9756,"stalle":9757,"\"\nselect ":9758,"uses of ":9759,"ely, ":9760,"This warning ":9761,"boot ":9762,"systemd ":9763,"manage":9764,"Inclu":9765,"gets ":9766,"Exp":9767,"gues":9768,"local\\-":9769,"information, ":9770,"symbolic":9771,"field of ":9772,"Mode":9773,"pick ":9774,"\\-d16":9775,"exit status ":9776,"failure":9777,"foo.o":9778,"\\fR, and \\fB":9779,"But ":9780,"vr4":9781,": [FIXME: ":9782,"reduction ":9783,"\nthat ":9784,",\n.\\\" ":9785,"-me":9786,"2\\":9787,"42":9788,"Cy":9789,"KiB":9790,"tcp":9791,"\\fR; ":9792,"\"\nSelect ":9793,"extre":9794,"umen":9795,"beyon":9796,"all available ":9797,"ubuntu":9798,"keyboard ":9799,"command line, ":9800,"multiply":9801,"shows the ":9802,"format of the ":9803,"between two ":9804,"quivalent to ":9805,"\" 4\n.el .IP \"*<":9806,".\n\nExample:":9807,"case, ":9808,"channels":9809,"union":9810,"init\\-":9811,"rules":9812,"ed by the Free ":9813,"decoder ":9814,"ftp":9815,"interface":9816,"summary":9817,"qualified ":9818,"compliant ":9819,"traditional":9820,"-path":9821,"0+":9822,"Go ":9823,"IMA":9824,"m2":9825,"|\\-\\-":9826,"red, ":9827,"lete ":9828,"unchanged":9829,"filesystem":9830,"comb":9831,"\\fB\\-mtune":9832,"name\\-":9833,"names, ":9834,"-mabi=":9835,"bitrate ":9836,"\n.I \\%":9837,".0.0":9838,"sources":9839,"s for each ":9840,"data\n":9841,"checkout":9842,"counts ":9843,"gray":9844,"intel":9845,"You should ":9846,"names of ":9847,"           44444":9848,"shared library ":9849,"GCC's ":9850,"relative to ":9851,"Log":9852,"indirect\\-":9853,"legacy ":9854,": X @tab X":9855,"ffmpeg \\-i INPUT":9856,"left-":9857,".mpg":9858,"prior to ":9859,"\nIf ":9860,"\"\n.RS 4":9861,"BC":9862,"DT_":9863,"PF ":9864,"RAN":9865,"SP ":9866,"Tot":9867,"UP":9868,"aa":9869,"eat":9870,"f\\fR\" ":9871,"ler":9872,"ones ":9873,"\\fR.\n.IP \"\\fB\\-":9874,"revo":9875,"tell ":9876,"to change ":9877,"distor":9878,"adverti":9879,"lines are ":9880,"\\fP. ":9881,"operand ":9882,"logg":9883,"duration, ":9884,"\\fR\\|(1), \\fB":9885,"grep\n":9886,"mono":9887,"global and ":9888,".\n.SH \"SEE ALSO":9889,"devices with ":9890,"discus":9891,"double quote":9892,"against the ":9893,"properties ":9894,"pragma ":9895,"zoom":9896,".conf":9897,"7:":9898,"camer":9899,"p\\*(C'\\fR, ":9900,"sing the ":9901,"ts\n":9902,"\\fR\n.IX Sub":9903,"opt\\-":9904,"for \\f(CW\\*(C`":9905,"this file ":9906,") { ":9907,"-mfix-":9908,"net ":9909,"neigh":9910,"due ":9911,"32R":9912,"using the\n":9913,"remove":9914,"home":9915,"matches the ":9916,"user's ":9917,"except":9918,"newline":9919,"atory ":9920,"author ":9921,"self-":9922,"barri":9923,"separated by a ":9924,"tools ":9925,"except that ":9926,"\n.TP\n.B \\-\\-":9927,"architectures ":9928,"FLUSH":9929,"bt709":9930,"LINE":9931,"Write ":9932,"neighb":9933,"); ":9934,"BO":9935,"Used ":9936,"WH":9937,"into":9938,"\\fR.\n.RE\n.IP \\fB":9939,"\\fI\\,":9940,"mask ":9941,"unity":9942,"asci":9943,"64, ":9944,"ting to ":9945,", but not ":9946,"ERR":9947,"specific to the ":9948,"EXIT ":9949,"records ":9950,"PAT":9951,"compute":9952,"back to ":9953,"author]":9954,"whenever a ":9955,"CONFIG_":9956,"Must be ":9957,"/bin/":9958,"HH":9959,"Ob":9960,"bz":9961,"dh":9962,"s\\*(C'\\fR ":9963,"also":9964,"in your ":9965,"ed (":9966,"options to ":9967,"\\fR\nand\n":9968,"file or ":9969,"perf-":9970,"set to the ":9971,"\\fP (":9972,"warn\\-":9973,"time is ":9974,"should be\n":9975,"LESS":9976,"synchron":9977,"cuto":9978,"ed by a ":9979,", but the ":9980,"completion":9981,"\\fR or \\fB\\-":9982,".\nIf a ":9983,"edit":9984,"            \"":9985,"compared ":9986,"unaligned\\-":9987,"true, ":9988,"Such ":9989,"UTF\\-8":9990,"Frame ":9991,"trusted ":9992,"4_":9993,"EM":9994,"Pyth":9995,"da ":9996,"me ":9997,"on, ":9998,"\"\nthe ":9999,"\"\nThis is ":10000,". Can be ":10001,"\" is ":10002,"promo":10003,"comment ":10004,") (":10005,"direct":10006,", the following ":10007,"append":10008,"requires a ":10009,".org/t":10010,"\n.br\n\\fB":10011,"modification":10012,"var\\-":10013,"appropriate":10014,"COPYRIGHT\"\n":10015,"freq":10016,"latency ":10017,"3\\*(C'\\fR, ":10018,"530":10019,"AS ":10020,"B<":10021,"bw":10022,"gfx":10023,"s\n\\&\\-m":10024,"vsub":10025,"x509":10026,"en/html/":10027,"\\fR does not ":10028,"delimit":10029,"dealloc":10030,"row ":10031,"ing of the ":10032,"nothing":10033,"moved ":10034,"try":10035,"special":10036,": Armv8":10037,"persi":10038,"\n.sp\n.nf\n":10039,"text\\-":10040,"-falign-":10041,"s.  When ":10042,"programs that ":10043,"operate ":10044,"background":10045,"\"\nDon't ":10046,"] [see ":10047,"locale":10048,"t value is \\fB":10049,"included":10050,"deleted ":10051,"modref":10052,"\\&.\\&.\\&.":10053,".html\\*(C'\\fR)":10054,".\n.\\\"":10055,"filenames ":10056,"project ":10057,"objc\\-":10058,"\n\\&\\fB\\-\\-param ":10059,"author] [see ":10060,"vfpv4":10061,"Permissible ":10062,", RDSEED":10063,"dg5/":10064,"i386 ":10065,", FMA, ":10066,"EC, XSAVES":10067,"en/html/author]":10068,"6\n\\&        ":10069,"Bin":10070,"ves":10071,"\\fR:\\fI":10072,"(C, ":10073,".  See ":10074,"assigned ":10075,"\n.Pp":10076,"use_":10077,"brac":10078,"\n.\\\" For nroff, ":10079,"version 2":10080,"cpu ":10081,"cut ":10082,"target\\-":10083,"tags ":10084,"unix":10085,"s.\n.ie n ":10086,"muxer":10087,"LZCNT":10088,"directives":10089,"\" Ta \"\" Ta \"":10090,"LINK":10091,"docbook.org/t":10092,"everything ":10093,"SIZE":10094,"JPEG":10095,"FLUSHOPT":10096,").  The ":10097,")\n\\&          ":10098,"-l":10099,"GRO":10100,"TCP ":10101,"aarch":10102,"pen":10103,"yet ":10104,", not ":10105,"at link ":10106,"what":10107,"that was ":10108,"lower":10109,"optional":10110,".\n.PP\nTo ":10111,"align ":10112,"commands":10113,"to be a ":10114,"\n.Ve\n.Sp\nThe ":10115,"menu ":10116,"device_":10117,"clear ":10118,"overrides the ":10119,"millisecond":10120,"(f":10121,"to enable ":10122,"ing or ":10123,"are the ":10124,"rai":10125,"\\fP will ":10126,"you need to ":10127,"stored in ":10128,"function call":10129,"Expres":10130,"s in the\n":10131,"difference":10132,"\n.SH \"SEE ALSO\"":10133,"errors":10134,"newer ":10135,".\n.TP\n.BI \"":10136,"handler":10137,"public key ":10138,"\\.\n.\n.P\n":10139,"\tT{\n":10140,"\nwhen ":10141,"<n":10142,"T{":10143,"eh":10144,"tel":10145,", all ":10146,"stage ":10147,"ed by":10148,"an empty ":10149,"-mis":10150,"sized ":10151,"wards ":10152,"s are used":10153,"\\fP or ":10154,"you want to ":10155,"registr":10156,"line number":10157,"\\fR \\fIarg":10158,"compress ":10159,"automatically":10160,"muxer ":10161,"binding":10162,"override the ":10163,"debugging the ":10164,"authentication":10165,"/path/to/":10166,":1":10167,"far ":10168,"lam":10169,"py":10170,"to specify ":10171,"and this ":10172,"tion for ":10173,"an object ":10174,"ed.\n.PP\n":10175,"that a ":10176,"this value ":10177,"\\fR\nor ":10178,"] \\fI":10179,"\\fP [\\fI":10180,"defined\n":10181,"troff ":10182,"s\"\n\n.SH NAME\n":10183,"loops ":10184,"defined in ":10185,"Proces":10186,"must\n":10187,"source/":10188,"necessarily ":10189,"\n.Sh ":10190,"CKER":10191,"BSD":10192,"successfully ":10193,"demuxer":10194,"consistent ":10195,"Ignore ":10196,"aspect ratio":10197,"ieee":10198,"wrong ":10199,"gabyte":10200,"/proc/":10201,"!  ":10202,"T\n":10203,"Vec":10204,"iel":10205,"\\f(":10206,"arrow":10207,"\\fR in ":10208,"dio":10209,"noise":10210,"\" for ":10211,"agent ":10212,"\\f(CW\\*(C`long":10213,"it may ":10214,"which can be ":10215,"only available ":10216,"s\"\nDo not ":10217,"differences":10218,"type of the ":10219,"Command ":10220,"gui":10221,"\\fR option, ":10222,"implies":10223,"suppresse":10224,"history":10225,"using\nthe ":10226,"position-in":10227,"encrypted ":10228,"Same as ":10229,"As a ":10230,"V_":10231,"X, ":10232,"cub":10233,"ms\\-":10234,"\\-memory":10235,"rename ":10236,"eno":10237,"\\fB\\-a":10238,"er values ":10239,"files\n":10240,"shrink":10241,"been\n":10242,"does\n":10243,"64r":10244,"systemd-":10245,"linker\n":10246,"big":10247,"\" \"Docker ":10248,"address\\fR":10249,"arguments":10250,"SIMD ":10251,"     [\\fB\\-":10252,"framework":10253,"saved ":10254,"ldap":10255,"editor":10256,"union ":10257,"shared library":10258,"shift":10259,"decoding ":10260,"delta ":10261,"resolution":10262,"trace\\-cmd ":10263,"manager ":10264,"\n.TQ\n.B  ":10265,"differences ":10266,"appeared in ":10267,"Pipe":10268,"\nS":10269,"*\\fR ":10270,"-depth":10271,".j":10272,"AS":10273,"T.":10274,"sati":10275,"ens":10276,"to allow ":10277,"on some ":10278,"of the form":10279,"in the source ":10280,"find the ":10281,"direct\\-":10282,"set by ":10283,"code generation ":10284,"if  ":10285,"32\\*(C'\\fR, ":10286,"\n.SH COPYRIGHT\n":10287,"size=":10288,"ISA":10289,"version number ":10290,"few":10291,"show-":10292,"classes ":10293,"compiler and ":10294,"target\n":10295,"help\\fR\n":10296,":\n.RS 4\n.IP \"\\fB":10297,"cases, ":10298,"You can also ":10299,"mapped ":10300,"after-":10301,"i.e., ":10302,"ssh/":10303,"doesn":10304,"modify":10305,"revision ":10306,"\\.\n.IP\n":10307,"gcov_":10308,"licenses/gpl":10309,"2\\u":10310," or ":10311,"SPE":10312,"ative":10313,"oh":10314,"\\fC":10315,"\\-option":10316,"the \\f(CW\\*(C`":10317,"\\fIoption":10318,"ed from ":10319,"lake":10320,"expon":10321,"colon ":10322,"frame\n":10323,"also enabled by ":10324,"arguments to ":10325,"between":10326,"input/":10327,"mainten":10328,"characters are ":10329,"gcda":10330,"\\n[":10331,"affects the ":10332,"modifier":10333,"become ":10334,"Override ":10335,"as follows:":10336,"quantiz":10337,"...\n.Ve\n.Sp\n":10338,"$GIT_":10339,"-insns":10340,"63":10341,":\n.IP \\fB\\-m":10342,"D'":10343,"Met":10344,"eas":10345,"sal":10346,"\n.if  ":10347,"\\-e ":10348,"ing.\n.IP \\fB":10349,"sic ":10350,"loss":10351,".\nFor example":10352,"visu":10353,"-msoft":10354,".\n.IP \\fB+":10355,"neare":10356,"with\n\\&\\fB\\-f":10357,"warning\n":10358,"\n\\fBdocker ":10359,"disk":10360,"all_":10361,"bitfields":10362,"refres":10363,"tainted\\-":10364,"address of the ":10365,"such as the ":10366,"  \\-g":10367,"full\\-":10368,".  If a ":10369,"rate, r":10370,", AVX512VB":10371,"instrument-":10372,"strict\\-align":10373,"likely to ":10374,"[:\\fR\\fI":10375,"basic block ":10376,"ordinary ":10377,"Part ":10378,"truncated ":10379,"dereferenc":10380,"Extension":10381,"................":10382,"sensitive ":10383,"\n. ftr ":10384,"Data ":10385,"save\\-temps=":10386,"peepho":10387,"niagara":10388,"ColdFire ":10389,", AVX512VBMI":10390,").\n.":10391,"MN":10392,"Y_":10393,"[a":10394,"n2":10395,"t\\fR\" ":10396,"\\-larger\\-than":10397,"ane":10398,"re-":10399,"entic":10400," \"1\" \"":10401,"rough":10402,"asan\\-":10403,"strn":10404,"m \\-":10405,"this warning ":10406,"\\fR\nor\n":10407,"\\fR, \\fB+":10408,"config\\fR(1)":10409,"building ":10410,"optimize":10411,"filtering ":10412,"circ":10413,"debug-":10414,"Community":10415,"These \\fB\\-m":10416,"test.c":10417,"\"\n.PD 0\n.IP \\fI":10418,"pages ":10419,"detects ":10420,"\\(co ":10421,"ISO C++ ":10422,"Copyright \\(co ":10423,"resources ":10424,"vectorize":10425,"\n\\& openssl ":10426,"\n.TH \"DO":10427,"vis4":10428,"G++ ":10429,"noreturn":10430,"\"\nChange ":10431,"System V.4 and ":10432,"opt\\-info":10433,"CKER\" \"1\" \"":10434,"(i.e. ":10435,"67":10436,"80 ":10437,"GIN":10438,"Solar":10439,"^^":10440,"xy":10441,"e (":10442,"  [":10443,"\\fR.\n.PP\n":10444,"ensure":10445,"ating\n":10446,"conser":10447,".  In":10448,"\\f(CW\\*(C`[":10449,"tail":10450,"can also ":10451," \\-c":10452,"pach":10453,"text\n":10454,"s.  This option ":10455,"s.  It ":10456,"\\fR is specified":10457,"trigraph":10458,"those\n":10459,"effect of ":10460,"\"\nDis":10461,":\n.Sp\n.Vb 4":10462,"shared\n":10463,"accesses ":10464,"obta":10465,"order of ":10466,"affected by ":10467,"\n.nh\n.TH \"DO":10468,"force\\-":10469,"calculated ":10470,"\\fR and\n\\&\\fB":10471,"PDF":10472,"pull":10473,"SOURCE":10474,", SSE3, SSSE3":10475,"8x":10476,">>":10477,"Mat":10478,"bx":10479,"then\n":10480,"\\-frame\\-":10481,", etc":10482,"4\n.IX Item \"-f":10483,". S":10484,"agno":10485,"cause the ":10486,"-mtune=":10487,"\\fB\\-fPIC":10488,"will only ":10489,"s\nof ":10490,"only supported ":10491,"min-":10492,"20x":10493,"input audio ":10494,"32x":10495,"; if ":10496,"org/":10497,"byte\\-":10498,"octe":10499,"defined for the ":10500,"detach":10501,"utiliz":10502,"multiple times":10503,"\\\\$3":10504,"\\fR(1),\n\\fB":10505,"get\\-":10506,"needs to ":10507,"specifying the ":10508,"START":10509,"subject ":10510,". For the ":10511,"\"\nAllow ":10512,"]*(":10513,"smooth":10514,".\n.br\n":10515,"synonym ":10516,")*":10517,"2\"\n":10518,"4\\*(C'\\fR":10519,"Its ":10520,"TE ":10521,"padding ":10522,"v5":10523,"an option ":10524,"ffin":10525,"files to ":10526,"spectr":10527,"of \"":10528,"discover":10529,"set, the ":10530,"formatting ":10531,"refer to ":10532,"headers ":10533,"statically ":10534,"certificates ":10535,"GNU\n":10536,"utils manual":10537,"IEEE":10538,"athlon":10539,"foreground ":10540,"\\d\\s+":10541,"s.\n.ie n .IP \"\"\"":10542,"CKER\" \"1\" \"Sep ":10543,"2man ":10544,"kind":10545,"well":10546,", use ":10547,"is done ":10548,"\"\nOutput ":10549,"putt":10550,"\\fP option":10551,"ted.\n":10552,"subtitle":10553,"gives ":10554,"checksum":10555,"different":10556,"foobar":10557,"foo.c":10558,"highest ":10559,"Pro ":10560,"greater ":10561,"\n.Ev ":10562,"prologue ":10563,"schedule":10564,"Docker Community":10565,"PipeWi":10566,"\n\\fB\\-\\-":10567,"1.1":10568,"300 ":10569,"90 ":10570,"=num":10571,"Red":10572,"[OPTIONS":10573,"foun":10574,"hand ":10575,"j ":10576,"omp":10577,"please ":10578,"v6":10579,"\\fR=":10580,"\\fR\n\\&\\fI":10581,"y (":10582,"ing. ":10583,"\"\nH":10584,"maf":10585,"\" 0":10586,"enter ":10587,"it may be ":10588,"cause":10589,",\na ":10590,"perl ":10591,"\\&. For ":10592,"Defaults ":10593,"object is ":10594,"ting a ":10595,".  This flag ":10596,"transl":10597,"s. Default is ":10598,"C++ program":10599,"selects ":10600,"ood ":10601,"that\nthe ":10602,"channel_":10603,"early ":10604,"respective ":10605,"heuristic ":10606,"console ":10607,"conflicts ":10608,"jq \\'":10609,"\nin the ":10610,"'s":10611,"2=":10612,"??":10613,"Del":10614,"ES ":10615,"Uti":10616,"\\-0":10617,"onit":10618,"retain":10619,"\\fR environment ":10620,"dest ":10621,"fill ":10622,"\\fB\\-E":10623,"\\fB\\-o":10624,"cha":10625,"sugg":10626,"\n\\&           ":10627,"specifies a ":10628,"while":10629,"\\&. In ":10630,"min_":10631,"tracer":10632,"Refer ":10633,"cpu_":10634,"in a future ":10635,"s\\fR or ":10636,"variable \\fB":10637,"where \\fI":10638,"SYNOPSIS\"\n\\&\\fB":10639,"quoted ":10640,"copy of the ":10641,"\n.RS\n.PP\n":10642,"through a ":10643,"debian/":10644,"\n.TP 15\n":10645,"COMMANDS":10646,"cost of ":10647,"delta       ":10648,"console":10649,"button ":10650,"\\&.git/":10651,"palet":10652,"glyph":10653,"\"\nAlways use ":10654,"flexible ":10655,"\noption":10656,"(N":10657,"IL":10658,"TRE":10659,"X\\-":10660,"XT ":10661,"e\\fR, \\fB":10662,"especially ":10663,"s\\*(C'\\fR":10664,"{\\f[V]-":10665,"}: ":10666,"s between ":10667,"inspec":10668,"ing them ":10669,"in conjunction ":10670,".  GCC ":10671,"that can be ":10672,"-mhard":10673,"ation.\n.IP \\fB":10674,".\n.Sp\nVersion ":10675,"generated":10676,"minimum":10677,"refspec":10678,"devirt":10679,"\n.Sp\n.Vb ":10680,"filtergraph":10681,"meant ":10682,"targets, ":10683,"3 or ":10684,"guest":10685,"faci":10686,"correct":10687,"pixel format ":10688,"hex ":10689,"selection":10690,"bfd":10691,"bounds ":10692,"child ":10693,"HP-UX ":10694,"(I":10695,"2 and ":10696,"3/":10697,">\\fR":10698,"? ":10699,"CC":10700,"FS ":10701,"Gre":10702,"It\n":10703,"JD":10704,"KB":10705,"bright":10706,"relocation ":10707,"\\fBg":10708,"around":10709,"def ":10710,"extern ":10711,"strument":10712,"be\\-":10713,"the\n\\&\\fI":10714,".\n.PP\nIn ":10715,"only if ":10716,"frame is ":10717,"value (":10718,"\\*(``":10719,"fixed":10720,"data in the ":10721,"abi\\-version":10722,"URI":10723,"ffmpeg\\-":10724,"authentic":10725,"\\fR or \\fI":10726,"HEA":10727,"pointer is ":10728,"instanti":10729,"Arch":10730,"given, the ":10731,"after\\-":10732,"remote\\-":10733,"heap":10734,"and/or modify ":10735,"\\fR[\\fB=\\fR\\fI":10736,"contain a ":10737,"uninitialized ":10738,"constra":10739,"\t\t\t\t\t":10740,"Alpha ":10741,"P 1\n\n  * ":10742,"!]*(":10743,")\n\\&            ":10744,"Fl":10745,"IX ":10746,"MID":10747,"_out":10748,"cdec":10749,"carri":10750,"slow ":10751,"\\fBnone":10752,"almost ":10753,"is specified ":10754,"decompression ":10755,"in a\n":10756,". Use ":10757,"on trees":10758,"use\\fR and \\fB\\-":10759,"that the\n":10760,"file.\n":10761,"if the\n":10762,"-marg":10763,"-march=":10764,"\\fB\\-\\-param ":10765,"specific\n":10766,"SH4":10767,"size-":10768,"INTER":10769,"callgraph":10770,"creating a ":10771,"C++11 ":10772,"Options\\fR\" ":10773,"It was ":10774,".org>":10775,"stdout ":10776,"response":10777,"read the ":10778,"compare\\-":10779,"However, the ":10780,"whitespace":10781,"segment_":10782,"shortest":10783,"dependencies ":10784,"Show":10785,"\n.EX\n$ ":10786,"ABILITY, ":10787,"   [\\fB\\-m":10788,"VFPv3 ":10789,"STATUS":10790,", FXSR, AVX":10791,"Options\"\n\\&":10792,"\\f(BI":10793,"cdecp":10794,"-offset ":10795,"-mavx512":10796,"2^":10797,"Ca":10798,"ute":10799,"in \"":10800,"ined ":10801,"\\-precision":10802,"is used to ":10803,"is considered ":10804,"silen":10805,"opt ":10806,"as \"":10807,"that you ":10808," \\-c ":10809,"parm":10810,".\n.Sp\nAvailable ":10811,"-flag":10812,"minimal ":10813,"colors ":10814,", or the ":10815,"reports ":10816,"model=\\fR\\fI":10817,"\\fR(1), \\fB":10818,"MODIF":10819,"\n.Ve\n.PP\n\\fI":10820,"half":10821,"GNU_":10822,"description of ":10823,"pipe ":10824,"protector-":10825,"28\\*(C'\\fR, ":10826,"\"\nEquivalent to ":10827,"token ":10828,"Size":10829,"GIMP":10830,"%%":10831,")\\*(C'\\fR ":10832,"\\.\n.":10833,"card ":10834,"scan ":10835,"va\\-":10836,"z\\fR ":10837,"\\-re":10838,"remain ":10839,"\"\nSelect the ":10840,"to_":10841,"s, n":10842,"they\n":10843,"typical ":10844,"\n.RS 4\nThe ":10845,"eap":10846,"having ":10847,"including the ":10848,"strings ":10849,"characters":10850,"scale=":10851,"15 ":10852,"EXPRE":10853,":\n.PP\n.Vb ":10854,"gcc-":10855,"FTP ":10856,"reserve ":10857,"Value ":10858,"\"\nDisplay the ":10859,"Network":10860,"hls_":10861,"THIS FILE":10862,"intermediate ":10863,"trampolines":10864,"silence":10865," X ":10866,",...":10867,"-b":10868,"./":10869,"400":10870,"Ker":10871,"fb":10872,"here ":10873,"yet":10874,"\\fR\\f(BI":10875,"encode ":10876,"decor":10877,"\\fB\\-no":10878,"unreachable":10879,"es it ":10880,"values, ":10881,".\n.PP\nIf the ":10882,"link-":10883,"name \\fB":10884,"space\n":10885,"space, ":10886,"aligned":10887,"s for a ":10888,"TED ":10889,"bind ":10890,"separator ":10891,"ABLE":10892,"help2man ":10893,"\\fR]\n[":10894,"trap ":10895,"connect":10896,"t value is 0":10897,"switches":10898,"Y THIS FILE":10899,"\\&.\n\\fB":10900,"leading\\-":10901,"serializ":10902,"PLT ":10903,"= 0; ":10904,".mp4":10905,"USER":10906,"canonical":10907,"-\\*(#H)":10908,"DO NOT MODIF":10909,"!  It was ":10910,"', ":10911,"-a ":10912,"achi":10913,"c\\fR, \\fB":10914,"rer":10915,"sends ":10916,"\\-a ":10917,"resi":10918,"\n.IR \"":10919,"altiv":10920,"is displayed ":10921,"deblock":10922,"ing this ":10923,"and other ":10924,"unlock":10925,"an alias ":10926,"isn":10927,": \\f(CW\\*(C`":10928,"tive-":10929,"\\-mno\\-":10930,"preprocessed ":10931,"auto ":10932,"sysroot":10933,"may also be ":10934,"overall ":10935,"dumping ":10936,"s (does not ":10937,"time and ":10938,"result is ":10939,"Regi":10940,"standard error ":10941,"Specify":10942,"| --":10943,"Print":10944,"to use for ":10945,"early":10946,"\\fIfile\\fR ":10947,"underlying ":10948,"receiv":10949,"copies":10950,"item ":10951,"mangling ":10952,"schem":10953,"successful":10954,"gnome-":10955,"FAUL":10956,"candidate":10957,"help2man 1.":10958,"altivec":10959,"/\n":10960,"ia":10961,"sted":10962,"was\n":10963,"s are\n":10964,", while ":10965,"\\fIwidth":10966,"exha":10967,"pure":10968,"\\f(CW\\*(C`E":10969,"files in ":10970,"old-":10971,"law":10972,": the ":10973,"keyp":10974,"section]":10975,"impac":10976,"input frame":10977,"input stream ":10978,"key\n":10979,"command, ":10980,"'\\\n":10981,"list of\n":10982,"to\n\\fI":10983,"matches":10984,"effect, ":10985,"between 0 and ":10986,"references":10987,", or a ":10988,"pdfmark ":10989,"squash":10990,"rounded ":10991,"sending ":10992,"\\fR,\n\\fI":10993,"384":10994,"decimal":10995,"benefi":10996,".\n.RS\n.PP\n":10997,"\n..\n'\\\"\n'\\\" ":10998,"CHANT":10999,"\n      ":11000,"(S":11001,"(\\*[an-":11002,")/":11003,"DD":11004,"G, ":11005,"IMA ":11006,"\\\"":11007,"_0":11008,"hh":11009,"hs":11010,"s,":11011,"s\\&.\n.RE\n.PP\n":11012,"s\"\n.IP \\fB":11013,"same":11014,"\n.in ":11015,"\\-inter":11016,"\\-list":11017,"\\fR\\fB\\-":11018,"d -":11019,".\n.El":11020,"wise ":11021,". By default ":11022,"umm":11023,"size\\-":11024,"so the ":11025,"located ":11026,"\n.B xz":11027,"aux":11028,"\n.RS 4\nWhen ":11029,"trip":11030,"information on ":11031,"applied":11032,"openssl\\-s_":11033,"warnings are ":11034,"\\\\n+[rr_":11035,".\nIf no ":11036,"unicode":11037,"GPL ":11038,"split-":11039,"secure ":11040,"added to ":11041,"needed to ":11042,"license":11043,"redundan":11044,"button":11045,"yellow":11046,"a:":11047,"gzip ":11048,"\\-x":11049,"als":11050,"\\fR when ":11051,"or disable ":11052,"a (":11053,"oler":11054,"used as ":11055,"correction":11056,"=\\fR\\fInumber":11057,"read-only ":11058,"SET":11059,")\n\n.PP\n\\fB--":11060,"pointers ":11061,"run the ":11062,"just the ":11063,"cache\\-":11064,"modification ":11065,"Print a ":11066,"decompress ":11067,"packages":11068,"\"\nPrint the ":11069,"\n.EE\n":11070,"square root ":11071,"passphra":11072,"retriev":11073,"\\(*W":11074,"\n[":11075,".8":11076,"AP ":11077,"AArch":11078,"Or":11079,"RX":11080,"RIS":11081,"TNE":11082,"dv":11083,"f8":11084,"fri":11085,"lm":11086,"lack ":11087,"wel":11088,"ch\\-":11089,"There is ":11090,"asn":11091,"term ":11092,"ted in ":11093,"midd":11094,"these\n":11095,"...\n.SH ":11096,"may be\n":11097,"if\nthe ":11098,"s\\fR.\n.IP \\fB\\-m":11099,"ci]":11100,"result of ":11101,"control\\-":11102,"FITNE":11103,"\\[ci]":11104,"error=":11105,"Arg":11106,"recursion ":11107,"search for ":11108,"Show the ":11109,"FL+":11110,"adjac":11111,"nutt":11112,"uninitialized":11113,"Possible values":11114,"UTF\\-8 ":11115,"file descriptor":11116,"trivial ":11117,"MERCHANT":11118,"Cli":11119,"JAR ":11120,"\\e ":11121,"a\n\\&\\f(CW\\*(C`":11122,"em ":11123,"fn":11124,"n_":11125,"}\n.Ve":11126,"er for ":11127,"\"\nOnly ":11128,"propo":11129,"bus ":11130,"trying ":11131,"\n\\&        11111":11132,"tives":11133,"ation is ":11134,"default when ":11135,"exported ":11136,"64_":11137,"ick ":11138,"transm":11139,"TEL":11140,"numbered ":11141,"how the ":11142,"larger than ":11143,"defined in the ":11144,"parameters are ":11145,"attribute\\-":11146,"indicating ":11147,"memset":11148,"hwupload":11149,"Usag":11150,"=0:":11151,"generate\n":11152,"shorten":11153,"short\\-":11154,"s about the ":11155,"crip":11156,"depends on ":11157,"choices ":11158,"physical ":11159,"smart":11160,"1\n\\&        ":11161,"79":11162,"= (":11163,"Apach":11164,"IMP":11165,"JMP":11166,"bti":11167,"d\"\n":11168,"draw ":11169,"pit":11170,"tar ":11171,"\\-id":11172,"\\-null\\-":11173,"ended":11174,", PCLMUL":11175,"deal":11176,"\\fIlevel":11177,"\\fIdumppfx":11178,"at most ":11179,"with \\fI":11180,"-mlong-":11181,"use this option ":11182,"code size ":11183,"frames to ":11184,"\n.RE\n.sp\n":11185,"=\\fR\\fIreg":11186,"\\-fp16":11187,"signing ":11188,"caller":11189,"submodule ":11190,"only, ":11191,"float128":11192,"gaus":11193,"SER":11194,"between\n":11195,"foo/":11196,"gcse\\-":11197,"gcse-":11198,"extensions":11199,"printable ":11200,"user to ":11201,"attribute_\\|_":11202,"constants":11203,"tempt to ":11204,"\"\nSG":11205,"\"\nSupp":11206,"diagnostics ":11207,"192":11208,"center ":11209,"kernel\\-":11210,"generate) ":11211,"required to ":11212,"GET":11213,"images ":11214,"access to the ":11215,".\n.\\\" -*- mode: ":11216,"\\f(CW\\*(C`avr64":11217,"\\f(CW\\*(C`avr32":11218,"mcu\\fR = ":11219,"yuv":11220,"\\fP and \\fI":11221,"divide\\-":11222,"Useful ":11223,", RDRND":11224,"growth ":11225,"redundant ":11226,"Event":11227,"picture ":11228,".\n\\&\\fImcu\\fR = ":11229,"shared\\-library":11230,"-r":11231,"-data":11232,"1\\&.":11233,"Flag":11234,"f\\*(C'\\fR ":11235,"gpu":11236,"thre":11237,"\\fR.  This ":11238,"tele":11239,"\\fIfilename":11240,"contribu":11241,"at \\fB\\-O1":11242,"as a\n":11243,"-mcmodel=":11244,".\n.Sp\nGCC ":11245,"the\n.BR ":11246,"expi":11247,"direction ":11248,".\n.IP \\fB\\-m4\\-":11249,"\n.\\}\n\\fB":11250,"'\\\\":11251,"output,":11252,"requires":11253,"Optional":11254,"main_":11255,"inlined ":11256,"Connec":11257,"PIE":11258,"avoids ":11259,"init_":11260,"optimization is ":11261,"Vie":11262,"code that use":11263,"receive ":11264,"contents of ":11265,"pc64":11266,"loaded":11267,"paralleliz":11268,".\nThere is ":11269,"human ":11270,"\n.SH AUTHOR\n":11271,"question":11272,"framerate":11273,"\n.\n.IP \"\" 0":11274,"anony":11275,"s\\fR\\|(1),\n\\&\\fB":11276,", XSAVE, PCLMUL":11277,"ripgrep ":11278,"KiB of program ":11279,"persisten":11280,"-msoft-float":11281,"\nSet ":11282,"\n$ ":11283,"-limit":11284,":a ":11285,"Stu":11286,"WOR":11287,"[out":11288,"sad":11289,"win_":11290,"y=":11291,"ine":11292,"\\-A":11293,"\\fR the ":11294,".\n.LP\n":11295,"\"\nL":11296,"tran ":11297,") of the ":11298,"the\nsame ":11299,"follow the ":11300,"s.  It is ":11301,"DEB_":11302,"(1)\\fP, \\fB":11303,"add-":11304,"strip\\-":11305,"doc/":11306,"\n.fi\n.sp":11307,"\\fR|\\fI":11308,"libraries are ":11309,"           33333":11310,"customiz":11311,"encoding,audio":11312,", for example":11313,"alpha_":11314,"in_h":11315,"in_w":11316,"bt470":11317,"emit\\-":11318,"DIR/":11319,"monitor ":11320,"-mno-m":11321,"bounded ":11322,"along with ":11323,"axis":11324,"lp64":11325,"MPEG\\-":11326,"conflict ":11327,"bit\\-double":11328,"incremental ":11329,"\\fI$SYSTEMD_":11330,"kallsyms]":11331,"Ultra":11332,"channel_layout":11333,"1\\*(C'\\fR":11334,"5, ":11335,"Hel":11336,"Ke":11337,"Scre":11338,"TAR":11339,"\\\n":11340,"kl":11341,"kdf":11342,"s\n.\\\" ":11343,"an existing ":11344,"it can be ":11345,"it has ":11346,"etting ":11347,"variant":11348,"command will ":11349,"object\n":11350,"'\\h'":11351,"code\\-":11352,"hook":11353,".  This is\n":11354,"make\n":11355,"By default is ":11356,"rror ":11357,"ten by ":11358,"switches ":11359,"owner":11360,"verbose\n":11361,"64 bit":11362,"table\\-":11363,"writes ":11364,"merged ":11365,"labels":11366,"\n.UNINDENT\n.sp\n":11367,"Hz ":11368,"MinG":11369,"RAM ":11370,"distinguish":11371,"answer":11372,"\n.IP\n.nf\n\\f[":11373,"(*":11374,"DH":11375,"Gi":11376,"GB ":11377,"Scal":11378,"].\n.IP \\fB":11379,"ensi":11380,"le_":11381,"des ":11382,"splitt":11383,".\nRange is ":11384,"ation and ":11385,"default value ":11386,"file system":11387,"p = ":11388,"which will be ":11389,"support is ":11390,"output to ":11391,"followed by the ":11392,"all-":11393,"s that support ":11394,"bitrate":11395,"When\n":11396,"stack\n":11397,"optimized":11398,"2 (":11399,"processor\n":11400,"login":11401,"backend ":11402,"worktree ":11403,"before":11404,"stdlib":11405,"Unless ":11406,"either a ":11407,"jump-":11408,"s that are not ":11409,"receiving ":11410,"License, ":11411,"evaluate ":11412,"resources":11413,"pane":11414,"for more detail":11415,"however ":11416,"DISPL":11417,"cycle ":11418,"\n.Bl -tag ":11419,"\n.IP\n.nf\n\\f[CB":11420,"(which ":11421,")\\fR\n":11422,"Fin":11423,"PUR":11424,"Stor":11425,"Usu":11426,"dce":11427,"d\\fR\" ":11428,"hu":11429,"is being ":11430,"dead":11431,"loat ":11432,".\nWith ":11433,"cau":11434,"this flag ":11435,") for ":11436,"being\n":11437," 0 ":11438,"body":11439,"supply ":11440,"flu":11441,"more efficient ":11442,"such as\n":11443,"backup":11444,"variable-":11445,"copy\n":11446,"multiple\n":11447,"help\"\nPrint ":11448,"See \"":11449,"supported on ":11450,"names and ":11451,"detected":11452,"assembler to ":11453,"critical":11454,"directives ":11455,".  Also ":11456,"probability ":11457,"Written by ":11458,"permitted ":11459,"duplicate":11460,"xdg\\-":11461,"SOURCE_":11462,"\n.INDENT 3.5\n":11463,"asyn":11464,"wish to ":11465,"vendor":11466,"\n.IP\n.nf\n\\f[CB]\n":11467,")  ":11468,"810":11469,"=0.":11470,"X-":11471,"a) ":11472,"hsub":11473,"\\fB/":11474,"\\fB\\-I":11475,"roid":11476,"spati":11477,"it, ":11478,". Range is ":11479,"most\n":11480,"sh ":11481,"avx":11482,"\\fB\\-fpic":11483,"neon":11484,"INFO":11485,"defined, ":11486,"sub-":11487,"libgcc":11488,"\" \".\"":11489,"build\\-":11490,"Exec":11491,".\nThe following ":11492,"write the ":11493,"ignores ":11494,"s=25":11495,"issued for ":11496,"mention":11497,"converted ":11498,"generated\n":11499,"referenced ":11500,"bf16":11501,"identifier ":11502,"\\f(CW0.0":11503,"]\n[\\c":11504,"measured ":11505,"toggle":11506,"PARTIC":11507,"nearest":11508,"PURPO":11509,"PARTICUL":11510,"Get ":11511,"Pri":11512,"Path":11513,"email ":11514,"fy":11515,"lack":11516,"t)":11517,"\\fB#":11518,"alone ":11519,"\\fR also ":11520,"\\fB\\-v":11521,"accoun":11522,".  However, ":11523,"at this ":11524,"at all ":11525,"====\n.":11526,"file-":11527,"ave":11528,"this help ":11529,"s, a ":11530,"will use ":11531,"s\nfor ":11532,"\\fP\n.INDENT 0.0":11533,"subroutin":11534,"1 or ":11535,"line number ":11536,"sourc":11537,"checkout ":11538,"count-":11539,"accepted":11540,"alization ":11541,"whether to ":11542,"converts ":11543,"allows you to ":11544,"close ":11545,"though the ":11546,"\"\nReturn ":11547,"continue":11548,"scann":11549,"serial ":11550,"vertical":11551,"Color":11552,"demuxer ":11553,"pw-":11554,"BUGS\n":11555,"potentially ":11556,"their\n":11557,"wiki/":11558,"Syntax for the ":11559,"Python ":11560,",,":11561,"1.5":11562,"fs ":11563,"ically":11564,"vb":11565,"zst":11566,"|\n\\&        ":11567,"or\n\\&\\f(CW\\*(C`":11568,"\\fR filter":11569,"\\fB\\-G":11570,"licon":11571,"\\fIdir":11572,"for \"":11573,"added":11574,"agram":11575,"not been ":11576,"trast ":11577,"s, as ":11578,"nego":11579,"so on":11580,"\\*(C'\\fR,\n":11581,"must not ":11582,"to a non-":11583,"class-":11584,".\n.TP\n\\f[V]--":11585,"system header ":11586,"Project ":11587,"thread-":11588,"s.  The default ":11589,"grab":11590,"remove the ":11591,"standard\n":11592,"lookup ":11593,"\" 4\n.":11594,"Suppor":11595,"requests ":11596,"MiB\n\\-":11597,"properties":11598,"compliance ":11599,"\n.PD 0\n.IP \\fB":11600,"ADPCM IMA ":11601,"ministr":11602,"Local ":11603,"categor":11604,"PATTERN":11605,"FITNESS ":11606,"negoti":11607,")\\fR ":11608,"/* ":11609,"Fol":11610,"LAN":11611,"LFE":11612,"d.":11613,"ld ":11614,"mc":11615,", g":11616,"sess":11617,"see\n\\fBgit-":11618,"st\\-":11619,"a specific ":11620,"in any ":11621,"ext\\-":11622,"conform ":11623,".  You ":11624,". L":11625,"\" in \\fB":11626,".\nUse ":11627,".\n\n.TP 15":11628,"\\f(CW\\*(C`const":11629,"recent ":11630,"option\nis ":11631,",\nor":11632,"\\-mul":11633," 100":11634,"system\\-":11635,"A PARTICUL":11636,"changing ":11637,"\n.BR \\-\\-":11638,"Report":11639,"occurren":11640,"topic":11641,"guess":11642,"\"\nPut ":11643,"constant\\-":11644,"cortex\\-r":11645,"width_":11646,"array\\-bound":11647,"indentation":11648,"more than once":11649,"\\fI\\%CT":11650,"\\fR and\n\\&\\fI":11651,"systemd.":11652,"notice and this ":11653,"at run time":11654,"\" 4\n.\n.nf\n":11655,"\nThis option ":11656,"\".\n.IP \\fB":11657,"120":11658,"23 ":11659,"=\\fR[\\fB":11660,"HLE":11661,"Penti":11662,"Q ":11663,"SVE":11664,"dol":11665,"ice":11666,"rl":11667,"tdi":11668,"\\-g":11669,"\\-div":11670,", including ":11671,"see\n\\fB":11672,"let ":11673,"lect":11674,"\"\nSpecifies ":11675,"cond-":11676,"on by default ":11677,"\\f(CW\\*(C`std::":11678,"\\f(CW\\*(C`RAMP":11679,"trapp":11680,"quit":11681,",\nAVX512":11682,"RESS":11683,"-m4-":11684,"file name":11685,"directly":11686,"only when the ":11687,"   // ":11688,"s.  In ":11689,"]\n        ":11690,"s to use ":11691,"s:\n.IP \\fB\\-m":11692,"char8":11693,"program\n":11694,"backchain":11695,"ts_":11696,"git\\fR(1) ":11697,"\n\\&\\fB\\-mtune":11698,"\n.fi\n.\n.IP \"\" 0":11699,"register-":11700,"\\f[R] command ":11701,"clipping ":11702,"at the same ":11703,"Line ":11704,"processors ":11705,"provides a ":11706,"first\n":11707,"static\\-lib":11708,", F16C":11709,"resolve ":11710,"strict\\-overflow":11711,"mcu=":11712,"COMMAND ":11713,", XSAVEC, XSAVES":11714,"branch\\-cost":11715,"shadow=":11716,"out_w":11717,"there are no ":11718,"regardless ":11719,"verification ":11720,"Ns Ar ":11721,"involving ":11722,"Stream":11723,"suggest\\-":11724,"5206":11725,"util\\-linux/":11726,"interference":11727,"B<\\-f":11728,"modref-max-":11729,", RDSEED, ":11730,"peephole":11731,"\\[ci]\" 4\n":11732,"FITNESS FOR ":11733,"Pentium ":11734,",\n.Ic ":11735,"37":11736,"<commit":11737,"BY":11738,"GA":11739,"Marg":11740,"[00":11741,"bss":11742,"l.":11743,"p, ":11744,"xc":11745,"\\fR...":11746,"of that ":11747,"and not ":11748,"spell":11749,"\\fIdumpbase":11750,". E":11751,"at \\fB\\-O2":11752,"versa":11753,"vice":11754,"by using ":11755,"\\fR\\fIpass":11756,"\\*(L":11757,"\\fR, \\fBbf5":11758,"reads ":11759,"path\\-":11760,"s (default)":11761,"offsets ":11762,"s. This ":11763,"s. It ":11764,"soft-":11765,"\n.SH \"AUTHOR":11766,"\\f[R]\n.RE":11767,"ignore_":11768,"access to ":11769,"vect\\-":11770,"emits ":11771,"Produc":11772,"read from ":11773,", \\-\\-no\\-":11774,"anczo":11775,"\\fR \\fB52":11776,"xz ":11777,"converted to ":11778,"protected ":11779,"visible":11780,".)\n.IP \\fB":11781,"transport ":11782,"Normaliz":11783,"desir":11784,"subject to ":11785,"\\s-2\\u":11786,"ARMv8":11787,"These are the ":11788,"radius, ":11789,"false posi":11790,"\\&.0\" \"":11791,"asan-instrument-":11792,"gawk\n":11793,"NO WARRANT":11794,"kilobyte":11795,"Instead of ":11796,"LZCNT, FMA, ":11797,"devirtualiz":11798,"-margin":11799,"\"\n.IP \"\\fB\\-":11800,"* 4":11801,"-fin":11802,"2 \\-":11803,"3.1":11804,"9/":11805,"BE":11806,"Dynam":11807,"];\n\\&        ":11808,"b\"\nSet ":11809,"\\-u":11810,"\\fR in the ":11811,"seen ":11812,"\\fB\\-h":11813,"or to ":11814,"nother ":11815,"at the\n":11816,"elli":11817,"able\n":11818,"of the first ":11819,"if \\fB":11820,"parsed ":11821,"will also ":11822,".\n.PP\nIf ":11823,"aliase":11824,"\\(rq":11825,", the default ":11826,"extent ":11827,"line\": ":11828,"terminate ":11829,"canary ":11830,"new\\-":11831,"URATION":11832,"ggle ":11833,"Stat":11834,"listen ":11835,"PIC ":11836,"Arts ":11837,"SHA256":11838,"Op Ar ":11839,"perf\\&.":11840,"verify_":11841,"\\s0 ":11842,"transition ":11843,"MPEG-":11844,"digest ":11845,"Similar":11846,"Similar ":11847,"\"\nProduce ":11848,"aggressive ":11849,"YUV":11850,"Usage\n\\fB":11851,"\ncommand":11852,"%0":11853,"(b":11854,"2000":11855,"OT":11856,"Wid":11857,"aac":11858,"fpr":11859,"o\\-\\-\\-":11860,"sound ":11861,"analo":11862,"represented ":11863,"is un":11864,"\\fI1":11865,"estimate ":11866,"on an ":11867,"out.":11868,"\\fR\nor\n\\fB":11869,"ra\\-":11870,"file format":11871,"expla":11872,"\n.TS\n":11873,"append ":11874,"updat":11875,"bitstream ":11876,"listing ":11877,"s. All ":11878,"OPTIONS ":11879,"profile\n":11880,"call and ":11881,"includes the ":11882,"provided by ":11883,"that\nare ":11884,"invoke ":11885,"this option\n":11886,"stop_":11887,"Git 2\\&.":11888,"protected":11889,"the default\n":11890,"square":11891,"failure ":11892,"lities ":11893,"secure":11894,"sent to the ":11895,"LDAP ":11896,"AR PURPO":11897,"INCLUD":11898,"SSION":11899,"D\\-B":11900,"/sys":11901,"<int":11902,"bh":11903,"dge":11904,"med":11905,"sol":11906,"vn":11907,"\\-ext":11908,"one, ":11909,", then the ":11910,"\\fR may be ":11911,"ing/":11912,"\\fB\\-C":11913,"\"\nIn ":11914,"\" to ":11915,"vie=":11916,"and\n.B ":11917,"android":11918,"with a\n":11919,"compens":11920,"READ":11921,"-mrelax":11922,"Search ":11923,"ariz":11924,"se of ":11925,"with\n\\&\\fB\\-":11926,"frames, ":11927,"functions and ":11928,"INT_":11929,", the last ":11930,"can be found ":11931,"cept ":11932,"s that have ":11933,"Whe":11934,"s\"\nThis option ":11935,"pack\\-":11936,"list-":11937,"gcc\\-":11938,"99:":11939,".\n.SH COPYRIGHT":11940,"prefixed ":11941,"per line":11942,"Prints ":11943,"explicitly":11944,"memlimit":11945,"describing the ":11946,"top of the ":11947,"audio_":11948,"has no effect":11949,"primaries":11950,".\n.sp\nThe ":11951,"dropp":11952,"command is : \"":11953,"notice":11954,"equal to ":11955,"out_h":11956,"successful ":11957,"repeat":11958,"metric ":11959,"Impli":11960,"License\"":11961,"constructor ":11962,"String":11963,"opacity":11964,"2023 Free ":11965,"'\\v'-":11966,"nuttall":11967,"Usage\n\\fB# ":11968,"-function":11969,"1\t":11970,"2\t":11971,"8:":11972,"@T{\n":11973,"Bit":11974,"GB":11975,"More ":11976,"UDE":11977,"Xo ":11978,"kan":11979,"ero":11980,"orang":11981,"sect":11982,"cos":11983,"wire":11984,"\"\nAd":11985,"ity, ":11986,"conf ":11987,"ed\\&. ":11988,"\\f(CW\\*(C`t":11989,"and\n\\&\\fB":11990,"file\": \"":11991,"if any ":11992,"64k":11993,"maximal ":11994,"geome":11995,"dumpdir":11996,"to be used for ":11997,"example\\&.":11998,"\n.Sp\n.Vb 1":11999,"abi=\\fR\\fI":12000,"] [\n.B \\-":12001,"\\ \\ ":12002,"selector":12003,"clipp":12004,"expression is ":12005,". Default is 0":12006,"pager":12007,"whether or not ":12008,"proxy\\-":12009,"escaped ":12010,"Trac":12011,"similar to the ":12012,"push ":12013,"good":12014,"overlap ":12015,"abbrev":12016,"associated with ":12017,"important ":12018,"inheri":12019,"multi-threaded ":12020,"        \\-:    ":12021,"), the ":12022,"-check":12023,"Ren":12024,"XY":12025,"X11 ":12026,"hon":12027,"nd":12028,"rf":12029,"rm ":12030,"s\\fR \\fI":12031,"zone":12032,"\n.%":12033,"inter ":12034,".\n.B ":12035,"an array ":12036,"avg":12037,"this filter ":12038,"\\fR\nare ":12039,"SHEL":12040,"use \\fB":12041,"file names ":12042,"\n.\\\" .":12043,"to the same ":12044,"generator":12045,"output for a ":12046,"mode\n":12047,"can be used":12048,"input is ":12049,"setjmp":12050,"subtitle ":12051,"s that do not ":12052,"stored in the ":12053,"ment of ":12054,"will be used":12055,"given\n":12056,"C++\n":12057,"lectr":12058,"Requ":12059,"checks ":12060,"information for ":12061,"load/":12062,"how much ":12063,"stdc++":12064,"during\n":12065,"testing ":12066,"local/":12067,"PAGER":12068,"modifier ":12069,"\n.\\}\n\\fI":12070,"FPU ":12071,"the\n.B .":12072,"\n.Dl ":12073,"\\fR,\n\\fB\\-\\-":12074,"Create ":12075,"calling conven":12076,"leaf ":12077,"Sanitizer":12078,"Apache ":12079,"'\\\\$":12080,"\nto the ":12081,"'|":12082,"1)":12083,"Targ":12084,"[[":12085,"[options":12086,"a=":12087,"pc\\-":12088,"s  \\-":12089,"v2 ":12090,"init ":12091,"\\fR\"":12092,"an-margin":12093,"the warning ":12094,"tely ":12095,"is set ":12096,"\\fR for the ":12097,"\\&\\s-2\\u":12098,"roff":12099,"\\fIN":12100,".\n.IP \\-":12101,",\ns_":12102,": \\\\n[":12103,"ght\n":12104,"file system ":12105,"minor ":12106,"but the ":12107,"command\\-line ":12108,"Intern":12109,"bias":12110,"When the ":12111,"is not supported":12112,"level]]":12113,".\n.IP \\fB\\-no":12114,"integrit":12115,"was written by ":12116,"STD":12117,"video stream ":12118,"\\-a\\fR ":12119,"indicated ":12120,"issues ":12121,"hw_":12122,"understand":12123,"references to ":12124,"rstReport":12125,"GIT\"\n.sp\n":12126,"temporal ":12127,"statements ":12128,"platform ":12129,"[0\\-":12130,"break ":12131,"s; the ":12132,"Quick":12133,"two\n":12134,"turned on ":12135,"symbolic link":12136,"s\\fR]\n[\\fB\\-":12137,"relies ":12138,"07/02/2025":12139,"07/02/2025\" \"":12140,"lzma\n":12141,"exhaus":12142,"git\\fR(1) suite":12143,"rstReportMarg":12144,"*PI":12145,".\n\\&\\fB\\-m":12146,"A, ":12147,"Another ":12148,"IR":12149,"M\n":12150,"Righ":12151,"]  ":12152,"_MAX":12153,"awk":12154,"gm":12155,"hap":12156,"l,":12157,"r\n":12158,"s\\&.":12159,"ty\n":12160,"repo":12161,"\\fR \\fB\\-m":12162,"decode":12163,"designed ":12164,"ed, the ":12165,"lines, ":12166,"==========":12167," \\-filter_":12168,"\\fB\\-falign\\-":12169,"s\n\\fB":12170,"the\ndefault ":12171,"word, ":12172,"cursor":12173,"system-":12174,"\"\n.PD\nWith ":12175,", and is ":12176,"link\\-":12177,"ics ":12178,"param,\n":12179,"check_":12180,"2.43":12181,"10000":12182,"i < ":12183,"where it ":12184,"crop_":12185,"threads ":12186,"\\\\n[an-margin":12187,"0.9":12188,"convert":12189,"Git 2.43":12190,"\\&.\\&.\\&.\\&.":12191,"armv8.1":12192,"range is from \\-":12193,"PREFIX":12194,"43\\&.0\" \"":12195,"post-":12196,"feedback":12197,"target is ":12198,"right-":12199,"\n.RB ( ":12200,"\n.\\\"\n.TH \"GIT":12201,"secret ":12202,"OTHER ":12203,"isystem":12204,"170m":12205,"Git 2.43.0":12206,"-O":12207,"-ma":12208,"2x":12209,"2) ":12210,"2\\*(C'\\fR ":12211,">\n.fi\n.if n \\{\\":12212,"NV":12213,"Oper":12214,"TB":12215,"];":12216,"away ":12217,"bP\n":12218,"pm":12219,"s  \\-m":12220,"independent":12221,"restore ":12222,"eng":12223,", you can ":12224,"is always ":12225,"in use":12226,"usb":12227,"forces ":12228,"\n.Bd -":12229,"tap":12230,"will likely ":12231,"clash":12232,"only a ":12233,"\\fB\\-Wimplicit":12234,"practi":12235,"\\-free":12236,"manpage ":12237,", and a ":12238,"keywords ":12239,"168":12240,"space\\-":12241,"hoose ":12242,"mismatched":12243,"cuda":12244,"stdin ":12245,"Consi":12246,"\n.B \\-\\^\\-":12247,"\n.TP\n.BR \\-":12248,"EXT":12249,"location\\-":12250,"known to be ":12251,"produced ":12252,"pane ":12253,"vectorization ":12254,"fdpic":12255,"s\\fR\\|(1) ":12256,"CONFIG":12257,"Text ":12258,"Git Manual\"\n.\\\" ":12259,"THE SOFTWARE ":12260,"GIT\"\n.sp\nPart ":12261,".\\&":12262,".1 ":12263,".pe":12264,"1\\fR,\n\\&\\fB":12265,"2)":12266,"5.1":12267,"93":12268,">, \\-\\-":12269,"Fir":12270,"PS ":12271,"X_":12272,"[kernel\\&.":12273,"ases":12274,"just":12275,"mf":12276,"sve":12277,"xt":12278,"xgot":12279,"\\-no":12280,"\\-data":12281,"y of ":12282,"\\f(CW\\*(C`alloca":12283,"trl":12284,",\nthen ":12285,"this to ":12286,"-merg":12287,"filled ":12288,"code model":12289,"x and ":12290,"one or ":12291,"\"\n.PD\nWarn ":12292,"time_":12293,"pathname ":12294,"options and ":12295,"\n.Sp\n\\&\\fB\\-W":12296,"\\h'|\\\\n:u'":12297,"number\n":12298,"stats_":12299,"\n.It Ic ":12300,"compiled":12301,"prints the ":12302,"psnr":12303,"zero, ":12304,"determines ":12305,"make sure ":12306,"ELF":12307,"gpg-":12308,"internal":12309,"68040":12310,"/usr/bin/":12311,"\\-dtor":12312,"sched\\-stalle":12313,"instrument\\-":12314,"Output":12315,"extract ":12316,"Controls ":12317,"\\f(CW\\*(C`avr16":12318,"requested":12319,"9899:":12320,"logical":12321,", RDPID":12322,"Color ":12323,"Extension ":12324,"####":12325,"math\\-only":12326,"MOVBE, HLE":12327,"brok":12328,"uclibc":12329,", CLFLUSHOPT":12330,"octal ":12331,"matrix":12332,"ite\\-math\\-only":12333,"recursive-":12334,"__AVR_HAVE_":12335,"dangling\\-":12336,"Descrip":12337,",\nSSE4.1":12338,"protector-guard":12339,"char8_t":12340,"sched\\-stalled\\-":12341,"\"\\-":12342,"(int":12343,"-threshold":12344,"-fipa":12345,".text":12346,"1st ":12347,"CM":12348,"La":12349,"fdiv":12350,"n\"\n":12351,"sfi":12352,"s.\n.SS ":12353,"sni":12354,"â":12355,"\\fR. Defaul":12356,", no ":12357,"ing.\n":12358,"to use the ":12359,"of all ":12360,"los":12361,"\" devices with ":12362,"proper ":12363,"umer":12364,"what the ":12365,"to\n.BR ":12366,"options.\n":12367,",\nSSSE3, SSE4.1":12368,"neover":12369,"are: \\fB":12370,"../":12371,"may also ":12372,"each":12373,"INTE":12374,"manually ":12375,"\\fR, \\fBck803":12376,"output.":12377,"address of a ":12378,"Example ":12379,"symspec":12380,"graphical ":12381,"ps2":12382,"local-":12383,", which first ":12384,"distribute":12385,"601":12386,", AVX512F":12387,"CPUs ":12388,"\": {\n\\&        ":12389,"things ":12390,"New ":12391,"interrupts":12392,"cov_":12393,"preceding ":12394,"skip_":12395,"ARC EM":12396,"for this chip":12397,"elimination ":12398,"your\n":12399,"at least one ":12400,"\"\nEmit ":12401,"Options\"\n.IP \\fB":12402,"marked as ":12403,"enumerated ":12404,"\\-guard\\-offset":12405,"unroll\\-":12406,"sifive\\-":12407,"planes will be ":12408,"synchroniz":12409,"GIMPLE ":12410,"transmis":12411,"TELNE":12412,"\na ":12413,"2b":12414,"BPF ":12415,"Gu":12416,"LY":12417,"Mi":12418,"card":12419,"i8":12420,"kin":12421,"ose":12422,"\\fB\\-e":12423,"\n.IP \\fB\\-\\-":12424,"light":12425,"        1":12426,"ity\n":12427,": GNU ":12428,"specifies that ":12429,"duction ":12430,"\\*(C'\\fR in ":12431,"pre\\-":12432,"expand ":12433,"output format":12434,"overhead":12435,"treat ":12436,"optimize ":12437,"writer":12438,"showing the ":12439,"large\\-":12440,"options>":12441,"warnings":12442,"EXEC":12443,"channels ":12444,"do not\n":12445,".\n.TP 4\n.B ":12446,"edit ":12447,"limits ":12448,"Char":12449,"provided, ":12450,"6888":12451,"fonts":12452,"\\fR,\n\\&\\fB\\-":12453,"armv9":12454,"PowerPC systems ":12455,"give a ":12456,"placement":12457,"EDIT":12458,"FR+":12459,"significantly ":12460,"\n.\tds ":12461,"capabilities ":12462," \\-vf ":12463,"iso9899:":12464,"FILTE":12465,"neoverse\\-":12466,"\n ":12467,",\n.IR ":12468,"5\\fR, \\fB":12469,"BE ":12470,"DV":12471,"Some":12472,"_x":12473,"b\n":12474,"ka":12475,"lh":12476,"pac":12477,"t\"\n":12478,", \\-":12479,", with ":12480,"secu":12481,".\n.S":12482,".\n.sp":12483,"\"\n\"":12484,"for that ":12485,"fork":12486,"that is, ":12487,"behave ":12488,"\\&.\n.SS \"":12489,"sizes ":12490,"dern ":12491,"DEN":12492,"\\*(C'\\fR.\n.Sp\n":12493,"have an ":12494,"scripts":12495,"stanti":12496,"ALI":12497,"terminated ":12498,"type \\f(CW\\*(C`":12499,"\\f[R]}: ":12500,"stipp":12501,"9999":12502,"Once ":12503,"tracker":12504,"pub/":12505,"Modif":12506,"invocation ":12507,". If not ":12508,"000000":12509,"\"\n.sp\nThe ":12510,"modules ":12511,"setting is ":12512,"sample rate":12513,"required for ":12514,"later version":12515,"perf_":12516,"Otherwise ":12517,"(see below":12518,"cases where ":12519,"qualifier":12520,"(x)":12521,"policy":12522,"Black":12523,"indicates that ":12524,"mechanism":12525,"dispatch":12526,"fourcc":12527,".\n.IP \\(bu ":12528,"\n.SH OPTIONS\n\\fB":12529,"Displays the ":12530,"XDG_":12531,"EXIT STATUS":12532,"\n\"":12533,").\n.Sp\n":12534,"77":12535,"8\n\\&        ":12536,"8)\n":12537,"<mode":12538,"=\\fR\n":12539,"DAM":12540,"GF":12541,"Identi":12542,"JVM ":12543,"ST ":12544,"cut":12545,"echo":12546,"hunk":12547,"rase ":12548,"toler":12549,"\\-op":12550,"\\-repor":12551,"amil":12552,"sibl":12553,"tion of the ":12554,"\\fIstring":12555,"probe ":12556,"ed.\n.IP \\fB":12557,"meta":12558,"options\\fR":12559,"\\fR\nfor ":12560,"finds ":12561,"datagram":12562,"\\fP is a ":12563,"sysv":12564,"\\-fl":12565,"s.  For ":12566,"all\\fR ":12567,"keystore ":12568,"\\*(C'\\fR, which ":12569,"portion":12570,"portable ":12571,"sub_":12572,"substanti":12573,"backslash ":12574,"MAC":12575,"\\[at":12576,"these options ":12577,"GNU extension":12578,"block_":12579,".\n\nIf ":12580,"set to 1":12581,"timestamps ":12582,"\n.TP\n.B +":12583,"while the ":12584,".4\" \"":12585,"True ":12586,"recognized":12587,"extract":12588,"\\s0":12589,"lavfi ":12590,"outside the ":12591,"horizontal and ":12592,"\\[rq]":12593,"\\fR\\m[]\\&\\s-2\\u":12594,"Solaris ":12595,"constraint":12596,"-offset indent":12597,"lectronic ":12598,"\n.\\\"\n.TH \"GIT\\-":12599,"(disable":12600,"2\\*(C'\\fR":12601,"Ima":12602,"Kee":12603,"Lab":12604,"Orac":12605,"Vim":12606,"_in":12607,"ares":12608,"b\\-":12609,"l.\n":12610,"min ":12611,"s.\n.IP \"":12612,"\\fR)\n":12613,"\\fBt":12614,"demo":12615,"to that ":12616,"amo":12617,"site ":12618,"libu":12619,"assi":12620,"as\nthe ":12621,"edge":12622,"as specified ":12623,"that has ":12624,"This flag ":12625,"complic":12626,"of the linker":12627,"etch":12628,"\n.RS 4\n.IP \\fB":12629," \\-o ":12630,"use it ":12631,"use the\n":12632,"of\n.B ":12633,"preprocessing":12634,"general-":12635,"times the ":12636,"bits":12637,"reflec":12638,"bugs to ":12639,"filtergraph ":12640,"containing a ":12641,"targets.  ":12642,"100:":12643,"\\fR]\n     [\\fB\\-":12644,"like \\fB":12645,"\n.PP\n\\&\\fI":12646,"set to \\fB":12647,"enabled.\n.IP \\fB":12648,"MOTE":12649,"amount ":12650,"VIA ":12651,"add a ":12652,"\":\"":12653,"additional\n":12654,"common sub":12655,"mangled ":12656,"volatile ":12657,"keep the ":12658,"strength ":12659,"dialect":12660,"broad":12661,"bundle ":12662,"assumed to be ":12663,"(default: ":12664,"yuv420p":12665,"does\nnot ":12666,"(see":12667,"-info":12668,"-ratio":12669,".example.com":12670,"3:":12671,"=name":12672,"Mer":12673,"Used in ":12674,"\\.\n.IP \"":12675,"k-":12676,"nat":12677,"sent":12678,"represent ":12679,"the following ":12680,"\\fB\\-t":12681,"ing (":12682,"cont":12683,"profi":12684,".\nThe":12685,"fore, ":12686,"ate-":12687,"\\f(CW\\*(C`main":12688,"c foo.":12689,"amplit":12690,"C (":12691,"sections=":12692,"=\\fR\\fIpath":12693,"=\\fR\\fIoffset":12694,"system\n":12695,"upstream ":12696,"\\fR, \\fBr":12697,"render ":12698,"Enabling ":12699,"fixed\\-":12700,"other word":12701,"10.0":12702,"examples ":12703,"range\n":12704,"hello":12705,"variables are ":12706,"\\fR]\n   [\\fB\\-m":12707,"new-":12708,"MESS":12709,"return\\-":12710,"scalar":12711,"call to ":12712,"\" 4\n.el .IP \"":12713,".\nThis warning ":12714,"FILE\n":12715,"assuming ":12716,"LIM":12717,"cache-":12718,". Default is 1":12719,"\", \" ":12720,"performing ":12721,"\n.Sq ":12722,"mix, m":12723,"\\fR,\nwhich ":12724,"discard":12725,"LZMA ":12726,"propq":12727,"dictionary":12728,"repeated ":12729,"easily ":12730,"easier to ":12731,"~/.ssh/":12732,"LZMA2 ":12733,"2nd ":12734,"comma separated ":12735,"family of ":12736,"LICENSE ":12737,"roughly ":12738,"GPL version ":12739,"amplitu":12740,"-div":12741,"Emit ":12742,"aes":12743,"bad ":12744,"gb":12745,"lanczo":12746,"none ":12747,"rename":12748,"env":12749,"\\fR 4":12750,"of its ":12751,"unset ":12752,"an optional ":12753,"as it ":12754,"as if ":12755,"towards ":12756,"caret":12757," \\-b":12758,"the\n\\&\\fB\\-m":12759,"used as a ":12760,"the\ncompiler ":12761,"\n.IP \"\\-":12762,"ds of ":12763,"varia":12764,"\\-foo":12765,"2011":12766,"\\*(C'\\fR.  This ":12767,"\\*(C'\\fR, and ":12768,"Initi":12769,"output\\-":12770,"> [<":12771,"matching the ":12772,"\"\nThe minimum ":12773,"top-":12774,"\\fR\n.RS 4\nUse ":12775,"compile-":12776,"blocks ":12777,"control flow ":12778,"because":12779,"ally, the ":12780,"result in a ":12781,"change in ":12782,"WARRAN":12783,"256\\-":12784,"calculation":12785,"provide a ":12786,"BSD ":12787,"to generate the ":12788,"unaligned ":12789,"flip":12790,"\\fR \\fIfile\\fR\" ":12791,"2024\" \"":12792,"join":12793,"Documentation ":12794,"vulkan":12795,"obtain a ":12796,"\" 4\n.\n.nf\n\n":12797,"WARRANTI":12798,"' and ":12799,"-reg":12800,".gnu.org/":12801,"4k":12802,"7\\fR, \\fB":12803,"9-1":12804,">\"\n.PD 0":12805,"Host":12806,"Ra":12807,"care ":12808,"dx":12809,"lut":12810,"s\"\nSet the ":12811,"ani":12812,"another":12813,"aram":12814,"\n\\&\\fB\\-O":12815,"ffmpeg ":12816,"compla":12817,"to\n\\&\\fI":12818,"cally\n":12819,"RE_":12820,"in the output":12821,"ter the ":12822,"\\&. A ":12823,"code generated ":12824,"out a ":12825,"with\n\\&\\fB\\-m":12826,"quick":12827,"\\f[R] [":12828,"insensi":12829,"stream\n":12830,"s.\nThis is ":12831,"multi\\-":12832,"\\fR\\|(7":12833,"generated code ":12834,"gnu-":12835,"linker to ":12836,"crop":12837,"           22222":12838,"shared libraries":12839,"identity ":12840,"describe ":12841,"tls-":12842,"TLS_":12843,"suppresses ":12844,"unused-":12845,"68000":12846,"Control":12847,"leave ":12848,"\"\nReplac":12849,"probabilities":12850,"\nand\n.B ":12851,"\\f[V]-XX:+":12852,"hidden ":12853,"decoding/":12854,"major":12855,".  For\n":12856,"INCLUDE":12857,"width and height":12858,"turns off ":12859,"found, ":12860,"bfdname":12861,"NetworkManag":12862,"(n":12863,".d":12864,".16":12865,".so":12866,"50 ":12867,"Can":12868,"Cal":12869,"Em ":12870,"Electronic ":12871,"Here is ":12872,"NAME ":12873,"Sta":12874,"_level":12875,"iec":12876,"|\n":12877,"\n.\n.SS \"":12878,"\\fBm":12879,", SG":12880,"acc\\-":12881,"\\f(CW_\\|_":12882,"on each ":12883,"on by default":12884,"that supports ":12885,"not to ":12886,"used in the ":12887,"\\fP(1) ":12888,"\\fP=0":12889,".\n.TS\n":12890,"s.  If ":12891,"program and ":12892,"liba":12893,"bility ":12894,"have to be ":12895,"sources ":12896,"terminate":12897,"prime":12898,"debug\n":12899,"directory is ":12900,"headers":12901,"stack frame ":12902,"\\fR(1)\n":12903,"\\fR or higher":12904,"cross ":12905,"menu":12906,"enable it":12907,"grub":12908,". If a ":12909,"removed\n":12910,"pixel format":12911,"titles":12912,"'\\\"\n.":12913,"unless you ":12914,"\"\n.IP \\fB\\-mp":12915,"notes ":12916,"T}\n\n":12917,"capability ":12918,"\\fR=\\fI\\,[":12919,". This\n":12920,"exceed ":12921,"translation unit":12922,"magnitude ":12923,"\\-frame\\-pointer":12924,"\n.fi\n.sp\n.SH \"":12925,"*bx":12926,"-madd":12927,".x":12928,".0 ":12929,".25":12930,".debug_":12931,"3DN":12932,"=\\f[R]\\f[I]":12933,"R\n":12934,"Ste":12935,"X11":12936,"d2\\*(C'\\fR, ":12937,"f4\\*(C'\\fR, ":12938,"i\n":12939,"usion":12940,"zlib":12941,"anom":12942,"team":12943,"deallocation":12944," \\-map":12945,"par*bx":12946,"SH4\\-":12947,"behav":12948,"of\n.BR ":12949,"\\fP\\&.\n.":12950,"-fsched-":12951,"-factor":12952,"-fdiagnostics-":12953,"=\\fR\\fIbyte-size":12954,"\"\n.PD\nOn ":12955,"\"\nSet output ":12956,"; // ":12957,"ARIS":12958,"path\n":12959,"range-list":12960,"allowing ":12961,"time of the ":12962,"data segment":12963,"list\n":12964,"analyzer-max-":12965,"matching":12966,"gcse":12967,"only)\"\nWarn ":12968,"arm9":12969,"headers and ":12970,"alloc\\-":12971,"contents":12972,"planes to ":12973,"ck810":12974,"  \\-fno\\-":12975,"zip\n":12976,"hwdownload":12977,"p\\-contrac":12978,"support.\n(":12979,"expected":12980,"pdfdest ":12981,"if you are ":12982,"680x":12983,"68060":12984,"looking ":12985,"labels!":12986,", for example, ":12987,"present in ":12988,"PKU":12989,"filenames":12990,"arithmi":12991,"\\fR and\n\\&\\fB\\-f":12992,"\\\\n[rr_n] ":12993,"Audio":12994,"+nocrypto":12995,"ARC H":12996,"drawing ":12997,".pem":12998,"creates a ":12999,"vrp":13000,"deprecated in ":13001,"fast\\-math":13002,"\n.TP\n.I ":13003,"data\\-spec":13004,"\n.nr rr_":13005,"pdfmark \"":13006,"struct\\-debug\\-":13007,"DQ, AVX512":13008,"major ":13009,"\\fR \\fIname\\fR\" ":13010,"cond\\-exec":13011,"rtmp_":13012,"twice":13013,"journal":13014,"situation":13015,"exponenti":13016,"D'l ":13017,", RDSEED, ADCX":13018,"i8mm":13019,"\\[at]":13020,"3DNow":13021,"support.\n(No ":13022,"/D":13023,"2a":13024,"Do ":13025,"Tw":13026,"VA":13027,"ZIP ":13028,"_key":13029,"gins":13030,"n]":13031,"nv":13032,"uid ":13033,"ze ":13034,"inf":13035,"\\-\\^\\-":13036,"\\fBgit-":13037,"ster ":13038,"or --":13039,"opposi":13040,"wise":13041,"unifi":13042,"convol":13043,".  Permissible ":13044,".\nThese ":13045,".\nNote that ":13046,"edor":13047,"perm":13048,"person":13049,"to the extent ":13050,"word\n":13051,"frames are ":13052,"modes ":13053,"if(":13054,"for the \\fB":13055,"upstream":13056,"setup ":13057,"compressing ":13058,"origin ":13059,"list the ":13060,"variables":13061,"-Wformat-":13062,"diagon":13063,"without any ":13064,"\\ \\fI":13065,"form of ":13066,"...\n\\&          ":13067,"they are not ":13068,"null-":13069,"rr_labels!":13070,"AT&":13071,"result of the ":13072,"themsel":13073,"width of the ":13074,".\n.\n.\n.\\\" ":13075,"cost\\-":13076,"in which case ":13077,"usage message ":13078,"image\n":13079,"\\fR, \\fB\\-O2":13080,"vectorized ":13081,"[0]":13082,"\n.PP\n\\fB-":13083,"serial":13084,"alloc (":13085,"License GPL":13086,"strategy ":13087,"permitted by ":13088,"Dark":13089,"propagation ":13090,"consists of ":13091,"code in which a\n":13092,"coordinate":13093,"openmp\\-":13094,"\\\\n[rr_i]":13095,"Depending ":13096,"2025-09-1":13097,"\n.sp\n.nf\n\\fIgit ":13098,"(I) ":13099,"-fipa-":13100,".)\n":13101,"480":13102,"430":13103,"Be ":13104,"LON":13105,"dct":13106,"te is ":13107,", L":13108,"deinterlac":13109,"a string ":13110,"for SH4\\-":13111,"S 1":13112,",\nso ":13113,"s, this ":13114,"\\fP\\fI":13115,"\\fP[=\\fI":13116,"interac":13117,"int *":13118,"   :   X  ":13119,"namespaces":13120,"input to ":13121,"value \\fB":13122,"value to ":13123,"0 is ":13124,"\\fR \\fInum":13125,"each channel ":13126,"firm":13127,"\n.\\\"\t":13128,"some other ":13129,"contained ":13130,"string\\-":13131,"certain":13132,"2.6":13133,"generate a ":13134,"recording ":13135,"assumes ":13136,"present, ":13137,"message is ":13138,"Motion ":13139,"instances ":13140,"memory-":13141,"otherwise the ":13142,"\n.ft CW":13143,"recognize ":13144,"targets that ":13145,"environment\n":13146,"By default the ":13147,"operator new":13148,".png":13149,". The\n":13150,"assume that ":13151,"Reserv":13152,"Filter":13153,"POSIX":13154,"\\-boundary":13155,"Start ":13156,"framerate ":13157,"inhibit":13158,"shift\\-count\\-":13159,"schedule\\-insns":13160,"deprecated\\-":13161,"va\\-list\\-":13162,"\\fR]\n[\\c":13163,"01":13164,"GEN":13165,"NON":13166,"Ro":13167,"SM":13168,"YPE":13169,"[i":13170,"\\`":13171,"ler ":13172,"rsync":13173,"s where ":13174,"\\-index":13175,"\\fR.\n.RE":13176,"ablish":13177,"matic":13178,"consecu":13179,"at your ":13180,"ribu":13181,"The Open ":13182,"\\f(CW\\*(C`malloc":13183,"ely\n":13184,"-mlittle-endian":13185,"-mbig-endian":13186,"s, c":13187,"s\n\n":13188,"of\n\\&\\f(CW\\*(C`":13189,"\\(r":13190,"signer":13191,"http_":13192,"space is ":13193,"enabled by\n":13194,"Refer":13195,"] [ \\-":13196,".\n.TP\n.BR ":13197,"assumes that ":13198,"patterns ":13199,"searches ":13200,"by default, ":13201,"left and ":13202,"get a ":13203,"removes ":13204,"computation":13205,"described in ":13206,"static\n":13207,"round-":13208,"0 to 1":13209,"trailer":13210,"vaapi":13211,"\n.Nm":13212,"_fmt":13213,"fronten":13214,"slot":13215,"JPEG ":13216,"bracket":13217,"exposure":13218,".\n.TP\n.BI \\-\\-":13219,"2023-":13220,"belong":13221,"[\\fI\\,OPTION":13222,"65535":13223,"Codec ":13224,"penal":13225,"Green":13226,"Event: ":13227,"NO WARRANTY, ":13228,"DAMAGE":13229,"permitted by law":13230,"),\n\\fB":13231,"+: GNU ":13232,"=\\fR\\fB":13233,"June ":13234,"NAN ":13235,"Wget ":13236,"_E":13237,"clob":13238,"nl":13239,"influ":13240,"\\fR:\n.Sp\n.Vb 1":13241,"\\fBgcc":13242,"enum ":13243,"deint":13244,"rop":13245,"abort":13246,"The\n\\fB":13247,"\"\nMak":13248,". You ":13249,"at compile ":13250,"url ":13251,"use) ":13252,"ffplay":13253,"of the same ":13254,"special\n":13255,"\\fR\noption is ":13256,": you are ":13257,".\n.IP \\fBs":13258,"\\&. It is ":13259,"sck":13260,"supposed ":13261,"piec":13262,"\\*(C'\\fR.\n.RE":13263,"ssl":13264,"caller ":13265,"16\\-bit":13266,"is\nenabled by ":13267,"store the ":13268,"current":13269,"check-":13270,"ORI":13271,"effectively ":13272,"arguments, ":13273,"s\\-debug\\-":13274,"s. If ":13275,"current working ":13276,"duration of the ":13277,"frame.\n.IP \\fB":13278,"taking ":13279,"stream is ":13280,"is the same ":13281,"threshold, ":13282,"\\e,":13283,"exists and ":13284,"sample_":13285,"those that ":13286,"local variable ":13287,"utils":13288,"RITE":13289,"seconds, ":13290,"attempting to ":13291,"code that is ":13292,"MIME ":13293,"mount":13294,"extracted ":13295,"immediate ":13296,"around the ":13297,"wave":13298,"free to change ":13299,">]\n.RS 4\n":13300,"GOT":13301,"distribute it":13302,"digits ":13303,"applicable ":13304,"240m":13305,"children":13306,"shall be ":13307,"Ghostscript ":13308,"acceler":13309,"i386 PE ":13310,"width_type, ":13311,"Whether ":13312,"The Open Gro":13313,"%(":13314,").\n.IP ":13315,"/<":13316,"Don":13317,"DATE":13318,"Port":13319,"[This option is ":13320,"f9":13321,"hints ":13322,"narrow":13323,"t]":13324,"ync":13325,"|      |":13326,"\\fBcommand":13327,"\\fInot":13328,"unless\n":13329,".  All ":13330,"\\f(CW$":13331,"sudo":13332,"not all ":13333,"share ":13334,",\nand the ":13335,": The ":13336,"when an ":13337,"\\&.c":13338,"\n.RS 4\n\\%":13339,"impo":13340,"errone":13341,"version and exit":13342,"range, ":13343,"standards ":13344,"Added ":13345,"\\f[R]\n.fi":13346,"layer":13347,"help\n":13348,"largest ":13349,".\n.TP\n\\-":13350,"instead of a ":13351,"include\\-":13352,".  Thus":13353,"enabled, the ":13354,"boundaries":13355,"Like":13356,"x86_":13357,"still be ":13358,"verbose\\-":13359,"operation is ":13360,"single-threaded ":13361,"<\\fBhttp://":13362,", you must ":13363,"Quer":13364,"backwards ":13365," 1 1 1 1":13366,"Tool":13367,"Emacs ":13368,"fragment":13369,"programming ":13370,"degrees ":13371,"GDB ":13372,"camera ":13373,"HEAD ":13374,"DISPLAY":13375,"\n.Bd -literal ":13376,
[...]
